  t
  a
h e
i n
r e
 t he
o n
e r
  s
  w
a t
  o
e n
  c
i t
i s
a n
o r
  b
e s
e d
  f
in g
  p
o u
 a n
a l
 t o
a r
  m
  in
 o f
  h
  d
� �
a s
i c
 an d
 t h
l e
o m
i on
l l
en t
  n
  l
  re
s t
v e
  e
l y
r o
 b e
  g
i d
u t
a c
o t
  T
  I
 th at
  on
a y
  S
  is
e t
i m
a m
a d
o w
s e
i g
 f or
� �
  A
v er
u r
c t
l d
  C
  u
 s t
  y
  it
  he
i r
at ion
it h
 w h
  M
c e
t er
o l
 w e
i l
 w ith
 a s
  B
c h
i ll
n d
  P
 w as
er s
 y ou
k e
  �
 c on
 d e
  r
he r
i f
at e
a g
 a t
 h a
  W
 s e
  H
o re
 p ro
u l
p p
m ent
r i
 a re
  D
  1
u s
es t
is t
 c om
an d
  R
o p
a in
 T he
  2
ig h
r om
  (
or t
o d
 n e
  F
u m
u n
 e x
re s
a b
� �
 n ot
  N
  v
es s
 ha ve
it y
e m
ou ld
 o r
t h
 b y
o s
an t
  G
i ve
 f rom
 a l
e l
' s
o c
ar t
 s u
  L
 s h
 th is
n t
q u
igh t
p e
u st
  le
i es
  E
en d
 c h
 s a
ou t
 a b
T he
al l
i e
ac k
re d
0 0
 � �
 h as
al ly
  J
 p l
 g o
ar d
i v
 h is
om e
a p
o st
g h
e ar
  O
 t r
ou r
as t
  j
a k
u d
 d o
 the y
 b ut
 w or
r ou
 c an
g e
 w ill
 sa id
 w he
  U
  k
ic h
 a ll
o k
  "
id e
 wh o
 in t
am e
an s
t her
i al
 o ut
f f
 the ir
on g
e ct
p l
ic e
u re
p t
on e
 m ore
ag e
ion s
ac t
i ke
 m e
 u p
ou s
in e
 a d
 ab out
at ed
r a
b er
 on e
 we re
 s o
 u s
im e
o g
  K
e p
i a
 h ad
a re
u b
c c
 w ould
 c l
 2 0
  im
 wh ich
in d
u e
a ke
 con t
i z
ver y
 a g
 t e
 of f
 com p
 u n
 be en
 S t
s o
  en
p er
ig n
a u
 T h
ar y
ac e
 y ear
i p
e w
 l ike
e re
v en
o ok
 in c
ay s
 m an
 p e
r y
o se
 re s
ab le
it e
 p er
as s
or d
 s p
i re
 I n
 o ther
m er
 s ome
i le
i b
en ce
op le
 20 1
k s
ation s
 o ver
ic al
 the re
res s
 d is
ul t
in t
 ne w
ow n
 al so
 th an
 a r
 be c
r u
 the m
an ce
ou nt
ou gh
 a pp
p ort
a il
 p art
 you r
 whe n
re e
 wh at
or m
on d
 pe ople
f ter
 s c
 C h
a v
as e
  qu
 an y
 j ust
 it s
  Y
ac h
 t ime
 I t
 k n
 he r
  3
en s
l ic
 re c
re at
 m y
 g et
  if
  V
i an
. ”
 int o
ou nd
 wor k
 t w
ir st
ve l
ct ion
 n o
d u
ing s
or y
ic k
or s
 o ur
it ion
id ent
o b
  -
 p re
o ve
 pl ay
an g
in k
au se
w n
am p
t e
ad e
h ing
at es
ar k
  ro
 p ol
 s he
ver s
 c o
, ”
 a fter
 f irst
 c ould
 h ow
 H e
n e
 1 9
i ous
nd er
i ld
 a cc
 h im
a w
' t
on s
 p o
 on ly
 f e
 at t
ic t
he d
 p r
 tw o
r it
o v
is h
 com m
� �
f orm
 s pe
 a ct
w e
er v
 b l
f t
 be t
 de c
. "
n ing
 b ack
 m ost
c es
o od
c k
 � �
 a m
o y
 d id
rou gh
if f
at er
rou nd
 ag ain
  4
u al
d ay
is e
 u nder
 d es
 w ant
u ll
se l
 con s
 � �
. .
 bec ause
 n ow
l ud
ent s
 year s
m an
ter n
ub lic
e c
 ne ed
 e ven
  $
is s
 in v
 kn ow
 W e
 se e
ment s
c ed
 ad d
, "
t ing
o ld
 in d
 se c
f ore
u ch
 e very
ur n
  5
 su pp
 m ake
pe ct
 U n
 e m
 the se
oc k
o ll
 whe re
j ect
I n
ation al
ver n
x t
 b u
 l ook
T h
 A nd
os s
 d on
 e v
um p
at ing
 w ay
 be ing
 re m
 r ight
i ly
 m ay
n g
ro w
le ct
ie w
 the n
 man y
  [
 d iff
 de f
as on
 re l
 c all
 B ut
 T r
on t
i ed
l es
as ed
 inc lud
 th ink
ak ing
 re g
) .
mer ic
 im p
 th rough
at h
it ed
ri b
 s y
 sh ould
 p res
 s ay
e ll
 f l
ur ing
 l ast
 th ose
ow er
  very
t y
ot her
 m uch
it ies
if ic
 st ate
 Th is
at ive
 sh ow
t le
he n
 b r
s s
ar g
 we ll
ot h
 p h
 W h
 c ount
al s
u nd
 2 00
 do es
 d own
 o wn
ar ly
  end
 as s
 be l
 u se
ic s
an ge
- -
t s
 l ong
 A meric
ter s
in ce
 be fore
om et
g r
 m on
w ard
 go vern
 st art
 re port
ib le
  ke
u p
u es
 N ew
 f in
 te am
b le
 m ade
if e
ol og
en er
) ,
 su ch
re n
c om
ou n
ers on
e k
i x
 s m
� �
l p
il ity
 go ing
is m
f ul
 wor ld
u ally
 st ud
ist s
 go od
 a c
t ain
I t
 su b
 e ff
 s ur
 again st
it s
 g ame
 s et
or k
  6
 g u
 po int
  ent
y s
00 0
g an
ar s
l i
st em
 pro v
 st ill
rou p
 wh ile
ill ion
 he lp
 le ad
 m in
we en
e f
a x
an k
al k
im es
 s ays
 o b
m s
c y
 pro du
 g r
 in ter
 in st
 st r
c ess
 s im
i o
sel f
 con f
 c ol
 t ake
u res
ar ch
 s ame
 th ough
 bet ween
oll ow
 off ic
e ver
 c r
 diff ere
o ol
us s
ut ion
l and
 dis c
a ir
 o p
a h
  ed
 h igh
re ad
 n um
 l aw
 s ign
w ay
 govern ment
g g
 R e
l ed
n er
h ip
at ch
he s
am es
an y
 t er
 s omet
c ent
vel op
t ed
W e
 re f
 tr ans
t en
 in s
 r un
 s er
 f ound
 th ree
iv es
a ve
 m em
 a round
 he re
at her
 m ed
 re al
 us ed
ou se
 1 0
v ed
 ex p
a z
 A r
ce pt
o ot
 sy stem
 Y ou
c i
 re ally
 m od
v ing
c on
c er
 g roup
 supp ort
  7
 c our
et s
al e
in s
 re t
 h and
 p ublic
 spe c
p r
 L e
y ing
 g reat
 c ar
en se
 ex t
. [
t on
ire ct
 c ur
 f am
 C om
al th
 ha pp
 f act
p h
 ex per
 The y
 Tr ump
 f r
 w om
 I s
 c ap
 b oth
 d ay
 f ind
 A l
ul ar
 re ad
in es
o h
ic es
 d et
 l it
 s l
 re p
ut h
e red
 d uring
 S h
 A s
  0
 s erv
 mon th
m in
t he
is ion
 c re
 de velop
 b ig
  8
 p erson
ak es
 f ollow
 C l
 is s
e x
 to ld
 s ince
a red
m ed
ic ally
 we ek
ag es
i vers
 w ar
 f ew
ort h
ord ing
 c ent
 le g
a j
g et
 pol it
v es
as h
 ex pl
 l ot
r ic
 S e
 bel ie
 g ener
 to o
  9
d er
at a
re nt
 o pp
W h
 re qu
 cont in
 pro t
i et
b ers
an c
 f il
ent ion
n ess
 c le
 res p
 p ut
iz ed
 I f
 an other
2 0
ch ool
 in f
 somet hing
 D e
 differe nt
 c or
 l oc
ut e
 inv est
 s oc
 p ower
 c he
u c
  '
 p ass
 comm un
 l ife
 F r
 pl an
od y
 re le
i ence
 he ad
 th ings
n ed
 f ar
 ar t
 p oss
 m et
th ing
o x
ere st
 c amp
ro ss
ar ge
 v ot
i er
Th is
v iew
 ch ild
ant s
 as k
  .
 m ight
 e ach
iz e
in ess
 de p
 ne ver
 ne xt
i k
ie ld
 sec ond
 m ark
t t
 qu est
 b us
 ad v
 A n
 de m
 F or
 com e
 g ot
 � �
 op en
 b est
i ent
it al
 all ow
 Th at
r at
 se em
 p ost
p le
n ce
 fe el
 P ro
 U S
u g
 p ri
gr am
 per cent
c l
 h ome
 d ist
 d irect
i red
 inc re
 cont ro
 R ep
s on
or n
l ess
os ed
 res ult
 h ard
 c are
ate ly
 m illion
ch n
 comp le
 pl ace
 with out
 in form
 includ ing
 im port
 a v
con om
 h um
  ide
 pro ble
 bu ild
 to p
am a
 num ber
 count ry
g y
one y
a im
 B l
re t
r al
ab ly
u ro
 st and
 g l
 e l
ri end
 f our
is hed
w ays
 part ic
 bet ter
 t ri
B ut
 rec ent
 int erest
 m ov
 le t
c o
r ation
 se ason
 l ess
e ad
 t urn
 lit tle
 be h
 m il
 app ro
r act
l ine
 b ro
l ing
is ed
 call ed
a pp
1 0
 c ase
 d r
 I nd
 re st
 le ft
 p op
 an n
  Z
en cy
od e
 m ove
 att ack
in a
 The re
 ke ep
 f ull
er ing
 did n
b e
 f un
 m ain
aj or
_ _
 eff ect
in al
le g
 pre v
 pro gram
 us ing
 t est
re m
 p ay
at ure
 e ar
t o
 v al
 pol ice
 w rit
 for m
 e conom
 d ata
 new s
 p os
 w in
 Americ an
 le vel
 s it
 ch ar
ain s
iv ing
u ck
 sm all
in ed
read y
H e
 s chool
 l ist
olog y
r ap
id ed
m it
pl oy
' re
g er
 e as
 pro cess
ir d
 ch ange
 wom en
 cur rent
 re ce
 p rom
 h ist
 d ri
  =
i ans
re en
 pres ident
 comp any
 S o
us ed
 m at
ru ct
 al ready
oh n
 Un ited
w it
 t y
 wh y
 b re
 u nt
 m oney
 s ol
 al ways
 l ater
 ex pect
 te chn
 bus iness
 H ow
 offic ial
r on
  Q
 O b
st and
ivers ity
 b o
 b ook
 P h
a ign
 th ing
 cl ass
 pro ject
as es
 cl aim
 j ob
 inform ation
 or gan
a ff
 S he
ard s
 t alk
 B e
 des ign
 st ory
 ch ang
 m ajor
 ab le
 pro f
 - -
.. .
le ction
iv en
er tain
 re se
 he alth
 v is
 p ast
ur s
 f ree
ou th
he re
 A d
 o per
pt ion
 a way
i or
 C an
 m ust
 c ity
amp le
r ist
s c
ur al
 happ en
uth or
 1 8
 import ant
ac y
ur ity
 k ill
 s k
  est
u red
 o ld
 p at
ur y
end ing
 does n
iss ion
 le ast
 g row
 ed it
 v ar
ain ed
S t
 c ost
 G o
ne y
id er
id es
el s
 d ays
 te ll
 h op
 st re
 camp aign
s ide
 1 2
 m en
 c ame
 a ff
 con st
res ident
 en ough
 v iew
cc ess
 k ind
 M ar
o ad
 S p
er n
 m aking
 l arge
 rec ord
5 0
us h
 f riend
 m ar
 fam ily
� �
le y
 e lect
er al
 pol ic
 t ax
is ing
b y
pp ed
al ity
at or
if ied
A s
iv ed
are nt
r or
 unt il
e e
ion al
 polit ical
 v ide
 de al
ri es
al f
au gh
  ve
 work ing
u ed
 Rep ublic
 to ok
 de b
b s
I f
is ter
 l ine
 J ohn
ain ing
 a ir
-- --
  es
 in tern
 f ore
i ol
an e
oc rat
 bec ome
 act ually
ap s
on y
 me an
w ork
 f und
 S c
w are
1 9
em ber
 P l
 for mer
 of ten
 E uro
ot t
an n
 w on
 g ive
o int
 acc ording
 e ver
m ost
en g
y ear
w h
ar ing
 g ames
is on
 hum an
 b as
 wor d
iz ation
 ret urn
 t imes
 or der
 R uss
 b it
 D em
 n ame
1 1
 se ver
 A ll
 de v
ic le
ut ure
f or
it her
i qu
 p ar
 19 9
 M c
 w r
 C on
ra ft
 s ing
 per form
 S y
id d
 mark et
 f ac
 char ac
The re
 O r
 A t
 M ay
 r a
 do ing
 app ear
E R
c hed
 play ers
 l a
 n ight
 le ar
ak en
ro p
at s
m ber
 to day
 e arly
 1 5
 se en
/ /
 ha ving
  ,
 p ot
 child ren
 ev ent
 med ia
 soc ial
 c rit
 P resident
 whe ther
 sever al
 contro l
id ence
 me et
s h
 mil it
 p ress
 w ent
art ment
en e
 f ive
 you ng
or ies
 su re
 pro p
ious ly
 e qu
 be g
 quest ion
 o cc
 like ly
ver t
un e
 mem bers
b r
and s
 c ertain
i um
 en g
 w ater
 Y ork
 ex ample
ot s
 C ol
 ar g
 s ide
 an t
 d one
en n
  vers
 inv ol
 M r
 St ates
 Euro pe
end ed
le t
 al ong
 sh ort
 su ccess
ent ial
 month s
b all
 h our
 1 1
 se x
i ver
i ally
A nd
l f
em pt
 with in
 des c
im ate
 cour se
 f ight
st er
ur ch
ub l
 am ong
 act iv
u ff
� �
ag ue
 on ce
 f uture
 invest ig
ul ation
re w
 poss ible
 Ob ama
 ch o
n ect
 under stand
it ing
 con cer
 O n
  ]
on es
ort un
 proble m
 B r
 pri v
 me ans
 v iol
 C ar
 a uthor
it ive
 N o
gg est
 av ail
oc i
our n
m y
 kn own
 produ ct
 n on
iv id
 though t
 y et
g ress
 ac ross
 prot ect
 loc al
al d
l er
 h old
 T e
 f ail
in c
 W hen
 St ate
 commun ity
 re ason
 or ig
 su ggest
  &
1 2
 m akes
ver age
n ot
p or
b ack
 201 6
  i
b ook
 ask ed
ed eral
or ld
 report ed
Y ou
ag ed
ens ive
 g iven
 str ong
 pro b
 m us
 other s
 belie ve
 vide o
i ber
 b en
 get ting
 H ouse
an ces
 ann oun
 l ight
ore d
o ber
 Un iversity
 3 0
 C o
it ions
  ident
ir on
 s ent
 c ut
 l im
 c a
 Ch rist
iet y
3 0
ur ther
 s our
 c reat
 con d
  X
re st
am s
' ve
 n et
as hing
 b at
am ent
 n ational
. ,
 cl ose
ar m
 start ed
 sa f
 de ath
as ter
 avail able
 h ig
F or
 b ased
 iss ue
o f
 ind ust
 Dem ocrat
 M in
 l ow
 follow ing
res ent
 acc ount
 l and
u se
 C ent
 em ploy
 l ove
 201 5
  #
 hist ory
 ag o
ort s
sel ves
 m om
 part y
 A m
ab ility
e b
 ser ies
 com es
 tr ying
u ly
ut es
 al most
get her
u ment
 to gether
in ation
A T
 Americ a
 ide a
p ro
ie f
 acc ess
 f oc
her s
il ar
 F l
re ed
ail s
 comm it
ition al
 is n
 S en
 cle ar
 1 6
 O ne
 tr ad
th ough
r ing
 Wh at
 pr act
 add ed
 imp ro
 exper ience
ere nce
 fil m
1 5
 h alf
ust om
g ed
 h it
a f
 B ro
wit ter
r ict
 an al
int on
og rap
un ch
 201 4
 r ul
ivid ual
 look ing
 s ix
 l ive
 any thing
 are a
 comple te
er man
min ist
 m iss
ra el
 Com m
 E x
 f av
 r is
n es
a i
 pres ent
ot e
ru g
 say ing
ra w
a id
 Can ad
 v ict
I N
ci ally
 b ad
ow s
u ge
 t aken
 ent ire
ot o
 P r
at ors
e v
 b ill
 comp et
 E ng
 m or
 beh ind
i en
 a ut
 T o
' m
 cour t
pl ay
 tr y
 milit ary
  z
 ne ar
os p
 m ult
Wh at
 f ace
ward s
  er
 1 4
 sec urity
 P ol
s y
 pro per
 disc uss
 th reat
 to t
 stud y
er t
 sing le
 r ather
 ind ividual
 A f
 B rit
 W ar
  �
tt p
 qu ick
 D on
 m ind
 S ec
le ment
al es
am ed
at ic
A n
 N orth
ap er
 p ubl
 polic y
 m ess
r is
p ar
 bl ack
 want ed
 f all
ir c
* *
o ff
 f ood
 s um
 some one
ll ing
id s
O n
  |
  /
 c ult
 spec ial
 com b
 ke y
 M an
 play er
 re du
 G r
 br ing
 1 3
 comp an
 1 7
p ly
 D ep
 att empt
 N ational
 t aking
 B ar
W hen
O N
if y
ol ution
  :
v iron
 f oot
 C al
: //
 el se
 pre t
 b ody
 sp ace
el t
ro te
o ver
d d
 prob ably
1 6
ic ult
. )
 fr ont
 c ou
 not hing
 I m
 s w
ashing ton
 con nect
c hes
 W orld
 rese arch
1 4
 Cl inton
 C ity
m ing
 com ing
 point s
 Is rael
 how ever
R E
 desc rib
 j o
g o
 sign ific
 sim ilar
y n
rem e
c ing
 ben ef
li er
 A ust
 im m
 dec ision
 e ither
ac es
 c oun
a ult
S o
 m ass
 H ar
 s us
 t arg
ull y
an a
 fe at
Th at
 con v
 ex ist
ir l
 en c
 201 3
 right s
 serv ice
un g
 S u
as ing
s w
I S
 f ire
 d oc
 w rote
 f urther
 h ouse
ro du
 f ig
 ch all
w w
 b an
 th ird
m b
 w a
 cre ate
 st op
 f ield
n ow
 p ick
A N
a pe
ive ly
 me as
 re pl
 com pl
 W ith
 iss ues
pp ing
 beg in
 su per
am er
 st ep
ri ed
e al
ent ly
 who le
 rel ations
 seem s
  )
 compan ies
pe cially
 d ue
 ex ec
 c and
 every thing
 f ederal
 G u
 st ates
 e y
 ro om
a ul
 tr a
 w atch
o on
 G e
 c ustom
 lead ers
1 3
u ation
 How ever
p ite
 J an
 W ashington
C h
l am
 se lf
 ro le
r an
il t
 s ound
 l ab
at t
he ad
 d am
iv il
 official s
 st ri
 201 2
 t re
id ay
ib ility
 rele ased
l u
 In st
 be gan
 D av
 A pp
 S outh
 o pt
ob al
 stud ents
 t reat
 fin al
 charac ter
 pos ition
 mat ter
� �
end er
 en er
l im
 out side
er y
se c
ad es
 d ou
viron ment
 develop ment
 state ment
 him self
 201 7
 ab ove
l ike
 st at
 in it
 bre ak
 1 00
 am ount
 prov ide
 hour s
 it self
 them selves
 off ice
 rep resent
 a ction
 P art
 d i
 bec ame
 19 8
 gener al
 contin ue
 count ries
 In tern
 ne g
i od
 add ress
 2 5
 g un
ac ed
as k
 tr ue
 spec ific
ograp h
um b
ar ter
re g
 l arg
 signific ant
l ish
 sim ply
 A ss
 R es
 was n
' ll
 inter view
ace book
il i
 g round
 r ad
o id
og n
 diff icult
 run ning
 J ust
 ev idence
 ad minist
B C
 c op
1 7
re am
 d rug
 vers ion
og le
 b ar
 E d
 ag ree
e ks
idd le
 build ing
 Ch ina
 need s
 prof ess
ang u
 group s
r ight
 ty p
 resp ons
 comm on
 show s
 every one
 d om
 d est
 need ed
 b all
 wom an
 G erman
 l at
 bel ow
 t em
l ight
ourn al
 mus ic
 ex c
 rele ase
if t
 in j
 pret ty
 M ed
 A b
A R
rib ut
 includ e
 sa w
 de ep
 a p
b ody
1 8
 play ed
 qu ite
 indust ry
 ch arg
 m ag
 ener gy
 play ing
 m ot
 5 0
 cand id
e g
 s ense
 ph ys
 l ate
 al leg
 wh ite
 H is
iv al
 friend s
 g en
 leg al
at ur
b o
 an im
is c
y le
 A fter
om m
H ow
A S
w here
 ab s
le v
 inst ead
 re d
 b illion
 l ost
 es pecially
 val ue
 M us
 W est
 h ost
os ing
or ing
 h om
 New s
t ime
ag er
 p le
ist ic
 we eks
ep end
 N ot
cc ording
 for ward
iqu e
 det er
 e lection
 recent ly
 j ud
 tr ack
 su ff
 vot e
 T witter
 ob ject
ir t
l t
med i
 per iod
 chang es
 opp ortun
 Wh ite
 O ct
 l o
 long er
e ed
ar c
o ke
 e p
 p ain
 so on
 s ite
  {
h od
ri pt
ac hed
 ac cept
 C ong
__ __
ir m
 sh oot
 econom ic
 hop e
 mom ent
 dec l
le ge
 cons um
 W ill
 p ie
 t it
 che ck
op h
o e
 pot ential
i j
 bl ock
 M arch
o le
 wr ong
du ct
n ers
 Se pt
 Dep artment
 hig her
on se
 c red
 on line
 foc us
 2 4
 cons ider
ke y
 ed uc
anc ial
 M y
n s
id ing
 c irc
 wor ks
 rel ig
 sh are
 p arent
c ial
 he ld
2 5
 p red
 D r
 w alk
 we bs
 l ed
ul arly
= =
 re ve
le ar
 st ay
 The se
ove red
 st ru
al t
 Republic an
 ris k
 word s
 A ug
 re v
 so ld
 re view
ic ro
 cont ract
 result s
 serv ices
 law s
The y
 c ode
c il
 M ich
 w ind
 fun ction
 a ud
 c e
 Sy ri
p ut
a ut
 tot al
f ect
 art icle
 a ge
 app lic
 min utes
ur d
 person al
il ities
 any one
u ary
i ents
it ution
as ons
 J une
A d
ate g
 pr im
ang er
 targ et
f er
 d en
 ear lier
u le
 fav or
 exp ress
h aps
 de ad
 an sw
 up d
e ch
 pop ular
c he
 comp ut
 St e
 v ol
pr il
 ne cess
h am
 h y
 r ate
E S
ag ing
 techn ology
ap an
 res pect
v al
 en vironment
 201 1
P h
 rece ived
 expect ed
 S m
end s
ud e
 go al
 cre ated
 b ase
 sur pr
 ant i
 P ar
 J uly
et er
te e
 proble ms
u el
 w ays
 p ort
ip le
act ion
 priv ate
 D o
 sc ient
 incre ase
r ay
re et
 announ ced
 com ment
is l
 can not
 eas y
A l
 sh ot
 Cong ress
 quest ions
b it
 for ce
 P e
ater ial
her n
 imp act
 e t
 M ond
pl es
 p ack
  +
 F acebook
 p ur
 l angu
at ives
 G od
 E n
 invol ved
om b
av ing
ill s
6 0
le x
h ood
on st
 Aust ral
 d iv
ues day
 exec ut
ct or
 mod el
it iz
 s en
 spe ak
 st aff
 ex act
 c ivil
e es
i res
 ne arly
 ty pe
our t
ok es
 orig inal
 c ases
 cont ent
 19 7
 relations hip
 ter ror
 Go ogle
T o
 le ave
 Fr iday
 resp onse
 cap t
 ins ide
  <
 ph ot
ll ed
 f ans
 A pril
 R ed
 intern ational
 co ll
c ast
 he art
 a verage
 bro ad
 ar rest
 us ers
 C ount
 c al
A t
re l
 c ell
 w orth
 E m
 so ft
  ur
 l iving
b or
 n ation
ip s
k y
 kill ed
 report s
 201 0
� �
 bec om
g ing
 sour ce
 Mond ay
 T uesday
 sub ject
 work ed
at ural
est s
 est ab
 im medi
E N
 resp ond
 gl obal
 ass oci
j oy
ell ig
 cl ub
op s
 Americ ans
a el
 ob s
it es
 P er
 P al
 ch ance
 o il
 A ct
 ab ility
 t akes
rough t
 we ap
he l
 pr ice
 J apan
olog ical
 direct or
iz ing
 work ers
 ter ms
 ro ad
m on
 publ ished
 de l
e xt
 Wh ile
 t ou
 ph one
r ain
 col lect
 fin ancial
 m id
os ition
 dec ided
is es
O R
 Russ ia
 S ome
 W ed
 m other
 s qu
 l ack
 def in
ove mber
 4 0
 g irl
 st ore
 g ave
 bu y
 inf lu
 Cal if
 l og
 happen ed
in o
 requ ire
 N ow
 e mer
 f em
" .
 cap ital
cl us
 fore ign
 current ly
 O ff
b ased
 S an
 go es
 B y
ov ed
 Ge or
vert ise
 sit uation
 ind ic
 off er
 who se
  @
 t al
 m aterial
 l ives
un t
 aff ect
ro wn
ough t
he m
 pl ans
nes day
 ar ri
 mem ber
 p ict
urs day
 F eb
 partic ip
ru ction
 rec ogn
 turn ed
 met hod
 ev ents
 Jan uary
 H ill
 net work
O ne
 team s
 S und
 b ank
 meet ing
4 0
re ct
 n orm
 int rodu
 sim ple
f ully
 A g
 Is lam
  ill
 h uge
 Sept ember
ou d
 reg ard
 are as
 c y
ord er
 C or
 T V
 M e
b l
es e
 cou ple
 appro ach
 care er
a ur
 Af ric
 G l
l oad
" ,
 de li
 r ace
 perform ance
 p age
et y
ap t
 N ovember
 to ol
 Dav id
 f elt
 quick ly
 m is
 num bers
o or
 em ail
 E l
 2 1
a ily
 or d
ist an
 administ ration
 h on
 Wed nesday
 vict im
 P aul
 v ia
 impro ve
 eng ine
ch ie
---- ----
 f re
 p ull
 A ng
 r ound
 bu ilt
 2 2
 p ers
 Europe an
l in
 d ig
en ed
 Th ursday
 f ather
orn ia
 l oss
av y
 th ous
� �
 h ttp
ruct ure
 produ ction
 b oy
um e
 he ard
d own
S h
 econom y
” .
 en joy
 Aug ust
 tr ade
 S ch
f ace
 webs ite
im ent
 sec ret
 co ver
 reve al
 w ide
 bo ard
 m atch
 C ourt
A L
 allow ed
 hand s
 sp ent
 tra vel
 l ower
 re pe
at ory
 po ll
 includ ed
ce mber
 st e
 Oct ober
 ne igh
 leg isl
or ters
us es
 beh av
ict ion
 kn ew
 te xt
 want s
 to wn
ight s
 Brit ish
 se par
en ces
es tern
 vis it
 Canad a
an ks
ct ions
W ith
 per fect
 get s
ess ion
 move ment
 are n
is hing
ra z
g round
age ment
 tri ed
 c ause
? ”
g est
  }
 for ces
 Sund ay
 en s
A fter
for ce
ce ed
 att ention
 partic ular
 b i
] [
en ing
 ve h
 b ud
 f ear
 pop ulation
 var ious
 U K
 re ach
 look s
 2 3
 Calif ornia
 b rought
 v o
 K ore
 l ink
ib ly
) ;
ur ning
ar ily
 I S
2 00
 prev ious
E D
 m ention
 Russ ian
 mor ning
 Q u
c le
ide red
' d
 f air
 grow th
ak er
 S w
und red
9 9
se qu
y ond
 pro gress
 fe ll
all ed
 s ong
i am
 C ont
A C
 tr aining
f ield
h old
u k
 s ize
 Bl ack
c ies
 De cember
ident s
 cont act
led ge
 H er
 dem and
Wh ile
 im age
 h or
 r ac
 h ot
ific ation
O S
 lead er
s et
ec ause
 rul es
 pre p
 l iber
z e
 se arch
  ess
 P ost
 c itiz
 up on
 stru gg
 St reet
 lat est
c ome
 ind epend
U S
u ments
in ks
ar th
 feat ures
 co ach
ond on
 P ark
i ant
 f ast
T r
o o
sy ch
 talk ing
 J ew
om p
 add ition
g es
 st ar
 w ond
 Sen ate
I T
 P at
 spe ed
 ex am
 cons idered
ra q
ic les
ar ies
 re b
b ed
 level s
et h
 T imes
 Count y
ellig ence
 sl ow
 investig ation
p s
il le
 con duct
ap h
 Part y
2 2
 K ing
 med ical
 m ach
 s n
im ately
v ent
 a chie
 langu age
atur day
 c ard
un k
 s ort
 crit ic
op e
 T ex
 Cent er
 p en
 u nd
 Ind ia
 p aper
w o
ys is
I C
 200 8
p ir
 cons erv
 parent s
im in
 sex ual
m a
 system s
 pri or
u it
as c
 do ll
 writ ten
u f
 b ox
 sp okes
ig r
 see k
 s ens
e ared
he t
 doc ument
id ge
 incre asing
 he ar
an i
at form
 d raw
 se ven
 s on
 Mus lim
 eff ort
ru ary
 job s
 I ran
 ext reme
 prev ent
 lear n
in ing
 ser ious
 reg ul
r ast
 in n
 r ange
  ...
ro om
 viol ence
 e ight
 M ark
8 0
our ces
 I raq
it ch
O P
 sur ve
 complete ly
 con c
 200 9
e ff
 mess age
ic o
t r
h a
  �
 ob v
 interest ing
reed om
S he
 sc reen
ab or
 opportun ity
 cl imate
2 4
 major ity
 K e
an ced
 partic ularly
 dou b
 j ournal
 des pite
 R om
 claim s
 answ er
 Ch ar
 soc iety
 L ondon
 def ense
 car ry
ent ially
am ing
 gu y
 ext ra
ens ion
 Don ald
is ions
 attack s
 requ ired
er ve
ren ch
ill ed
 big gest
vertise ment
 E ast
 exact ly
i ers
 p aid
m p
 M ore
ib r
 exper ien
ly ing
uc lear
ines e
 mod ern
 rem ain
 qu arter
 offic ers
et t
 h undred
 c ross
 ex cept
ut ions
ar i
 t able
 pract ice
in ally
 n atural
 m iddle
er c
 2 7
 certain ly
n a
 d ro
ad d
os es
 S aturday
 st ories
 N et
 hist or
 g as
 product s
 sur v
 look ed
 somet imes
n ces
 st uff
 r out
 sc ience
 fin ally
 us er
A M
 sum mer
 mov ie
 bl ood
osp ital
av es
 commun ic
 a w
ous ly
 l ay
 chang ed
 on es
 lead ing
 describ ed
 ter m
 S and
 im ag
 Feb ruary
f l
 pr ison
 con vers
n y
 det ails
ic ks
 start ing
 S pe
 qu ality
 occ ur
 p an
h ib
 show ed
 n amed
 g iving
 u lt
 rem ains
 Mc C
u ing
 reg ion
pp er
 prov ided
 cost s
ak ers
 S oc
ar r
 dam age
 m ob
 d anger
 f it
augh t
 T H
 T ur
 ch ief
 po or
 p ath
 M or
id a
 educ ation
 mult iple
 contin ued
en ge
 I nt
 grow ing
N o
 dem onst
  *
 part s
 2 6
 writ ing
 com ments
 2 8
 m ent
y l
 main tain
 saf e
 ass ist
 think ing
 D es
in ary
 Republic ans
 E ven
 pur p
 requ est
 wr ite
 f ix
 it em
 p urch
ab les
 d ied
 Democrat ic
 C oun
F L
ag o
 read y
co in
 would n
 imp lement
2 3
 incre ased
 cult ure
f ort
 eff orts
 vot ers
u x
p re
 c amer
 m ill
al y
.. ..
op er
 read ing
mit ted
im inal
 f ile
 us ually
 call s
 sp ot
I m
 effect s
 G ener
z z
 per haps
b an
 al one
ar ian
il es
 F irst
 al though
 to wards
he st
 Le ague
 cons ist
 B ill
 Tex as
 se lect
 gu ys
 stand ard
 Mich ael
 sub st
 ce le
 be yond
 direct ly
 pl atform
 Ch inese
 ( @
 h ous
us ing
it ute
 spe ech
 real ity
e gr
ic ated
 k ids
 J ames
 av oid
 through out
 foot ball
 stud ent
ar a
 could n
row d
B I
 un f
f ord
 immedi ately
ou l
 ro b
 N e
 includ es
 c at
 con cept
 cent er
 cho ice
 sc ene
 comple x
an ch
 add itional
s p
 M on
 chall eng
 C ons
 w ife
 cl os
ur t
 t ro
 rec omm
 rese arc
R e
 ep is
it or
A ll
  ver
 Min ister
ur g
 s le
 cor por
 � �
 design ed
 S er
ag on
 rem ember
 soft ware
 saf ety
 Ind ian
w ise
 g one
  il
ast ic
port s
 c ast
 se ll
 to ward
 ag ency
 t en
 offic er
ac hes
 fig ure
 pie ce
 br ain
om en
 bat tle
 J ack
 coun ter
m en
 deb ate
air s
ress ion
st on
 thous ands
ad em
 s we
ru pt
 op in
 a head
ic ient
N ow
im um
 rel ative
ir th
 let ter
 rece ive
 press ure
 B o
  �
 bl og
il ies
amp ions
  >
 s il
 mov ed
 la unch
 appear s
 o ption
 Pl ay
 pass ed
  ut
 pre c
 st age
ro y
o es
 6 0
 cle an
 S erv
ol ute
 I I
ate ver
ber g
O T
 proper ty
2 7
 help ed
 dri ve
 App le
j ust
 alleg ed
 G reen
 tw e
n ew
 dis app
 t our
 mean ing
 ro ck
 do g
am b
  x
 cr is
it ation
 Ass oci
 sus pect
 d ate
 R ich
augh ter
 mov ing
 sc ore
 Democrat s
 organ ization
 s at
 cond itions
 tou ch
 d ark
 comm and
 The n
  ign
? "
 re asons
 bud get
 p ark
m ore
 n uclear
 my self
 n om
 de g
 happ y
 dev ice
 differe nce
ri ef
 S im
 may be
 begin ning
A D
 cop y
 n ature
 fail ed
w ood
 f an
 charac ters
y an
 comput er
 enc our
 a im
 M art
 tit le
 w all
 comp ared
 le ague
ock ed
e an
 Su per
iv ity
 est im
 V al
 St ar
 col lege
 ey es
 sh own
 Eng lish
 cent ury
 power ful
 D ay
le ase
our ce
 b al
ain t
 lim ited
 y es
 b and
 cont ribut
 pos itive
 for ced
 necess ary
 C he
 ref er
 candid ate
 st ra
 dis p
3 5
ci ent
 book s
 tr ust
A P
 F rench
 larg est
2 6
 ar ch
ent y
 s al
 H ere
a ud
 conf erence
 R ober
 not e
 anal ysis
uf act
 sp ending
 president ial
4 5
 O f
 citiz ens
or ks
 school s
ig ration
 Syri a
 th row
ven ue
 B en
 a ware
 me ant
 execut ive
 event ually
M y
 phys ical
 follow ed
 fe ature
a res
 f irm
 treat ment
 c rowd
 T or
 W ind
 stre ng
 m ix
 conf ir
 b ott
er o
 cor rect
or ney
 2 9
 D is
 gr ad
 relig ious
 eas ily
 aut om
 es c
 p us
b and
bo ard
I s
 co ol
et ro
 19 6
 fam ilies
 il leg
ress ed
c raft
c ul
r ated
 act ions
 over all
 A ir
 M ex
 allow s
 g ives
 fe ed
 � �
) :
 sus p
ub e
 your self
B y
 d raft
b um
k en
 sm art
 app eared
 det ail
 inc ome
ir ing
 anal y
 B el
 sign ed
N ew
en cies
 cent ral
 ide as
 an g
 Go vern
 sen ior
Ad vertisement
 fre qu
 weap ons
I D
in n
 dis play
 h ar
 prom ot
 n ice
 cred it
 dec ades
 p sych
 polit ics
D on
 B re
 cr ime
O M
E C
ch an
 us es
 do or
 dis e
ut y
 Intern ational
 un ique
2 8
 al tern
 l if
A ccording
 d rop
 s ales
m ar
 develop ed
A r
res h
 custom ers
E T
 benef its
 conf lic
ur ance
 rel ated
 cris is
 S chool
 m ist
er ry
i able
 pred ict
 not ed
 C ap
2 9
 Austral ia
 E U
 tr uth
b ox
p art
 go als
in y
 individual s
 ch arge
 E arth
 be aut
 contin ues
on ents
 Un ion
 Ar ab
 obs erv
 r ap
 chall enge
 st o
n own
 app arent
 Ang el
ite ly
 Sm ith
B e
 l ic
 project s
 pe ace
 meas ure
 Pol ice
ot i
 int elligence
 Christ ian
 prev iously
 German y
 full y
 r ule
 man ager
 bro ther
 r ates
 adv ant
U n
ch ange
 exp and
 cle arly
 re form
 l ines
n et
 success ful
ri age
 high ly
 larg er
ound s
 tr aff
 sp read
i ance
 seem ed
 Coun cil
 stra ight
S ome
 cr iminal
 Com p
 min or
 em b
 Geor ge
 program s
ic ed
at tle
ow ers
 Fr anc
 inc ident
 res ources
2 1
 T om
 great er
 prim ary
I A
in ated
ant ly
 know ledge
P ro
 stud ies
wh ile
d om
 sa ve
or ter
 we b
ate gy
 ke pt
 att ract
 Fl or
k i
ol ic
 sp ir
 em ot
qu e
 col or
 fe et
 C r
se y
 r are
 re ached
 ar m
 A nt
sec ut
 H igh
lev ision
 Intern et
 Bro wn
od ay
id ers
os h
 favor ite
 pl aces
r s
 R ec
 reg ular
w ide
ot a
ve re
 H am
 man ufact
 la un
 D ef
1 00
 s end
 pre m
ter m
ro ll
lic k
ic it
 know s
 shoot ing
 activ ity
 p un
 sour ces
 norm al
ic ago
b on
ing ly
on ent
s er
 stat us
 fight ing
v ille
 vo ice
 r ise
oc ks
 f ine
 own ers
 ca used
 claim ed
 M ac
 en em
 lit er
 R ob
 U p
 Gener al
a ith
E O
 opt ions
 200 7
 int egr
eng th
us ion
 sp end
 G old
ad o
 c ities
m iss
 organ iz
IN G
 end ed
il ed
 researc hers
 call ing
 sh ut
 ref lect
 L a
or g
m ission
m ark
” ,
ol es
7 0
ro id
 pr ices
 E very
 al bum
 F rom
if ying
 employ ees
 fem ale
 Eng land
ww w
y a
 v irt
 ha ven
 ra ised
mit tee
 e le
 j ump
u ana
3 3
 supp osed
it ness
 happ ens
 add ing
 polic ies
 n ames
 charg es
 pro s
 tr ou
ic a
rib ution
 bas ic
ing er
iver se
um an
N ot
 M ag
 concer ns
 trad itional
 wa it
 pl ant
 abs olute
 ac qu
 h ospital
 fund ing
r am
 B ay
 pr int
 sl ight
 com mer
ro l
 pat ients
 author ities
 min ister
S c
 creat ing
 f reedom
 A P
 me chan
 sc en
 M o
 st yle
 see ing
 gr and
. ’
 be at
 l ik
on a
ri an
 st ation
 Sc ott
se e
 p ush
ij uana
 behav ior
 le aving
 c ry
 im pl
 b irth
  ir
 act ual
E L
 ens ure
 off ered
p en
 agree ment
 Flor ida
 e th
so ft
 Hill ary
 post ed
 Re g
 go ld
 S un
 week end
 g reen
 M ost
 B er
 ad ult
al se
 we ight
O U
. '
ac ing
 deter min
 v ac
H ere
 reveal ed
 We ll
 applic ation
 most ly
 val ues
 prop os
it ude
 A lex
ab y
 will ing
ear ch
 r ank
 ad op
 A ccording
 estab l
 ey e
 record s
ect ion
� �
5 00
 en force
h ttp
 pict ure
 belie ved
p ri
 m er
u ild
 b rief
 L et
 lear ned
 L aw
 inst all
 str ategy
 app l
ign ed
 cho ose
ist ry
S A
 d ire
 wond er
 qu al
 mass ive
 dev ices
 benef it
 w ild
 part ies
 Ch icago
 law y
 Pe ople
 un s
c her
 c ars
 Tr ans
 P ort
c ont
 Ph il
 arrest ed
 m ount
 wh atever
 w at
 O h
 Fr ance
 stre et
  ;
 prov ides
 wh om
 ass ault
9 0
li ament
 ask ing
 influ ence
t ies
 jud ge
 l ose
 f at
 feel ing
 oper ations
 produ ced
 tem per
st e
 crit ical
 Sec ret
 L ou
 neg oti
p oint
 m ission
 ent er
 B ush
E x
 im ages
� �
 St ud
 confir med
 show ing
I L
 dist rict
ri ption
 run s
 pat tern
 t end
 M at
 b order
 res idents
or ial
ud d
ra v
 deb t
How ever
  �
ak ed
g en
 c ru
 te ac
 Com mittee
m ine
 opp osition
C l
 cele br
 W all
 He alth
 se ction
 def end
 et c
est ic
 produ ce
ic ial
 Comm ission
 dr ink
 independ ent
 M od
r ont
ce ll
 Wh y
 br and
ent ed
ag s
u gg
 c ore
 P ress
 t ick
 dig ital
 B it
 he ro
 adv oc
a e
 doll ars
oc r
ri al
 effect ive
 sol ution
 M al
 v ill
 interest ed
 S am
 Kore a
B A
 hig hest
ir g
ord s
 mem ory
 open ing
 wor se
 lear ning
 respons ible
 tri al
 d aily
 k ick
 the ory
 O ther
 off ers
 Pal est
m e
 repl ace
 rest rict
 G et
 m ur
 Off ice
 ag reed
 te levision
 Franc is
ci ence
 M icro
 B ecause
 occ as
S T
ill ing
C C
 tr ain
 invest ment
 v s
 typ es
i ation
 W estern
ak s
ic ians
 ch air
 mil es
 mill ions
n o
ur ies
 che m
 Just ice
 D el
 gener ally
 bas is
 prop osed
 8 0
 M ike
 M il
 C up
The se
i pe
 he avy
 expl ained
 m ap
 O ur
A A
r ad
 d er
 b ur
o ly
 Ad d
 part ners
and er
 opin ion
w in
 def e
 on to
 prot est
C on
____ ____
G et
 associ ated
 l oad
r ig
az ing
 N FL
r ate
o om
4 4
 F ound
 m ale
 becom es
 re ject
out hern
== ==
 Sec urity
v est
 co al
 ob tain
 dest roy
 advant age
 ass um
 L iber
 cond ition
 announ ce
 hundred s
 achie ve
 open ed
el ine
 understand ing
od es
 John son
com ing
ic ip
 sur round
ad ing
ber t
ort hern
we ll
u pp
 init ial
 A tt
 B ig
 sle ep
3 6
 sh ip
 mar riage
 man agement
 Wind ows
 th us
 lim it
 b orn
 becom ing
k nown
 ph oto
 eas ier
F C
 G reat
 r at
 legisl ation
 contro vers
 un like
 elect ric
 M any
3 2
 camer a
wit ch
 acc used
 s pl
 neigh bor
 dou ble
  ice
 spec ies
 sh ared
l ant
 jo in
 illeg al
 3 1
 L ab
 200 6
M r
 h arm
 mach ine
 serv ed
 J er
G B
 extreme ly
ol f
 act ive
 3 5
 ser ve
 doc uments
 Islam ic
 fr ame
 stri k
le vel
z a
 D ist
 aud ience
B S
 loc ation
 A M
 scient ists
 bott om
 victim s
 Ar t
or row
 we alth
 profess ional
 res ist
i h
 redu ce
 belie f
 n ine
 sol id
 win ning
 mar ijuana
ear s
 U k
 neg ative
7 5
if ul
 commun ities
 return ed
ortun ately
 b ed
 inc red
 P M
 Inst itute
m et
te red
 ch urch
P S
 dep artment
 Sand ers
 r an
irg in
 vict ory
re y
 purp ose
 9 0
 Comm un
 am b
land s
 veh icle
 intern et
 leaders hip
i os
 H all
ist ics
 b omb
 mob ile
gh an
 inst ance
i pped
3 8
 separ ate
 exist ing
 not ice
 he aring
 d ie
 expl ain
 doub t
 f aith
 te ach
h ouse
 Y our
at ically
 epis ode
 watch ing
 com fort
 Canad ian
 B ank
 not es
 rad io
 E v
 f resh
 F in
 un c
 view s
 In c
 put ting
as y
 S l
 supp orters
 conserv ative
 p urs
 arg ument
om as
 m icro
ar io
ac ity
 laun ched
sc rib
w orks
O L
 app eal
ili ar
 item s
 commit tee
res p
 M ad
wh ich
 defin itely
 danger ous
ill er
z en
P A
 co verage
 dire ction
 O ver
 charg ed
 fl oor
 s un
 m ax
ograph y
3 4
E M
 Car ol
 Ch urch
 F ox
 iss ued
 drug s
Im age
i pp
 t ask
 back ground
 compet ition
 tre nd
 st ated
v ention
and om
ad a
 traff ic
 F BI
 commer cial
 D irect
it t
ur b
 sp oke
 set t
in ct
 trans fer
 suggest ed
 st ructure
 sit es
 h us
 n orth
 S ince
 L ike
 rest aur
ampions hip
 lab or
 dec ade
 repe ated
 G ame
 re act
om an
 c ards
 anim als
go ing
 no vel
ct ors
b ut
N A
rib ute
 d aughter
ant ed
 dri ving
 cl osed
 wor st
 cont ain
 entire ly
 d ed
 Brit ain
B l
ad y
g ency
 dri ver
 W il
 dise ase
 tell ing
il ing
 small er
 disc overed
 n or
ak istan
 ref ere
 P ri
A meric
 L os
i us
 h ack
e qu
! ”
f erence
 Q ue
s pe
 f alse
 c ash
 concer ned
ul f
 pl ays
 sur face
se mb
 support ed
ann el
ul ated
 tool s
oy al
 comp ar
 trans port
 Ch ris
 exper iment
 find ing
n ight
 c ateg
� �
a it
 as pect
# #
 business es
 7 0
 U N
 far m
 ple ase
 old er
az on
h ow
 activ ities
 requ ires
ph one
C H
 g ay
 J ones
ibr ary
 streng th
4 8
 we l
and on
 ins urance
 con sequ
3 7
 large ly
 mur der
N N
ic i
d o
5 5
 ex erc
 c aught
 candid ates
k ins
 Israel i
 allow ing
ic y
 bl ue
 A re
 ann ual
 K en
 test ing
oss ible
 str ateg
 S up
 ra ise
 st ock
ar ant
o very
 Rober t
iz es
 dec isions
 acc ur
r ick
 cont ext
 f uel
 A c
S P
os ure
l or
 Uk rain
 concer n
 aff ord
 belie ves
 const ruction
 tr uly
** **
 T y
 M iss
 g e
 just ice
igr ants
 gener ation
 high light
 T re
 un it
r im
e y
 pres ence
 Jew ish
ang ing
! !
 S il
� �
ter y
� �
cept ion
 Afric a
 gu ess
an cy
 w itness
it able
 hold ing
 G ree
 estab lish
 l ength
 plan ning
b re
av a
 Afric an
 se qu
ck now
 ref uge
 pl aced
 c atch
 Af ghan
 s an
in ter
 Associ ation
 tell s
� �
 sc ale
 spokes man
 t im
n el
 r ough
 att end
oll y
 V er
 cell s
 jo ined
 mention ed
 interest s
 ab use
pect ive
 J im
 P re
M ore
 has n
 P C
L e
 init i
 enforce ment
 k id
 G OP
 introdu ced
 deli ver
 conflic t
 M er
 Micro soft
 ph il
— —
 upd ate
 miss ing
ro s
 prov iding
 wa iting
 can cer
l a
3 9
 recomm end
ocr acy
 establ ished
is ation
 e at
b our
 Y es
 occ up
 Fr ank
 J eff
 Angel es
 rem oved
 200 5
ul a
 off ensive
 F ore
 Inst ead
ic on
 inj ury
 sp orts
4 7
 f ant
 discuss ion
v ant
 oper ation
 down load
 use ful
 news p
 convers ation
 hom es
ron ic
 s outh
 c ook
 C EO
 ass ess
it z
 G roup
form ation
l ig
 ban ks
ont o
 sto pped
 St ep
 Con st
 obv ious
ic ations
 meas ures
 mod els
 K h
 four th
 M P
O ur
se ason
wh at
 b ul
D A
and a
 201 8
 fil es
 girl s
 Lou is
 st ick
c ks
az ine
m ail
um n
 man aged
it er
app ed
r d
 Palest in
ot ed
 fig ures
om s
 T im
 Le g
 ident ified
 gr aph
 J ud
 S al
 fin ished
 fund s
P l
 P akistan
re al
 set ting
 conc lud
 pre fer
 ha ir
 commit ted
 Mex ico
4 9
 sk ills
k in
 appro pri
 spir it
 R ock
 ve ter
 foc used
 arri ved
 TH E
 hous ing
 keep ing
 V irgin
 there fore
 a cknow
 det ect
ul ate
D es
 part ner
 ex clus
ig an
 And roid
ens es
up s
 ear th
 trans l
out s
pl ace
 t ough
 Japan ese
 200 0
 relative ly
� �
 Sup reme
ow l
w ing
 ident ity
 feel s
 M et
 other wise
 surve y
 R yan
oc al
R A
ic ation
itution al
 protect ion
ag n
 ex change
 own er
is f
Tr ump
 step s
 tri p
im b
 hus band
 In ter
 M ont
 twe et
 connect ion
 Ar my
 slight ly
 Pro f
e ah
 we ak
 Govern ment
ver se
" :
 circ um
 ele ments
 cl ick
 Rich ard
 stri ke
 phot os
 me re
 def ensive
dd en
 g ain
 f le
 dep end
uck y
 col lection
ony m
hen s
g ar
 kill ing
 ro ll
igh ter
G o
 cor ner
 Mart in
anc ing
od ies
 suggest s
u ct
 ag gress
w ith
pro f
k a
 gu ard
Ph oto
 g ender
m akers
 Col lege
 comm ission
 Al though
r ange
 d at
 S ur
4 6
 I r
 D ec
 ment al
ic ide
re es
 am azing
 S ub
 plan et
h i
 Te am
ren cy
 O ut
 big ger
y m
 fail ure
 J ose
 supp ly
Wh y
an ia
 N or
 start s
 s ides
g ers
hed ul
is er
 fam iliar
 rem ind
 su st
 spe ct
il s
u ate
 spe aking
an o
 tal ks
 happen ing
gy pt
 organiz ations
 h ate
 wind ow
 ar my
 G ood
 J oe
 n one
u ke
 tax es
 plan ned
 P et
 than ks
 M ary
 st ruct
 p it
 dec ide
 su dden
 w ish
 cre w
 car ried
 app oint
ost on
 p et
m as
a wn
el ess
ag ues
yn am
 reg ist
T C
 mult i
id ering
 help ing
L ast
 a ward
 stand ards
 3 2
 F ire
 rev olution
 environment al
] .
 We b
ars h
 Th omas
ol it
 sc ript
p m
ol a
 second s
r un
 Res earch
g n
 scient ific
 B ern
 imm igration
 stand ing
 The ir
 4 5
st ream
oc ol
 qu e
 be er
 dom estic
im al
ad ium
 p air
ut ers
 Al so
 Secret ary
 U s
 ac adem
 co ld
 var iety
 mark ets
a ven
 s ch
H L
l o
 ter rit
 dro pped
f e
 account s
! "
 At lant
 fil ed
er ous
ack s
ill a
 bal ance
 imp ossible
 T er
 inter act
 neighbor hood
 deg ree
R ead
 turn s
ore s
it ect
 poss ibly
 app re
 oper ating
 pr inc
 altern ative
 un ion
 vot es
 v ul
ad er
 profess or
 t ack
 Serv ice
 increasing ly
ay er
ru it
 app ly
 fell ow
 cut s
ste in
 hon est
 Pr ime
 un ivers
 ser ver
v is
 develop ers
ar ks
 Syri an
 apparent ly
ab b
are n
 l ived
 chang ing
 wor ry
rast ructure
 Carol ina
 test s
 un its
 r ich
 T wo
c ious
ict ed
F rom
ad ed
 hum ans
I M
 Found ation
 M os
 ag encies
 sound s
as hed
 tw ice
 ult imately
ob by
 l osing
 phil os
 author ity
 sold iers
� �
 anim al
 Im ages
 set tle
 at h
 sc hedul
 m ut
 col le
 corpor ate
 absolute ly
 health y
 pay ing
o ch
 equ ip
i ams
 develop ing
 se a
 T ime
 clos er
 D en
 inn ov
rou d
rel ated
 seek ing
 regard ing
c oh
 sk in
 exp ensive
ans ion
 poss ibility
 beaut iful
 relig ion
 ap art
 Cent ral
g u
 fund ament
 exper ts
 sol ar
6 5
 y ards
 v ast
 writ er
 fl ight
 Dist rict
 L ast
 de ploy
 ad just
O f
 intern al
 t ast
 U nder
 L at
 P eter
ap ers
 imag ine
 J on
I V
 applic ations
i ot
olog ies
3 1
 v ision
l ook
st ate
os en
 Francis co
 Tor onto
 sit ting
 Pl an
 tr ail
 un less
d en
 US A
 J es
ist ed
 he at
 200 4
E ven
 respons ibility
 cap acity
I P
at ures
 M iddle
 er ror
ain e
i as
 sy mb
 f ol
p ire
 ar ms
 p il
 g ar
 c overed
idd en
 fam ous
 C amp
 for ms
 B ur
u zz
N D
 un iversity
 gu arant
 t ight
 present ed
ort ion
ov ing
en ced
 S T
 E gypt
 ear n
 P ut
 conv ention
u nder
J ust
 P ublic
 surpr ise
 att orney
 elect ions
 estim ated
 f if
 A ri
 te en
 inst it
 veh icles
rib le
 Am azon
ro ad
 int ended
in i
 r id
 o dd
 help s
 occur red
p erson
 stre ets
ust er
h and
 B oston
 S ol
 = >
= "
 M ur
 sp ort
s en
 deter mine
ress ive
 Bit coin
 exper t
 sc hem
all s
 cons ult
ur ation
 bro ken
L et
le ts
 f ired
 t on
 fl ow
 dom in
 G al
por ary
ed er
L E
 sh all
 res erv
U p
 tro ops
I ON
 Th ose
 hy p
 n ar
ter day
 pie ces
 Ch ief
 prep ared
 M ass
 C ath
 rap id
or age
 J o
 loc ated
 Soc ial
 b aby
g l
-------- --------
 con clus
 bring ing
anc he
 Pro t
 pro ve
 specific ally
 An y
 pot entially
 se ctor
 r andom
 j ail
O W
 se lling
 govern ments
 O nce
 sc r
A b
 equ al
cl ass
w ar
 f aster
 he av
 S pr
 bo ost
use um
ve y
 cl in
 propos al
ot y
 fact ors
 pl enty
T H
 equip ment
 coun cil
 er a
 inf rastructure
D o
 st ress
ph as
 st ars
 J ournal
 R ub
end ment
 Virgin ia
 b reat
 pro secut
 vot ed
 off ering
 car bon
in ent
 express ed
 vul ner
 comb at
 Par is
 bro ke
( )
ure au
 cl ot
our s
 rul ing
 F ederal
 ret ail
 Gu ard
 ref used
 dr am
 D an
 elect ed
 O pen
 R iver
E very
 sec ure
ce an
 se asons
 conduct ed
, '
h t
 challeng es
 rem ove
is her
ro g
 S ant
 method s
 weap on
n oon
 point ed
 Is land
 m aster
 rem ained
 Austral ian
 pr ime
EN T
 tr ig
 pos itions
 C ru
 d in
 M el
 critic ism
i pping
F irst
ock ing
 Med ic
 P lease
on om
I G
 s ale
ol ved
 F e
 cult ural
th at
 were n
 significant ly
 b row
et ic
 orig inally
ri e
 D uring
 affect ed
 appear ance
 c as
 t ourn
 fac ing
 great est
 fin ish
 Le e
 st ret
y r
 you th
 te le
 Wh o
 C ur
 percent age
 Ph oto
c ol
 determin ed
 sign s
 invol ve
9 5
ce l
� �
 than k
 b ought
 5 00
ly n
 S ing
stand ing
 chem ical
ash ion
6 4
 sh ape
 reg ime
 g rew
p ired
 rem aining
 Ste ve
ly mp
 min imum
 S aud
re ens
 ind eed
 d ream
ri er
S ince
 m arg
S p
 B oth
> >
 mod e
 her self
 vot ing
 Col or
 obv iously
 For ce
 R o
 redu ced
ord in
 N ov
 w ood
 R em
 record ed
 arg ued
 199 0
 re venue
 t act
 we aring
al ing
igh ters
 lead s
ed ia
 h un
 polit icians
 pl us
 cont rast
 s witch
 hand le
 purch ase
 th r
 sub s
 con cent
 pro ced
� �
 ag ent
ar p
m m
 Will iams
 appre ci
 experien ced
 h urt
t op
 exc ited
 vide os
od d
 http s
coh ol
 support ing
D P
 H aw
ow nt
 v ir
 F ree
 surpr ising
 min ute
 expl os
 bel ong
 consum ers
 ident ify
 cons idering
 P ac
 Cons erv
ll er
ap ter
 air craft
 re nt
 a id
C L
 pull ed
g ment
 bas ically
 differe nces
og ue
 B ook
 gl ass
 after noon
 sh ift
 dis s
 R ad
 dep art
 end s
ess ions
 t urning
 b ound
 fil ms
 sp ring
 pros pect
ru ption
k et
 Char l
h ab
 m ort
l ife
 tre ated
 acc ident
, [
 mot iv
 list en
 se at
 P ower
ut s
 comb ined
 const ruct
I nd
 ser iously
 priv acy
app ing
 even ing
he red
h y
 opportun ities
as p
 strugg le
 19 5
 pan el
 enem y
 lot s
 comple ted
 D aily
 vis ual
H is
Ph one
p et
 talk ed
 c art
 hop es
or al
 pass ing
  id
 app s
os ite
0 5
P D
 cal cul
An other
 wide ly
ens ions
 emer gency
 H ol
am m
 Sh ow
 su it
 e lement
 a st
ang ed
S S
uc ks
al ed
 p owers
at o
 R el
 B BC
 O lymp
 b urn
T V
 disc l
P e
 pl ants
 fl at
 Sp ace
 liber al
ra ud
ob e
 opp osed
W ell
 pro ceed
om pl
 copy right
ok ing
 Pro ject
 adv ance
 fact or
 dist ance
 200 3
ive red
 dis miss
pl om
 attempt s
 t un
 M att
 R oad
A m
ab ilities
ribut ed
 I N
 trou ble
un ction
 h ol
 coll abor
 def ault
id el
 B et
 z one
 Jack son
 up gr
it a
ra wn
C ont
 re action
 st orm
 rep orters
 M em
 fr ust
P R
ne ll
ad ow
 writ es
m osp
m ond
ain ts
 typ ically
 T oday
l ines
resp ond
U T
 p ages
 inst ruct
st s
ed d
tern al
ed s
 ref erence
 pack age
 b odies
z er
 mat ters
f ree
0 1
 den ied
c are
A pp
 qu ant
 disapp oint
 se m
 expl o
 N AS
 opt im
ac he
 qu iet
 ent ertain
 m al
 respond ed
 appro ved
 Tur key
 sat isf
ap ed
 broad cast
es ters
 instit utions
 ad vert
4 2
 stand s
 Direct or
 set s
est ival
 el imin
is ters
raz y
� �
R ep
 P enn
 val id
h ost
 re new
 Oh io
ell y
00 00
 spl it
 se vere
 Will iam
 s ac
 cap able
 200 1
  //
 p itch
ab in
ani el
 capt ion
 cl oud
 l oved
 techn ical
 g iant
p ass
 can n
 trad ition
r ant
 prom pt
 b ull
 conf ident
u ous
 conf idence
 num erous
 reported ly
 M a
 fac es
] ,
w rit
 we ather
 f ly
 trans ition
r id
 3 6
 Sy stem
 Afghan istan
 S qu
 cre ation
D e
 pers pective
 un able
 for get
 Lab our
 Y et
as tern
em ploy
ok en
 Med ia
ang ers
I I
un te
 c raft
 subst ant
 co oper
 viol ent
 suff ered
il it
 co ast
 m and
amp ion
4 3
 pict ures
 experien ces
 appro x
ab led
 rout e
8 8
se x
 fl ag
 adv ice
 And rew
us iness
 decl ared
 W al
 ord ered
 H uman
raz il
 cr imes
 co ff
S e
 p roud
is hes
 report ing
 mess ages
 circum st
 find ings
 L in
R es
 ev al
ul ations
 ex cell
O ver
 decl ined
 expl ains
 del ay
  \
 F ollow
 newsp aper
ound ed
 connect ed
il ty
 should n
ev in
ov es
 on going
c an
 v an
du le
 mov ies
 pick ed
ion ally
res ents
7 7
 ad mitted
 g ra
 del ivered
D uring
 gun s
 M L
g a
 Sc ot
 walk ing
 ag ents
c alled
 pr in
t ion
 edit or
 though ts
 mar ried
 T ra
 a uth
 em ails
 appropri ate
 em phas
u ations
 ed ge
 arch itect
 Gr and
 le aves
 upd ates
 acc ompl
O D
 g ather
 for g
 Muslim s
ans as
 W ood
 quarter back
 s ession
o oth
 Te chn
 po ol
 S cience
c os
 inj ured
ar n
 public ly
ell ow
 S ov
 state ments
 per man
 leg it
 conf irm
ar l
ner gy
 L ake
 our selves
O ther
 real ize
 ro t
 dri vers
M A
 A v
 D ou
m ates
, ’
 ar med
ess or
 d ial
c ons
T A
 lawy er
our ney
 r ail
 read ers
re land
 s ad
 cont ains
 arg ue
 Re v
 tal ent
 f illed
 S um
 alleg ations
 activ ists
 Christ mas
 d ynam
 198 0
 Mich igan
d ate
 B ack
 R on
 cr ack
 trans form
T ube
 I ll
 build ings
 Re ad
l ong
 we ar
M any
 terror ist
 s am
 t ree
 exerc ise
end a
 lab el
 effect ively
O h
 pract ices
al a
 sub sequ
 J ul
 S her
ul s
 fl o
 f ish
T S
et te
ent ure
 sh op
 exam ples
4 1
 H y
 pat ient
 G en
 Se attle
 object s
 te ch
 Se e
 secret ary
as ure
 r ain
 miss ed
 ca uses
ill y
r um
 deb ut
 R od
g ia
 ess entially
6 6
am in
 mor al
ord ers
ad or
w ord
ac ter
 W ork
d ef
ar ters
 Ukrain e
 cent re
he dule
F ollow
 V ict
b ur
 St an
 I D
ic ing
 inj uries
 Ph ot
 mot or
 i Phone
 art ist
 cl ient
 b ond
 th inks
i at
or se
ou ston
 p ure
 he ll
Al though
 Saud i
 fact s
� �
 des ire
ag ers
az a
 s ke
or ry
 link ed
� �
 govern or
 material s
 perform ed
S pe
 fr anch
es ome
 su c
 philos oph
 init ially
i est
 S ign
 necess arily
 B at
 F er
 exp ansion
 schedul ed
w ater
ER S
 war ned
 di plom
 adv anced
  ing
 expl an
 var i
 every body
 j oint
 dec re
 res olution
 incre ases
en ger
Y es
 accept ed
 inc or
 my ster
 fac ed
 b are
ill ance
 M ount
 announce ment
 follow s
 n ations
 play off
 L ife
 ab andon
 Sec ond
 I d
 rad ical
 ath let
 ne ither
 yes terday
 dat ab
 near by
g ent
 dist ribution
ot ic
 appl ied
ir ty
 mag azine
M ost
ath an
r ich
 m ir
 consequ ences
u y
 do ctor
 list ed
 for t
 Col umb
 at mosp
Americ an
 surpr ised
 off ense
Q u
it ors
 C NN
 R E
 sp ons
 beg ins
 We ek
 threat s
semb ly
 rep resents
 Jew s
 G M
 A ff
 en h
 mov es
 rem ark
 T O
 song s
 p ra
k ay
 ch art
 behav i
om in
 r ide
 add s
 with d
C an
� �
 impro ved
 p hen
 Bl ue
 b ot
 war m
 a f
 al cohol
ri p
 A T
 out put
l aw
 fl ood
 De velop
 H en
w hel
ed y
 sh ots
 f ill
 V ol
 al t
 st ood
 br ings
 pus hed
 gu ilty
 Rom ney
 K im
 sub scrib
8 5
 ent ry
ocrat ic
 B razil
 dem ocracy
 boy s
 3 3
 ro w
 Sw ed
 conf ig
 restaur ant
 N BA
 laws uit
 De v
 I reland
ac le
 manufact ure
 rece iving
 re in
 Bar ack
The n
 t rib
 tot ally
 On ly
 discuss ed
 s ought
 r ising
 ent ered
 IS IS
 Bo ard
 consist ent
 histor ical
t witter
ide o
 st orage
 cor respond
 plan e
 comb ination
 sc ored
 in put
 3 00
 symb ol
 br ight
 but ton
ird s
 suc ceed
st ood
 creat ive
 invest ors
 squ are
 art icles
 200 2
 is land
 death s
 fun ctions
 net works
 class es
 unlike ly
al ty
 P rem
 head s
 b oss
ic ian
 n ative
ic ious
 l ie
 sa v
 L ib
 rough ly
 consum er
 St r
 W he
 W alk
f ortunately
 M s
 str ing
 May be
 heav ily
 An other
 fair ly
 temper ature
ard en
 k it
 exist ence
 It s
 As ia
 cont est
A dd
 pl ot
iss ions
 C ub
d is
 res ident
us al
 targ ets
 B ob
 res c
 Kore an
ic an
du c
 l ock
 young er
M an
 colle agues
' ,
P U
 l ibrary
� �
 r ally
 par liament
 prot ests
 any where
ok ed
 S ports
 S ky
 b ike
z ona
 bre aking
i i
 sy m
 gr ab
 store s
 express ion
 was te
 ch ain
 bl ow
 war ning
 import ance
 def ined
 bu ying
 man age
 pro hib
 class ic
 c ere
 s now
 adult s
 ill ust
 E ach
S ee
 market ing
O b
 l inks
� �
iqu es
 sh if
b orn
and al
 Cl ub
 to w
 H ist
 f raud
O C
 fac ility
olly wood
ere nces
 hard ware
 sch ol
 alleged ly
 3 7
 regul ations
p ret
 do ctors
 b on
 Color ado
 cur rency
 house hold
 repl aced
ag an
 ess ential
 R am
 em pt
op y
on na
 some what
 D iv
p ress
8 6
 n av
p ower
 fav our
 prom ise
 D C
 B oy
 l augh
en a
P ol
 R ights
 hold s
 opp osite
ock et
 to m
� �
 mom ents
w est
 h at
ter ing
 opp onent
 bu g
 F ar
ch o
 camp us
 act s
 r um
etro it
 vers ions
 mot ion
 met al
hip s
 ev olution
omet imes
 v ice
an ish
 rele vant
 se es
 Im age
 b ag
 indust rial
 z ero
I R
 s ick
 d ownt
om a
 close ly
 An n
het ic
 emot ional
c hen
I F
g ame
 You Tube
 Y ear
 few er
 div ision
ol ve
 ad m
v a
 hard er
 custom er
 hop ing
olog ist
 Bro ok
Don ald
E n
 Val ley
 h ur
 mechan ism
it tle
 G ra
 H ouston
m l
 E lect
in em
 return s
N C
ate ll
 vol unte
 particip ants
 ext ent
 int ention
es c
al ian
el lect
 excell ent
 Sov iet
 acknow led
 sy n
ul ous
om ing
 M ot
 bat t
 G ames
 squ ad
 circumst ances
p an
 f ashion
 is ol
� �
ot al
g reg
 immedi ate
 E ric
 suff ering
 W atch
st r
 l ies
 t iny
 auth ors
 3 8
 g rown
ig er
 G ar
p o
ef ully
 imm igrants
� �
pr int
or a
 kind s
ut ch
 4 9
 D ie
 che ap
 m ine
 detail ed
ord an
 H el
n ame
 feat ured
 W ik
ay ers
 me at
 S ar
 un us
 A ut
 compet itive
 describ e
 for med
 H ome
 I P
f riend
n ic
cer tain
 carry ing
 tourn ament
 ter min
 tr ick
 relationship s
 fundament al
ke l
 w ave
 cy cle
ob b
 c razy
 C y
 sign ing
 W ay
 gu ide
 w ins
 Cath olic
 ear ned
 dec line
 reg ional
n am
ens us
st yle
 em br
 str ange
 Palestin ian
 Jes us
 L ong
 an cient
 frequ ently
 act ing
 Put in
 man ner
 eff icient
rom e
 pus hing
 C IA
 comfort able
 C ard
 p ip
O RE
P er
 sh aring
 w ire
 sk ill
 E conom
oc key
c hers
 inst ru
 E ll
 E r
 own ed
b ar
 commit ment
 along side
 O F
u ated
an es
 L ord
 Dav is
r ison
 controvers ial
 art ists
 refer red
we ight
 e gg
 m outh
 repeated ly
0 6
 4 8
 T op
� �
 3 4
F P
aw a
 attempt ed
 fem in
um ber
 upd ated
f oot
 c ert
u a
 pre gn
 O ld
 sc hedule
v in
x y
 P S
am ily
ad el
 ded icated
� �
 A L
 sent ence
 up coming
 R ight
 N Y
 D own
 D i
 col umn
h us
 dep th
0 9
 pl ed
 virt ual
u able
 j ourney
 stru ck
� �
 des k
 stud io
 real ized
 E nergy
Des pite
ce ived
% )
ograph ic
u gh
 med ic
D S
 serv ing
iam i
 walk ed
ri ve
iven ess
 k ing
 r ing
 rep ut
y ou
 ur ban
k o
ph y
 C le
 Char les
 W ild
 target ed
 ch annel
 ass ets
lud ing
 t ort
 ins pired
 hot el
 Ari zona
0 8
 post s
 news let
L ike
T wo
 Su pp
 un iverse
0 7
 ag enda
 ca using
 wat ched
 su icide
 stre am
 over whel
 P y
 us ual
 surve illance
 M en
 int ent
so le
Pe ople
 l iqu
 s ister
 opp onents
 chair man
 d u
 W ars
 Cru z
b el
 main stream
 lat ter
 h all
 surround ing
 fol ks
 know ing
 ord ers
 In f
ig g
 rem ote
 7 5
 s and
 liter ally
 J ava
 observ ed
 Ag ain
 subs id
F r
g or
 Def ense
 inf l
 appro val
ac c
 V an
im ents
 bas ket
ren ce
b urg
 teac hers
az i
av or
iz z
 win ter
ici ency
al le
 exc iting
az e
ay lor
 T al
 form at
b oy
 con gress
 protect ed
at i
 not iced
 sim pl
 deal ing
 You ng
r ations
 Ch ild
 prec ise
i ro
6 7
x ual
 deep ly
i pl
 communic ation
 g ang
 s ending
 for th
 J r
 f asc
 bat tery
 w al
m un
 sk y
 n arr
 fix ed
p ost
ab is
 as ide
 require ments
I nt
 proper ties
r ors
 al ive
 nar row
 w ake
all as
 pass ion
 Ar ch
onym ous
 e ating
ens ity
O r
 mist ake
w oman
 expl ore
 coff ee
 P an
 197 0
 ra pe
 vol ume
 prom ised
 d iet
ack ing
 ris ks
 ex hib
 Pol it
 F ort
 swe et
M ay
’ .
 En ter
 W at
 ne ut
 invol ving
 w age
 se lection
 M ax
 test ed
et her
 fl u
ult ure
 defe at
 n orthern
 re ward
 wel come
 C ast
 ext ended
 put s
 territ ory
 phen omen
 un employ
 refuge es
 s ample
 he ight
 approx imately
 K evin
 bl ame
 Br ad
 any way
5 9
um s
 D etroit
 destroy ed
ob ile
 sh o
 imp ressive
 Step hen
as ks
 g od
 pro of
 g ap
 d ry
� �
 cr ash
 un known
 loc ations
 select ed
ap se
 w est
ang es
ger y
st one
 F il
 attack ed
a ire
 max imum
 M iller
 Wil son
 T it
 prom ote
 she l
as er
 mere ly
 franch ise
ar ry
0 4
l v
 requ ests
 ret ire
 sudden ly
 slow ly
 prot esters
 dis ag
 teac her
i xt
 typ ical
og an
 W omen
 In s
d ro
ing u
 con ver
l ist
a o
 ch ose
 C amer
 Cl ass
 L u
 mat ches
 pro te
 lic ense
 proper ly
 ass ume
or ation
 disc over
 w id
 P R
 M ic
R el
 wor ried
 mod er
f ire
 ab ortion
ow ered
 all ies
 ob lig
 terror ism
 support s
  �
uild ing
Ã Â
ins on
ver ty
 arg uments
 ad apt
 them e
 conf ront
 fac ilities
 sust ain
g ender
 e ast
 p al
 recogn ize
ig ure
 f uck
ÃÂ ÃÂ
l ies
 equ ival
 obtain ed
 po verty
 r ub
 It aly
 nom ine
0 3
 de als
 fe es
al o
it arian
os is
 H ollywood
 under stood
 contro lled
V ER
 B est
 top ic
 D am
 crit ics
 Soc iety
 Ag ency
ax y
 F ord
 so le
 Jer sey
ar ity
 vill age
 di agn
 Ad minist
ra id
 lik es
ce ler
h an
 F our
st ers
6 8
 ev il
T e
 pun ish
 d ress
c ript
 p ed
 Geor gia
 b unch
 Comp any
 journal ists
J ohn
 exp osed
 reg ions
red it
oc ation
 communic ations
 schem e
 trans p
 st im
 lim its
 some how
 strong ly
 hon or
 dr ag
au g
 resist ance
ll s
 ch ampion
 L abor
 const ant
 ph ase
 NAS A
ast s
 Car l
p ool
 prof it
 tr uck
 cond em
 esc ape
 person ally
 N ight
 D un
rim ination
 L and
 b id
 N HL
 St and
 vac c
 dec k
nes ota
if orm
 fall ing
m o
GB T
 Net work
 some where
em s
c ers
 employ ee
 har ass
ad s
C A
 be ar
in er
 C D
 compar ison
ort ed
ci ples
 poll s
ow a
 in qu
 L ove
pect ed
 s outhern
or ic
 dec ent
c ow
 Sp anish
 encour age
 em issions
 K n
 3 9
 V iew
end ers
 empt y
 M iami
 h its
ost er
 C am
 defin ition
 p ic
w an
 direct ed
p es
 f lex
z ens
 O k
5 7
 meet ings
 E nd
 B ell
о �
 comp rom
 win ner
int end
a un
ick en
 got ten
 D aniel
 Tur k
 electric ity
 ch osen
 offic ially
 ben ch
 stret ch
 datab ase
 Des pite
 int ellect
 sp in
ig ation
 strong er
 de leg
 purp oses
 D NA
C om
 cut ting
 T urn
 f old
r ary
 ext ensive
 amount s
 des per
 tre es
 an x
 ide al
 As ian
 th read
 fif th
� �
U R
 good s
 col on
 develop er
 claim ing
un ning
An y
 re tain
 s oul
 capt ured
 Th ough
 find s
 dri ven
 pay ments
as ters
 J ordan
r as
C S
 t ies
 reason able
ol t
 dog s
� �
 some body
 end ing
0 2
 N ations
 cho ices
 b le
 se ats
 Serv ices
 Th ank
 p od
 eng age
 d rawn
 s ight
 par am
 D ar
C E
 threat ened
 rul ed
ur a
ep ing
 Att orney
 Ir ish
 Se a
 trad ing
ow ed
 prim arily
 aspect s
 f ighters
M L
 answ ers
 perfect ly
ir ms
 Ac adem
 inc l
 r ival
 park ing
 reject ed
 G all
 const antly
f ast
 H un
 pay ment
 C at
 dist inct
e z
 f lying
 U t
 r ig
 techn ologies
 Re al
< /
 comp onents
Pol ice
 ad mit
s m
 Scot land
 else where
 D ark
 const it
 t ur
 any more
ld er
  icon
 field s
 estim ates
E W
se a
 sol utions
 result ing
7 8
 B ru
 aw esome
 enc oun
 prov ince
 world wide
 act or
 reg ularly
 Mo ore
 cour ts
 narr ative
O nce
 b oot
 enem ies
 mix ed
reg on
 O S
m od
 Dis ney
ic er
 hous es
 no body
 S k
in ations
 control s
 W ater
 let ters
ap es
ag ram
ian a
im p
 4 2
 m urd
 may or
 lo an
 out come
 M S
 cont em
se ll
S ec
v y
s hip
 L ight
on ic
is an
 ap artment
 Ste ven
 coal ition
 contribut ed
 B as
 t ank
 conclud ed
 Ad am
 ex ists
 T w
 found er
 B rian
ear ing
 L ew
 atmosp here
 prof ile
 bre w
 sit uations
 Ch ampionship
 A uthor
r ates
 incred ible
 Const itution
 sign al
ot es
 R og
 accur ate
3 00
 Vict or
ot ten
 un p
 W here
k er
 S outhern
." [
 employ ment
 cl ients
D r
 keep s
in ity
 inform ed
 contin uing
 base ball
 gener ate
 tick et
 con ven
Al so
 Con f
 we ird
 t ied
l ock
adel ph
 categ ory
 inf ect
il arly
ack ed
 ang ry
 Or gan
 rout ine
ar on
 k il
 ra ising
if er
 mach ines
 regist ered
 prov ed
the re
 dem ands
 g aming
 It alian
 incred ibly
 cru cial
 st uck
 C ivil
 D allas
c r
 ter rible
M P
 feed back
 u pper
 pl astic
 im per
 new ly
 Jose ph
 consum ption
 do zen
 ent hus
 est ate
al i
r age
5 6
 inn oc
 man ip
 T em
 cons cious
 bill s
 C ross
 Sp ain
ific ations
T oday
 writ ers
 ex cess
ind ing
 aggress ive
 rep orter
 comp ens
 ret urning
 st ead
 program ming
 Th anks
 represent ed
 conclus ion
9 8
 r us
 B owl
 A R
M S
 orig in
 assist ant
adelph ia
 ro ster
 Min nesota
 organ ized
ri a
 pen alty
 drink ing
l ers
 pain t
 s atell
 g ro
 Pro gram
 capt ure
 cons pir
 inter pret
 explan ation
isc al
 count y
isc ons
ess ed
m ont
im a
  %
ann y
gor ith
em en
iscons in
 assist ance
 Rom an
5 8
 compl aint
 r u
 n ut
 mag ic
 t all
 O per
E d
 gr anted
B ecause
 Cont in
st ar
L A
O ff
 Par liament
 compl icated
 aud io
 ch ances
 ext ract
ry pt
 G i
 199 9
 he l
 E duc
er a
 sh ares
 success fully
es y
.... ....
 I T
 pil ot
z y
 E p
 H ot
 my th
 rec overy
 T est
 techn iques
  iron
 C are
 Z eal
 S C
 scen es
 W in
 veter an
 F re
 ( $
 deg rees
act ions
k ed
 sym pt
the w
 law makers
 w estern
 oper ate
 ad s
r ating
 ha bit
 aim ed
In st
anche ster
 ph r
re p
re te
 tast e
id ency
 eng aged
 priv ile
 5 5
==== ====
 r ating
 teach ing
 O s
 academ ic
it ar
 the rap
 pass es
 doll ar
he nt
 autom atically
 Pac ific
 mon it
 bl ocks
ab ama
 att ended
 perman ent
u an
 surv ive
 ant icip
 ext rem
 en able
 L ook
 Fore ign
ch ain
% .
 mark ed
it als
 h idden
 acc omp
 tit les
 Sen ator
 N BC
a ed
 t aught
 Lin ux
 b om
 ind ex
ever al
 el ite
ib ilities
 lawy ers
f rom
 dep ending
 val uable
 inst alled
 ch ampionship
 ro ot
 comp re
 B ull
 downt own
m al
 equival ent
 sol ve
r ific
 d uty
 Spe cial
 B usiness
 6 4
 p ace
H S
 reput ation
 un certain
 ph ones
u ine
 over se
b al
 T aylor
 person nel
 p in
re ams
atur ally
 suff icient
 vis ited
 war ming
 S n
 prin ciples
 vulner able
 enjoy ed
 f ake
 N ick
 adv is
 negoti ations
ind er
 gener ated
 exp osure
 rec ording
 collect ed
 regard less
 d ict
E A
 bit coin
 e lev
� �
act ive
 K elly
 An th
 c up
 pattern s
Get ty
 T ake
) )
 A venue
 J osh
 dis aster
 c able
b ro
 6 5
 ch at
 work er
 main ly
 rac ial
qu arters
 Co ast
 V iet
mon th
 p ounds
 1 50
 C all
 port ion
 af raid
 ins pir
 A h
 b es
 def ence
 E astern
man n
 T ony
 track s
 bus y
 gr ant
 sh it
 int ense
 Ser ies
 L GBT
or ne
 St ill
ath y
 fun ny
 ap olog
 sur gery
 Mos cow
 C oll
 poss ession
 prom inent
 M ars
 com ic
 G er
as hes
9 7
ul es
 R ay
 th in
 engine ering
 trou b
 K urd
th is
 process es
 N ation
f all
 K ent
 C ome
 ent it
  ’
 unus ual
rap h
et ary
 describ es
w orld
9 6
 result ed
 emer ged
 tax p
 g all
il er
 d im
 prop ag
 I owa
 O regon
 co ordin
 cor ruption
 st ations
 In vest
 f ought
 A D
 br ut
 ext ension
re f
 bl ind
 adop ted
pr ise
 compet e
 rec ru
 Zeal and
 had n
P r
 4 00
 m ail
y e
 every where
 B alt
 cry pt
R ec
C ol
M ean
he rent
ic ate
 A li
 contract s
f ront
 L o
 ne uro
 De ad
 R ick
 feel ings
 f irms
idel ines
’ ,
 minor ity
 sp r
c les
H A
 advert ising
 rare ly
d a
 disc ipl
m aking
 N orthern
 san ctions
 V eg
sc ape
 Phil adelphia
up id
 camer as
 expl icit
 str ict
v iously
l og
 en orm
 fin ance
 c ited
if ies
 Be fore
 short ly
t es
g un
U L
 Pol icy
 expect ations
 implement ation
og en
 rec ip
cl ing
 Gree k
 th ick
 thous and
ant ic
 M u
 l oud
ist ent
 aff ili
ur rent
or ough
 N avy
 in ev
re ll
c us
 phot ograph
 med ium
az z
 W isconsin
 scen ario
 F ood
 L ive
 H om
 su p
il ton
 pl ug
 ve get
 h o
 vis ible
L C
 light s
e en
 creat es
 prior ity
 v en
 br idge
el and
ink ing
 ob st
 ag ric
AT E
 per mission
 F oot
 al gorith
iz on
C o
e lect
 particip ate
ask a
 w ing
wh o
as ion
 brow ser
 Gl obal
 t ag
 O l
 H as
 m el
 ac celer
 do zens
 King dom
 histor ic
 comput ers
 la id
 basket ball
 loss es
te xt
 S af
 As h
og ether
 un w
: :
 t or
a us
 Am endment
M ar
 strik es
 princ iple
 Develop ment
 form al
E P
ig en
 sc oring
7 6
ob s
at hered
 4 4
 coun sel
f ound
+ +
 sh ock
 wonder ful
 S P
 beh alf
ab s
 un com
prof it
ent h
 inter face
 establish ment
 to ler
 Hen ry
 G reg
am ber
c ar
 M ajor
 Th us
U s
j o
 g ained
 fe e
le te
 found ed
et ime
 found ation
s he
 E SP
ili pp
 club s
 cann abis
 j u
5 4
5 2
 air port
 Ke y
y stem
 b orrow
ol is
we et
B O
 manufact uring
 re ly
 H it
 P ay
u er
 Al abama
 gen uine
 R oyal
rat ors
Be fore
 comp onent
 rid ic
ose xual
 whe el
r ative
 O ak
 journal ist
 rel ief
 sa ved
5 1
 h ole
 y ield
 head ed
 cy ber
 M oh
epend ent
 g ift
b ell
 f ault
 withd raw
N e
 indic ate
 draw ing
 un iform
um er
 mag n
 R and
 V is
ar lier
 st able
 sh ips
 - >
 ban ned
 M id
 foot age
Mean while
rou s
 do ors
l an
 recogn ized
 19 60
 cont aining
p read
 F C
 r iver
m es
am i
 strugg ling
S ub
 sp ark
 Academ y
 wall s
 achie ved
op her
oun ced
 neigh b
 pl ate
 ed ition
 H T
port ion
m ate
 move ments
 deli ber
u ce
te en
P ost
 sh arp
 A S
 S now
ul ating
 Th ree
 epis odes
 neut ral
 Prem ier
 R et
 F und
 except ion
et ts
 produ cer
________ ________
 F red
 dest ruction
 199 8
ou red
 belief s
 4 7
 Re view
 leg end
 p ump
 Mc G
 back ed
um in
 lik ed
 h ired
ides pread
c ription
i el
 ro les
 langu ages
 profess ion
 ent ering
os a
 V R
 interview s
 h ang
is p
 to x
em an
 philosoph y
 Administ ration
 ar range
 K ir
o en
int erest
 fl aw
Th ose
 N ob
sy lv
im ore
 st adium
 Atlant a
 J ac
 redu ction
 din ner
 b ath
 Rep ort
u per
 Turk ish
4 00
 a ver
 f inger
 N ote
 Con ference
 tack le
 ch a
bur gh
 g onna
 Die go
 P oint
 c rop
 Cent re
 farm ers
 M anchester
 nomine e
 4 1
ach ing
 J ason
 bare ly
AT O
 struct ures
 cont ained
 sy nt
 O tt
 deli very
 conv in
 Ar m
t a
% ,
 process ing
 disc rimination
 inc ent
ri ers
5 3
 F air
erv ed
R S
 D ata
t hen
c a
abin et
j a
 intellect ual
i y
b a
 Rad io
ams ung
 4 6
 B ry
 O K
 F ield
 D id
 up set
 Per haps
M e
 Educ ation
sylv ania
aw ay
 M ir
P resident
 challeng ing
 pro ven
 restrict ions
ri k
 fore ver
http s
ol en
 elect ronic
 hit ting
 H ay
 e uro
h o
 un ex
 review s
 Christ ians
 4 3
 N C
 conv icted
St ar
 ill ness
 sm ooth
p age
D av
 H or
 ret ired
 indic ated
us ive
 produ cing
 F ed
 Ab out
 Har ry
 rapid ly
 ro se
 h ide
 corpor ations
f r
 o cean
 R us
ay ing
ow ing
 list ening
 Re uters
 U FC
 S at
 techn ique
 m o
y ard
sel s
 l oyal
 N ic
 Me an
less ly
 rob ot
 cl imb
 not ion
 beg un
 ut il
 re n
 recogn ition
ou ver
eng ers
in f
 per pet
 associ ation
 mil k
 as ks
8 7
 webs ites
 desc ription
 P ack
 tick ets
 P en
ach us
 fl ash
 suggest ing
enn y
 Jud ge
 exclus ive
 reach ing
 b ra
it i
 prep are
 K ansas
Wh o
ion e
 b ail
 fr ag
 progress ive
 b urd
im m
 ex ceed
 equ ally
 H ard
 hard ly
 w idespread
 A BC
 campaign s
 May or
 cont ribute
ud es
olog ists
 br anch
L ook
 R ose
 gr ass
 initi ative
 Mark et
 eth nic
 ex ternal
ik es
 C irc
um a
ri ent
 sens itive
 pract ical
ust ed
el f
 unc lear
 norm ally
R ef
 represent ative
p at
l s
th on
 we lf
 F ull
 redu cing
app y
 friend ly
b ec
 care fully
 Arab ia
l ad
 R ef
 L y
8 9
P M
 L uc
 rac ist
 inv ent
r ical
ou ch
P G
 C O
 N ext
 respect ively
sen al
rat or
 t ail
 McC ain
 Bern ie
anc ouver
 overwhel ming
 view ers
 Be ach
st ract
 welf are
arr ass
 F urther
 convin ced
U N
 sm oke
um es
 coll apse
 involve ment
 L ind
 th rown
pl oad
 connect ions
he ast
 terror ists
 B attle
 strateg ic
 h ook
  00
 Lat in
 rec over
omet hing
igr ant
 O nt
 w ine
M c
ino is
 Mus ic
ro lled
 mind s
 v ital
 settle ment
 stat istics
 l ists
 v ary
 feat uring
 ESP N
ec ut
achus etts
 S ir
 behavi our
 independ ence
 D ig
w orth
 fant asy
 dev ast
es ter
ned y
c ore
ut ies
 inv ited
 compl aints
 jo ining
 score s
d em
 f iscal
 deep er
ab il
 Penn sylvania
if est
 st eal
 an ger
 dep uty
 el ig
 w ars
 Squ are
 T enn
 investig ate
 T own
 su gar
 const itutional
 II I
 schol ars
 P it
 i OS
 any body
 subject s
 A ND
 ar ray
 al ien
F A
 U lt
b n
 G ov
 l obby
 owners hip
 frame work
 unemploy ment
 Div ision
 trans gender
 improve ments
 S S
 men u
 pe ak
B ack
 sc reens
ih ad
 in ject
 l uck
ivers ary
 def ine
 t asks
 X box
 dem ocratic
 sc andal
ick ing
 j ury
ac on
 Ant on
 Min istry
C he
 c os
 compre hens
os it
 E s
 K at
 rem em
 disc overy
un ior
 reg ister
ag g
 cas ual
 citiz en
R I
 f ab
S m
U nder
 road s
 disag ree
 fail ing
 N ever
 L ittle
 J ay
 dynam ic
 serv es
 Camer on
 Bro ther
 M ah
 test im
 g athered
 St one
 In formation
 s oph
od ing
 implement ed
 controvers y
 collect ive
 tr ained
ann a
 N SA
 neigh bour
 fear s
level and
 sam ples
 f iction
 pro sec
 est imate
 Commun ity
 I ce
 Med ical
 199 7
 Ph ilipp
 refer ring
 t ip
 cap tain
W ill
 199 6
 sp aces
6 9
c ific
 t rem
 Walk er
 vers us
 leg s
 Sant a
 tem porary
P C
 no ise
' .
 H D
 over t
 incor por
 t one
 visit ors
 re ven
 civil ians
 w ages
 hyp ot
 s in
 rem arks
 aware ness
 O N
 Spr ing
 recomm ended
 st upid
 All en
 head ing
 hand ful
 reg ulation
ick et
 A ction
 C ore
 platform s
 acc us
 Anth ony
 aff airs
 touch down
 r ural
 attack ing
g ener
 ext end
 ult imate
 att ached
 Veg as
 discuss ions
 R en
 hor se
 B rew
m ad
 rep rodu
 gen etic
 expand ed
 attempt ing
ph ones
 Mat thew
 r aces
inc luding
ir y
 Que en
 r aw
 ign ore
 Columb ia
s erv
 P ent
 Guard ian
h our
 C ook
 i P
ition ally
 g ear
 sympt oms
 Pat rick
 suff er
 sett ings
 M ake
—— ——
all ing
 sal ary
c ase
 lic ens
 B udd
m ary
G O
 tweet ed
ang el
 public ation
 br ill
 fact ory
 suspect ed
 purch ased
are t
 inter vention
 eas tern
 hol iday
ty pe
20 14
 the at
Ab out
 dis pl
es h
 rank ed
 ne ck
 Aust in
 Conserv ative
 M useum
ect ive
 R oy
" )
 c ro
 enorm ous
S en
## ##
intend o
 c ogn
 log ic
ult ural
ict ions
 improve ment
 AP I
 view ed
 ing red
 entertain ment
A ss
 legit imate
 Prof essor
omm od
 pres um
 Al bert
 Mass achusetts
 B all
 201 9
 w ww
New s
 act ors
 substant ial
 human ity
 invol ves
 res ource
ar ms
 brother s
 liqu id
 r ational
 seem ingly
 s orry
 lay er
 lo ans
 ro ok
 investig ating
 abs ence
 prov iders
 tom orrow
 fall en
 b ureau
 ground s
 co aches
 st ake
 res ign
 out s
re c
 advoc ates
 H o
 � ��
R C
 investig ators
 conspir acy
W here
 medic ine
 dram atic
 f ulf
 mon itor
 Ch air
ES T
re pre
 over s
 ch apter
 Se ason
 c oc
ov al
G E
l ah
. -
 activ ist
ple te
p ed
 bo at
 Che ck
ak a
 Cont rol
 j ur
 susp ended
 p apers
Sc ript
 Gree ce
 opin ions
 S uch
 R oss
 miss ile
 Gold en
 cele b
 Rev olution
20 16
 stay ed
 co vers
 R a
 He ad
iver pool
 d iversity
oty pe
 b ars
P art
 g am
R uss
 emb arrass
x it
 offic es
 A cc
re ts
our se
cl aim
 P ot
 Iran ian
am med
 dis rupt
co ver
 W W
 pre ced
 po ly
 fore st
we red
 care ful
repre ne
v ard
 am id
 Hist ory
h ot
 H ospital
ist ing
 A le
 aut hent
qu est
 Ill inois
 C BS
 S ony
u ction
 h am
7 9
ge on
Rel ated
d it
 A p
r ine
 transport ation
 V ancouver
 G aza
 hand ed
 prot ocol
 consist ently
 mount ain
 5 2
 read s
 St at
 pre f
 clot hes
 att itude
i ability
 Sh are
 Ken nedy
 p orn
 princ ip
 F reedom
 dep ends
 min ing
d es
 pet ition
 not ing
 war rant
 con ce
 col ors
 low est
 And erson
 T ri
 address ed
 F amily
7 2
un es
7 4
 ent r
S te
 St adium
x x
 throw ing
 j e
 f ruit
 virt ually
! )
 st one
 f oss
in ch
 guarant ee
 refere nd
B oth
? ?
 speak s
 Balt imore
 ste el
 cl osing
it ting
 read er
d ri
F F
 bu ff
 person ality
b i
 appreci ate
 C re
 Iraq i
 sur f
 En vironment
 n erv
ien ces
 k m
m aker
ke ep
 hand ling
 prof its
ord on
 g rav
 mar ks
l ow
 tri es
 Bro ad
 contribut ions
 Eng ine
rop ri
z ed
 spirit ual
 convers ations
 fant astic
 T ro
 l ands
 con sole
 hor ror
il a
pp ers
" .[
ic ity
 g ains
 cover ing
 te a
iv als
 Har ris
H er
 h int
 ast ron
av al
 should er
sc ale
 w rest
 gu est
 E xt
 acc ommod
ut ed
u its
 dep ression
 C A
  _
 Lew is
 l ucky
 B ang
 encour aged
fl ix
am ac
 jud ges
 inc idents
 C leveland
 d rew
 subsequ ent
 sp oken
ir a
 How ard
ann els
 B ad
 bro wn
 b acter
P lease
ix ed
 r het
 r anks
 Get ty
 phot ograp
 infl ation
 in ner
 Int elligence
 P o
m at
 B a
 m aps
ab eth
 Pat ri
port ed
ij ing
pl ate
 div ided
 199 5
 N ATO
**** ****
 par alle
 dr ama
 Mex ican
 dist ributed
 g al
 innov ation
 sw ing
un icip
 c ust
 Un fortunately
 prem ium
 vot er
 per mit
 re vel
 K ong
 d ance
 cl im
pl ed
 L as
 eff iciency
 prom ises
 Ind eed
N ote
 C H
 Wh ich
 ball ot
 5 1
ed ing
p ie
 Ad v
 temper atures
 S amsung
 port ray
 spokes person
 l ocked
 l ying
 impro ving
 th rew
 j oy
 d ump
Ar t
 mus ical
P P
 mist akes
d ated
 sh out
 St art
 hom eless
con f
 replace ment
er ies
 com edy
 che cks
 With out
 M oon
 instru ment
oun ce
 Con nect
 acknowled ged
 bar rel
 respons es
 protect ing
back s
 D et
� �
 sil ver
 cop ies
he im
 l es
 A C
 d ad
 break s
 Pl us
 B uff
 common ly
 le ts
 leg acy
it age
 mat hem
 prote in
 jo ke
amac are
er ted
ar re
 pass engers
20 15
 y ellow
 Mar vel
h op
 n aturally
Y our
 S cient
 nom ination
S ource
 meas ured
ap ing
od ed
al ia
 U se
 abandon ed
 m ad
 Pr ince
 stud ied
8 00
 Foot ball
hel sea
 d iverse
arg o
 acqu ired
iet ies
 L yn
C ons
est y
 so il
 M arsh
 demonst rated
 bl ast
 re ar
 fund ed
 head quarters
hes is
 st olen
 sc an
 count s
 t ape
 partners hip
 mid field
 N OT
 ( “
 upgr ade
 C ost
y o
 Atlant ic
 m arch
 ord inary
 A ud
 N ev
 r om
aw are
 liter ature
 pl ain
 st ages
 � �
 ass ert
 199 4
h igh
 A I
 help ful
 arri ve
 ex it
 sc ope
 fall s
d og
y er
 ign ored
B M
 tw enty
et ers
 M aster
 cl ock
 com pe
in ction
 vir us
 T rib
 referend um
er g
 in equ
 un ions
 Do es
ass ador
 G un
 conserv atives
 r if
 gr id
 sy mp
 f estival
 sho pping
 f ro
 wat ers
 P op
 cap abilities
 B ron
 a x
z ing
i ate
lah oma
 us age
 H ind
ing ton
 Em pire
aed a
 Ab b
 Indian a
ile y
 trans actions
 hop ed
 dist ract
 A st
 gu itar
V E
 E ag
 st y
 r amp
 assess ment
ct ic
 univers ities
 D ave
 m oon
 monit oring
orm al
ack et
br idge
 represent ing
F acebook
 rat io
 De ath
en cing
ugh t
 Pro v
 convention al
com es
US T
or ge
 tr ave
 S et
 track ing
d oor
nt il
 S ometimes
on ly
sh ire
 h ung
 S us
 rel iable
 t ie
 propos als
 ske pt
 He ll
 repl ied
 R os
f und
u h
 critic ized
 appear ances
r imin
6 2
ecut ive
el a
 H a
 rac ism
 ins isted
or gan
 introdu ction
 20 20
 appoint ed
d ney
 B ureau
ol ph
ag ic
 P ass
c ut
K e
 L ine
 beaut y
 conc rete
 rece iver
 supp lies
 perform ing
m ade
 b ub
 ex ch
r ite
6 3
 vis iting
 Techn ology
 Den ver
oc ument
E E
om es
 C apt
the less
R L
 let ting
AN D
 def icit
 class ified
 Gal axy
 aut o
 re nder
 abs or
 Or ig
 sw im
 accompl ish
 program me
 pres idency
H T
c rib
6 1
 block ed
 Swed en
arch y
 d ust
 Ut ah
 dro ve
 land scape
 can ce
 Port land
pl us
 dismiss ed
 L A
 hy per
 ab road
 bon us
 J am
 T our
h ar
 sequ ence
 predict ed
 sen ator
� �
 A ge
 dom ain
 C ode
 e c
 m useum
 war n
 Associ ated
ac co
 pers ons
N S
 d ub
ian o
j i
ag a
 request ed
 trig ger
 Ont ario
 h ockey
 Cor por
 art ific
 d ates
 testim ony
 cent ers
� �
 rock et
ir ts
 v es
 trans it
 congress ional
 entit led
ult ane
 spokes woman
 Fr ont
 N intendo
 Alex ander
 resc ue
 Co oper
m ony
a is
 ass ign
 B on
 equ ality
 p atch
 ur ged
 b read
 Olymp ic
 document ary
 veter ans
 cl ar
f ol
k ing
 � �
pt on
 rec all
 pop ulations
 L ow
 breat h
St ill
room s
9 3
 when ever
 viol ation
 tact ics
 w ider
ound ing
 target ing
9 4
Y et
th rough
 purs ue
9 2
 s alt
" >
 le an
A re
iz abeth
 f iring
 K ar
 M ill
 ac id
in ating
 m ole
 restaur ants
 comp are
f are
C omp
or ous
enn is
 w edd
 employ ed
 Rober ts
 cont rad
 B ible
 polit ically
a ver
 phr ase
 satell ite
 C ro
 surv ival
 retire ment
 bank ing
7 3
 F orm
 brill iant
is ons
 G irl
at ar
 ch annels
7 1
 ser vers
 Be ijing
 soc cer
tr ans
 M ach
the y
 introdu ce
 Just in
 exper iments
ene z
 prison ers
ra pped
 c ig
 W H
af e
j ud
 f ighter
6 00
 scient ist
O K
 Y OU
usal em
 L ist
 sub mit
 appro ached
 A ward
 month ly
 L iverpool
 design s
 represent atives
 tit led
ord inary
 qu ote
 popular ity
ol ves
 ab ilities
oen ix
 c ul
 P D
 members hip
 investig ations
 focus ing
m ans
 b ab
 h osp
 Br idge
Th ough
 Mary land
 sa ving
 r ush
 Govern or
b ow
 sh adow
ou ri
 H ur
 B ase
 object ive
ber ry
em ed
 T ed
er ts
eder ation
 m it
 pre par
 t ips
 W as
 pip eline
Dav id
 child hood
ik a
 rat ings
 th orough
 ent reprene
ent er
 V ill
 D utch
w as
bre ak
 act ively
 Har vard
 p ig
 demand ing
 lo ose
ast y
 unex pected
 sm oking
 sm ell
 den y
C O
 univers al
 fore cast
 arg ues
d on
 phenomen on
 overse as
old s
 sett led
w alk
 Be ck
 gener ations
 week ly
 ch icken
 prep aring
 9 5
 smart phone
 produ cers
 but t
 P A
 legisl ative
 anx iety
 dist urb
 H ave
 innoc ent
min ute
 C lick
 mort g
 celebr ate
D em
ik i
 U r
 prov ision
 D O
 ke ys
d ed
 sh ame
 arg uing
 Des ign
he ld
 question ed
 for cing
 C ow
 H op
omp son
ag h
� �
 broad er
 encoun ter
m ers
S L
 fl ags
 f ool
 m ac
 5 3
 dead ly
 f ur
 re verse
o z
 we igh
 Ed ward
 Am ong
 t ens
  ~
 m os
 wealth y
 Ob amacare
 un pre
e als
 maintain ed
 sure ly
 sh ield
 Pro p
ocol ate
ore t
 second ary
av ed
is a
S im
 sav ings
ir lf
 ro of
 st ability
 civil ian
 t ab
� �
el son
 Car ter
 reve als
m ind
 al arm
 min i
o is
 ann iversary
 s orts
 B ra
 A k
a a
vern ment
E l
 ton ight
8 4
 rele ases
 H on
 room s
irlf riend
is k
 G ulf
 out rage
 prosecut ors
 Le ft
in als
 dis order
 ex ha
or ious
 sh r
 rel ax
 wind ows
 threat ening
 different ly
 harass ment
 qu oted
 health care
 sub mitted
 ar bit
 l unch
st ep
 R un
 reform s
 tort ure
re ction
 f ate
 st ored
 Bel g
 o kay
 propag anda
 sp ots
 instruct ions
 Viet nam
 se vent
 round s
 odd s
it ter
 199 2
 a er
ht ml
ten ance
 er rors
est ed
 Ok lahoma
 hy dro
ic ism
G A
 de lic
ail ed
 Liber al
 sil ence
 Gra ham
act s
 War ren
 grad uate
 S ab
p a
 afford able
 circ le
se ct
 Bl oom
 cooper ation
 p icks
 se ar
it ary
 Sar ah
 F all
ors hip
 Ex pl
 strik ing
 p uzz
 pers u
 stre aming
 comprehens ive
r ace
om ed
 important ly
 c ow
 poss ess
W atch
 f ing
 exec ution
 Rub y
l ined
row s
 int im
 strugg led
 P erson
 ass ass
 Sil ver
 Le ader
ut en
ah u
 g ent
 Pr ice
Re uters
T y
ish op
 des erve
 Jer usalem
 land ing
 cal m
 al ter
 cere mony
 assum ed
 demonst rate
 difficult y
 ag es
 pr on
 d ying
 h al
 dist ingu
as ury
 ste pped
 b orders
 che st
et he
 W olf
 L t
 adv enture
 point ing
ov a
 w aves
ater n
 kil omet
es see
ier ce
 Net flix
 aut onom
 precise ly
 architect ure
 great ly
 prom ising
 cons ent
b ury
 consider ation
 T en
 De b
 dri ves
 dial ogue
 M ain
 trem end
as ant
 newslet ter
 rook ie
8 3
 award ed
 Mean while
a fter
 repe at
 St ory
 cont ribution
 Te le
i ac
 b urning
ie v
part y
 sim ultane
 Scott ish
 V ice
 don ations
 Ind ust
ak h
 inter f
it ol
 Mag ic
 vo ices
 analy st
 Bru ce
 Te ch
cept ions
 g if
 frequ ency
 Comm on
 proced ure
 want ing
 P res
om y
 execut ives
 playoff s
 B ud
le e
o ice
 stay ing
ap olis
 b irds
 bi as
V D
 H ong
 A z
iz er
 inc hes
 tr illion
hold ers
 highlight s
 sem i
 remark able
 where as
E X
rib utes
 Palestin ians
 kn ee
op en
 Jon athan
 an s
ra ig
 impl ications
scrib e
 form ation
 super ior
 strateg ies
it ual
 Ber lin
St ep
 L ink
st al
d iv
 Sy dney
 M ORE
 categ ories
 Ar k
 f et
 follow ers
 cre am
St ory
port ation
F O
 contact ed
M s
 jud gment
ann on
 sm ile
 inf o
 emer ging
ig ious
r if
j s
ond er
b ered
y es
v ision
 E ff
vertise ments
iff s
h att
 access ible
 cr imin
T P
 phys ically
 ass igned
 5 4
 And re
 gu idelines
 defe ated
 w ounded
 tri als
 st em
 man aging
 spe ll
 min istry
 gr ade
 co inc
 r iding
 indic ates
 cent uries
 S om
Ch rist
c est
 Aff airs
 op ens
ak i
 ph arm
ll a
- >
 meaning ful
 t iss
ere nt
 Mr s
 e ase
ch ild
 marg in
 St ore
 clot hing
 T es
 � ��
 S ix
 Cap ital
 particip ation
ced ented
M us
 re vers
ar ia
 po ison
 Bre xit
 1 20
 Y emen
 l apt
 compet ing
 mem ories
 C S
 the ories
 rec ipe
 g ross
um ble
a uthor
h ard
 pass age
s l
 ag ed
 C redit
 b in
 dr one
 bl ank
 disp ute
 dam aged
 199 3
v an
 Ham ilton
 L am
b ase
 subst ance
 host ed
T ER
Go ogle
 C helsea
 promot ing
 fac ilit
 open ly
 Inst agram
 19 50
 V ik
V iew
 Child ren
 Cr ime
 clin ical
O ut
 n ic
ere my
 H old
e ven
b its
 invest ments
 cons ensus
ig ate
 Le on
 F al
 9 9
 educ ational
it o
s es
con st
 dis h
 man ifest
 cust ody
we ek
 elig ible
 Haw ai
 leg ally
 miss ions
 end orse
 g ate
er ia
 mem o
 G T
 t ables
 P ict
 n in
 stud ying
H z
  ?
 char ity
ar ation
 address es
ad i
 ins pect
 disc ount
ri x
le ft
 batt les
AL L
 D er
 2 50
 As sembly
 athlet es
P re
 Tr ade
 foss il
 enthus i
 Man agement
 suspect s
 t ired
 he lic
A ct
 counter part
 n a
8 2
ac hel
 d ating
 E th
 spect rum
 M etro
ater al
 St ation
 B al
 present ation
 l ux
ge red
art s
 bot tle
 t ap
ri ors
 v ig
 fund ra
 enh ance
ass y
 Se an
 therap y
 W ales
 Ex per
 per ceived
mark et
 T ok
 domin ant
D ef
m ath
 back ing
 F estival
 under lying
 def ending
 Th rough
 rac ing
 discuss ing
 burd en
 expand ing
 mus cle
 stop s
u z
 be ings
 Mar x
 E qu
 trans action
 U ber
C al
 rec ruit
it udes
ac her
 G ary
 m ood
 pick ing
land o
yl um
play er
 man agers
or able
 gather ing
 hop efully
ang le
 S on
al ysis
 V ideo
se ction
 cr us
 Lib ya
 imp ression
 h ip
ol ar
� �
 scr ut
 ro y
 T ai
igen ous
 inst itution
 Bat man
} }
 st ere
 proced ures
� �
 p ocket
 creat ures
 comp at
 arri val
pt ions
ol n
w atch
 B oe
 e ager
 poll ution
it ure
 food s
 kit chen
oc ial
 rec re
 surv iv
ro ph
 organ ic
 Pent agon
 Mor gan
 sh ipping
 capital ism
 ins ult
 tim ing
s ub
od ox
 require ment
 unf air
ad ers
 5 6
 m ice
 Ass ad
R em
 Rep resent
 M ess
 ML S
b ing
ative ly
 El izabeth
 O p
 dise ases
 indust ries
 Oak land
d y
 b owl
 Mur ray
 C reat
M od
 s ed
 helic op
 div or
ag ger
 be ach
 punish ment
ab et
 she ll
** *
 fl ed
 hosp itals
miss ions
 t ons
 K ick
 se ed
og y
A F
8 1
 Come y
opy right
 stat ist
 engine ers
 ob sc
 h ire
 mod ule
R eg
A Y
am ous
 coach ing
oc a
 ans wered
r ac
S C
T R
 graph ics
 regul atory
 so vere
 st ance
alt ies
 b ow
 Ke ep
C lick
 expl aining
 rhet oric
 be ating
 F riend
 t ut
 Em ail
ri or
 Y eah
 M it
em ic
 acknow ledge
 Mic hel
 princip al
 pull ing
erv es
 sign ature
br id
ol ving
 conv ince
 R oll
 var iable
cos ystem
 p ill
 search ing
 O x
 d ies
 over come
 prefer red
du ction
 six th
 adv iser
 Tenn essee
 trend s
  !
 Rus sell
 ( "
 Th ompson
G e
 mer ch
 reb els
 inter action
 period s
 Y an
 psych ological
d s
M ich
 S ure
 Us ing
 econom ics
 Charl ie
 B i
 out lets
 G il
 Int el
 sign als
p g
 e cho
 Ex ecutive
 Kent ucky
 tem por
 bill ions
 line up
 m ath
20 13
 199 1
 set up
 re nd
F inally
net ic
 egg s
u i
C omm
 se gment
 ar r
m ic
 bad ly
ke e
 L i
 sent enced
 every day
 Dr agon
 command er
 H oll
 A N
 l oves
unicip al
 gen es
N BC
 b old
 requ iring
 bul let
 inv asion
w ill
 part ly
 esc al
9 1
 inst ant
 g ig
 J ean
che ck
 ar ts
 g ene
 rem oval
 under t
 u pload
li est
 H art
 top ics
 I ron
enez uel
 inqu iry
 am endment
 weak ness
 R ather
new s
 concept s
 Z e
 Mc K
P L
 sh oes
art ed
 S ound
 fab ric
iz za
 Del hi
E arlier
ts burgh
 frequ ent
 se ctions
 occ urs
ol i
 m igrants
 compens ation
 engine er
en ess
 l ad
h as
 F inally
 f o
 attract ive
 B ox
 un ve
in stein
  ).
 c iting
 twe ets
 ut ility
aren cy
gr ade
c or
 post ing
 ridic ulous
 block chain
 cl er
 Cl ark
 speak er
� �
 di am
� �
 cor rupt
 tal ented
 le ct
 coll aps
 m ask
� �
ne cess
sc reen
 not able
 There fore
 e lder
 gen re
 dead line
 ro lling
 car ries
 B M
T op
 F inal
v ia
 E T
ent al
 appro aches
 elimin ate
 Pri v
e le
 analy sts
 s its
 c ens
St ate
 inst ances
 Sim on
 publ ishing
 unpre cedented
 col our
 ro ots
 Ph oenix
V P
 c ock
 b ene
 P sych
 tox ic
 collabor ation
 ar c
 inequ ality
g us
 neighb ors
 ins ight
 dram atically
 Har per
 hom osexual
 town s
 pri ze
 extra ordinary
 per ception
 G ordon
 Whe ther
 Ph ill
 par ad
arg et
 g est
 main tenance
ows ki
row ing
 G O
 G ro
 che aper
is dom
 associ ate
 cou p
M ark
 E vent
 she et
 B ow
 Bel ow
 S av
 Cap tain
p ack
 cogn itive
 encour aging
 d reams
 P ers
 se ized
 interview ed
 deploy ed
 viol ations
 camp s
 com ics
 constit u
 Re agan
 reserv ed
 bu ck
 employ ers
 aim s
at us
 function al
 myster y
 display ed
ib an
P aul
 sp an
 lo op
 de light
ap ore
c re
 tr aged
 S a
 Econom ic
ixt ure
 5 7
ric ane
 gl ad
 occas ionally
 v end
 ex port
T ON
 birth day
 hero es
 fat al
est yle
og a
 correct ly
 St ew
 prompt ed
 st amp
 Co le
el le
 contem porary
 A ccess
 J enn
 prospect s
ot ing
 V e
 ir re
 recommend ations
A B
 diplom atic
th rop
 p a
igh th
m ir
 be ll
 paralle l
 exc lud
el ing
 const itution
on z
 disappoint ed
 manufacture rs
 ad equ
 int r
 St aff
 moder ate
 E ver
 D og
ol s
 e cosystem
 accomp an
T ime
 demand ed
 8 5
 G DP
 Phot os
 n ose
v i
 Mont real
 D ick
ail able
 inter pre
end ar
 ple ased
20 17
 lab our
 lif etime
 Brook lyn
 T ax
 E st
 Res erve
ro ck
 communic ate
 fight s
 mod ified
 dr unk
 O cean
 s essions
 wedd ing
 kn ock
 explos ion
 L ibrary
 bi ological
 land ed
 rep air
 E PA
 5 8
 Author ity
 sub sc
 represent ation
 G iven
w a
 artific ial
2 50
le ans
f it
F i
 rel ation
 own s
 Kh an
ix on
 Anton io
 Dig ital
 l ift
ag en
ro t
 design er
 rec on
Th anks
 em p
 conscious ness
 kick ed
 Or der
 def ender
 h anging
 less ons
h ist
 imp osed
 gu ests
 adop t
 an onymous
1 50
 s li
 concer ning
w ind
 pregn ant
 F ive
inc oln
 B ul
 under ground
ac re
 maintain ing
 ass et
 Al an
 p unch
 R ome
bour ne
 sh irt
 ingred ients
Up date
 che ese
w ed
 int ellig
is ition
 Ch annel
 Con vention
 pod cast
 inter ior
gr aph
": "
 emot ions
ch ing
h uman
 ab stract
 Ar gent
 cou ples
 less on
 creat ure
 res olve
 sh ocked
 opp ose
W he
 sum mit
 perform ances
 S U
 volunte ers
 B urn
D is
 B ol
 sold ier
� �
s ome
 stim ul
 log o
� �
app ropri
ist ant
 ter r
 v ocal
 acc um
 g irlfriend
 Prot ection
b en
ult y
 jump ed
 ann oy
 P age
 D ur
 j ihad
 m ile
 n urs
S E
 L ear
 milit ants
ac les
us er
 gu id
 F ant
 Miss ouri
 profession als
G ener
( "
 An na
ik h
Inst ead
ial s
 but ter
 s wit
 ref ers
 desk top
 travel ing
d r
 l ibr
g ets
 isol ated
 for um
 H an
 advoc ate
 exist ed
 L im
 opp osing
 Co al
 rec alled
… .
N ext
St ation
 C ase
Is rael
 6 00
 integr ation
 describ ing
 box es
 Java Script
 Or leans
ear ly
 st ro
C D
 M ail
 min imal
 H al
tain ment
 conf used
 C ustom
 S D
ump h
 peace ful
 in herent
od ge
 surround ed
  vert
c al
own ed
g ate
s a
 Cap itol
hatt an
 H and
com mun
 h oles
 me al
 198 9
 integr ity
 K now
 Play er
 p m
 Bar b
 inspir ation
 B an
 config uration
 R s
 s ne
 Tr ust
he ro
� �
 exp ense
 cred its
ab e
 N on
 sub ur
 elect oral
 ide ology
 y ell
 sil ent
 d ual
 Mar ine
I d
 Do ctor
 st ack
 susp ic
i ens
 bur ied
 Nev ada
� �
T E
im ize
 desper ate
 O cc
st arter
� �
 sc ream
 cl ip
 cho osing
 bom bs
at ics
Tr ans
 C B
 b ands
 team mates
 fle et
 S H
 con vert
 accept able
t ra
 Or lando
ib l
 j er
G u
 W right
 regist ration
L ist
 Port ug
 Hit ler
 brut al
aw ks
S U
N et
 M ove
 sc ar
 an cest
 On line
 All iance
e lection
 subscrib e
 strugg les
ar o
 key board
 moment um
 Le ban
 Are a
 promot ion
 Ar senal
 V en
 ev ident
F l
 qu it
h ire
f ather
N ame
 organ isation
 wond ering
 Ind ones
 clos est
m its
to o
is d
 embr ace
 Ste el
book s
 Follow ing
 refuge e
 H amp
 te eth
AR T
 pro be
 ut ter
Spe aking
che ll
 at he
 W ord
 occas ional
 mon ster
str ong
 as sembly
 bank rupt
 refere nces
 journal ism
 exp enses
 subsequ ently
ou b
st op
ok er
 pr ide
 gu ards
 M un
 interpret ation
 V enezuel
 y eah
� �
 l in
h r
 rem oving
 or bit
G l
 Ind ependent
 W rit
 prof ound
ip edia
re tt
20 12
 Pit tsburgh
 comprom ise
 kn ife
 district s
 exclus ively
 surv ived
 S ource
 consider able
 st ating
 eng aging
 C ould
 ref use
 b ird
 character istics
 Mount ain
 l obb
 R aj
 just ify
 dom inated
H P
 7 2
Q L
 brief ly
 N azi
b ound
ars on
 R est
 ch ip
 min isters
 pro st
gr ad
 elect ron
 tremend ous
 cont rary
re nd
 g ri
 sustain able
Sh are
 load ed
 fl our
 disapp ear
 nerv ous
 rout es
orne ys
 pro portion
 soph istic
at tered
 execut ed
oc ated
in st
el ve
 D uke
 as ylum
ut ter
 Every one
 game play
 sex ually
Th ank
He y
 B u
 p ir
 don ors
 conf usion
 D ream
 revolution ary
am ine
c ap
 A aron
 And y
 P ant
A g
 cur ious
 Tre asury
 h arsh
lim ited
li hood
inc ome
K E
 att ending
 8 00
 Ad ams
im mer
 I M
� �
sec urity
U C
ó n
 speak ers
 c abinet
 now here
ree k
 fle e
 v oid
 br ands
 ch ronic
 print ed
 Tes la
 Sh ort
 charg ing
 eng ines
 phys ics
re ck
an im
 H aving
f unction
ur se
 M ult
 concer t
sc ar
 Sher iff
 out comes
ing e
 A ren
 Off icer
M AN
ubl ished
ol id
ot te
 o rient
 mir ror
 streng then
 G ib
th ood
 J un
 fail s
op t
 sp o
 obs er
 cha os
. ]
 pass enger
 iP ad
 Cur rent
 crimin als
 f el
 Sp ir
 stead y
 Rob inson
7 00
R ed
 Net her
mer ce
 � �
 rob ust
 Man hattan
 C ON
wh ite
I E
 end ors
 spec ulation
 Ch ange
res hold
 cert ific
 de emed
 Tal iban
 dro pping
 h iring
 N orm
 Gi ants
 Sing apore
 A lp
 integr ated
 Per ry
 pres ents
 av o
 T s
 B and
 F A
 guarant eed
app er
 f ert
 ep ic
 le aked
 K ings
 pack ages
m ble
 ple asure
B N
 susp ension
 challeng ed
 pack ed
 check ing
� �
 b its
g ood
 v it
 eng agement
 rad iation
 sl ot
 bomb ing
 H u
 pat ri
le ep
 d a
 al ert
P al
ist le
 w et
r ics
 hun ting
 US B
 T el
ri v
� �
ÃÂÃÂ ÃÂÃÂ
 produ ces
 witness es
 C raig
oph ob
 edit orial
 def ended
 rec overed
 H oly
ment ed
 develop ments
 simultane ously
 bo om
 bacter ia
 L og
 block ing
R ight
 L ater
 5 9
 attract ed
 6 6
 fig ured
 O pp
 H ung
 cor rel
 all iance
 researc her
 taxp ayers
 Enter tainment
 L es
 N one
 cap s
c ard
 J eremy
 host s
 c inem
 pat ent
 Russ ians
iz arre
 exam ine
AT CH
 F uture
 vari ables
ast e
 L incoln
if ier
 o xy
 em bed
---------------- ----------------
 j unior
lyn n
ate ful
Bl ack
 G h
ut er
on ed
 Chair man
 publ ish
 T ower
J P
 t ear
 6 2
 met h
 bre ast
 V lad
D R
g ly
 v ent
 Pol and
 Ukrain ian
 Stud ies
ades h
gg ed
C ar
d ep
 en act
m ay
 D ak
 fl ights
om ic
 accur acy
 fl av
 W i
 dist ribut
 l os
 impact s
 B or
 K it
 surprising ly
 sol o
 ra ises
 burn ed
 r ic
 S ci
 ang le
secut ive
 W ould
 ev ac
 qual ified
 decre ase
 C PU
o ft
n ie
 ev olved
v as
 fl avor
olit ical
t est
 un necess
b in
ac o
 as semb
 T otal
 intim id
w ich
im ir
 court esy
 O R
C or
ER E
 fing ers
 MP s
r ition
 product ive
 v oc
 bl amed
ethe less
 H IV
 depend ent
 expect ing
 transfer red
 R angers
 en abled
 ident ical
 vis its
 expect s
 l ane
n an
 G ill
d ict
 ign or
 U b
 acc ord
 Gr iff
ter ror
is hers
B ook
 Stew art
 v enture
 C C
 b arg
B r
 sh ops
 depart ure
 Comm and
ie re
 Miss iss
 kill er
 repe al
 motiv ated
 rest ore
 agree ments
 D u
 conflic ts
 organ is
th odox
 sc ared
 forg otten
 Th ink
id en
ick ed
ul se
 in her
 nation wide
 Ed ition
b ian
 cy cl
 influ enced
 crit eria
 N i
ern and
 occup ied
 anim ation
 B C
 trail er
 rank ing
 P ope
 Sh ould
 Th ings
  `
 back s
ah oo
 tele phone
 occas ion
T O
ab out
d f
un ity
 anal ys
 Red dit
 function ality
 check ed
 concent ration
 Mod el
look ing
 household s
l ink
 re ass
ond uct
 algorith m
 cour age
ra h
ress ing
 Supp ort
 promot ed
 H ug
ou p
 imp rison
am ents
 explicit ly
 bat ter
 des p
i ar
 bab ies
 t anks
 o ught
 st atic
 Pro duct
 rele asing
 ant ib
 Pl ace
ri ke
 sub tle
For mer
IL L
 st ats
 b ases
 stri p
 do ct
l arge
u ating
G r
 privile ge
 J erry
M B
 More over
ag ine
 E nt
ipp i
 War ner
 N O
 met ers
 entr ance
 tow er
 investig ated
Th ree
 sen ators
z one
 C old
 Canad ians
 h ub
 w ise
 over l
 appl ies
 form ula
 Stand ard
 E b
oll ar
 Egypt ian
 m art
 Christ opher
 inev itable
bre aking
 uncertain ty
 prov ider
act or
 pain ting
 contin u
 mod est
 l ens
 influ ential
 dest ination
 Que ens
 M ap
for ward
iz ations
 ch ips
be ing
S upp
 all y
 inf ection
 d imin
le ading
" ,"
 Un ivers
 j et
k es
 sole ly
 bel t
 sc rew
 in aug
 6 3
 ins ist
G ood
Y eah
ry ing
 T R
 N iger
 the ft
u ccess
 M arg
 polit ician
 Al aska
 transp arency
 Play Station
 invest ed
 sing er
 imm une
 Ott awa
 prov isions
ist ance
 St ock
t own
 hand led
 p y
o vers
 uncom fort
amp a
 Olymp ics
 Louis iana
 imp ressed
 in box
 O il
 oper ator
S D
ard o
E m
unt u
 Nether lands
 ball s
 t ent
il ation
 J ane
n on
 col leg
 sim ilarly
 lif estyle
off s
 head lines
id al
ol as
 bo ards
rif ice
? )
 Tre k
com p
 dis abled
 K r
th ur
ant e
ix el
 Stan ley
 oper ated
 regard ed
v ar
 Ty pe
 launch ing
 S N
 rel uct
 Ex p
ach ment
w all
D own
 M other
 b ol
 D rug
 vol unt
 photograph s
s uch
 kid n
? ’
 sa ke
c itation
 ke en
 det ention
tr ack
 con secutive
r c
Ob ama
 g ym
in ite
 Un like
m illion
). [
 Bl ood
 prosecut or
 fil ter
 D a
 prosec ution
ke ley
 su ck
on ing
angu age
 conv iction
ig e
ut her
 earth qu
 ro lled
 k iss
 T able
eral d
ar med
ist a
 in ex
 Mod i
or ate
 Corpor ation
 Capt ion
t arian
 Cor p
bit ious
 bul k
f irst
 Hamp shire
 m ales
 F O
J o
 un re
 t ears
 traged y
 ch ocolate
 m ouse
 po et
 pres erve
ll or
 guid ance
 F ather
 Be ing
 le ak
 Philipp ines
B el
 Fore st
ur ches
 n u
le an
ass ion
 b ags
 S everal
 rec k
bl ock
 dest ro
 exam ined
 sy nd
 accept ing
 el abor
 miss iles
 abs urd
F urther
r in
 bene ath
 ne ur
 particip ating
viron ments
 1 000
b es
 H ans
 neighborhood s
uck er
 Stan ford
 W y
 compe lling
 reflect s
 compl ained
 ad ap
 b other
 contro ller
 lux ury
 Victor ia
 Ed it
 Mar c
 Cl oud
 Gr ant
 M orm
l aim
 the ater
 Mar io
 en for
 N elson
 shel ter
st ra
boy s
 f er
 Medic are
spe ed
 T am
 f its
 Medic aid
 jur isd
m ons
ous es
 post er
ust ing
 < /
 K night
 cons ists
” )
o pp
 p ose
 signific ance
 Fil m
 po lling
 sto pping
friend ly
 occas ions
b at
 b one
ne g
 D E
 Tok yo
v o
 Rub io
 wire less
 real istic
 exc use
ay a
 L ocal
 Im m
Am ong
E ach
 V in
 C as
 Ch ron
 t ension
 accompan ied
 see ks
 G ard
as m
 back up
ot ion
 rese mb
 mand ate
 S port
 the oret
ell o
 Contin ue
 ass ists
 poss ibilities
 Qu est
f ish
ect s
 bet a
 accus ations
 W inter
ia h
 adv ent
 cook ing
 P a
 C R
 Ch ampions
 Ab u
 supposed ly
 in hab
 Snow den
 emphas is
 fin ishing
 D al
p ing
amb ling
 sust ained
Per haps
c at
 Mal ays
 beat en
 S EC
ite ment
 b ump
i per
 P ear
 d ressed
 a wards
 project ed
ism s
 H ad
 Not hing
 t orn
 innov ative
 Every thing
eg a
 M ind
 affect s
 Ab d
─ ─
 pol ar
 prevent ing
 construct ed
 Fl ash
 B ir
ber y
 long time
AT ION
th al
Follow ing
 f ed
 S ection
 fuck ing
 er u
 g arden
 3 60
I O
 Organ ization
 speed s
 oper ators
 So ft
il st
 g ut
 Fin ancial
 dr um
 man ual
 out standing
 pass word
 mortg age
 K a
 Ham as
 ent ity
 Py thon
c ott
 rec ession
 N ich
 w isdom
un a
 N ature
 document ed
 trad ed
 int rig
 Ste am
 I V
 g olf
 Jim my
 occup ation
 Kurd ish
e velop
 old est
 f ut
 document ation
 favour ite
io x
 pra ised
 resident ial
inc ial
 spot ted
 cop s
cent ury
B ar
ug by
 reven ues
 Comm ons
 Th ird
 lay ers
 wal ks
olit an
 M A
 interact ions
 Patri ots
 sur ge
ch arg
 b icy
 aw ful
 pan els
 the r
 calcul ated
 inf ant
 circ uit
c ular
i ated
 6 7
 experiment al
� ��
r ons
D C
 renew able
 autom atic
 C L
 myster ious
 d irty
any ahu
 tr ains
 Other s
 L ad
 th reshold
 t ale
qu es
 N ash
 6 8
 K al
 deal t
 R h
 review ed
 6 1
m n
� �
l ied
 pain ful
 gl obe
 C itiz
le ted
om er
 co in
ir s
 tri ps
 Tr ue
 Air port
re qu
 Way ne
 cle ared
er r
 F le
 earn ings
ard ed
~ ~
 cross ed
B en
 administ rative
 conven ient
 graph ic
 r iders
 E mer
 N ik
 l ady
 liber ty
 r anging
 b izarre
 p our
 it er
ut o
 B ah
 or g
 he s
for mer
 displ ays
 icon ic
 en vironments
 rob ots
 mother s
Ch ina
 host ing
 am bitious
M art
 198 8
ow der
sel ess
 des ert
be at
 res erve
 sec ular
M on
 sent iment
 pred ec
 Mc Donald
P s
j amin
is ive
On ly
 conver ted
 Cl imate
 tiss ue
 Mur phy
 L arry
 t um
 A FP
 F OR
 drop s
 S in
 De ep
sh ore
D id
 explo it
 De an
w ords
 Red s
 Sum mer
k ind
 creat or
 res ort
c ount
 address ing
 V ar
 an ch
 s ons
 safe ly
 h iding
 att orneys
� �
 devast ating
EM ENT
t wo
 sp ray
 sleep ing
u ably
 cross ing
 p ension
 S ac
 restrict ed
 arrest s
 w ore
 scrut iny
IC E
u j
 unf ortunately
put er
 bur st
 P ir
 libr aries
 depart ments
 murd ered
 compet itors
 D rive
 wh is
 al ign
 contain er
p in
 avail ability
 newslet ters
 fil ing
 Sing h
k ward
 adop tion
ail ing
 newsp apers
 m isc
at ter
 product ivity
 to ss
 re ign
 build s
 S E
b et
 disc rimin
 pregn ancy
 N S
cel ona
 over night
 indic ation
 appear ing
oy d
 publ isher
 ear ning
ar ians
ight ing
 comb ine
 view ing
 d uties
AS H
 Man ning
o j
 m m
 f ishing
 reflect ed
is ode
ari os
 uncomfort able
 Mag azine
 t u
 Wh it
 reg ret
go vernment
 m unicipal
 Further more
n amed
 T an
Che ck
g ence
d ata
 N ative
ag u
d ev
U D
 hor rible
ac cept
b ably
 chemical s
 rel ie
 an onym
 c ave
o op
 separ ated
May be
u els
 sophistic ated
W orld
 r ivals
 re wards
 F ig
or ia
 v iable
 des erves
 pr icing
ell er
 act ed
 Ph ys
 Wik i
 rel atives
 in du
 M and
 win ners
 re cept
 Mad rid
 sl ide
 prepar ation
 equ ipped
vers ion
 r itual
 In n
 limit ations
 Ch rome
ern el
 198 4
 complex ity
 among st
 Ron ald
 = =
 mechanism s
 pe er
 comm od
les h
 param eters
 F ederation
 fire arms
 car rier
 b ip
 to b
 N az
 suggest ions
s ize
 He art
i ors
 N a
 delay ed
 HT ML
 Bl u
 expl oring
 me ets
win ning
g al
 tou g
 198 6
 co ord
 Tai wan
 light ing
 cur ve
 start up
 Coll ins
em it
 intellig ent
Un fortunately
 g host
 celebr ated
 Mississ ippi
 ab und
 ce ase
are r
 inter ven
/ .
 quiet ly
 ens uring
 P oll
 D omin
X X
AT ED
b urn
 reb el
 L uke
 night s
m ap
qu er
 collect ing
20 11
 transl ation
 world s
 det ained
 or ange
 McC on
prof ile
DA Y
 be ef
 employ er
 D VD
 Le vel
P at
ac ies
 rad ar
 S ex
Wh ite
 install ation
 Bl ock
 deliver ing
a very
 design ated
 co ins
Mich ael
em in
 m igration
 deb ates
 ) ;
TH E
od a
 pled ge
 Mel bourne
 cat ast
 E C
 gr ants
 ca ution
 off season
 not ably
 bug s
 table t
hy th
 them es
R O
u ates
 Ex press
 w rap
n atural
 gold en
g ov
 deleg ates
Ad vertisements
A tt
 cour ses
� �
 count less
 Eag les
 D isc
 B ab
 witness ed
 grad ually
 Que bec
al id
 comm ands
 Cub a
c ode
or i
 Coal ition
 t ends
 viol ated
 mean while
ect ed
 psych iat
med ia
 O w
 demonst ration
p ot
 dem o
 C rit
 P od
form ance
 comment ary
wit zer
 Swed ish
 ann ually
 for b
 p ending
ond s
 He at
 E ve
 observ ations
 th ro
or ical
ath on
 S aint
op les
ers ion
arent ly
 T oy
arm a
 remem bered
 f ires
 question ing
ren cies
 cor n
 Sm art
F S
 N ap
 lapt op
 ver ify
 imp ose
 highlight ed
 repl acing
ru p
 se eds
 L ady
 cont ents
 h unt
 pre view
el come
M edia
found er
 frust ration
 Marsh all
 discipl ine
 pat rol
 supp lement
 poor ly
f i
ond a
ude au
 com ed
 gra ve
 Pro gress
 pra ise
 t empt
 Pe ace
 Ar ts
 f urn
 bath room
 P el
ra it
pie ce
 act ress
 as pir
 happ iness
 K y
 expl oration
 gent le
 R ound
om ach
 cru el
 L ions
 st arter
out ing
 Hun ter
 prevent ed
 Bl ake
 ch amber
f ile
 L en
 W ard
 pr ayer
M in
 cult iv
 St orm
 ven ue
 per mitted
 inst antly
 oxy gen
 H uff
W ar
 alt ogether
ur ities
Rep ublic
 bond s
at al
 amb assador
 Be at
 Mot or
. ),
 aren a
ug s
 con ced
 Ber keley
 disapp eared
 plan es
 7 6
 techn ological
st ring
 A y
sh ot
ier re
 suggest ion
am an
 Rog er
 part ially
 agric ulture
anc hes
 un l
 d il
 dr inks
oc ur
 Camp bell
 Fer gus
fl ow
 s izes
 incor rect
T witter
 protect ions
 F R
h ill
 fasc inating
 Environment al
 H ann
 Christian ity
g roup
 vacc ine
 Hawai i
 Add itionally
 log ical
 M as
 par ks
 M uch
au cus
 sty les
at ical
 supp orter
 honest ly
 ad j
 al ike
 L aur
appropri ate
 NC AA
 pro l
 tob acco
 marg inal
en cer
 to ll
 sum mary
tt es
olog ically
 fle w
 G ene
 Kick starter
 adv ised
 heart s
 comp r
 sing ing
Le aks
 w ound
The ir
 appoint ment
 Q ual
 For ces
 Congress ional
 eth ics
 st unning
 J en
es ides
 cap ability
 G ab
 Mit chell
 trans mission
 enter prise
 C ry
 Vlad imir
 met aph
ch ron
 Spe aker
 pros per
 p owered
 Man ager
 react ions
 Ed itor
 ess ay
 elect rical
 c ous
pl ing
 Am b
 st ressed
 ha z
p y
 T odd
 fac ulty
 m akers
 G re
 Cor ps
 as h
b u
 Aren a
 ce iling
 sk et
 der ived
 Re id
l ast
 sevent h
 N ame
iv an
s k
 mount ains
 celeb ration
 r ice
 press ing
 arg uably
 draft ed
 c rown
 dam n
lect ed
 dep os
 ra id
 J ess
 R T
 Or ange
 U I
N T
 B enn
ut t
 end less
F e
 travel ed
 compl ain
 Im p
 dr ones
 S essions
 Commission er
 Ox ford
T IS
 in eff
 Br us
 R ow
g ments
 aw kward
 bu nd
ore r
witzer land
 app lying
 Wat son
 sac rifice
 accompl ished
 shoot er
g ary
( '
 bub ble
 we aken
ult s
T ake
d am
 F lynn
 ep id
on ia
 mechan ics
 assum ption
augh ters
 advoc acy
 c ats
im s
 host ile
 bre ach
 reveal ing
B L
 fr act
 respect ive
hand ed
 scr atch
H ave
st orm
 Mod ern
S everal
at in
 expert ise
 Dak ota
 dev oted
Sec ond
at oes
 Park er
h ol
 Ind ians
 B aker
b ie
 an arch
 circ les
m are
 strong est
 R ap
 Ch all
writ ten
 focus es
D E
form ed
ip her
 sh ocking
 sw ord
 cal endar
ue z
o ard
 aud iences
 m ic
 l one
 K as
 citizens hip
 buy ers
ag raph
 confirm ation
 Medic ine
um ing
W S
E ng
 tr ucks
 l ung
 partic les
id th
 fr ank
 acqu isition
 conclus ions
 comput ing
 sa uce
� �
 Law rence
uer to
 unnecess ary
 direct ors
m id
D ata
B re
 l yr
 D ate
 ro d
 line back
 7 00
act ory
G M
 pen alties
t it
 dec or
it ate
h alf
 sp y
 long est
 respond ing
 Tem ple
ll i
li ver
v ol
v ious
n or
20 10
H ist
it ivity
and ed
 F ind
 bit ter
 E D
M en
b rew
by n
 st ir
 Res p
 H us
oc us
 histor ically
 ent ities
 Mor ris
at re
 ad vertisement
 inter rupt
 D or
 add iction
 y ard
 be ars
 pl acing
 Y ang
s ur
 contribut ing
 bound aries
 g reet
 qual ify
st an
 Fergus on
 understand s
 Sun n
 comp osition
 d uration
? '
j an
um m
 quant um
bor ne
 Hot el
 convers ion
 sh ake
 frust rated
� �
 coordin ator
 Leg isl
 oper ates
M ed
 orient ation
 hack ing
 Saf ety
 P rom
z es
 Bar celona
M M
 st un
 c am
G iven
 R oc
P I
 Rec ords
 pri est
 femin ist
le ments
 His pan
ac ular
 Jac ob
In ter
 198 7
B ig
and y
 dist ant
 motiv ation
 fast est
 t ar
mind ed
 gro cer
 pain ted
 pop ul
bo ards
 I an
S et
 Net anyahu
� �
out heast
 ped est
 F CC
lim inary
 over d
con nect
 R ain
 n ode
IS T
 d ensity
 U C
PD ATE
 overs ight
 tun nel
 experien cing
 R y
 contro lling
f s
 count ies
or ph
 m ild
L a
 saf er
 H end
te ch
 S ong
 S ud
 t ill
 v ague
 197 9
k m
 div ide
 F if
pro t
 Sw iss
 B E
ab ling
 trans formation
 direct ions
 B art
ast ed
 rece ives
 sent ences
 imper ial
le ton
d ec
m art
� �
F igure
 u gly
 sup rem
 illeg ally
com ed
 prob ability
ac er
 int ensity
 comp osed
E uro
 enjoy ing
 C os
og g
 Abb ott
w estern
 he aven
 d ign
s upp
 S ide
 mand atory
spe cific
AC K
 conserv ation
 achieve ment
 g aining
 Rem ember
 Bloom berg
H ar
ry ption
 ins ane
 Again st
 agric ultural
P ar
 p or
 bal anced
d ing
 6 9
 condem ned
 st omach
 198 5
 res idence
 dist inction
 L ie
 print ing
 p ione
 emer ge
 prot otype
 B eng
 C a
 w ings
he alth
 space craft
 invest ing
� �
 accept ance
 7 7
 tou ched
 R ice
 t une
 z omb
 to ile
 Te a
 initi atives
 B uilding
 exch anges
oty pes
 sc ary
 p ays
ay ed
 D J
 ide ological
 p ink
 Bl og
m ain
or ient
 scen arios
idd ing
 f illing
 manufacture r
 Ben jamin
 Be h
-- -
 Ste in
 T ampa
 Ev ans
 E lection
ro c
 ser ial
� �
 inf ring
 const rain
ock er
 rot ation
lam m
ur i
 respect ed
 Mc M
w hen
 K u
 D raft
abb ing
 press ed
 non profit
 pe ers
b ecause
 acqu ire
 c ake
 oper ational
 inc omp
 crop s
 l anes
m other
abet es
in itely
UT ERS
 comple tion
 La ure
 high way
 treat ing
umb led
 prior ities
 subsid ies
 explos ive
 anim ated
 res igned
ec onom
 e ars
g t
ortun ate
 sl avery
 difficult ies
 Ar ctic
ch i
 K l
i ary
ust ers
 M obile
d eg
 is lands
 Co hen
au c
 � �
st ory
 free ly
 ch urches
 Ch ance
w he
ock ets
 sh orter
 fr ight
ow ell
 form ally
 appro ve
 reserv es
 t el
 des ired
 rif le
 qu otes
 G a
 R io
 respond ents
 ex em
 particip ated
 Br andon
 b ones
 discl osure
th ink
 b io
 F igure
 R ail
z b
r idge
ble m
 A wards
 crowd s
 19 30
 human itarian
 worth y
 volunte er
 Te xt
 s her
ic ut
 mechan ical
 tut orial
val id
ere r
 � �
 cle ver
 sec ured
 h ier
 jud icial
o ons
 att ributed
 rum ors
 con j
 m amm
 cr ude
ch arge
 S aints
� �
 mon etary
 deliber ately
 Cent ury
( );
 F ro
ab l
ict s
 cult ures
pro duct
 ro cks
b art
 anticip ated
 in hib
 flex ible
is en
erv ing
 econom ies
 N eed
ud ge
K ey
 McCon nell
 inc ons
 b ass
im ens
 R aid
r ane
at ile
 K yle
 exp ed
 gr ateful
 elder ly
 consequ ence
 j okes
s ized
 her itage
 pan ic
 D om
 teen ager
 dis par
 spread ing
cont rolled
 inter rog
 disp os
 flex ibility
 to ken
 aff air
 Sm all
 altern atives
 ch ap
 F arm
ici ary
 T alk
 t urb
Wh ich
 n aked
 z ones
 decl are
 Circ uit
d rop
 P ok
c rat
 vir al
gl as
ell a
 fin an
 abs ent
 K erry
 attend ance
 T erry
 advant ages
az y
 trig gered
B est
 bu zz
 Albert a
iz ard
 techn ically
 re aches
 S witzerland
 M itt
 Ch ap
 t ensions
 p osed
 B uck
 detect ed
 inst inct
 kn ocked
VER TIS
 design ers
z o
 disturb ing
C urrent
 prev al
 E arly
 Art icle
ll ers
 T reat
 pled ged
� �
 T un
or ig
s ky
ul pt
 Brus sels
 Post s
 instru ments
A ust
val ue
 s ends
R T
 satisf ied
 I C
 process or
 w rapped
il ateral
 M ov
are ttes
iv a
st art
 exc itement
 T a
 f are
 green house
 shif ted
 flu id
 equ ity
 break fast
N orth
 l un
ne ver
 flo ating
 do se
 remind ed
 Kir k
ere n
 harm ful
 P uerto
inc inn
 Part ners
 transp arent
urn ed
 tr apped
 rep ly
 wel comed
 n ull
 app eals
 Camp aign
 Frank lin
 har vest
 O d
 res olved
 legend ary
 su itable
ation ally
 Ant i
 I ss
b est
 mag ical
 br ains
 ref using
 7 3
 fit ness
 avo ided
pr ising
 gr asp
 port fol
b les
 ident ifying
est one
 Gr ay
 decl aration
 announ cing
 7 4
 rec y
 ab ol
it ably
 inn ings
P ress
on er
f ox
 l ib
 h orm
 Lyn ch
 Buff alo
d i
 ste ep
 prov incial
� �
 Commun ist
 condem n
 ha bits
oc ate
 rus hed
 M D
 imm igrant
 mut ual
 em pire
 hat red
 Bar ry
st ock
 M aine
 hy brid
 assum ing
ra ham
 minor ities
 optim istic
s ki
 hope ful
 indic ating
 edit ors
 excess ive
 fro zen
 wh ites
 Phil ip
 brow s
 bel oved
incinn ati
 tempor arily
N G
 conduct ing
f old
se ud
 V ery
ver ning
ank ing
 presum ably
 trust ed
 deploy ment
 imag ination
 edit ing
 Dou g
 supp ose
 ear liest
d ale
 ass ured
 Christ ie
 st ocks
e or
 tend ency
 Pr in
 pen et
 imm ense
 N atural
 sh ar
A V
 Rog ers
th an
N ever
 bar riers
 G PU
1 10
 M om
l as
 f est
 tour ists
p owered
qu ality
 dec iding
 P ed
 head line
 throw s
point s
 cast ing
 B ears
Th rough
es is
 wor ship
ar ound
 comp os
… …
 r all
 infect ed
 Tr udeau
 J ets
 m ixture
 ve gan
 social ist
H aving
 spark ed
 F un
roll er
 A w
keep er
 butt ons
 g rip
 wa ited
 dam aging
r ust
 struct ural
iff erent
 Occ up
 War riors
 grab bed
 defend ers
 Al t
 colle ague
 B und
 d iver
 colleg es
not e
b age
l ib
 crypt ocur
ot ton
 un ity
 athlet ic
pl an
V ideo
 arm or
 re hab
s ign
per or
 tr ash
ig ers
ig hed
 H P
 plan ets
 O scar
 F ried
ors es
ol k
 cart oon
ne red
 sc rap
 Ch uck
au kee
ous ing
 Br ady
 l ake
 G arden
 parliament ary
ll y
A nt
 B ou
 Jeff erson
 f ru
 compl iance
S ch
 soc ieties
w al
m aster
 Liber ty
 purs uit
 dis g
L ink
 wh istle
per ial
 click ing
 a uction
al og
 Gu ide
f il
b ig
 J e
 tradition ally
 7 8
 att itudes
F ree
 surviv ors
 hum or
 approach ing
 wid th
 B h
 n ick
 ex ports
 res on
 Columb us
 Turn er
enn a
 Wik ipedia
p ublic
V al
N EW
Cl inton
 H ide
 legisl ature
 Is lands
 bar rier
 Ke ith
p ace
 wind s
 ch ampions
 dec ides
 purch ases
 m asc
ac ent
be it
 h oney
B R
 pure ly
 lif ted
 det ain
af i
 ess ence
 sec rets
 Cor byn
ruct ive
 Sh an
 purs uing
 observ ation
 text s
t ics
 U ntil
c s
 Har vey
 Mor ning
T om
 in sect
 there by
 f ont
 eth ical
 rec ount
 bl ess
 under mine
force ment
G ame
 w ishes
 t ang
 ur ge
st ore
 grow s
 D ub
arent s
 al ph
AD VERTIS
 regul ators
 off set
 C rown
 f t
 ag greg
T ION
IV E
 meant ime
 Y ahoo
on i
ur red
en c
 don ated
 C orn
 Ch o
 t ong
s chool
 l aser
 econom ists
 liber als
 met ab
 treat y
 S ep
 ex empt
w aukee
 7 1
 remind er
B et
 a est
 succeed ed
 n ons
 p ist
 squ ee
 rom antic
 bott les
 passion ate
 Nor way
 fl ip
  vel
 hack ers
S er
 fail ures
 J u
p ath
 WW E
 Un iverse
 emot ion
 W orks
 out er
icial s
 Fant asy
 P ap
aren thood
 break down
 E V
 M oney
 E X
un ct
======== ========
 ident ification
d ig
 fr action
ple x
 Mad ison
 F DA
back ed
 t rop
 Cam bridge
 adm its
E G
 sac rific
 divor ce
 sens or
 per mits
 0 1
 R aven
 decre ased
own ers
� �
C NN
g ian
 D NC
] :
 exec ute
r ained
 ( )
 gener ous
 after math
 K arl
 E ss
 su ed
 wal let
 comp ly
 draw s
 8 2
sec ond
 comp aring
M C
 unf ortunate
 arri ving
 t at
 ret reat
 fin ancing
th a
vis or
is ers
 str ain
 dis orders
 Ark ansas
 var iation
ol o
 Mil itary
 sl ave
 P ur
 enh anced
 Wiki Leaks
ing ing
he ll
 feed ing
 fem ales
 Rod rig
 E li
rop olitan
 N ort
s ource
t ail
 G host
op es
 ver dict
 helicop ter
 account able
 conclud e
 un h
 Gu y
iz able
 Dep uty
D B
 cre ep
 F isher
 Rob in
aw s
 RE UTERS
 che er
 treat ments
 batter ies
 rec onst
o a
ad vant
 und ers
 J ake
S outh
 Mem orial
 Ne il
m outh
 U RL
 pre ference
L Y
 Connect icut
ect or
 contact s
 s illy
 last ed
 mass es
 Pol ish
 Commun ications
 comp ound
 embed ded
 sequ el
 retail ers
 correspond ing
 M ission
 destro ying
 lack ing
 enc ount
 d aughters
g iving
ig ma
 Ty ler
 wond ered
d irect
 d ys
N Y
 capital ist
f ive
 encount ered
 econom ist
U E
� �
 re un
 R oom
 am pl
 vert ical
 licens ed
S y
F our
 war fare
v ation
 I RS
 K rist
 Th under
 E mb
 found ing
n ormal
 Venezuel a
 Sc ar
 c ub
 sm ugg
 ag ing
 Mar ia
ir able
 h ill
 gif ts
 statist ical
h ave
in ning
p op
 sl ower
 adv ances
 Pakistan i
are st
 grav ity
 f ierce
 Conserv atives
elt a
 Spe ed
 care ers
 st abil
W ork
accept able
 198 3
ard ing
 vill ages
ah l
U M
 intent ions
 organis ations
 separ ation
é s
 Down load
Us ing
 king dom
 author ized
 Ad vent
 count ing
 Luc as
h aul
 tr agic
 P i
 go verning
 warn ings
 dis pro
 ins urg
 Play ers
  �
 S alt
 198 2
 Stud ios
 l ip
 far ms
 Sus an
 Mer kel
 diagn osed
 commission er
 taxp ayer
im age
 Spir it
ut ical
 lobb ying
air y
 ed ited
 dem ol
 C z
 transform ed
 clean ing
g i
 f ib
 H ub
 stre ak
it bart
 suspic ion
 ele ph
 aw a
F ig
 Holl and
 c odes
 contin uous
it ative
 b oring
 B os
ank a
 Pri ze
 Sci ences
 mill enn
 cons iders
crib ed
 screen ing
 gam ers
 St ars
 A th
 cont am
 dam ages
ard less
ol er
ro d
writ er
ol ine
 ten ure
 N av
ear chers
 de ce
 Th or
 Z h
 Br and
 incl usion
ed ed
 fun eral
 cl uster
 f ence
her ic
 a ired
 inst ruction
m i
ank ed
 traff icking
 fe ared
� ��
 K le
u v
r int
 don ation
 P interest
uss ion
f ly
 work place
 inv ite
 D anny
 cred ibility
 te ens
 inst itutional
 mon sters
 D est
O G
id ays
 collaps ed
 ' '
ck er
 just ified
S ign
pp y
 he nce
ham mad
 hypot hesis
ip h
claim ed
 n an
 susp icious
 den ial
 organ izing
 The atre
 isol ation
ad ows
. :
 gr ace
ue ller
 Morm on
 c ort
 sp awn
 With in
A G
in ance
 ste am
 boy friend
 novel s
 civil ization
 wrest ling
 ur ging
 inter ference
 doub led
 Islam ist
 Pet ers
� �
 th irty
h ome
O s
 real m
ch ar
 mag netic
. “
 r ib
 belie ving
 exp end
 out right
 soon er
 ev angel
 Int erest
O rig
 ind ict
 benef icial
 br anches
 dec ks
 cry ing
 comp iled
oll ah
 recru iting
 m ock
 educ ated
 en ables
ool s
 le verage
 inv ented
 r hyth
 rus hing
 elimin ated
co ins
C ap
J an
H ill
Ty pe
ur able
op ard
l ive
 spons ored
D ec
 unve iled
 tra its
 be ers
� �
 Charl otte
 Ub untu
 Stud io
M et
 tem plate
 C incinnati
 routine ly
 ple aded
 B ash
A h
 p izza
fe ld
US A
 B L
ADVERTIS EMENT
 lab els
 T D
Ref erences
 eval uate
St ud
 d umb
 solid arity
 tem ple
 ag rees
 Lt d
 breat hing
 o x
 album s
au x
 K am
 For mer
Whe ther
 med ian
rodu ction
 Brad ley
 lay out
 disc our
 Pr inc
 H ills
 F el
 8 8
 l au
re nder
 Gl ass
 ult ra
Gener al
 shif ts
amp s
 incent ive
 C ut
 direct ory
 Le af
J ames
 C arson
st age
 entreprene urs
 B uy
ah a
 v ibr
 Hind u
 magn itude
M al
 jump ing
A lex
ast ically
Is lam
 C ass
 smart phones
 O liver
k h
 compar able
 climb ing
w idth
 Indones ia
 arrange ment
 whe els
 path s
 S M
 termin al
ess ional
 pil ots
dri ven
 midfield er
 incent ives
 d irt
 M M
 spec ified
 except ions
 adequ ate
t able
 sn aps
 mon op
 coc aine
ace utical
U I
 psych ology
 pe oples
ord able
arth y
 pre liminary
 c ents
 Sen ior
 Mc L
 L ED
 part ial
p ur
 Ver izon
 A B
200 9
 Ver mont
ch a
 P ence
 scream ing
 lyr ics
 Sol ar
 vis a
ill o
 B JP
u cc
 transl ated
 gl ob
 firm ly
ir k
 ch ains
 gen et
 Trib une
G od
 introdu cing
j ar
 trans f
 reg ards
 connect ing
 counterpart s
 am end
 ac res
 St re
 cr icket
 b ust
 F ab
>> >>
 J oy
an ium
 G onz
 appeal ing
 Friend s
 un st
 me als
 un rest
W A
 Count ry
 wild life
é mon
b ull
M ake
1 20
 d ivers
 S ox
 : :
oc c
 trad itions
 threat en
 T ob
 p upp
 creat ors
� �
l ie
 vac ation
St art
 sens ors
 like lihood
 Book s
 N in
 determin ation
 comment ed
 an ime
ias m
 tri ple
 tr ace
 conv inc
umb ling
c end
 match ing
 Prof ile
 count ed
  �
 bet ray
iv ic
erv ation
 prec ious
res a
 P AC
 to y
 pl aint
ri en
 Belg ium
� �
 sc ulpt
 motor cy
 par agraph
 she er
 Leban on
ul ative
 invest or
 kill s
 le agues
 endors ed
N ET
 licens ing
 accur ately
 Ar thur
Russ ia
 tw ist
 shif ting
 AM D
 N ixon
 dis m
O V
 fold er
 Cow boys
lud e
 B Y
ian g
W est
 disappoint ing
ate ur
 avoid ing
 comp assion
te es
at on
i ots
ack er
 j ew
 gr ain
 prohib ited
 19 20
ur l
 m erc
 Brazil ian
 G arc
 R osen
ugg ed
 Argent ina
 work force
 account ing
U PDATE
 R ams
 H unt
 sp are
 n it
 proceed ings
p se
 Univers al
 f ict
 Eb ola
 r iot
 length y
 sl aves
 We iss
 Polit ical
ri ving
 dub bed
ell ar
pr ing
 in mates
 ment ally
 sh aped
 fundra ising
 over look
O ct
 touchdown s
 celebr ity
w art
oc aly
 198 1
 mar ine
 ind irect
 she d
 willing ness
ke es
 d ivid
ale y
agh d
H D
aff e
 int u
 Bro s
 severe ly
ul um
OS T
 gener ating
 establ ishing
G reen
if ting
 should ers
 negoti ate
 implement ing
 Ser ge
t or
Euro pe
 p owder
 renew ed
 Fin ance
R ich
red ict
 consum ed
 swim ming
 b ite
 creat ivity
 Q aeda
 rel ating
J ack
 se ctors
r ament
v als
 fire f
 certific ate
 Gl enn
k g
 Ph one
� �
 M ort
 assum ptions
ss on
ak u
l en
ubl in
  �
D ay
pe ople
 interact ive
S ometimes
ios ity
 obs erve
au er
 P L
l ash
 trad em
S ON
 G ates
 accomp any
ull ivan
 aver aged
 ref lection
it ated
 h ij
 C her
RE AD
H igh
iox ide
 bra ve
u ced
 sa il
 roy al
 M ust
re r
� �
 dis k
ant o
 An im
 affect ing
is ible
R ober
 L ane
d ays
out ube
 film ing
 wor n
at ers
 black s
 T ell
 fol k
Ch ris
 Ar men
ul ent
 ind igenous
 earthqu ake
 p ub
qu al
 subsc ription
 t ub
 B ond
 consult ant
 mount ed
 adapt ation
 clin ic
 det ection
 7 9
ro se
ol utions
 An ne
 compat ible
 Mar co
 Mil waukee
 rep ublic
 Cl ar
ac ious
as i
eng u
 rec alls
 y e
 1 30
olph ins
 f uels
 cor ners
 special ist
B rit
 esc aped
 High way
 di abetes
G erman
 196 7
 wood en
 adjust ed
 M ason
 tri umph
 predict ions
 C elt
i ology
 sl ip
 imp ress
oot ing
 problem atic
 E c
 less er
 ad mission
 N ex
 liter ary
 far ming
 A ve
in os
n ik
 trans cript
█ █
 mar ry
 m aker
 laws uits
 aggress ion
 E dd
 Bl ues
 orig ins
 C reek
 Col omb
ab ul
 H um
 he aling
ett a
 aud it
 contin ent
 Bull s
 tr ap
 Ger mans
 1 10
W H
 h oly
 Dou glas
 desc ript
 where ver
 music ians
ec hes
iss a
cl osure
 R C
 Gold man
 v on
he w
S uper
 � �
 B B
 under way
al ph
 mort ality
 Re ading
et ing
ne ath
 eval uation
bl og
h is
orn s
 p ants
 ab used
ig m
 Gall ery
 vulner ability
 bankrupt cy
 super hero
 del ays
 P arenthood
 res et
 le ather
 le af
W rit
 sh ore
 independ ently
mun ition
RE L
 ve to
oca ust
 sk illed
Russ ian
ig nt
h al
 tim eline
Mus lim
 Sp ider
T or
 le aks
ili ation
 inter cept
 V A
 resign ation
 in ch
 su its
act ic
 w reck
 cy cling
 S W
 Bron cos
 dark ness
 18 0
 organ ize
 sw ift
 Super man
 sher iff
ail and
 Bern ard
ather ine
ra pe
 after wards
 S or
 res ume
 se iz
 support ive
lev ant
es ity
P N
 shoot ings
mar ks
 S omething
.. ."
 in appropriate
 J oh
 form ing
 19 40
 laugh ing
 behavi ors
ah n
T unes
se lling
iss ance
 altern ate
 I l
umb l
pe red
light s
 un anim
 test ified
 Is a
 reb ell
 196 8
 pract ically
 es p
ugg ing
 Bud get
row th
 broad band
 T ry
 thorough ly
 cr ashed
 ins ists
 teen age
 L ock
 s ie
 b ind
 dis advant
 labor atory
 S ad
 pre st
 John ny
 doct rine
 enc ryption
i op
 un e
 Ex change
ur u
 cons olid
 k ernel
bl ack
 Vik ings
 Al f
 loc ally
Americ ans
 out break
!! !
 exha ust
 G ate
 off shore
 sound ed
ke ys
 exp ose
 ap ology
 Q B
 out fit
 Re ed
C OM
be an
IT Y
 colon ial
 M ember
ri el
 autonom ous
� �
 corpor ation
 cost ly
dis play
 pro x
 ne at
 photograp her
add y
 gr ay
 analys es
 kill ings
f our
un s
 Sp encer
ill ery
C ity
 demonst rations
 chart s
 L iving
 int end
ap y
 reason ing
 class ical
 dem on
 ed ges
 mob il
 Palest ine
 attack er
 W R
epend ence
 veget ables
 inf er
w er
 c m
 Se ah
 he d
 mat ched
 emb assy
 purch asing
 lect ure
lement ary
fund ed
 Ag ree
ID S
 swit ched
 K och
M ike
 loc als
 F at
 Wal ter
 D iam
 l ap
pro of
 r ated
 oblig ation
oc ity
 In v
 gar bage
ab ad
 stat ue
 System s
 straight forward
it is
2 000
 god s
 elabor ate
 bus es
u um
 L ess
ã o
 fl owers
 territ ories
 portfol io
 197 6
 h alt
9 00
 B ased
 Bet ween
cul es
ocument ed
 10 1
 inf amous
 tra uma
 o h
 L oad
 Michel le
 M erc
 unf old
 S oul
 or che
 air line
j e
op ing
ion ed
oub ted
re ach
le m
 T ory
 priv ately
B it
az ed
cc a
ignt y
 Em ploy
g el
 M MA
 s isters
 deal ers
 bes ides
 Hom eland
Every one
  ^
 K ind
 A qu
ph p
 S el
 o d
 pe pper
S uch
 l oving
 Un it
 f ame
 frust rating
 accommod ate
ik ing
 Mu hammad
 med ication
 ath lete
 for ums
 197 5
 b urg
� �
 n uts
 att ributes
A v
 pred omin
 V eter
 Den mark
As ked
 he ter
) (
ro lling
 B uild
M I
 Com ics
 G ear
n ames
 rank ings
 clos ure
z i
ort ions
ir i
 lim iting
 mod es
pe lled
 strik er
 9 8
n esty
 sear ches
 s ink
v iol
 imag ined
 Cal gary
C R
 8 1
 withdraw al
 d ated
 H em
 e ighth
b ul
 qu ery
writ ing
 L uck
 effect iveness
resp ons
 st ays
 obser vers
 Sub scribe
 N umber
 int ake
 m ph
 sp ill
 d ioxide
oth y
 car riers
 Sh adow
 W ATCH
 enthus iasm
 gr at
 wh ilst
 unc ons
 con vey
p rom
 mis leading
 197 3
S M
 Rel ations
 publ ishers
 measure ments
 H at
 Move ment
 substant ially
 nom inated
sh irt
ig a
 histor ian
 Har rison
ov ic
 K el
 list ing
 Conf eder
Art icle
 str ings
 G PS
 qual ities
 B uzz
 delic ious
� �
 lock er
 respons ibilities
 d angers
 exam ination
 hung ry
B ay
 Br un
 diagn osis
 d ash
 Pal in
 ple a
D oes
 h ood
 d rought
 ex agger
n ational
 P T
 R ace
ro ots
 w and
 discl ose
ab el
 Te h
 A CL
 H ud
P oint
 rev ised
 rel ies
 st ab
 diff er
 inev itably
S emit
 blood y
 mem orial
 vol umes
 ign oring
 c her
 Up date
 R ico
min ation
 8 4
 loyal ty
he lp
iz ont
 vari ations
 shut down
OR T
 maintain s
 Soft ware
 ent ries
 Carl os
 am munition
 197 2
Look ing
p it
 symbol s
 Bl air
 W oman
Ag ain
 J a
 p orts
com m
A K
 your s
 friends hip
 8 3
ins ula
 P as
w ear
ol an
 p ile
 class room
 al tered
 dem ographic
m ines
 occur ring
 phot ography
 c od
 Vill age
 A my
L ife
 D ennis
 trib al
 qu ad
ING TON
osit ory
D ep
 algorith ms
ential s
 h orses
 former ly
ic he
 redu ces
 fundament ally
 brief ing
 fulf ill
 me g
 Plan ned
h ole
 p seud
 inhab it
 rap ed
 celebr ating
 ves sel
 hero in
#### ####
 Brook s
 desper ately
art isan
 gall ery
 met res
 Wall ace
 sk ull
 L isa
 D R
ft en
 mid st
li ent
d el
 Trans portation
IN E
 b ikes
 GM T
 rein for
rep resent
 disp ens
 de leted
we alth
… ”
 un limited
 197 8
 sac red
 M i
 out door
 sh y
 arch ae
ab a
 H ockey
 Sunn i
 new est
 decl ining
id ges
 belong s
A c
 P ast
 ins ure
 spect acular
 pres cription
 f iber
R et
 exerc ises
 G it
 ju ice
 express ing
AR D
 mod ules
Q aeda
 account ability
 Liber als
 schem es
 A ld
 Raid ers
let ter
 Ter ror
 p ipe
 gar age
 govern ance
al so
 f lesh
 t ribute
 consum e
ur ring
Ind eed
 rub ber
IT H
h ner
 Ed wards
oc ide
 president s
 lineback er
 w ip
it ial
 arr anged
aret te
R ob
as se
 P ick
 M C
 ch ase
 sh apes
 fil med
RE S
 bed room
p ic
put ed
App le
 Pok émon
 R ou
 sol ved
 She l
 8 6
 Seah awks
rem lin
al in
 a ide
 pro c
 n odes
ag ging
 re ception
 M ueller
 conf using
ul u
 play back
heim er
uk i
 billion aire
 accident ally
 A gr
 man e
y d
 Ch apter
oubted ly
 b inding
pp o
 Jenn ifer
 B us
irt ual
C opyright
 l oses
 r age
 perman ently
uls ion
run ner
 W onder
 to ys
200 8
S l
 exhib ition
A ng
 un le
 Ser ver
 san ct
 Co ach
 Sil icon
 misc onduct
 spir its
d b
ane ous
 9 6
 w ounds
 med al
 bo ats
L D
 th umb
work ing
 L ost
ch air
 fresh man
 F ly
 vig il
 l uc
 pre jud
 sell s
 F ame
 consider ably
 Phot ograph
 Sh ar
 demonst rates
 D ublin
 g rey
 R ah
 last ing
 S i
 strict ly
 sh ipped
 man ages
 chem istry
on ge
 regul ate
 fin als
ct ive
 milit ant
 8 7
 label ed
re ated
C r
deg ree
 fin es
 toler ance
 t ier
 Tr uth
 N PR
m el
 skept ical
Ph ot
 except ional
 sp ite
L eg
 fan cy
 Malays ia
r ong
M er
ie val
 lin ear
 Ur ban
ung le
 stre ams
Pro f
 Ch ile
 Aut o
 For um
 Z ion
 puzz le
 St ring
 reason ably
 P ere
 R oth
 tack les
 cance lled
 den ying
 J uan
S an
M at
pro v
 pit cher
 9 7
M icro
A ug
 process ed
 G and
 D od
 Her o
 love ly
sp ace
A uthor
 V iol
form ing
 R at
 mid night
 ret rie
 Res ources
 Oper ation
th irds
 sp ends
 rest ored
 organiz ers
man uel
 mon ument
 un acceptable
p x
 sub mar
 Y ears
 tun ed
 genuine ly
et e
 teen agers
 qu o
olute ly
 Ar n
 Pal ace
 R ush
 facilit ate
 m ature
 C ond
 F ile
 f oul
 Represent atives
 d ancing
 rel ate
bor ough
 out lined
 T ill
 Bill y
M em
 ad vers
 autom ated
 oblig ations
 sexual ity
 div isions
 ext ends
........ ........
 tour ism
 surve ys
 McC arthy
ou st
ret ion
 le ap
 i Tunes
th s
 C art
 Th ailand
E v
 success or
E arly
B ER
ow een
 P ad
 Ch arg
id o
 Benn ett
 spot light
 Sh ield
 M ack
 � �
 anonym ity
T ur
in ery
ai ro
 in ability
 defin ing
 ab oard
in ate
 tw in
 N DP
 Z ero
eg u
 Rich mond
 D M
 recommend ation
 under neath
 In valid
 dr illing
ri pp
 Sp urs
� �
ex p
 gener ic
ist ically
 subject ed
 hear ings
 battle field
 p ound
 inc umb
 sn ap
ES S
clus ion
 Cz ech
 Griff in
 G ay
 se ct
 spe eches
ap or
 consist ency
 Ob viously
w ick
 vict ories
 F ast
 G B
 Bet ter
 Ret urn
 Bang l
S ur
head ed
 Ch amber
 p iv
 H ope
ai res
 contract ors
 Chron icle
 n ort
 cor rid
 Se ven
 l ined
 ris en
cl osed
 gu ilt
rane an
 tong ue
 over haul
 inc oming
 Com merce
m ile
 ad verse
ed ge
 M aj
 prem iere
 par ade
 S elf
 sal aries
 Rec ord
P H
 El sa
 trave lling
 con cess
 S ay
 Be yond
 Cle an
 L LC
 Bre itbart
m os
 ste pping
 Soc cer
 name ly
 embr aced
 frank ly
 disc on
 render ing
hold er
 So on
” —
w rite
 transl ate
ant i
 F itz
 Tit le
 Acc ount
 S L
 m elt
 confident ial
out e
 pl ates
 0 2
 exhib it
 confront ed
 196 9
 Q atar
 Be g
 d ive
 b inary
ic ers
 analy zed
  �
 tact ical
 def ic
b ad
 art if
{ \
bs ite
 l iability
 Work ers
� �
 em power
 Pack ers
 Hur ricane
 G P
 Elect ric
f eed
 bureau crat
 P un
Down load
 stro ke
O H
 Sur vey
c ill
 un ited
 function ing
ag ged
 g ard
 C ape
ier ra
os i
acc ur
 d ot
 arri ves
 lic enses
 r ings
 Cub an
 part isan
 G as
 don ate
H ouse
 Pr int
 M all
 m ate
 back lash
 vend ors
 Bry ant
le tt
k ill
 M VP
 doub ts
g reen
uster ity
 H alf
 steal ing
te am
 sign atures
 c argo
 fel ony
 v ib
ling ton
 I v
 N A
 G reens
 grocer y
 S F
 ML B
ming ham
 cloud s
 j ack
 public ations
 casual ties
 9 11
 aut ism
 p ale
 negoti ating
 coast al
greg ation
IF A
 Stud y
 R AM
 object ives
 9 3
 ment ions
 gl ory
d isc
 sovere ignty
 electron ics
 defend ants
ang o
IG HT
 ret ro
= ”
 H BO
or ity
 > >
 prem ier
? !
 Met hod
 liber tarian
 ind ef
 Tit an
 int ens
 S A
Fr ank
 Sh ah
 Ice land
 arrange ments
 AL L
 Reg ional
ick ets
 ves sels
 art ic
 hon our
 K ill
ut ing
 enc rypt
 ac ute
i pt
 fl ows
 n od
 Def ence
 S ent
 discl osed
 sport ing
 lack s
 fort un
ocrat s
ron es
 pre season
 necess ity
f ar
 S earch
ul ator
 prop ri
B E
 { \
 Brother s
EC T
 B obby
 u seless
 un ch
 pret end
 out let
 197 7
T im
 cl arity
 he al
 convinc ing
ent ions
 legisl ators
 im pe
 catch ing
 T ib
orient ed
 Barb ara
 dign ity
there um
 determin ing
 utter ly
 protect ive
 E rd
 L E
az ines
 tw elve
 r am
 c ute
u ity
 stimul us
pl ess
 legit im
 character ized
 bl own
 d ense
ter ior
 market place
 Att ack
 s lic
S ports
 t ube
 spons ors
 R ic
 theoret ical
 Nob ody
 l ighter
 has h
S and
 spe lls
 c ure
raw l
 Be ast
 hun ger
Post ed
 Sim ilarly
Cl ass
 flood ing
 adap ted
 Event ually
om atic
 Phill ips
us hing
O O
 Brown s
E vent
V R
uff icient
or us
W ind
 9 2
 gen ius
aug hed
 prev ention
 Fr an
 C OM
F R
 eru pt
z h
 se am
 Col on
k ens
 switch ing
W ashington
 evolution ary
 m all
 fore sts
e em
 But ler
ak y
lick r
AN T
 B P
const itutional
 en abling
 mus cles
  с
um ns
 T igers
 glass es
 comple ting
 O m
� �
 qu arters
 M IT
 197 4
 Sh i
pl ane
 sens itivity
 antib iot
 N ag
c ost
 Bry an
atic an
 M ode
 f art
 Al tern
ser ver
  ),
� �
cast le
 ca res
 w are
 J av
 barrel s
ant ing
F T
em ail
C are
 achie ving
 Sand y
 mal ware
 read ily
 explo itation
 mist aken
 table ts
 ad min
 B R
 affili ate
 met a
 murd ers
 Cl ay
b uilding
 co at
om o
 ha ul
 he m
 w it
uten ant
) |
 L ang
 Cast le
 astron aut
 N E
 B ishop
 equ ation
 list ened
 Ob ject
 St op
 jurisd iction
out ed
E r
 deb ris
 subscrib ers
 dr ill
a ired
 reb uild
A FP
 h ind
cont rol
ne x
 Pant hers
 Never theless
 I b
vel t
G S
 trib e
 hold ers
IC K
 V i
 Plan et
 spons or
 l aughed
 O wn
 T ar
min ed
 ext ending
ott om
 spec ify
 subscrib ing
 c ab
 red ist
 In side
 A x
 refere n
 bip artisan
 cool ing
 f ond
 predec essor
 To o
 fr ames
 ins ights
 somet ime
M obile
col or
II I
 Arab ic
 can cel
ri ages
 ref usal
 197 1
' '
 Ed ge
 be aring
 r ats
 cous in
 Im perial
 finan cially
c m
 e leg
am as
 roll s
 up side
 swe ep
 synd rome
 end e
I X
 not orious
 night mare
 pers ist
 p airs
 du o
 fire arm
 Pr im
 Jam ie
l ay
 swe eping
 pro port
 business man
 Or thodox
ul k
amp ed
 Le v
 sur pass
 cred ible
 arbit rary
 a ston
 Aust ria
S O
fr ame
 W ii
r one
 attack ers
 C u
 B ird
 F L
 3 50
 c u
b ot
 hard est
 N eg
 Ind ex
 B ed
Con f
 mob ility
 m igr
 D awn
 14 0
 re ct
 expect ation
res pect
 associ ations
re amed
 mem or
 neur ons
 Sp ot
 Dou ble
 glob ally
ash i
 or al
 domin ate
pro du
 review ing
U K
 hydro gen
 new er
P ut
am y
 viol ating
im port
 New ton
b uild
 portray ed
ASH INGTON
t ic
 sp at
 char ter
 tre asure
 l ately
 TO DAY
 tour ist
 ter rain
 tr icks
 separ ately
D irect
 inf lamm
agon ist
 endorse ment
 I BM
 deter ior
pt ic
 v owed
 troub led
 Sw ift
 re iter
osp el
 revel ation
� �
 R achel
 D aw
 desc end
 dis ability
 Sud an
n ut
 a ides
 apolog ize
 nation ally
 B aghd
 pos es
 nav igate
 bi ology
in ho
in ces
 rel ied
 R ud
 Jul ian
B uy
———— ————
 G R
iz ards
 Qu inn
t w
os ures
 settle ments
am o
G reat
 was h
 Mar cus
 p ockets
 Well s
ou g
 � �
 art istic
 Teh ran
t em
h um
at ched
P ublic
 b atch
 commit ting
 c ache
 St ra
he tt
 g au
ar cer
umbl r
p df
f in
th ree
 tourn aments
 Laur a
 B order
 phys ician
 elev ated
 M ul
sy stem
ith ub
 st raw
 pers istent
d ie
 bl end
 Contin ued
 prov ing
 a qu
 short age
 decl aring
U P
T er
 C SS
es pecially
 pr ay
 inc on
 Gl obe
ade qu
 ident ities
AS T
ah o
ian ces
H ub
 C ab
ar u
 inter im
 vill ain
 F ish
St ring
 st ark
 Bre ak
un ks
 a ster
 inv isible
 Mach ine
 les bian
 distingu ish
 viol ate
inf o
 gal axy
s im
 art work
 Ass istant
 grad uated
 var ied
 exclud ed
 D ue
 al iens
V er
 over time
S R
 d rown
 Leg end
 defin itive
 over see
 inter section
 8 9
 pron ounced
 g i
aus ible
 K or
Americ a
M ac
ul ates
 run ner
 kick ing
 N ancy
 anal og
ro gen
 rel ent
 acc using
 T her
 assemb led
b one
t alk
 Cl ose
IM E
 influ ences
 Card inals
 m ush
 ren ov
 pref erences
 Nex us
 ag g
 pre y
 sub way
 ob esity
 N at
 revel ations
U ntil
N ational
 Tra vel
 al umin
 J ong
 Lad en
uc le
 fort une
ernand ez
 lay ing
 bul lets
" ;
 hel met
mont on
 p sy
 war r
 W ade
 bes ide
 d read
 Se lect
D et
C ong
 Ne ither
 se al
 risk y
 p p
 uns uccess
 T ru
 vary ing
 trib es
 hand y
 impl ies
 ve t
ine z
 sh ower
 toile t
 Aff ordable
 rent al
ose velt
it utes
 M itch
rament o
 B iden
 ban ner
 kilomet ers
in is
 re lying
 B annon
 ne ural
 H orn
 break through
 favor able
 L uther
 Wh atever
s cience
 Mem bers
y ang
 p etro
alth ough
A f
 authent ic
 Dr ag
 tax i
 n urse
 P il
 diss ent
 Fl ight
ra ke
 Class ic
 T arget
 analy ze
 recip es
L ong
 reluct ant
l on
 aim ing
 k icks
 Jo ined
 cred ited
 pat ience
 ins pire
 ur gent
 assass ination
G old
 fam ously
th ird
f ull
L aw
 C M
rit ical
 un aware
 back ers
 p up
rib ly
 J obs
In f
 Col lect
B ill
 prof itable
 cl ause
 W ire
econom ic
 H R
l arg
 volunt ary
 fact ories
 subst itute
 ca ut
 mass acre
 meas uring
 recre ational
Pl ay
 sum mar
omet own
as ma
ac hers
CL A
 pr ayers
off icial
 m ant
 express ions
 trick y
 min im
B ased
 C BC
lic ation
br aska
 mag azines
 P oly
 text ure
 cy cles
 p uck
 pass ive
 disc ourse
 C ant
app ro
 Yan kees
e very
 V atican
 Ar c
 soc ially
 p ause
 al beit
 Garc ia
 b out
ul in
 und oubtedly
 f isher
 Hispan ic
 star ring
 K remlin
 E ither
 W inn
he nd
so ever
 att ribute
Ch ar
ob i
EL L
om i
 mos que
ur as
 L em
RE E
im ated
O pen
 rece ivers
 crew s
 st icks
 he ated
 prov inces
 M es
 Four th
 Agr icult
 wor ries
 M ans
se mble
 contract or
 defend ant
 intention ally
 C row
us ions
 load ing
 se min
 preced ent
 mem orable
 hy d
 Pet e
 G rey
  ic
 f oster
 Polit ics
 Hol ocaust
 broad ly
er ting
 fit ting
 our s
 satisf action
m us
atern al
J apan
 dynam ics
 blog s
 L ot
as a
 Invest ig
 M B
ful ness
ell ing
 H ait
an ne
 l iv
 fac ial
 buff er
he astern
 st er
 Nob el
 mane u
 Prot est
 De al
p ound
 sum mon
c d
 N EW
 supp lied
 val ued
 Agree ment
 multi player
 9 4
 initi ated
 Sn ap
 Ph D
 str anger
 attract ion
 9 1
With out
 Hall oween
 Al ong
Can ada
 ne o
 Al ice
ort ing
 disappoint ment
 Sam uel
 team mate
 � �
 stick ing
 Ch and
 Work ing
T ex
 Tra il
 A bs
REL ATED
 prov es
 C hen
 sear ched
 Enter prise
K K
head s
 mart ial
 Bir mingham
ü r
 swe pt
 med i
 inc omes
S H
 p ars
  q
all ow
ast ing
 P ath
cer pt
 Girl s
 Nash ville
 un lock
 epid emic
á n
g s
 fict ional
 dim ensions
 entreprene ur
 mis under
 Re form
 Chief s
 Fer r
 broad c
 m aj
 Engine ering
 Brew ing
 C our
ost al
 grand father
 F inn
c ulation
 Israel is
te lling
 param eter
 N ep
 interpre ted
F ire
 theat ers
ain ted
ah an
 event ual
 achieve ments
� �
C P
 mod ify
am ation
 domin ance
 flaw s
 Com puter
em ale
 young est
 G A
In tern
 contribut or
 worry ing
 tr ump
terror ism
roph ic
 int act
 S ach
 po le
 D ays
ir med
 S pect
 w ard
 conven ience
 ar ise
P ort
 sub mission
 arch ive
 def ines
 K ath
F ox
M arch
 pred iction
 fin ale
ced es
d evelop
 sur render
 tact ic
 obst acles
 L an
 J oint
in formation
 Al b
 disc ont
op ular
 philosoph ical
 Base ball
v ised
 mac ro
ment ation
cul us
am bers
 bicy cle
 Al most
 en roll
 inf lic
 pr isons
un ique
 mal icious
 ban ning
 B ear
Un like
z illa
L ater
 reven ge
ange red
 nav al
int age
ov ich
 what soever
 K ate
 S old
 sk ip
 national ist
 n er
 entertain ing
 c yn
 Diam ond
b b
 div ine
l ation
 K az
 correl ation
 du pl
 bas eline
 n est
the m
 N HS
 over r
 neighbour hood
 network ing
 she ets
 the or
 neutral ity
sc ript
 g aps
 ignor ance
 an k
 tw itter
l ass
 organ ised
 inter medi
 touch ing
 concent rated
00 1
Rem ember
\ \
 regul ated
 consult ing
 R aw
 assault ed
ve t
on ies
 Portug al
 opp ression
 c ra
 le thal
c lick
 K os
 F an
k n
 r ab
umb ai
 Be er
 ev olve
 cur s
 An imal
 hor izont
 euro s
ere k
 invent ory
rav is
******** ********
 sa ves
G L
 c um
le ased
 C ox
ast rous
G R
 ris es
 Pict ures
 design ing
 confront ation
 Hol mes
se arch
 n asty
U lt
Cal if
 dr ain
 import s
 I L
J on
 trans mit
 Mat ter
 to oth
sp oken
 sk i
 res ur
 Mot ors
 Ro osevelt
 quant ity
 Car ib
 over ly
 crowd ed
 G ive
 administ rators
 M E
 mer it
 script s
G N
 US D
h u
 var iant
irl ines
us cript
 inv itation
 Sur v
 br ick
 W ol
ne apolis
 off enders
 h ated
 don or
 Fire fox
ch ief
as ures
 se aled
 commit ments
 L G
im eter
 Hug hes
Over all
P erson
 b ay
col m
 R ing
 R PG
 fix es
 196 5
 remem bers
 p add
 PD F
 w rist
 Angel a
 cost ume
 Ep isode
are z
 nav igation
 196 4
 N athan
� �
gg le
 M O
ed uc
 Rodrig uez
li ers
ov o
 comprom ised
 inc arcer
 Pal mer
 Fin land
s qu
 star ters
ic ating
 free ze
ide os
 c ord
 prec ision
 reject ion
 mathem atical
sh ow
 g re
 cur rencies
 flaw ed
________________ ________________
 t ire
 comm em
est a
 belong ing
 Ob serv
our ge
ilit ary
 over th
 n arc
 Y e
 Occup y
anc ies
 Sh aw
 D ise
 cl ash
 j am
 embarrass ing
 pitch ing
 rob bery
ok o
 hol idays
h ots
 pro xy
 un cle
us hed
 Broad way
 ab uses
 question able
 F oster
 cur ric
 app et
 m ast
se en
ment ioned
bel iev
 present ing
 ble w
 n erve
 Queens land
E xt
 upgr ades
 en v
 dispro portion
 constrain ts
 S ullivan
 ad oles
S um
 Indian apolis
ri ved
 m im
Sm ith
 a pt
 Ch ase
 C op
 rend ered
 infect ions
 stead ily
 S ens
 Boe ing
 remind s
 Dun can
' :
 unc overed
 pharm aceutical
 base ment
 tradem ark
 b ats
 Rod gers
 cont ing
 ball ots
 E RA
 P ubl
Ke ep
ind ex
 C ris
C ount
as ive
W ASHINGTON
R eal
 dig it
 Mont ana
 dist ribute
 opt ed
 S O
 L ore
OM E
 beh ave
 un int
 out look
el er
orig inal
 st iff
� �
rit ies
 manufact ured
 ins ert
 boot s
 grand mother
0000 0000
 at e
 R acing
 an throp
V ID
 Moh ammed
min ster
 comple ment
 pack s
and o
 back wards
 tu ition
less ness
 a usterity
k now
esc ope
 su ited
 K ash
un ge
 per ce
 saf egu
 evangel ical
st ick
ic ides
 s ab
 contain ers
 nons ense
 make up
 link ing
 prison er
 download ed
 L l
av i
 off ence
 extrem ist
 C abinet
 Ath let
 thro at
y our
co very
 inj ust
 ch ron
do ing
 int imate
ew s
c all
p ol
 shar ply
 prote ins
 A ven
 cred entials
 correspond ent
 In iti
r aged
Se pt
 C hem
Sc ott
 hot els
 secret ly
 col umns
j u
pl ant
 track ed
 press ures
OR K
 inv alid
  �
 land l
 satell ites
 option al
 Ass ange
 hack ed
 bud gets
 qual ifying
 Qu ick
 Baghd ad
G en
 to kens
 comp ounds
 P ink
 l as
� �
 b er
 r ivers
Hill ary
m em
 pun ished
 who ever
sc he
s ocial
 emot ionally
 pl ag
Aust ral
 surv iving
 inject ion
 sol ving
 c ups
iction ary
 res id
 ham mer
 Cl in
child ren
S am
 elimin ating
 Niger ia
 cat tle
 aggress ively
pri v
 Chance llor
 o ven
 manip ulation
 hor izon
 swe at
 laun ches
M o
 lif ting
 Br ig
ll o
 de lete
E mail
et ition
 M ine
 S ierra
ibl ical
 met ric
 bo oth
 subur ban
 P H
 S em
se in
com pass
 Stud ents
 Com b
 Ale ppo
D I
 C ell
J une
 Jes se
 Pet erson
 P red
 Alp ha
 hor rific
 Brother hood
 nice ly
pr ises
 extrem ists
l ocal
 conclud es
 brew ery
 amb ul
er als
 mess aging
 : )
N one
 h ilar
 Sac ramento
 Citiz ens
 public ity
 G ot
] )
 President ial
 F IFA
 jo ins
 br ush
 H erald
 recon c
 compl aining
 Z immer
 vac uum
 prev ents
 Bangl adesh
zb ollah
 prem ise
 D A
 r ides
ens on
 dism ant
at isf
l iter
ab i
Up dated
 B elt
ag ain
  �
 k g
 advis ers
 haz ard
ip se
 just ification
 Cat al
 under go
 anch or
 S ave
 trad es
 He y
 Leg al
In vest
 flo at
g om
 dest ructive
 sle e
F ull
leg al
.’ ”
 o un
 Sh in
 neighb oring
 A round
oot s
 Her itage
 ent ers
 M ong
 M I
V A
 pict ured
 An aly
 transf ers
 virt ue
 ref und
 troub ling
 Ch ip
 Cr iminal
 Col in
 fe as
iter ranean
 N ar
iz ers
 acc idents
 Over all
 cor ps
 sovere ign
 o k
 pur ple
 annoy ing
w ould
i ological
ertain ly
 record ings
H el
 troub les
 non etheless
 plug in
 un constitutional
 Ed monton
 le ase
 19 45
 ir rit
sp ons
 am ateur
atern ity
 by pass
 Jess ica
worth y
 dis astrous
p ay
ie ve
et a
ain er
 commission ed
clus ive
 MS NBC
U se
 dim ension
T able
gener ation
g reat
 g reed
 commit tees
 compan ion
 H TC
Be ing
 l iver
 Cost a
 te aches
per t
 C av
 C T
 0 3
 den ies
 Re ally
 p el
 All ah
 p ad
 Z one
 since re
 j acket
v or
 L ic
um atic
 M urd
ur ious
H ead
 Pict ure
 Pot ter
 in accur
N AS
 D rew
 exam ining
Ob viously
oc y
 med itation
 cens orship
if iers
 R ivers
if iable
 Bre nd
 O z
eal ous
 legal ization
 Ant ar
 G round
 prom in
 in adequ
 Ah med
 deli vers
 Act iv
 impl icit
 FO X
 op io
 Inc re
” :
M ax
 random ly
 calcul ate
 G ore
in ner
ia z
 Bar n
 Chall enge
 priv at
 boss es
 intern ationally
 expl ored
 foreign ers
 unemploy ed
op ic
T w
 h ike
 F ac
 hand gun
o ven
 grad uates
vent ions
oun cing
 E arlier
 integr ate
 D ri
ur ry
 R af
 l azy
 K an
K ing
 � �
 cat ches
 cl ashes
 Ne braska
if ully
m ill
 Ar med
 b ans
 A irlines
play ing
at hetic
 for k
d esc
 disp utes
 Im agine
ific ant
 d war
 O P
 irre levant
yl an
augh s
[ /
 L ives
 Tele graph
 B ald
• •
e ment
 accord ance
b oth
 retain ed
 def enses
 cig arettes
 adj acent
ophob ia
ed e
av ailable
F I
 e rect
r us
 comp act
h ad
uff y
 land mark
 Clar ke
ust ain
p os
 H E
ig s
B o
 encour ages
M uch
min ent
ver ted
l ength
 16 0
 Prin cess
r ams
 Ev il
J im
 sub t
 nin th
uff ed
Hist ory
 ch unk
 Current ly
 Comm ander
 prop ose
 � �
 terr ifying
 stri pped
 Z ach
 hyp oc
 int ends
 light ning
 discon nect
qu ire
os ity
 stud ios
 mole cules
 K er
 real ised
Te am
 calcul ations
 M aur
L ear
 san ction
 Cub s
 Naz is
 campaign ing
 far mer
 enact ed
 R u
 over head
 toug her
omet er
 intrig uing
 cal ories
ig ue
 W ing
 aff irm
 recru ited
 kn ees
B ron
 sc are
 conf erences
 investig ative
 clar ify
N E
 Pro cess
 econom ically
 dep ict
 she ep
 att ach
 subst ances
undred s
] ;
 pro long
 dr agon
ograp her
ar in
 symb olic
 r ugby
 prof iles
h or
 social ism
we b
 crit ique
 mor ality
 Week ly
 D ynam
 co pper
 gu ided
 We ather
 cent res
 homosexual ity
 flow ing
 coll ision
 P owell
M att
 load s
 pres erved
 st ones
 F am
 Boe hner
 sl ice
 place ment
 V oice
 unw illing
 assess ed
ond e
 norm s
it ations
 prosper ity
 n aming
 proceed s
 furn iture
> <
 cou pled
anche z
p her
 C and
 Tib et
 Pro s
by e
 special ized
 hed ge
imp se
 not ified
 a ug
om ers
 Sen ators
 gl impse
ok ia
 relig ions
 ple asant
 imag ery
ograph ical
en z
 T u
V M
 J ar
 subur bs
 Eff ect
 sequ ences
 simpl er
 fif ty
 v ag
c urrent
 deliber ate
 crit ically
 Tr aining
 fav ored
 expl oded
 Be aut
ok u
 F ight
 ch airs
 porn ography
pe ction
 P ic
 Jo el
 ind ie
izz ard
 Steven s
 Carib bean
 T ogether
J uly
 or b
 he y
 Alex and
ri ans
 drag ged
 U ser
' )
 sket ch
 cryptocur rency
 Hung ary
 pot ent
 mind set
 tri o
 ref uses
 offer ings
 encoun ters
 C ulture
 l ending
 h ometown
 Med iterranean
 Any one
ident ified
 revers ed
at able
 pack aging
 12 5
 emphas ized
i ably
 incorpor ated
 Z en
lin ing
 sc roll
 fl ower
 Mil an
 real ise
M D
 inc om
 en velop
 0 7
os ph
et on
 gl ance
imens ional
 cur b
 gest ure
ues e
F eb
 disc retion
 dis gr
� �
on est
 st ole
E nd
F il
ost ic
AM E
 bre ed
am pton
 travel s
 tal ents
 P in
ul ously
ud a
 thr illed
 Erd ogan
u art
� �
d eb
 turn out
 cop e
oll o
ke ll
cont ent
 l ing
il ia
 a irst
 contin ually
 E ight
A pril
gh ai
 Min neapolis
 cance led
 indict ment
 any time
 strength s
ed In
 min ers
 Cons ider
Un ited
a q
 B ak
 M ull
 Imm igration
 � �
per ty
 der iv
1 30
 contrad ict
 Lu is
F eed
 m old
 K ay
mer cial
k ers
 father s
m und
 commun ist
 share holders
 Edd ie
iber al
J eff
 Mus k
 cont empt
P ower
ous ands
and ing
 ha un
 M umbai
 GO OD
 A G
OS E
rik es
 account ed
E U
 res il
 rest rain
 flee ing
 s add
 des ires
yn c
asc us
 thread s
 decent ral
 Europe ans
 Priv acy
 D ian
 applic able
ens en
 tow ers
 ind ivid
 G am
 g ambling
 sc al
 te lev
 T ouch
B rien
 has ht
e ep
 vo iced
ug ar
 Id e
 reb ounds
ad ian
. ).
 T ask
 M eg
 lack ed
 su cc
 pract icing
us c
 Str ong
 Pal m
m atic
 order ing
 not ification
 d airy
 fact ions
it ted
 import ed
on al
 overwhelming ly
 habit at
 � �
 head er
 dict ators
 Look ing
P ac
é e
ol ics
 ref res
 critic ised
 W es
 man uscript
 el ites
 scholars hip
h at
 M ath
 ins pection
 9 00
k ar
 Mc D
 dep icted
F ile
re cy
um ar
s ight
an ies
ask et
 sw ap
 B aby
T Y
 D im
 E thereum
 Th ai
 fru its
ny der
 Mart inez
sh aped
gr at
charg ed
 prec ip
ch ant
 M aking
 Gib son
on ut
 predict able
 tr im
 measure ment
 conv ictions
 J ed
 J ared
Micro soft
 collect ions
 Cast ro
 Hel p
ac cess
 Ch an
 sur plus
 femin ism
 ra ids
O kay
 was ted
 activ ated
 Co ff
 org ans
 Lat ino
 Un ity
s n
 fe ver
 dist ress
tr ue
 su ite
ab lo
 column ist
 whe at
P ass
 ab ortions
 HT TP
V I
 finger print
 poet ry
 K in
 Wood s
 l ips
um my
m ember
 iss uing
 depos its
 E P
em et
gh azi
 forth coming
 B att
 activ ation
sec ution
 be ans
 L akers
 j ets
 un law
 appreci ated
 t ender
 le ver
 satisf y
C all
 purs ued
 off s
 B esides
 rall ies
 N ine
ÃÂÃÂÃÂÃÂ ÃÂÃÂÃÂÃÂ
 const itute
 Y ellow
 we aker
 progress ion
 Mag n
 ru in
 Adv anced
y on
Rober t
H ello
ON E
 sup reme
 lit igation
 h urd
 cons cience
p resident
 fin ances
 ch ick
 Light ning
 comp iler
 Dem ocracy
 j unk
 amb ig
 An a
Sh ort
 Tex ans
J oe
 d awn
 fre el
 crack down
 Mer cedes
 be ast
 C ou
 schol ar
 m g
gom ery
 post ers
 Jeff rey
otten ham
ib les
 efficient ly
 wh oles
 elect ro
 M ade
 Norm an
 s id
 E S
 D w
 H ig
ft y
 C urt
s omething
ce ans
 obsc ure
 kilomet res
v oc
 hel m
 guarant ees
 car ing
s un
L ab
 Sum mit
 Tra ff
 D I
n ia
200 7
 Add ed
 uncons cious
 mo ist
 S au
 Vis it
 Labor atory
 start ups
 Point s
 activ ism
 Stud ent
� �
 neg lig
 Toy ota
 K enn
ys on
iment al
 need ing
 confir ms
ateg ory
 O pt
 des cent
 F o
le ague
AS S
 liber ties
 inf inite
 g ly
UL L
 concent rations
 b ored
 sc attered
 according ly
 threat ens
 install ing
 C it
 A ub
 0 9
 rock ets
 Creat ive
m ax
 ro oted
 sec uring
 wood s
 instruct ed
 hy pe
 pass port
 Hud son
 port rait
 dis hes
 NY C
 ir ony
 got ta
 Gand hi
 inf ilt
 B omb
p aid
 unh appy
 transport ed
 assert ion
 fix ing
 Fred er
D el
 Can cer
 Ah mad
 wat ches
 r abb
 d ining
ogen ic
 man ually
 ch im
ing le
 cry stal
 custom s
 int ensive
 cont race
 Stat istics
am mar
 profess ors
oul os
 pat ents
est on
raw ling
 Marg aret
 assign ment
os aur
 L ion
 You th
 und ocumented
 sp here
 C ool
ess age
 W alt
 remain der
 Mos ul
 I R
own er
AC E
 Spr ings
 He zbollah
 196 6
 B apt
 Boy s
 shout ing
 he ating
uck ed
 Ch ad
ris k
 Inter ior
 celeb rities
 S K
 W ang
 tra ject
 survey ed
 T ree
 project ions
 C P
 en vision
 sh ark
 post season
 ge omet
 react or
 dis gu
 c abin
arm ing
g ue
els h
 sl ated
 marg ins
 bull ying
 L arge
AC T
ys ical
 mix ing
 r ou
 l i
 t ennis
 system atic
 Squ ad
 N ad
 eas iest
 background s
 vacc ines
 sound track
 gr im
 favor ites
 Mon ster
ik o
 min es
 ment ality
 Mov ie
 commod ity
erv ice
 in k
 B anks
 dig est
 conce aled
 academ ics
N on
cl ub
 apart ments
 Id ent
с т
Ind ia
 aer ial
 su e
� �
 be ats
 advent ures
 pr one
 d ug
g irl
 BM W
F ive
 w ra
 batt ling
 Com cast
h art
 forg ot
 L ower
 dress ing
 S id
12 5
 m apping
 tou ches
 m ud
_ {
 grass roots
 come back
Ph il
S il
 bl ade
 M is
 0 4
B ro
 dis puted
 G aming
 Com ic
ach t
r ising
j pg
 Pri or
emet ery
A E
m ount
 met eor
 0 8
 D rop
C re
 he els
 c aucus
 ( £
 promot ional
.' "
 park ed
 fl ies
 ch rom
 H onda
 H im
 c ables
 sm iling
 shout ed
 appreci ation
 P etro
 Y ale
 Mal colm
 continu ously
 l ied
 Ne uro
id ity
ix els
 nut rition
 flags hip
 sl aughter
 ble eding
ens ed
agg ering
 Oper ations
 indic ator
 gas oline
 ca f
 hand les
ph is
 displ aced
 an om
 Form ula
 Te levision
 dep uties
 sc i
 remote ly
 mathem atics
 s od
 � �
 sc ales
 rhyth m
 Ken ya
 sh oe
 m i
 trop ical
 col ony
sh it
z el
es ville
ab lish
M E
 Ab raham
 F alls
 Ind ependence
 A K
at ility
 m ol
 str angers
 se gments
atch ing
 multi pl
 Col lection
 ( -
 mount ing
 w ield
 staff ers
 P ract
 gen ocide
 Dam ascus
S N
 ver bal
 Belg ian
 polic ing
 acc laim
b ra
mid t
 imm unity
 fl ames
 Fin als
 ill usion
ot er
 K o
 Ben ghazi
l isted
 Vin cent
 M ons
 l inem
w age
 Cry stal
 d ough
on gh
or ically
 stat ute
 dis reg
r ise
 cle aring
 unp redict
 St rip
 sh ook
Qu est
 Sim p
 pull s
im g
 dig ging
 prompt ing
 Some one
 ic ons
 compet itor
W W
 port ions
 inherent ly
 character istic
 g orge
el ed
 u pt
ig ion
 connect ivity
 compar isons
 br idges
 bench mark
 Car r
ipe g
ro v
ch t
AS E
 196 3
ad itional
f ix
 We ap
th reat
 affili ated
 Co in
 M end
 X i
 Wh ats
1 000
 amb itions
Christ ian
 to pped
 Br ain
 W a
 Raven s
 Br ight
 sh aking
 D elta
 certain ty
 small est
 cent ered
w ait
 car n
ar se
 behavior al
 cro re
P age
 bl unt
 B ren
W omen
cific ally
 New castle
 Major ity
Ste ve
 d are
 Tom my
OU R
 synt ax
 dispos al
 Hop efully
 Initi ative
yn asty
lud ed
 applic ants
 Cont ent
ud ed
run ning
 pit ched
 fortun ate
 w ished
OR D
 music ian
 up hold
 W ITH
 Up on
Ed itor
 med ieval
 C ash
 wild ly
 impact ed
 reprodu ctive
 TH IS
gg ing
 A er
 Sat an
 storm s
 st ap
 dis ruption
 Sch olar
Ob ject
 pit ches
le en
 view er
 we ighed
 B ody
i w
 contribut ors
M ad
C AR
C onst
 gl ac
 at op
 G raph
 C opyright
 ur anium
 Portug uese
s ay
we gian
 anx ious
 | |
 cook ed
 App arently
 foot print
 d ent
 be es
 h ipp
 R ank
he art
 amend ments
ot ive
c amp
igg s
 aest hetic
 Coun ter
n ar
 Wal mart
sh aring
T ext
 st ub
 A CC
 0 5
 aver aging
 W ere
 eat en
ean or
 H ERE
 st int
tit le
ich t
 adjust ments
” ).
é t
s ite
or um
 my st
ong yang
 st akes
 prior it
 Re yn
 as leep
h h
 ve ctor
 W ings
 Em peror
í a
ur ally
 theat re
V is
 Arch itect
p ical
 individ ually
 em pir
 M ann
 im minent
he y
ow itz
 rep ository
s u
 faith ful
 pat ches
B as
 phys ic
 sh adows
 r ipped
 cinem a
 R ule
akes pe
 p und
G C
 advis ory
 e go
 St alin
en ly
 des erved
 con grat
 attend ees
et ooth
 st aring
 Indust ry
 fe ather
 Other wise
Every thing
 Dan ish
ö r
3 50
 found ations
ra vel
 sp ont
 cru ise
 demonst rators
 r anges
d ollar
 Legisl ature
P eter
n c
 H S
F ore
 recover ing
 Val ent
 K aren
 Car roll
 cand y
 sufficient ly
 M ob
 car b
 B ills
 dep osit
ope z
 que ue
 distinct ive
 Crime a
} ,
 ju ven
 inspir ing
 legitim acy
 cl ue
ad ata
 bon uses
 jail ed
 S QL
chn ology
 j azz
 cert ified
,' '
 n ucle
 cr ap
 rail way
 Reds kins
 hier archy
T T
 und erest
 Gr an
 histor ians
” ?
 clim bed
 S ale
 K urt
 Im pro
 al erts
 incumb ent
 metab ol
 n ail
 Colomb ia
 supp ress
 adjust ment
 pl ausible
gu ard
ould er
ult z
 un believ
 R A
om ore
 c age
 Met al
 par as
 Le ave
 suprem ac
Not es
 cr ashes
 Ult imate
 rein force
 ab usive
 Cons umer
 que en
 cook ies
 phys icians
bro ok
pect ives
 Gener ation
b ach
 t ide
 e cl
um per
 explan ations
 B ent
 a fore
 min imize
 W E
 cont ender
id i
 L oc
 ut ilities
 she lf
erv ative
 amb ition
is i
 imprison ment
 blow ing
op oulos
 neg lect
T est
% ),
 found ers
 H az
 D ame
__ _
S ure
 resc ued
 off enses
 position ed
 Id aho
orth y
 zomb ie
 E t
 light ly
 consult ation
 R O
 vel ocity
g ow
 met er
 sc am
 direct ing
 Shan ghai
 cig arette
 elect orate
 deleg ation
 Cre ate
min ing
 Simp son
 Common wealth
 flav ors
M ENT
Any one
 gi ants
st ation
als h
 de ar
 Ch ampion
 Per formance
 motorcy cle
 West minster
 boy cott
 N ut
 answ ering
 by tes
 ( +
H ome
 educ ate
 sie ge
 K il
 G N
t ax
 box ing
 G or
 huge ly
 incorpor ate
� �
 V M
 The ory
 persu ade
 mor ph
 u m
 promot ions
 S witch
 explo ited
 Leon ard
ob a
 v icious
 al igned
 Col ts
 Lim ited
 p ork
 half way
uter te
n els
 row s
 S anchez
 M asters
 F ix
 run ners
 ab rupt
e i
an as
 f reed
ing rich
 lad der
 t a
 Arm strong
 K end
am on
prising ly
 collect ively
AR K
 X L
 sim ulation
 M oss
 ch asing
Sp ace
 M add
h aw
 off line
ason able
 app ar
 luc rative
M or
 gener ates
R ad
 integr al
 Int egr
 recogn ised
S w
 show case
 W or
 S ie
er ness
ash a
 dies el
C le
 consist ing
 P orter
 K ane
akespe are
 access ed
 absor b
osh i
 plant ed
 element ary
 autonom y
� �
l av
 W ant
 Es pecially
 sli pped
 fif teen
ere rs
 associ ates
 Sc he
р а
 Social ist
I ES
 b ru
 opt imal
 O culus
 U CLA
 A F
 curric ulum
ew ay
 milit ia
 Steel ers
 M ut
 jer sey
 cere mon
 An alysis
 p iano
R yan
 low ered
Pro t
 mar riages
per m
olit ics
 Confeder ate
 sp ike
al one
 Can n
 M ol
 Le x
 man a
 Priv ate
am iliar
 acc ent
 S B
ad ays
ber ger
asc ript
I ran
 negoti ated
 adv ancing
 s oup
 op ener
 ancest ors
 tri v
 S add
Ass ad
 po em
� �
 w itch
ra f
 Em ir
 Str ateg
c ourt
 appeal ed
He alth
 author itarian
 d orm
att ack
 eff ic
 D j
ie ce
 recruit ment
a que
M ap
 match up
 � �
 we ed
 bl at
 quant ities
 br on
ale z
� �
 slow ed
 pist ol
b us
 I Q
occ up
 port able
 satisf ying
 manip ulate
 Q ur
 imp osing
 inhabit ants
 bl oc
um ed
 � �
 quarterback s
 S ri
Cont act
And rew
ep s
 “ [
Tex as
 unp opular
 o w
il itation
 protect s
Re view
 per ipher
 illust rate
 T on
� �
 t ales
 J ama
 u b
 alumin um
def ense
 T ravis
 loc ate
 p iss
 class ification
 Mon th
 up s
b as
 consist ed
 emb ark
 hon ored
 H ousing
 pay roll
reg ular
 hom icide
 fact ion
 ar rog
 treat s
im ity
 che ss
ment al
ir ies
ef e
 delight ed
k it
Not hing
 res ent
 Min i
OC K
 o we
 prem ature
 blog ger
 N ord
 Great er
 En forcement
ator ial
add afi
 trave lled
 K ap
 crus hed
ell ed
ik er
 p ond
 p estic
 M ills
 consum ing
il ight
 diam eter
 protest ing
 fert il
 administ rator
 p ul
 V ent
 log s
 happ ily
 F ace
m ean
b ank
road s
 S outheast
 Ter min
 D olphins
 inv ention
 met rics
 Orig inal
 academ y
 S nyder
d est
 Pr ison
 prol ifer
 dec isive
 Amb assador
 t ended
 at omic
oun ter
ke eping
RE D
 art illery
 over view
el ong
 y oga
 pat ron
ball s
Cont in
 S eth
 inc ap
ant om
 v ic
 Dar win
 N GO
ret ty
 g ates
 sent encing
 instrument al
 Sal v
l iv
 uns upp
 no ble
ibl ings
 similar ities
 c ad
ener ation
EN D
 clin ics
 recogn ise
 Cath olics
 detect ive
el ines
 Case y
Bl ue
 dri ed
 D erek
 R ut
 qu ot
 S pl
 Sc reen
l it
m ph
N ob
H C
 dat as
 Del aware
 Gl as
it ous
ech an
 sl ammed
 liv est
 constitu ents
met ic
 contem pl
 H ence
ad h
e ur
ll ah
 rest oration
F orm
 Richard son
ourn ament
 Bre tt
 yield s
 upgr aded
 prob ation
e ger
s ix
p ers
 incl ined
 � �
 L ate
connect ed
 ven ues
 lad ies
S cient
 O ften
 d ude
 prohib ition
 rif les
 Y u
 comb o
 Louis ville
 mark ing
 masc ul
W ould
 sp ying
 seek ers
 cat alog
 app le
r ational
 gen ome
� �
C ome
 enthusi astic
 show c
 G az
k ov
 incons istent
og yn
 We bsite
 Nich olas
 mis er
 breat he
 r ip
 fart her
 appl aud
 V a
M ain
 196 2
 sl ides
 Hus sein
 r ider
 exp ans
 W elsh
 frag ile
 investig ator
 Dise ase
 n odd
 l ion
 bi ased
 thr ust
 Gene va
 No ah
dep th
 N okia
 Hop kins
 T rip
Ch ild
 hum ble
uff le
 lic ence
ig o
 pr iced
ns ic
 post p
 h ref
 cor rection
lev ard
 remark ably
 imm un
 Par ks
T otal
is le
 Mont gomery
 Represent ative
 advis or
 spe ar
 Load ing
 con form
 Matthew s
 vari ants
 C rew
" ).
 ex cerpt
 Lear n
 recip ients
ur bed
 synt hetic
 shel ves
om on
 dep ressed
 A br
 un related
 North west
A ir
 weakness es
 W rest
 n ostal
 end angered
 t ires
 bail out
 cl ips
 catast rophic
 c otton
b ling
asc ular
 tro phy
 Huff ington
 Ell is
 P ierre
 tight ly
 jud ged
b ane
 o st
 g ren
ID E
 nic he
 C airo
he ster
e ous
 o ath
ourn als
w ent
v ance
 ev olving
 Leaf s
f inal
 util ize
 un con
 Eag le
serv ice
it ially
amp ire
 B O
 alleg es
 st aggering
 col ored
 B ach
 air ports
 gang s
 up ward
 p oured
 nurs es
 pract iced
o ir
c ond
Q ue
names e
 down s
 bre wing
 for ty
 sec urities
he arted
 D oc
 mon itors
 cooper ate
 T ak
D ate
 Veter ans
p ose
and als
 r iots
 interven e
 V ideos
 H appy
 An onymous
reat ing
 g em
d ist
 W ait
 sl im
 coinc idence
ans om
 Sur face
 camp uses
 pros pective
 encrypt ed
U G
 K ids
We b
 book ed
 extensive ly
f un
 rel iability
 hor r
 chap ters
 T ab
 St ories
 ank le
ot ics
q a
 optim ism
 interf ere
 As k
 echo ed
 monit ored
 CD C
b ast
 H A
a uth
iat ric
 rem inis
 P ew
Q U
 prop osition
que z
 US C
il ers
 predomin antly
ach i
 flo ors
 Y am
 Mun ich
 J in
 m a
 Thanks giving
 Ber g
 separ at
 war ns
 ang les
p ically
B B
 m igrant
 symp athy
oy le
 Vis ual
 S ter
E s
 task ed
 IS BN
 H ass
� �
 int oler
 insect s
 defic its
F ar
 genet ically
 A FL
l ance
 well s
ent ry
 we ars
 re nown
 V illa
in ers
 A pr
i ott
 Gr ace
 Ag ent
 bound ary
 ver b
 enfor ced
 fore most
 Arn old
10 1
r ays
p res
 w ives
 B eth
 U P
 Tun is
 S r
b ucks
 Pr ide
U ser
 ste ering
De velop
 ne arest
 ACL U
 pract ition
 Som alia
B rown
 fil ters
 whistle bl
 J ays
 E sp
 P ub
 nav ig
 coord ination
 He brew
 ext inction
Spe cial
 inher ited
 cl iff
d imensional
 K ush
st ated
 bre eding
 E le
 positive ly
 R ot
 Budd hist
pro cess
 Kurd s
itz er
ir us
AT H
 comb ining
 fe ud
 partic le
ov an
 incl usive
 for wards
 sh ine
 Act ually
 C amb
 s acks
 cul p
 Tri ple
 10 5
ir ation
 For bes
ard i
 Sw an
m ake
os c
s uper
ann ers
 scar ce
ey ed
 d ip
 Reg ion
 e ld
 reward ed
 pri ests
h all
 assist ed
 P engu
 d oses
 atmosp heric
 emer gence
iet h
 descript ions
 hand ing
 Get ting
is co
I ts
 che f
s an
 t ense
 School s
acer b
B ox
 obtain ing
 sens ible
 relax ed
 afore mentioned
 input s
 Mem phis
 Winn ipeg
p ad
Aug ust
 Fl a
 T X
y outube
 Cl int
cons cious
c ock
 g rief
 Cy ber
ator ies
 ener g
 Abd ul
 W AR
am ount
 kind a
Don nell
 w oke
 bureau cr
an cer
ek ing
Col or
 ins ufficient
 bo asts
 Hend erson
sex ual
 K enny
 z oom
 ther mal
 caut ious
 commer ce
 impro per
16 0
 candid acy
 P aper
200 6
 deb ts
 respect s
 illust rated
 conv entions
 c oding
 uncom mon
 dys function
 R alph
 st airs
 H ack
 pl um
 personal ities
het ical
L ine
 light weight
 real ities
 slow ing
 L um
� �
od er
 real izing
 belong ed
 overlook ed
 12 8
r ina
{ "
act iv
 upload ed
are a
 bo o
 add ict
id y
M iss
 exp osing
 cycl ists
 Cur ry
 F ixed
 nurs ing
 D ust
Europe an
 c ensus
display style
 th rive
 test ify
 intu itive
 b od
sh adow
 perform s
 P HP
l anguage
 autom ation
 Val ue
f illed
 add itions
 Bar nes
 tour s
 po ised
 unsupp orted
 Py ongyang
 quick er
 Bash ar
 enjoy s
 ord inance
 circ ulation
 adm ire
 outrage ous
 St rike
 Reg ister
 c ripp
 H off
 blank et
an throp
play ed
Int erest
 N uclear
 bas ics
 tat too
 se ize
 red es
 Re lease
 ass erted
 Kle in
 Step han
st rom
 agg rav
 t ags
 B ark
 orig inated
er ie
 subject ive
 paint ings
O p
 Pre vention
g rown
 recip ient
 196 1
� �
 je opard
 a in
 ty r
ane y
 vibr ant
 no on
 K iev
ile m
 vol t
 comb inations
 cas ino
Rich ard
 wond ers
 Re act
ins ki
 b ent
 Sil va
 coord inated
 Mc N
Re illy
L ocal
 repe ating
 gu ides
 Un less
 gr ades
 Wild life
f air
 redu ctions
un al
 awa iting
 Sh akespeare
et z
Wh atever
 l oot
 imm ers
 Kas ich
eng ine
 monop oly
 liqu or
 wh ales
 H ook
 particip ant
ch at
 C raw
 fl own
 eval uated
 A j
 spr int
 Word Press
 B ec
i u
L L
 s way
 Sch ne
 Tit ans
 im aging
Pl us
 Nor wegian
 M atch
 Hold er
 Ad rian
Ge orge
 red irect
cl ock
 deal er
 Fal cons
 cl ues
g on
il ogy
S un
 hilar ious
 V I
 Com plete
mit t
 0 6
 E aster
 mention ing
 trad ers
 reflect ing
 Budd h
 h obby
amer a
 Al z
p ict
 tast es
 Emer gency
 detain ees
 abund ance
 Dod gers
 Nov a
 sc iences
 merch and
up iter
 never theless
ener gy
.' '
 an ten
 buy er
ag le
 Rand y
 soul s
 C ort
os ion
 wh ale
 pick up
AA AA
 J unior
f amily
ine a
 dev il
S al
 inher it
iz oph
 triv ial
 C I
 T ories
 F aith
 Em ily
az or
 H ost
 c ared
 R ust
 Pear l
ec d
 R ules
 bot hered
 G ang
u ber
gg y
 H ob
 lit eral
 form ats
 fl uct
 G oth
 At hens
 watch dog
T L
 Ba iley
 Isa ac
L ove
 Gab riel
 Agricult ure
 opt ical
L og
 sl ogan
 K id
us p
ruct ed
 datab ases
W elcome
 u mb
h it
 dist ances
 man ga
cy cl
 under grad
 bl u
 E ye
b illion
g ay
 sam pling
S ources
am ples
 c ivic
l at
en es
 aston ishing
 T ottenham
 C ob
 rece ipt
 dark er
 obs essed
 demonst rating
 Er n
 gr ams
ou ble
 �
 hur ting
 Met ropolitan
st airs
 sun light
 inadequ ate
 ins isting
 exha usted
rop he
 writ ings
 Th rones
 S ite
i ón
 under water
 emp athy
 p unk
 U l
ut ton
 Ferr ari
 fin est
 Josh ua
 cou ch
 lobby ists
it ime
ep rint
S ocial
 s iblings
 Ev an
 Pere z
 overwhel med
 organ isms
 Hy d
ad os
 diplom ats
 e ternal
 Jen kins
 st agn
 vast ly
 serv ants
es ar
C ON
 Austral ians
 s i
 T win
 protocol s
s ens
 micro sc
 m es
 M UST
 Dep ression
" ),
 con gest
alk ing
 sn ake
 sm iled
 C F
 B our
us k
 St uart
ear th
 horizont al
 premium s
 assault s
 de portation
 pus hes
dri ving
 ex acerb
 mole cular
t i
 w olf
 en compass
 P oke
 prox imity
 met ro
 J ob
 understand able
 conj unction
W as
 Le aders
 Her oes
 craft ed
 S weet
 pay load
 A IDS
 spin ning
im edia
 T iger
 S gt
o at
 He avy
 bank ers
 proceed ed
 F uk
 barg aining
rell a
 work out
 capt uring
 b og
 jew el
N O
xt on
 adv ise
 en light
 N y
 ver ified
 prim aries
ophob ic
 g ases
 19 48
 inaug uration
 b ounce
 Prop het
 med ications
 St range
im ination
v id
Current ly
 apolog ized
 st aged
inent al
 l ingu
osa urs
 shall ow
 k et
 activ ate
 accompany ing
 Pro bably
 ax is
 D ylan
 sec recy
G P
 A ur
 surf aces
 eleph ant
t ake
In s
 injust ice
 Not es
 imprison ed
 Sc ript
D isc
 promot es
 sus cept
 j ar
 impl ied
 Kash mir
 Viet namese
 Sach s
 supp liers
 B in
im er
 rebell ion
 She ll
izoph ren
 B io
 M ix
 Ap ollo
sh ine
r ab
other apy
 un named
 ind ul
 national ism
 L av
D ear
 P or
 firef ighters
 alph a
h ouses
 G ingrich
ig el
е н
 comp ile
 N um
 sp am
 He aven
 E A
ise xual
 lo oph
 Sh op
S QL
 disapp ro
int egr
 state wide
  **
 in ning
le um
H and
 who lly
 rele g
 be am
 tra it
 administ ered
 Re x
 past or
 gener ator
f ood
 not or
 tr ails
 incom plete
c ur
R ub
 retail er
 dr astically
 Econom ics
 compl iment
 D ow
 shot gun
 assum es
 N am
 F ew
 b aking
 en rolled
s ic
Sand ers
 sl ots
 b rib
– –
 to ggle
 un b
 hur ts
 cont ention
 pop ulated
 Cro at
 fit ted
 Mar ie
 hint s
 Ind y
 pa ired
 borrow ing
q l
 d uck
 TH AT
 new com
 l amb
or p
 p ets
 highlight ing
 P ul
 R B
st ud
 bat ting
 stab bed
Con clusion
ind ust
 vit amin
 so y
 par a
the ning
7 50
 f lick
 lot tery
 am ended
 l enses
 Ins ider
 int ro
V C
 gra pp
 athe ist
 Fl int
Th us
 b ang
 T PP
 plaint iffs
 Indust rial
 ar row
 object ions
 R ab
 contest ed
 affect ion
aw i
 back ward
author ized
 comed ian
 C AN
intend ent
 ext ensions
 Gl en
if a
 E ug
 W ag
 phenomen a
 m asters
 prob able
 parad igm
 out line
Cl oud
 ro pe
 c ites
ish a
 Arab s
ie ves
AR Y
 D at
 pen is
g one
 th y
 the s
 j aw
ou x
 un equ
 Or d
step s
 sub urb
 gorge ous
ro e
 Cole man
uss ions
Sh ould
rig er
 IM F
 Ash ley
 mot ive
re a
nd ra
 rev is
 respond s
 c ater
is se
 In g
osp here
 r h
 tort ured
 main land
ourge ois
 pass words
� �
 emb ry
 inter ventions
 helicop ters
 H alo
 g ently
 popul ist
 mat rix
 analy tics
sec ret
 self ish
 admit ting
 obs ession
 an them
 Ell iott
c iously
 co h
 cat aly
 S ask
 p ills
 contro llers
 stand point
 M ak
 App eals
 sum s
ci ation
os oph
A ut
ot ine
 Bur ke
or o
R un
 Ch a
in burgh
 territ orial
iet al
 ware house
 Pat rol
 explos ives
 D ad
 conf isc
 cast le
 hur ricane
 M our
M ass
B erry
 J os
 un ified
 GT X
 concent rate
ump s
 cry st
 fig uring
 P and
it ational
conf ig
 col ours
 V irtual
 V el
 syn chron
You ng
 log ged
 Ind igenous
 Off icial
ut ral
 ens ures
in v
R P
о� �
ar ious
F ixed
D ev
ook ie
 symp athetic
 log ging
 val ley
ib al
 prot agonist
 min ors
AM Y
 se as
� �
C ent
 o wed
 privile ged
s um
 * /
200 5
 Sh o
 D rake
h n
 erupt ed
 N aval
igg ins
 Qu arter
 cons oles
Sub scribe
az ar
 App ro
uk a
 s atur
 E sc
 ide als
 Treat y
E p
O k
 L anc
ut ic
 an ecd
 prosecut ed
ant on
 ad ul
 St ream
 sad ly
 des irable
 psychiat ric
oint ed
 surf aced
 emphas ize
 SC P
 rev ision
 pl ots
man y
p olitical
 wel coming
r ill
Th ink
an ing
 Em ma
du llah
 U FO
d et
 feed s
 def er
 Gu ild
commun ications
b led
 � �
 soph omore
pe ace
 to pp
 F ocus
Off icials
 week ends
ick er
 can on
 stret ched
l ar
 mos qu
d eep
 sand wich
 Pel osi
oc used
M arc
 cal culation
 Go ing
  �
 T ol
year s
� �
14 0
S ix
 T at
 distingu ished
 W end
 mag net
ract ed
 incomp et
 constit utes
 W alsh
 conf ined
 g ru
 corrid or
 select ing
 Roberts on
 en rich
 d ice
m and
 intern ally
if le
In c
 Sim ply
 correct ed
 N RA
 hack er
 J agu
 pool s
 inform al
 M t
 sens ation
ri um
b ird
 greet ed
 Bapt ist
AN S
 L anguage
M ult
 at roc
at tering
 cool er
 partners hips
 under cover
 defin itions
 react ed
 process ors
 Circ le
 gau ge
 V ersion
ant a
 traject ory
 Kn ights
 home owners
 c el
 Con cer
 Re b
p al
op ath
 prov oc
bu ilt
Oct ober
 flood ed
 L opez
 vend or
 compl ications
 jump s
 O mar
 cont ests
 R idge
 ass ure
 H od
St op
 cur iosity
 F u
in ian
ry s
hol m
 la wn
ne ys
IT E
 fin ed
 conced ed
 sk ate
 pedest rian
 ball oon
 D ale
 hom eland
 Ll oyd
 up rising
 o ceans
 l od
 S ak
o qu
e pt
. (
stan bul
com mon
 liber ation
� �
C BS
 command ers
 compe lled
yl on
ind uced
 syn c
 max im
 Con n
 prop osing
H y
 D iet
 deb ated
 B ot
 mach inery
 propri etary
 fair ness
 St ay
 W A
 Advent ure
 all ocated
 h ills
” ),
 sh irts
 reck less
 o ct
g mail
set t
c ue
 NS W
ans on
ela ide
 buck et
 U g
 Eth iop
 har ness
 Dub ai
 K on
hed ral
 arm ies
do ors
 Gu ant
 compr ised
 pres cribed
 He ights
 Alz heimer
is ite
� �
Add ed
 success es
w ald
 unlaw ful
 sex y
 En c
f its
 � �
 color ful
 Inn ov
 pur ported
 N early
 C inem
 delic ate
 Trans it
 be e
B ob
he res
od ied
 var ies
 sing ular
 sl am
 cell ular
 air plane
Pro ject
 was hed
 stere otypes
 c ried
 cho oses
� �
ic ans
 C ensus
re v
 We instein
 nick name
 ment or
 The resa
f a
 S HA
 E M
 ub iqu
sp an
 suff ers
 not ifications
iff e
 Mar ines
aze era
\ /
 story telling
 prompt ly
 L amb
 femin ists
 th a
P T
 qu eries
 Greg ory
 pl ural
 project ion
 ambul ance
h l
D an
 debut ed
load ed
 Alf red
 F ine
 19 00
 L O
 parad ox
 C li
rist ol
 V o
 W el
 connect s
 broadcast ing
 after ward
 Sh a
 recru its
c ision
respons ible
 strateg ist
 ten ants
 Fal con
 mor ally
Res earchers
ract ion
 H ood
 exem pl
 ha w
 compet itions
 var ieties
S aturday
 Sch umer
 K ell
p ark
 gri ev
az er
 vis ibility
 cl oth
 pot atoes
 U T
 trans mitted
l ain
 prest igious
 sen iors
 stun ned
g em
 Har bor
 Sol id
 Polit ico
 method ology
 D uterte
 maneu ver
 perce ive
uff s
 voc als
 g odd
 comment ators
af ort
 alarm ing
che m
 gl oves
 eleg ant
With in
 obst acle
 out reach
 mil estone
 struct ured
 mis dem
M ORE
 co vert
it an
asp berry
be cca
 T E
ustain able
 pit chers
re view
 colon ies
 Championship s
 system ic
 unpredict able
se at
 fool ish
IC O
Al ong
 weigh ing
a ic
 E arl
aun ting
 sw orn
 hasht ag
 sm ok
 ver se
 b acon
 N as
 cr ush
 yell ing
! ).
 max imize
ov ak
 host age
 Lib yan
 exclus ion
 1 11
 he ck
" [
I B
p c
 ignor ant
 bless ing
ld a
 Post ed
vert ising
 rom ance
 renown ed
 insure rs
L ive
D am
 M aterial
gg er
 N FC
 Imp act
 R BI
it ches
W ant
 Or acle
 lo vers
ar ak
 interrupt ed
at ivity
 consider ations
 F ortunately
 imp ly
 min us
ri ents
Th ings
 teach ings
 Bou levard
m ajor
 impro ves
 gar lic
im en
 hum ili
 C able
 infer ior
 time ly
 rel ates
 l ining
 hold er
iv ia
 brut ality
t ag
 unsuccess ful
 barg ain
ocaly pse
 dest inations
 prem ises
 l ament
  __
 acceler ate
ownt own
d id
 p ixel
 fin ishes
 bund le
 Charg ers
 preval ence
 e Bay
 br acket
 an nex
 C ele
 B rent
 k its
 incon ven
 vulner abilities
 cr ises
 p ap
 s ore
 neighbour s
 T roy
 B ever
m ut
ian i
 discover ing
 C rypt
n ull
 works hop
 l ur
 out law
 uniform s
Republic an
 M oto
 Lear ning
 Win ston
 F ear
 Bro ck
OL L
 mer ger
f ax
 D h
 Par ad
ag ne
 LGBT Q
 exceed ed
 P le
 st ew
it ives
 r ust
 T weet
 down ward
 Aut om
 L ag
 privile ges
 exc av
 discuss es
 St age
J ul
Sh ow
 phr ases
 embarrass ed
 Mor rison
 Gonz alez
 Glas gow
 appet ite
 el imination
re ra
 ball istic
C T
 J upiter
ri ad
ang led
 " [
 n g
IN T
hy d
 toler ate
 I van
 Blu etooth
 unw anted
 av iation
 grad uation
 Th om
em ption
Sept ember
 brows ers
N or
it as
 H ab
 tw isted
 mar ched
O per
b ps
 The ater
 cle arer
 L ux
 Aven gers
 sol ic
 championship s
 H app
B ern
 enjoy able
 accept s
red ited
id av
 L iqu
 recogn izing
 per secution
 mis ogyn
 W ake
 gun man
 g ad
x on
al iation
 a kin
 bl aming
 X P
 specific s
 shut tle
 10 80
ol ith
 bed s
 wrong doing
og s
b ard
 resist ant
 typ ing
 dis respect
 a u
 appropri ately
com fort
 Pri x
 Spr int
 vol can
 con ceived
 A verage
 Ser b
 GOOD MAN
] ]
 l end
 Reyn olds
 F ighter
 U pper
 vac ant
!! !!
c ot
 re per
 cul min
 b ore
oci ated
Cong ress
 dis abilities
m g
Jo in
J S
 desp air
 ric hest
 J eb
G I
an ity
 Fil ip
  ..
C ourt
 N ode
 M ik
An n
at ism
 extrem ism
” ;
ard on
 E rik
H op
o ids
 nomine es
R edd
 thought ful
 > >>
int o
 notice able
 Ins urance
 pip es
 ingred ient
 diam ond
 ded ication
with out
 M ets
 corner back
 Sat urn
work ers
 thr one
� �
 D ana
 tw ent
 right ly
 num er
in yl
ev al
ric anes
 prohib it
 id iot
 perform ers
 advoc ating
 E L
 condition ing
 M aps
 } ,
L ead
 tun nels
ra ve
 ex otic
 pr ag
 fuel ed
t z
 Trans port
ins ky
 rep ay
 an at
 t il
 meth ane
 ste alth
U TC
U RE
 Turn bull
 thes is
 fr acking
 sens es
th ouse
 � �
 critic ize
 T ap
 L ogan
 war rior
 l over
 entire ty
 detail ing
 pl asma
 I gn
 display ing
 out field
 artif acts
Republic ans
ex cept
udd enly
 C el
 Rep orts
 g rit
 � �
ci pl
nder ing
 un just
achel or
ine ment
 super f
 sing les
gu ided
F ind
 recogn izes
 Scient ology
 Fre eman
 Ad vis
ish ment
C amp
 kn ocking
 bar red
 loc ks
 F a
~~ ~~
 Bas ically
10 5
 dis asters
 Leg ends
ion age
 prejud ice
 Cont act
 influ x
C ode
 Sing le
 head set
 met adata
 adop ting
isp here
 mer its
 mar athon
red dit
ic able
 fur ious
 acknowled ges
ic ularly
 sur g
 rest art
� �
 Sadd am
vas ive
 p ixels
 mer cy
 story line
 un m
 PC s
 tr aces
 cort ex
p arent
OU T
 w ary
sh irts
p aper
 wip ed
 re dd
 Ed inburgh
li ber
 dil ig
 band width
 Pers ian
 B uc
ah ar
 pun ct
 v ivid
 inaccur ate
oc o
 inst itute
al ion
 l ag
 illust ration
 alt itude
 off ences
 Frank en
 man kind
 occup y
 det r
 att ain
 U nd
 Start ing
200 4
 v est
cent er
Get ting
 de er
 c ows
 preval ent
 L ith
� �
he ed
 Aud io
w ere
M el
  �
 St ef
 round ed
 prolong ed
 G y
ind a
 Kn icks
 bl essed
 inaug ural
 exem ption
 FR OM
A round
ram id
 sett lers
 gl uc
br and
D aniel
 R ange
Pac ific
 coc onut
 Burn s
 Mill enn
F in
 freedom s
ch anging
 season al
 d y
 ab st
 P os
I Z
 ph osph
Th omas
E lect
US E
in el
 sm arter
b usiness
 SU V
 A RE
 c raz
 indu ced
 unst able
 Pr adesh
 warr ants
 p ave
 er ad
 car pet
 cap ita
 refere e
 exped ition
 b ourgeois
Al most
oy s
 f ist
D en
 mot ives
 gr ind
 aggreg ate
 Dev il
 B uch
 Per l
 program mes
 Emb assy
 accommod ation
atin um
 h over
 comb ines
 Fif th
> </
 c ite
 St o
viol ent
 SN P
E nt
! ’
 C aval
g rowing
c ourse
 R ift
o an
For ce
 Spe aking
 st ems
 listen ers
 t apped
 19 44
 defe ating
com plete
G H
Ex per
 diet ary
 con qu
k ara
 benef ited
 mir acle
ing ham
ab we
B Y
 program mers
 coun cill
f light
 enthusi asts
 cr ust
 Hait i
 I CE
V ery
 R hod
 A A
 recomm ends
 T C
r t
f act
C rit
 W izards
c ig
 def ect
port ing
 D ash
 bureaucr acy
 st yl
 sanct uary
 criticism s
 hous ed
 symp ath
 rig orous
op hers
im ag
 N ak
 E isen
Rec ently
 reb oot
 concess ions
ick y
 prost itution
 paper work
am el
 upd ating
Pr int
 sne ak
in qu
ic ates
 bom ber
 Progress ive
) -
 statist ically
 unf amiliar
ren ched
sequ ently
 length s
 pred ators
 S ales
 un a
 det on
 Bas ic
 G L
 ru ined
 me ga
av an
 for fe
 Star bucks
R ock
er k
W R
 host ility
 heav ier
 d ilem
 char itable
 Sch midt
imb abwe
 Hy per
ount ain
 Elect ronic
omed ay
 R uth
 K ob
 Jul ia
 I stanbul
i ov
 O t
 N L
 philos opher
 uns afe
 C e
ess ors
ched el
 position ing
Phot os
 coordin ate
 H orse
ur st
 st unt
 ter rific
 reb uilding
 Roll ing
 C ad
 ins ider
 den ounced
 L ed
 C ork
 Ever ton
Fr iday
 � �
 acqu iring
spe aking
Nob ody
ixt y
p i
 E ST
Mc C
 ter ribly
 Git Hub
lic t
 there after
 simpl icity
 pers pectives
 WH O
 crack ed
 forb idden
 Su z
ight y
 Se oul
 N J
 Ang els
� �
 wh it
 port al
 O kay
 O ri
ond o
 soc io
 l aps
 super visor
ill es
 Tim othy
 Partners hip
 L P
 illust rates
 f usion
 referen ced
 j ournals
Be yond
 Se bast
place ment
 mult ip
ipp le
 object ion
 gr an
 pl at
� �
ist ical
 sh ade
 T ournament
 Ow en
 infring ement
cast ing
 off ended
 Mor oc
 s perm
 A V
so ver
 big ot
rest rial
 sch izophren
 Rom ania
 Citiz en
av in
Val ue
ters on
 analy zing
 tr action
 introdu ces
or ie
% ).
 request ing
lean ing
 antibiot ics
 j ungle
ograph ics
 ident ifies
 Sher man
M ex
 sl og
 as c
 E N
 20 30
ire ction
 diplom acy
 Space X
ent e
bl ood
 ch ill
 Le Bron
 intention al
 borrow ed
rat ives
fund ing
c in
T ech
ish ops
 Not re
 S ame
 Princ eton
pr im
Bel ow
 skept icism
 bro ker
 cert ification
B uild
Add itionally
l ived
 aff idav
keep ers
 Lind a
 vol atile
bl ue
 Victor ian
it us
 fright ening
 Moh amed
 unch anged
en berg
v ity
 Scient ists
p atch
est ine
 super b
 rec laim
 M az
 Al ways
um i
et ed
 ton nes
 reg ain
 ar che
oles ter
 P ist
 so ap
 fat igue
 R S
 Poke mon
 she lls
 detect ives
 bet ting
ng th
N OT
 Ma o
 end ured
 Bet a
12 3
 S tern
 v ine
 orche st
af ia
 R are
 Che v
 Exper ience
 indic ators
 C lear
 Aub urn
m ass
 J ill
ا ل
 L iter
 vis as
 terr ified
 sh red
W il
ress es
AN K
 f ren
 health ier
 fav ors
 absor bed
gg ie
ia o
ie u
 Aust rian
Pl an
 rec ons
 vir uses
 cooper ative
 K umar
er m
 Court esy
OW N
 C ities
us ers
 restrict ion
 cap ac
 11 5
T urn
 clean er
 B urg
ern ame
ay an
 circ ular
 Let ter
 Murd och
sh ould
 mir rors
b ial
 V ince
 lower ing
itness es
 che ating
 interrog ation
 IS IL
 bron ze
� �
 v intage
 pe cul
t v
 sh aping
 D ani
 Cl are
 Br is
av ior
 Pl ant
 und is
 Ab dullah
ed in
 back yard
 19 41
om ical
 ref riger
 submar ine
 access ories
spons ored
 exclud e
 aut op
 unus ually
 17 0
 ph ases
on so
op ers
 nort heast
he e
act ed
C y
P ay
 be ard
P rodu
" ]
 under going
 tack ling
 Person al
 email ed
ink le
 free zing
 M ig
 national s
 cy l
 un real
 cell phone
 take over
 min eral
 horm one
 b ast
 - --
l ings
ac s
 end uring
 d od
 Day ton
 sub po
 N ice
 M iles
 l av
 ce ment
 Rich ards
anc ers
 squee ze
 devast ated
 film maker
 goal keeper
H i
 Sask at
P o
et c
ices ter
 brand ed
ins pired
S B
 advoc ated
 str ains
We ek
 Sp art
� �
19 90
 beaut ifully
 Jul ie
 communic ating
 Ann ual
 inv iting
u ador
 R ugby
 P OL
ign ment
 psych ologist
 fact o
 Fried man
 n avy
── ──
let te
 int ric
 proud ly
 pos ing
 hy ster
 tour ing
pt ive
\ -
ev ent
 C raft
 h orn
 govern ors
 ref ined
 Celt ics
 H i
 alleg ation
w ave
 mark er
ick ers
or f
 enter prises
 H arm
 do i
 back drop
 met als
mod ern
 swit ches
 model ing
 happ ier
 st ip
 Sim mons
 NY PD
 court room
ot ers
g ro
 pal m
 24 0
 D ot
ett ings
Res p
 imper ative
Brit ish
 sc aling
 hand c
 exp on
 Core y
 R abb
Im agine
 respons ive
 interf aces
 ins ulin
 El ite
 sn apped
 announce ments
 Every body
we ather
oss ibly
bal ance
 Me yer
 deter mines
 arch ives
 E instein
 stretch ing
 bal ancing
K en
 wa ist
 contam ination
K im
 } );
pect or
 ret aliation
pl ates
 reiter ated
 p ulse
 undert aken
 rival ry
 a rose
y ers
 th under
 recept or
 develop s
fol k
 s oda
 f ost
 cha otic
 Haw ks
 19 47
 DO J
 depend ence
s ided
S ar
 ar senal
S ave
m ult
 L ay
P ict
 ON E
g ie
 st ellar
 travel ers
 inf ants
 authent ication
 p and
 hard core
 engine ered
 merchand ise
 was hing
 short s
 attract ing
ump ing
 p ine
 observ ing
 gall ons
 imp air
le ys
 dece ased
 confir ming
 je ans
 C atherine
 Bah rain
H as
rec ord
 critic izing
 compens ate
 agree ing
 appar atus
 predict ing
squ are
 T W
 rev ival
 special ists
 re ef
 innov ations
20 18
 fl ame
 anticip ate
 V ision
 Pan ama
 vis ually
 poss essed
ount y
ar ium
E ric
 ele ven
 pen al
 Gr ad
 ey eb
 l aughter
 deleg ate
 Walk ing
be h
ster dam
b uster
ill on
 ep it
 Till erson
ax ies
K evin
 opio id
 Map le
 rest ing
 Co ver
 core s
 w ipe
 Ult imately
 Gil bert
 distract ion
 pot ato
lu x
 Sc ore
 ( .
 t ant
200 1
 Val ve
 broadc aster
 war mer
 star red
 aut umn
� �
all ah
ed u
 clear ance
 Us ers
 kidn apped
18 0
 war riors
 pri zes
w en
 burn s
 s idelines
if ted
Add itional
n ings
 reg imes
 R apt
Other s
ac a
 dump ed
 dom ains
 ur gency
 Gr ass
 end ure
 hypot hes
B D
� �
 ec ological
 m s
 Expl orer
in ters
Le ague
 Cent ers
duct ed
 Sim ple
Wind ows
 concept ion
 o live
 bull shit
 Man afort
 visit or
 negative ly
 T i
 contract ed
amm ad
 H erman
 Dam age
Ch ief
! '
 r im
R ay
 Pro duction
I AL
 their s
 select ive
 capt ures
 radio active
 b ilateral
 dub ious
H R
 Brend an
 categ or
 pr inter
 rod e
et itive
 bl ows
 P E
 react ors
 Hay es
 van illa
 S hip
or ian
 nodd ed
 rad ically
 Merc ury
 seiz ure
 rep airs
ort ium
 Pen insula
 H ogan
w s
 unbeliev able
 inst ability
 depend ency
oster one
mo il
 log in
 explos ions
 sever ity
as is
 volunt arily
op ed
// //
 st al
 ill icit
 Craw ford
abl ished
pl aced
ien cies
em a
 que er
 m arsh
 shel ters
 astronaut s
 screens hot
pro ject
 Leg acy
 pe an
ans ing
 Det ails
 contam inated
 obser ver
 R iley
 good ness
 Com ment
� �
ok a
John son
 C ards
land er
 s ights
 program mer
 crypt o
 lone ly
Up on
verse ly
os er
 acc use
S W
 Cris is
 Emir ates
 assess ments
 G ross
 B ristol
 cr unch
 side walk
 subsid iary
 � �
 content ious
Bit coin
� �
 Pl aza
 h ollow
 the rape
 prop he
Ad am
 Con way
Redd it
 d well
 pal ace
ff iti
 fre ak
 path way
health y
 stret ches
 b isexual
 F F
p arents
 rob otic
 hun ter
 Dec l
 dem ise
 disadvant age
 H ernandez
 pour ing
 shut ting
 rig id
H ard
 f og
 Hon or
More over
 Sp icer
 Ve h
 direct ive
200 3
N ovember
 redu nd
 Sch ultz
 rese mble
 j ealous
 aw aken
 J et
B P
 Bru ins
 S end
Y ear
H uman
 re he
K it
 Fr ame
 cook ie
 compet ent
 Le o
 transl ates
 empir ical
f ed
 f ra
 Vi enna
 ru ins
 S aw
 metaph or
 d iving
 R oute
 v om
w ic
an ed
 ple as
I ll
 b end
 s ack
 � �
 withd rew
 to e
 T M
 surpr ises
 sell er
 ren amed
 P ain
� �
 lau nd
 Su ccess
ple asant
 Sh ane
 Andre a
isc her
Ar ch
 Bl izzard
c ry
 W u
U r
 char ities
 B ert
c led
 ex terior
 cost ing
 Re play
 r anged
 Jed i
 relent less
ott esville
 rem ed
b ag
ore st
 ineff ective
 par an
 d ull
 C rist
 ins erted
 char m
 F lickr
 do omed
rah im
  �
oun ge
 Bren nan
 br ig
c ro
 tr aced
 dig its
 Resp ons
 Invest ment
� �
IS A
 reminis cent
 AP Is
s il
st atic
 Ad elaide
 into x
 Invest igation
 E gg
 le mon
 le aking
Am azon
 own ing
ant ry
P ublished
 J azz
 pres ervation
 po pped
 N est
 Che ney
 s rc
 l ou
 Reg ardless
) ?
 acceler ated
k owski
 N an
 mod ifications
 s om
 all ocation
 a ven
abul ary
 dict ator
pl anes
 t am
 cont end
 viol ates
 her b
 juven ile
 D ell
 Food s
t imes
 download s
 repl icate
� �
 pen cil
 S oph
 p ensions
 pres erving
De cember
 depend encies
 pig s
 not ices
w ife
 reward ing
 merch ants
elect ed
OR Y
 acceler ation
 feas ible
 appoint ments
 C opy
 rad ius
s ch
c ity
at ured
^ {
 Th an
 tw ins
 m asks
 Web b
 B un
in vest
S omething
B esides
 ye ast
 L ance
 att achment
,’ ”
 Beh ind
 out dated
 discont in
 laugh s
ident ally
a ft
Ch inese
e a
 up held
 sp ouse
 prosec ute
ro b
J ones
C raft
 po inter
F OR
 r apper
 poss essions
 v andal
 Observ atory
 de af
  000
any on
 F act
 n urt
 T rent
it em
 iron ic
 195 9
 S kin
 at oms
 Jud iciary
 Ar row
 up wards
m atch
 Kush ner
 ret ros
 Pir ates
 Br anch
� �
 enroll ment
f alls
ess a
 in ad
 R F
i ak
 need le
 oper a
 negoti ation
 P TS
H E
 veget able
 spir al
 embr acing
 E lementary
 prim itive
 T aking
G roup
 train er
D ig
in ational
c ould
 cont ributes
 res olutions
 fest ivals
 dis se
h ops
aw ays
E ver
 fert ility
 toss ed
 d un
 Beat les
S und
 micro phone
 shr ink
 v apor
 10 2
ate l
 bomb ings
be e
L ou
 � �
 lean ing
 ha iled
 congress man
 & &
 shoot s
 hun ters
 te asp
sec ure
 v inyl
 18 00
 Z ucker
 Sy n
ett i
own s
ro ot
 mer ge
 al lev
v ideo
B T
( $
 cop ied
 re jo
 Pro du
F inal
S n
IS S
 p ier
 all ied
 cost umes
ob ject
 Spe cifically
 forecast s
 withd rawn
 mod ification
M ur
bor o
 iter ation
st ad
 mechan ic
� �
Bet ween
 Vol ume
 Dis covery
 Dev ils
 B orn
 myth s
 ap ost
� �
 stamp s
iv able
,’ ’
 10 4
 ch amp
 Conserv ation
st atus
m ails
P E
 hop eless
 dimin ished
 A be
 discover ies
 disappear ance
 Man uel
 ch uck
 inspect or
 Com edy
Supp ort
 t ally
 G ul
 K iss
 e man
  é
ven ant
 per tain
J ew
 access ing
 Me et
AC A
 anticip ation
 cos mic
 volt age
m or
 v ault
ret urn
 doub les
ari at
he id
D eb
 uns ure
V ict
 Prof essional
r h
ile aks
 r uth
 smooth ly
s rc
 out spoken
 Rock ets
A BC
 tur moil
 Ster ling
 g aze
 l b
ush i
ent ric
 sal ad
 Mir ror
 gif ted
uff er
c am
 my riad
 mamm als
 fr amed
 Tw enty
st y
 o lig
 athe ists
 alleg ing
larg est
 pod ium
 occur rence
 fore front
 inter val
 airst rikes
f alse
ian n
 offs pring
 Z imbabwe
 Act ive
 sex ist
 extract ed
 Ali en
 fore nsic
 Mem ory
 rad i
 M ead
 valid ity
 milit ias
 Whats App
 adequ ately
 Ge off
 t outed
 South west
 C ord
ph oto
 Us ually
 Ad obe
 Mount ains
 G ir
p sy
 na ive
 National s
 nar ratives
f ired
 trig gers
 intr ins
 compat ibility
 F M
 B oss
 Tr ack
 can cell
 neuro log
d in
 celebr ations
read ing
 Qual ity
 ext rad
 D uty
c ified
 Mon ica
d oc
am ic
Le vel
 jud ging
c f
an ol
t ier
 r ansom
 che ek
 Tro phy
 stim ulation
 per ceptions
 imm ort
N ick
 Beng als
 e cc
 ground ed
 Jo in
L in
Dem ocrats
 B ass
 Sim ilar
 cr ashing
 creep y
M a
 elev ator
 Rec ently
 pret ending
ot on
iss an
 B irth
ud s
l ins
 sle pt
D i
 aster oid
be fore
 Fl ag
 w ires
our ing
 exch anged
 Cle arly
V ol
 adoles c
En ter
re z
cre ate
 narrow ly
 un ite
 mark ers
 Ter rit
ot he
part isan
AT A
 collabor ative
Semit ism
 success ion
 wholes ale
 P ars
over ty
d oes
 Al ger
J osh
 streng thening
 just ices
S F
 clean ed
 Ex cept
 Bald win
 D LC
Islam ic
 top s
 acknowled ging
ustom ed
 bol ster
Ult imately
Pr ime
 retrie ve
 place bo
 un armed
 or ph
 north west
 H ond
 k in
els en
 Tr ain
  �
 Kenn eth
is ure
 employ s
 Scient ific
 Leban ese
 super vision
 G rowth
 sustain ability
List en
 ind oor
 super st
 ind o
 19 39
C ast
 perfect ion
W ow
Cre ate
 e ject
 K oh
 Budd ha
 Sky pe
 Coff ee
od s
 cur se
 L ud
f ight
 dom ination
 comp ares
w ire
c ross
P y
 refres hing
 can s
Through out
 spe cially
l ia
 nut rients
 meaning less
 lun ar
 ash amed
b ands
ucc i
 depth s
 dec ay
 Com ing
C ustom
 evac uated
in as
D F
 Fl oyd
ors che
 rel iance
 disg usting
 b idding
 dis charge
 Curt is
 predict s
 hypot hetical
 My ster
 Beng al
 4 50
 h alls
 decentral ized
. ;
 susp end
 sect arian
 B TC
 K ot
11 5
L ittle
 overl ap
 honest y
c ulture
 A part
ors i
 blast ed
 vers atile
 defe ats
 left ist
 2 20
 N ike
Se ason
 sc andals
 F resh
 r ack
 research ing
 regul ator
 perpet rators
Un iversity
L ess
 ho ax
ul atory
 po orest
 be aches
 YOU R
 P v
ve red
 so ber
 C ros
art en
H am
OS S
 frequ encies
 Z oo
he ard
 grant ing
 concept ual
 exp ired
 R ew
 Mons anto
 Re ce
 Kurd istan
 pr ince
 T L
 de ported
 O g
 fut ures
 anarch ist
 Buzz Feed
 Jackson ville
iv o
 Ult ra
ant ine
 firm ware
 f rog
 night club
 � �
 J SON
st ru
M aking
 Zimmer man
dog s
 past e
 E lder
 Techn ologies
 An cient
 parent al
 govern ed
 Ev olution
count ry
 lo oming
 d os
 tang ible
 sign aling
 rele vance
C ard
ac ial
W estern
 ramp ant
 Abb as
 turn over
 id ol
 J ur
 to dd
 Ch oice
 eval uating
 decl ines
 un cover
 sp ine
 livest ock
 recy cling
 F ernand
T em
 cruel ty
 st ing
Jan uary
A cc
h agen
c oll
 judge ment
 extract ion
 B og
 p ent
 bit coins
 embarrass ment
 rep s
 er r
 Bris bane
is ans
rav ity
 g it
 Any thing
 Hel en
 accum ulated
 relie ved
 Le ad
 bi ography
 Camb od
oust ic
L ee
 false ly
Yes terday
 Ch arter
 film makers
 B le
C redit
 g y
 Ec uador
F rench
 correspond ence
 stake holders
 gl orious
 O val
 tax ation
 Black Berry
 B il
r ance
 Res ults
 Can ucks
 sex ism
 Mid west
 frag ments
 B T
 under went
ub a
 McC l
 stat istic
 reinfor ced
 diplom at
 air lines
ass is
te chn
right s
 we ights
 D S
ol ia
Sub ject
 real ization
 Can on
 part ition
 Ev ents
� �
 yell ed
 hook ed
 distract ed
 w anna
 cl o
 Cr us
 V P
 Con c
 E asy
em y
 re print
ob ic
e ath
 super market
 Viol ence
 br ass
 He ath
 e ch
St r
ex pl
 resemb les
 anal ogy
 sh iny
s cient
P rior
 stuff ed
 gl oss
 constitu ency
reg or
 sound ing
 Mon te
ul ed
 the ology
 divor ced
 Up dated
 Ir ving
secut ors
 mem br
 out raged
 bom bers
 B ened
o it
 indirect ly
 dest abil
 C ertainly
 j oked
g age
 nom inations
 bur ial
� �
board ing
are ndra
 Sh ot
 tr ilogy
gl ass
 o mn
 g room
 In qu
 Ind ividual
 IS Ps
 And ers
 s ung
,' "
 fundra iser
 La unch
 Charl ottesville
 bu ys
т о
met ry
 s outheast
 H ag
 Salv ador
vention al
 Per fect
12 8
 M int
ak is
10 4
 gl ow
id ate
ring ton
 dr ums
 Plan ning
 height ened
 comp uls
 B row
 overth row
c od
I r
 illness es
 fraud ulent
 sell ers
id able
 kidn apping
 util ized
 go alt
 belie vers
 G ri
lant ic
 cho pped
 F ans
 19 42
En large
 L il
 indef initely
ba um
 reconst ruction
re ne
� �
l n
im ation
arr ison
it ating
 Dar ren
 cur tain
 ac ids
th y
 suscept ible
 K em
 ir rational
 T ier
 mel ting
Further more
 s ang
Th ird
 surround ings
 h ats
 cease fire
 t apes
 miser able
Scient ists
 like wise
Top ics
 st acked
 AR M
a qu
200 2
 ur ine
 pop e
 t in
 G ur
 miss es
O ld
F oot
em ade
n umber
 obs ess
 S V
the med
rict ed
On line
j ah
 pro claim
 catast rophe
pl aces
 st oring
lud es
 Mot ion
 V ers
 unique ly
mark ed
 remark ed
 Ang ular
h ig
is ch
 lapt ops
… ]
IN D
10 2
 Rh ode
 char ism
 C er
 spat ial
 council s
 com r
 he ights
 ex ile
� �
 inqu iries
 f aint
 Des ert
 195 8
 comment ator
 rec urring
qu arter
olester ol
Feb ruary
 \ (
 Gen esis
ee le
 j ugg
omet ric
fr ac
AN G
 Pan el
 sur geon
 ende av
a verage
 super natural
f ill
 shr inking
 J azeera
 D ucks
um bs
F ederal
 John s
B rian
 T ah
g ae
 disp ers
st ill
 un pleasant
 dis like
 cr acks
o il
 Ill ust
ig ators
 tub es
 Bl ade
S u
It em
 Schne ider
 Protest ant
 G iant
 Ad mir
 an th
 Im port
 lif elong
 dest ined
 author ization
 Ar s
A ri
 N ate
ex per
S ervice
 oper atives
 Like wise
 C E
ood y
 Ex xon
W ater
Ch icago
B rad
 disagree ment
ush ima
R om
 different ial
 valid ation
 gal axies
D ist
 elig ibility
 with hold
ul ators
 off ender
a unch
 ch lor
 Kind le
 cont enders
 Wy oming
 Ch in
D O
 overt urned
 C anyon
import ant
 reg ression
 photograp hed
 mit igate
Mart in
 rev olt
 b unk
pl er
 milit ar
 mad ness
 surviv or
 pund its
 design ation
 sc oop
lin er
  �
 Am sterdam
 weaken ed
 D owntown
 195 6
 sl ap
ir teen
 Li u
 Custom s
C ore
 M illion
 intermedi ate
 Fort une
im o
B at
 ded uct
 Part icip
 F REE
 ch ambers
 sh arks
 prop onents
L ight
h un
 H ugh
 Gall up
PD F
 Dav ies
 hon ors
en ment
d ue
 hint ed
 b ounds
 sh am
 N ear
 Bar rett
 heter osexual
 B erry
pir acy
 inter ceptions
 W er
 Bre aking
 sab ot
 pun ched
 prepar ations
qual ified
 Tre vor
 Econom y
 pl ague
 Rest aur
art z
 Quest ion
 to mb
 hero ic
 Dian e
B ur
 gr abbing
 can vas
 Sh ia
e on
 conver ting
c irc
 Rhod es
 wor s
 Cl iff
 10 3
OU ND
 V as
� �
S orry
 P ra
g as
 fair y
ang ular
 unp aid
 O L
 worth while
sm all
 rehab ilitation
 hel pless
 E R
Cons ider
 S hen
A ud
 Prov ince
P an
 E ston
 Through out
 clos et
ott est
ific ent
 compos er
 crus hing
 D iff
iv ism
it ures
 re op
ot le
L ondon
 ex h
 t enth
" );
 discipl inary
 d ess
 G em
ump ed
 Pir ate
Qu ery
 T ag
 franch ises
 rum or
ol ation
 on set
per ing
 po orer
 Kit chen
 M ega
 w olves
 g el
G ov
c ule
 P RE
 forg ive
og ene
 spec ulate
 lung s
N umber
al ong
 Bay ern
l ate
 un authorized
 mar vel
 F X
 Am anda
 P ierce
 conting ent
ub s
ern ick
 law maker
 draw ings
ic us
 Add itional
i ya
 reject ing
ic idal
 ab normal
4 50
 W orth
stand ard
 C oy
G ET
 print s
 Nort heast
 coll ar
 pedest rians
 Intern al
ig ger
ave z
 aspir ations
S k
Donald Trump
D ue
 Colon el
- $
d eath
 zomb ies
F ort
h ash
W E
 sc outing
J es
 su ing
 land sc
 kid ney
 ad vertisements
 ret ention
id ad
Ex p
 abund ant
qu et
 edit ions
ra red
 � �
 sm oked
 gluc ose
 My ers
 infant ry
 fore see
t ar
 spl ash
 g ays
 imag in
 cl one
ris y
 v oy
 min erals
 M ate
10 3
 di agram
 he x
h on
 l bs
 P am
affe ine
 reb ound
 install ment
 suprem acy
 fall out
 reconc iliation
 H aven
 w inger
 Hass an
 z oo
 T as
 V ita
 M oy
 ver ification
 Re becca
C ould
 tel escope
 Gu inea
 play ground
 chance llor
 align ment
im an
 telev ised
com b
 F ell
 K i
ari us
ON D
 co erc
B er
 P rest
R ather
 res h
 comp ilation
 effic acy
 co herent
 D ance
F un
 L akes
 195 4
P ER
 Stand ing
osp ace
 t sun
 ro gue
 W ine
person al
 Qu ant
iz a
 Jud a
Pr ice
 draft ing
Israel i
 mortg ages
 exc uses
c ano
v able
Con nect
 R SS
ass ed
 supp ression
l ich
 cl usters
 cock tail
 At las
 dis able
O pp
 sm ashed
f ocused
 south west
be y
 organiz er
um en
b ons
 s aga
 fant as
il ib
 P ine
 W it
 sc out
 st umbled
 blu eprint
ri o
rat t
 Test ament
 stri ve
umn i
h ou
 app les
 R ating
m ag
r ice
 super star
 mon arch
 H av
 plag ued
 dictators hip
 M oses
P ath
d eter
J UST
 J ak
m ove
udd y
 disag reed
 D iaz
 circ ulated
 gl uten
 country side
v s
Calif ornia
 Com plex
 unanim ously
N P
 ch orus
 unders c
 pro claimed
 umb rella
 roll er
 Gu jar
he avy
 accus ation
 Coun sel
tr ade
 l ob
 pecul iar
 V ote
J ose
 mer ged
 Rock y
 10 6
 manip ulated
 Le icester
W all
 Prem ium
J ournal
 dismiss al
 persu aded
 staff er
 accomplish ments
t arians
 recept ors
 t iles
 dial og
y ll
kins on
 US S
 mult inational
 prohib its
  ion
 ost ens
eff icient
 affidav it
 R ol
� �
 ener get
 s omeday
 Is is
gr and
 m int
 comp ression
 Wag ner
 tor rent
 Jack ie
 b un
 C AP
hen ko
 intimid ation
 instruct or
De ath
T M
 lear ns
 Lyn n
 V ern
 l ith
 m aid
 prem ie
 L ar
� �
 l akes
xx xx
pro duction
 d ots
 Pl atform
 Hug o
 contin uation
 Nep al
 Comp anies
 War rior
 unl ocked
 M ist
00 3
 protest ed
 mess y
in x
icult ural
 dr astic
 brew eries
 W on
 19 17
R on
 d ur
 craft ing
z an
 S R
 Indust ries
 Os borne
educ ated
ang a
 p anc
g io
 st air
 innoc ence
 b iblical
f iction
 n as
= '
 m esh
 rational e
 bell y
 Re venue
 squ at
 brows ing
wart z
if ax
bour g
 f ade
 d ock
ott i
 head phones
ablish ment
 therape utic
 stap le
 l id
ox ic
ell i
 c ant
bel ief
 S ugar
 Man ufact
N early
 F argo
 N OW
 march ing
 tele com
 fr inge
 cler k
Austral ia
 � �
 maj ors
 commod ities
NAS A
 York er
 N arendra
 by te
In side
 progress ives
ve ment
reat ment
Prof essor
 b ark
 c ros
 A zer
 re imb
S ky
 Rep ly
 Ref uge
real DonaldTrump
 sh attered
 swift ly
 freel ance
 B ast
 se gregation
 interact ing
 K ub
au f
us ra
p rop
 ne oc
 B ag
 kill ers
 ox id
 R unning
s or
pher d
 acc ustomed
 IS O
rel igious
Sec ret
 adjust ing
 ubiqu itous
 bad ge
 T IME
 und en
 resist ed
 prop oses
 Wat ers
 p uls
 7 50
u ilt
 pol ite
 reprodu ction
 car ved
lling ton
 N W
od ore
 neg lected
 dest iny
 ind icted
 H uck
 M AR
w ild
 Z omb
 H our
 sett ling
et r
ab ase
 Man it
 w ax
 R ise
ol iberal
 opp oses
 scan ning
� �
ed a
Author ities
 sk ies
amb urg
Pro v
 Str ategy
 decor ated
spe cial
 Bur ton
 g ospel
 dilem ma
 Kore ans
 advert isers
 sol itary
 S ah
 Fe el
 W ave
IL E
 ant it
 Euro pa
 Bor is
 back pack
 poison ing
 harm ony
 co hes
 T ay
 Inter view
 disreg ard
ger ald
enz ie
 A WS
Every body
 accident al
 Luck ily
gener al
 W ald
 Len in
ed ience
 unt o
io let
 Off icials
 sp ider
 shoot ers
 l iable
 Link edIn
yr us
 thank ful
 cross es
 advert ised
at ri
 Eug ene
oc hem
 might y
 rep ression
 emer ges
 Pun j
 Cl aire
 misdem eanor
 Mour inho
W al
f acebook
 w aking
 repl ies
 ge ographic
 collect or
 Ang lo
 St ark
 Sh awn
 Church ill
st ro
orm an
 G addafi
 CON T
 Armen ian
 y a
 government al
wh y
 st alled
 Av iv
cho ice
 ang el
 V ic
 Orig inally
in th
ci um
 wild erness
 New man
 Le h
 thank ed
 Rel igious
art icle
 doub ling
 Serb ia
 Re y
 Marx ist
f aced
 Per u
 195 7
D ark
 ver ge
 B oot
 M ale
Eng lish
m t
 I F
s afe
 sub missions
ET A
 N PC
 S it
Pl ayer
 station ed
 reprodu ce
 rem ake
 cyn ical
 St yle
 Americ as
 F ury
 ric her
 a ka
 s or
 Sh ut
f ashion
 195 3
 schedul es
 exist ential
 tr aps
she et
 R ising
 download ing
11 1
Ch arl
 weigh s
 br ace
r anking
 par ole
 Lab s
 Hung arian
M ary
 m ansion
coh olic
Mem bers
AC H
 specific ations
 pir acy
f est
 veget arian
 screens hots
the ir
F und
 trans plant
 Per iod
 ant agon
 concer ts
 Dem s
 D y
are l
 system atically
10 9
 O UT
C BC
 unanim ous
 cl utch
al ine
 proc ure
 gar nered
un ion
or ously
 rest ruct
 gard ens
 D ocker
 surg ical
 l akh
 v ow
 Const itutional
L ocation
 tum or
 Fle et
 psy chedel
 policy makers
 He ather
n om
 dem ocrat
ast ics
 th riving
 p ac
 div isive
IN K
 } ;
 f ried
 earn est
ord e
 l enders
 comment ing
Sund ay
m ia
 G E
 medic ines
 S orry
 log istics
 Res earchers
 Ham mond
 certific ates
 ir regular
 rem edy
 exagger ated
 char ming
 brand ing
og ram
M ont
 � �
m is
 down side
cript ions
Gl obal
t urn
 Out side
 was ting
 sent iments
 enfor cing
 F eed
Any way
ace y
 myth ology
 c it
 st igma
 inc arn
 M aid
I ron
 din osaurs
 � �
 f al
 < <
ist ence
 s ized
 Rock et
 spons orship
 architect ural
 Re ich
product ive
 blog gers
 For ward
ill as
d ies
 Congress man
l ove
 T ool
anger ous
Con nor
 Sy nd
ov y
 ign ores
 commun al
 am ple
 Nob le
f uel
 serv ant
U t
 L enn
 An kara
 short ages
 imp art
z ip
he rence
Start ing
 ( #
 tweet ing
 depict ing
 cl oses
 Rap ids
 a rom
 architect s
 19 43
 congest ion
 Cons ult
 p ads
 form idable
 Syri ans
 A ce
ich i
S ad
UC K
 ret iring
 Freder ick
 se ated
 d amp
 anim ations
 conce al
 even ly
 Hig her
ass er
 Ray mond
 pat rons
 Ne igh
u u
 crack ing
 acclaim ed
enc ia
 19 55
 loud ly
 Whe eler
com pet
 soc ietal
 Leg ion
 dr ills
 Cong o
 path ways
 ar ises
 aggrav ated
 ne p
el o
 bu cks
 RE AD
 mass ively
Go vern
 mon key
 ro oft
m oon
 bod ily
 incap able
f ounded
f ig
IC S
 inject ed
ruct ions
 Writ ing
b ishop
 ref resh
 C W
in j
 m um
 ske let
 seiz ures
 envelop e
y et
ik ed
 Kat ie
 A FC
 plum met
ong o
 cann on
 Ze lda
 F ri
en za
 P owers
ab ee
J ason
 goal ie
 desc ended
old own
 Ven us
ott a
ef ined
 over c
 M R
 supp lier
 per imeter
 merch ant
 evac uation
 C ert
 ref rain
 imp ending
 deep est
 fire works
� �
Ne ill
 p act
 grad ual
f ires
 Gard ner
sole te
ih il
 sc ans
D D
ip es
L oad
 S onic
 m ans
 initi ate
H en
 jurisd ictions
whe el
 last s
 where by
 Buddh ism
17 0
 who pping
 anten na
 Sm ash
 Sex ual
 S ikh
op ia
 c ough
 L anka
 RC MP
cl ose
 D B
 un identified
 aver ages
 med d
� �
 ann ot
 Rel igion
 Saf e
 M Y
 Off icers
 pup ils
 indu ce
 Ell en
G G
 Ph ase
 reserv ations
 compan ions
á s
t ical
 Com bat
priv ate
d ependent
 proport ions
 counsel ing
 Hans en
as io
 Joy ce
ic ular
gu y
C am
 d itch
 for ged
 P orsche
 de gr
 Laure n
 He in
 D re
 play able
 explo its
.” )
 predec essors
h m
 affili ation
 Vict ory
oh yd
 truth s
 spect acle
 t apping
 rul ers
 nit rogen
 L SU
 I o
 ir responsible
edd y
Ne ither
 d op
 s ir
se ys
 renew al
 rent ed
 fasc ist
ep ernick
pr us
 opp ressed
 br akes
mean ing
 sw all
M ond
 bur ger
 F ighting
n as
) [
 L TE
 B rief
 med als
 b ree
 In come
 Ap ache
 cl an
Ex pl
 sw ear
t arget
 N olan
 sens ory
 phil anthrop
 G ut
 Andrew s
R ev
E st
 Sp ark
 circ ulating
 Min ority
 Card inal
 reg istry
 photograp hers
 10 7
 ca fe
 P u
 C ous
 Sant os
 prolifer ation
 eleph ants
Le ft
ñ o
 dem ons
 atroc ities
 S ans
 G ET
 transform ing
 stub born
 und o
 gest ures
 Ku wait
 19 49
ar us
r ue
 T umblr
sc ill
. /
 Re ality
 v ou
 str ongh
 high s
 run time
ran ch
 bre asts
 10 8
 f ier
 Fro st
 E manuel
 N iet
 B om
ill ions
 o z
 he mp
 disrupt ive
 culp rit
ron ics
ody nam
 speed ing
 ch unks
 mem e
 al ley
 flood s
 aw ake
at ra
 good bye
 Product ions
M ic
 success ive
 Mah m
st re
 stri ps
 G ent
U B
 Bra ves
is man
 lim bs
 G olf
Semit ic
T B
 Ne o
 D ifferent
 hal ted
 Med al
 inad vert
c reat
 and roid
open hagen
 R aspberry
 mut ations
 alleg iance
B usiness
 C ultural
 rem n
 lau ndering
 Ins pector
 Sav age
 Roy als
 st all
 mut ation
 grat itude
 Super ior
 S leep
 Celt ic
et ics
 po pping
 sl ope
 En joy
ld on
 r ude
 rev ive
 Cor nell
 expend iture
Step hen
� �
tt a
W ed
 grab s
� �
its u
 planet ary
 memo ir
 P resent
 Gar rett
 F en
 C OU
p resent
 Elect oral
 Juda ism
 on ion
VID IA
C ru
 respect ful
 sp ur
 comfort ably
 sur real
 lim itation
10 6
ru gged
 rest oring
 o m
 D uck
com merce
 vill ains
 Rel ated
 E cho
ad ic
Tr ue
 p oker
 chick ens
ett es
pict ured
 W enger
 h ug
Intern ational
3 60
 continu ity
com mittee
 D NS
re b
o i
++ ++
 sad ness
 depart ed
 cor related
ar is
 pseud o
Des ign
 undergrad uate
 tri angle
 11 2
M R
 Med ium
 rob bed
 Peters burg
 Gree ks
 Camer a
 harass ed
 Charl eston
r ath
25 6
osh op
 Res istance
 tempor al
n ick
р е
b ai
 micro bi
 world view
 B A
 piv otal
 incorrect ly
 except ionally
 for c
 authent icity
ric ks
v on
p ensive
 su cks
 Bel fast
 profound ly
 inc ub
Mus ic
 gr ains
 inter ception
 P av
 ge op
 bud dy
ass ing
 P ale
inc re
 sl ate
 di ets
 el bow
 disc rep
 simpl est
ver ts
 disc ern
ij i
 sl iding
re lease
 st d
 commer cially
 K ur
asket ball
ap i
 ver te
 Al ban
it ant
 gener als
 ge ek
 camp ing
os lav
 Market ing
 un official
j ournal
en ame
alk er
 assess ing
� �
l ang
M ag
 o v
ch in
ex isting
 hit ter
 Pre p
od o
 s ins
 per former
 J ail
s kin
 We ight
s ince
 rem oves
 K re
 T ucker
 resp ir
 dis comfort
 Rep orter
 incarcer ation
 am en
 T SA
 Har old
idel ity
 ske leton
Reg ardless
 impe achment
 Pod esta
 l ure
 ess ays
 all erg
d ain
 nep hew
 Jo an
ut ory
� �
 Ext ra
cent ric
 Fl ore
B ad
 s ou
 hypoc risy
 dr ift
� �
st ant
ew orthy
 execut ing
 E z
IS IS
 spec s
 Techn ical
 Moh ammad
 � �
 z ip
 inc idence
 equ als
 St ur
oh an
 burg l
 19 46
 se af
 c ove
� �
 synt hes
 D uc
 pharm ac
 work load
b order
 mis ery
 Christ ine
 bl oom
 Pop ular
em on
 spec ulated
 conf essed
char acter
ik ers
LA Y
 Revolution ary
 per t
 pil gr
 inj unction
 hall uc
 e lic
 tiss ues
act ly
 gra ffiti
 C aucus
 rain fall
T en
 test osterone
 provoc ative
 decre ases
 Nic ole
� �
 n ud
gress ive
 was t
 Sh ore
 Sebast ian
 R ole
Can adian
 Col bert
 Eth ics
 List en
iss ue
any e
 Mult i
 tot als
 Mar athon
 M TV
 Com put
 x en
 sit uated
oot er
 prep ares
 dec omp
 Te en
 bigot ry
 L ac
 Car p
 rail road
 campaign ed
 dev ote
just ed
 inflamm ation
 sy rup
u ously
ON G
 coll usion
 rul er
W ait
 board ing
 sh ining
 inv aded
te enth
 tend encies
es que
 puzz les
 Dur ant
H H
threat ening
 Ped ro
 Bl ocked
 Full er
 Am nesty
 Rec ent
ub arak
 b aked
oy a
 Strateg ic
N F
at z
 Patri ot
cap ital
 inter vals
 App lication
 st ain
T it
 un aff
 M AN
 Th ing
L P
 N D
W C
 not ions
 D EA
 F actory
em er
 per il
 N R
gl obal
 t abs
St ream
 schizophren ia
10 7
 sm ash
 dict ate
 new born
 Drag ons
r itional
k top
 vill agers
 Zh ang
auc as
 theoret ically
 b aff
 V it
 P oor
Will iams
 k ings
B ase
 prol ific
 bo il
 re play
 preced ing
 Ar ist
 He b
 J ab
 But ter
t im
rain e
utter stock
 fil ib
 S ize
 special ty
 Fly ers
w on
het ics
 conflic ting
 S aid
 D HS
 qu ir
 TH C
 P retty
ous se
 Se vent
g ithub
 out we
sp ot
hard t
ir ling
OL D
 toug hest
 sal mon
 r app
 pair ing
 Le eds
 Aud i
m oney
 coun ters
but ton
 Arch ives
 2 30
e us
t aking
 pref ers
 P itt
 d é
 pro w
 J as
not es
 U AE
 B ug
 -- >
 bra ke
K now
 V ander
G T
 Inf o
us a
Sec urity
Go ing
e ast
 W itch
 Pat terson
 str at
 pl ac
Never theless
 inex pensive
 M echan
 neighbour ing
 sur rog
 Not ice
 Z ika
 Bul gar
 year ly
 l ocking
 inv asive
 sm iles
r aining
 Lam ar
� �
19 99
 f ills
 V oy
 Ep ic
 wh ip
 ex pelled
 cl ay
 Lie utenant
 expl ode
 ur ges
 10 9
Fr ance
 pl ight
th ose
en h
13 5
 sim ulations
 rot ating
 � �
 ins iders
 Cal vin
 Lic ense
c ats
 em ission
 Indones ian
 rab bit
 gig antic
 Mel issa
 Fe atures
W orks
 restrict ive
 admin ister
 Brad ford
 pass er
 A id
German y
 config ure
 expl ores
 St am
hib ition
 ste er
 mail ing
 God s
be ck
 voc abulary
 che at
 S ara
 L un
iv or
cr ime
 app end
IC A
 X ia
 at om
 Cu omo
 m as
 guess ing
 R ash
 H oney
 My an
 univers ally
 install ations
 pack ing
 Gujar at
 c ues
 Wi Fi
 Wh ole
 gl am
 gr in
 Gro ve
 Ch ang
 Av ailable
 imper fect
M il
 de port
ym es
h awks
 score r
 now adays
 ch olesterol
 gr ammar
 al erted
 condemn ation
 am azed
c amera
Sen ator
 accum ulation
bo at
 vacc ination
 imp aired
com pl
 person a
 h ottest
 Iss ue
C arl
 lif es
 G erald
 Bill board
S ystem
F ast
ket ch
ñ a
 h ates
M ajor
c p
 commercial s
 appl ause
 Fitz gerald
g ering
aw k
 celebr ates
 Joh ann
 development al
. *
 post ure
 De V
 defense man
 lect ures
 Ch avez
 rat ios
 br ink
 polit ic
 a we
IG N
 commun ism
 disproportion ately
 ther m
 sal v
och ond
 law ful
att a
 jihad ists
 exp ire
j ava
 Bay lor
 ritual s
d uty
rent ice
 smugg ling
 Sol utions
 N om
 cris p
sw er
Will iam
ra its
 d ictionary
rend ered
nt on
 subsid y
 dist urbed
 / *
 le v
 insult ing
 U E
 NAS CAR
 Key stone
 Gu ate
 descend ants
 W yn
 Sor os
 remember ing
 Chap man
 under mining
 r av
 co ached
 W ong
ct ica
 S ettings
 Mar ijuana
T I
Sen ate
 Myan mar
Go vernment
 D ocument
 Liber tarian
 G amer
 ch illing
 C oul
w omen
R o
 oil s
 infect ious
oc ating
 f ox
 expend itures
 insurg ents
P riv
 gl owing
 Tw ilight
 rum ored
 Lind sey
 fo am
 horm ones
ic z
che wan
av ier
 experiment ing
 W ash
 specific ation
 discrimin atory
 Nic olas
11 2
 air ing
 P P
man ned
 practition ers
 H os
 construct ive
 L B
 Philipp ine
 Orig in
C oll
 cler gy
 She ikh
k ick
f ell
 W AS
od us
 tra umatic
 imp uls
 Stephan ie
 fam ed
 mot ors
 ext inct
ail ure
Orig inally
 trans cend
 sle w
 b apt
ext reme
 13 5
C ost
ber ries
 defin ite
 S ig
g ard
d an
� �
AR S
C ase
 decre asing
 fr iction
 Sh ir
 Dis play
Sim ilarly
Com ment
 config ured
 W rite
 Zion ist
li able
S ize
ur istic
en ary
 hands ome
 pro se
 Resp onse
 patri ot
 d ynasty
 c emetery
T s
 rest s
 Fuk ushima
 ) :
T aking
! ),
 M ental
 Com ments
if ts
 pe as
 P izza
 pet ty
 C ain
 W id
 pol ished
 R id
 Ph arm
ign ant
 m ocked
 municipal ities
 exhib ited
St and
 C ed
 nic otine
 St rat
 Les lie
 A CA
f at
 conf ess
 o ri
ov sky
 C openhagen
 tsun ami
 consult ed
 fort unes
 Opp osition
 E ld
b c
 unre asonable
 jud iciary
 Fred die
 t ipped
 W ILL
 Under ground
 Stand ards
am oto
 Sol omon
 tr act
 restrain t
 s ulf
 out doors
ms on
 dwar f
 hist ories
 contrad iction
n n
 SS D
 ins ign
 T yson
iv ities
 revers al
 Psych ology
i very
 sand wic
 phenomen al
 tr unk
 bub bles
 Be e
t xt
our cing
 cyber security
 I PA
E ff
 A W
 f aded
uper t
 Has kell
 Hell o
 recons ider
reg ulated
all ic
 disp atched
 An s
10 8
 schedul ing
 l amp
 interpret ations
sh ort
a ude
L uc
vid ia
id as
P ack
 employ ing
 Te ams
 Os ama
N ov
 195 2
 t earing
f inals
ob il
 plug ins
Pal est
 cher ry
lu ent
I AN
 Fr aser
 Const ruction
� �
bro ken
 Cy prus
is y
 Oper a
 Bened ict
at hing
 mon uments
 Tre nd
r é
 instinct s
 prin cess
 commem or
iov ascular
 Tr inity
IS H
 mush rooms
 Ob server
 geomet ry
 Char acter
 p ains
 Brig ade
 15 00
 R um
 distribut ing
.’ ’
 esp ionage
E conom
 rent s
 ra ided
E arth
 millenn ials
 grand parents
 ge ography
 boost ing
 Dog s
 Ast ros
 s arc
 p ins
 N issan
 part nered
 Short ly
 Ass ass
 penet ration
an amo
 fulf illing
medi ately
 outs iders
 blat ant
 uns pe
 sh ale
 1 19
ne eded
ess im
Orig inal
EM A
 collect ors
w agen
Mat thew
 pass ages
 Non etheless
ent on
c ritical
am bo
 E VER
ALL Y
 mand ated
 kind ness
 M alt
man agement
 sl ash
 femin ine
 drag ging
 Valent ine
 S ke
c uts
an an
 ecl ipse
 conc ussion
k t
c orn
 G ru
m aid
 supp lements
 obst ruction
 optim ization
 Sh arks
r il
 discour age
 Det ective
P op
 start ling
az ingly
 M K
 Un block
 Innov ation
 s inking
 Un known
 Roc hester
 pres crib
 Sh arp
h ma
 G C
 long standing
tle ment
 rac ially
 strengthen ed
 home work
 Franc o
def ault
 regul ating
 clar ified
 B end
� �
iv ist
 front s
 s acked
 read ings
 in mate
 Interest ingly
 Front ier
 he ars
 ecosystem s
 C V
 conc urrent
 As ked
 Mig uel
 fin anced
udd le
 manifest o
 sort ed
 excell ence
 n ap
 Arch ive
  iv
r anked
and ro
. —
 right eous
 gun fire
st en
D M
 eth ic
orn ings
F lor
il ot
ip al
aj a
 stat ues
 mar itime
l aughs
i ating
E ast
 sub set
 gu iding
 Kir by
 heavy weight
 gen res
iol a
 optim ized
 Jav ascript
 compet ed
he ne
 Sch war
uc ing
 19 33
pat rick
 m aternal
 bl ues
 Y ug
 Motor ola
... ]
 Ex pect
Pre vious
 front ier
 H ers
 jewel ry
 fat ally
 Decl aration
z ero
osoph y
 leg ends
 youth s
 L ords
 oun ce
reat h
 indic ations
 out going
 ch ased
 Av iation
 Art icles
 gate way
 fulf illed
 en cl
l ide
 h amm
 Spot ify
ach ine
w y
 Fr ances
 ethnic ity
sh are
am my
 d wind
 arc ade
v ine
 O dd
m ot
 proceed ing
 R i
 Bar on
her ty
 inv oked
 inflamm atory
est ablished
act ivity
 run way
umb les
ld om
 Ast ron
 cart oons
 John ston
N R
fil m
Bl ock
 Ch icken
 pestic ides
 trail ing
 real izes
 b ully
J udge
U MP
aid a
 sp un
 ad am
 t ac
 open ness
 Art ist
 All ied
 L uk
 Jac obs
ys ics
ier i
 deploy ing
 pump ing
 Cor rect
p sych
 works hops
 unle ashed
 Publ ishing
 mis represent
 pen insula
 Is n
 un available
 impl ication
 explo iting
 Pay Pal
 N er
mans hip
he a
 oblig ed
l ists
 overr ide
 T ank
cept ive
 f eder
Bre aking
 organiz ational
 Any way
 s unk
 Ch art
 def ects
 Custom er
 25 6
 rock y
 Pre vious
To o
: [
 narc iss
 coh ort
 astron omers
st ed
 pr aying
 bl ur
 Mon roe
 Ib rahim
 unexpected ly
 E y
ov able
 moist ure
 bur nt
 abrupt ly
 oversee ing
 m und
 kn ives
og rams
 L ok
 hold ings
 Afric ans
 G ren
 Do om
 par cel
 ch ord
ing es
 F ry
 pe aks
 frame works
s end
bet ween
 parent ing
 ob ese
 f erry
 bl ink
 V PN
 mod ular
 hes itate
 V on
 yield ed
H appy
 chall enger
 bi om
 Sh annon
en f
ak o
P rop
 Ar ms
 Con nor
 wor m
 un ins
Oh io
ig ated
 split ting
 vib e
 e ve
 Ott oman
 termin ation
 ad missions
 visual s
 as semble
 Sc out
old en
B on
 w ishing
T F
 K ris
 Int o
r ag
 philos ophers
 Athlet ic
st own
 Stock holm
 Cy cling
 ch assis
 Sol o
 notor iously
Cle arly
 Jan et
 to re
 not ify
 summon ed
m ort
11 4
 plant ing
 label ing
 WATCH ED
 C oc
 H il
k ish
R est
 sn ipp
R a
y g
oss ip
if ty
 ill umin
A ction
 h iking
att led
 spont aneous
 p enny
 L is
us ually
 ret ali
 k idding
 energet ic
 c av
vis ors
ut sche
 with stand
 grand children
 con ve
AN C
 ens l
 decl ares
ev il
 ceremon ies
 mic row
 ( (
uck ing
 broadcast s
p ires
Jew ish
 slog ans
 bacter ial
 fl ipped
 A ber
" ?
 Ka epernick
� �
l ated
 AN Y
ac ión
 wand ering
 Com mercial
 hand ler
t ree
 17 5
en o
 un in
 gener ators
 contrace ption
 under mined
 hom emade
 cos m
sm ith
 sil icon
 mod s
acc ount
 central ized
 bl onde
 demol ition
 Al bum
е т
 per vasive
 f ixture
 Opp ortun
us ch
reg ulation
 s lick
 G IF
 be verage
in av
Event ually
 trig gering
EN S
 motiv ations
 exc luding
el in
 escal ation
c ool
 Bur ger
in h
ra ven
 str anded
ut z
 soc ks
og o
 Gold berg
 w izard
 he ap
 Reg ist
it ious
 K ol
U k
ar ray
olic y
l oss
M rs
O B
Cont ent
 tom atoes
 l ent
V e
uck land
g ot
L im
 retain ing
 progress ed
17 5
 S ally
 K abul
2 40
 Sw ord
 Aur ora
 b ids
 Sec urities
lu ence
 fil ings
 Al v
 Field s
 B ath
x imately
 sp rawling
 proced ural
 ev id
 d ental
 S ark
 Mac ron
p ng
 or thodox
 p as
 � �
rec ogn
 Pengu ins
� �
V an
 Sc and
 D raw
 ob solete
 diss atisf
/ -
AN N
 H iro
v d
 met ropolitan
 N igel
get own
 sat ir
 Tor res
 O ption
 respect able
 los ers
 W ool
are th
 Hann ity
 bureaucrat ic
 M Hz
 block ade
 19 14
ic ially
 dom est
 sid eline
 squ ares
 mis guided
 C ec
 sod ium
 decl ar
 Sant orum
o os
 pione er
V ia
 New ark
 Hor izon
j son
S ean
 resist ing
 Ch i
 con quer
 D as
ag ent
 P ure
 P ixel
Sc roll
 d urable
ud get
 bus h
che t
 gl ue
 high ways
 datas et
go ogle
 rese ar
dig it
 Mo zilla
 reject s
 Rut gers
ocaly ptic
 a isle
 stat utory
 l ord
 cancell ation
 mat urity
 � �
 c affeine
-------- ----
 Guant anamo
 St eele
 Per th
 Lu cy
 restrict ing
 synt hesis
 Mad uro
on ial
om orph
 D ew
 imag inary
 Black s
 aw ait
 A AA
 R andom
 Har b
r ar
 metab olic
at ible
avor ite
 und ec
 bal ances
uss y
go ers
 mon keys
 van ished
 test ament
 ass im
 Law s
R Y
 assist ing
 respir atory
i ago
S ex
 cub ic
 se ating
 le isure
 Advis ory
 che ering
 alph abet
� �
 s igh
 lab s
 imp over
f orth
c hens
 smok ers
 Vol ks
 Res cue
 ar rows
Er ror
 P ip
 util izing
 stress ful
 can cers
e ight
 magn ificent
not hing
 vis ions
Th ursday
 disc arded
 PTS D
t ab
 prev ailing
 arm ored
 consult ants
onge vity
 Boy d
m ith
is ine
 sin ister
 rum ours
 dem ographics
ib o
M essage
 un for
 Pod cast
Mond ay
 vers a
 re write
 H ang
 Mo z
 th ieves
 ce ased
 F usion
S at
 object ed
 F ah
G ate
 F it
al most
cl air
 N I
 f uzz
 standard ized
 lik ing
at ts
 laund ry
 elect rons
 Zucker berg
 ab using
 Joe y
ows hip
Just ice
 insist ence
 circ uits
 Pro blem
 F ul
 A gg
ru ce
re ally
 exp ands
 live lihood
ud o
rac use
 Quest ions
 pro let
 arbit ration
 J P
W in
 F i
ib a
 impress ions
 [ …]
oper ation
 195 1
 tele communications
 aut obi
ord ered
ve illance
d rive
 sc aled
ess ment
 ne oliberal
Y S
 jud gments
 T witch
 P ool
ir rel
F riend
 rel iably
 ad here
 ac oustic
 We ber
 a ided
 S ina
 Cre ated
 19 18
O A
######## ########
 Ag es
pe x
bet ter
Res earch
CL OSE
 rehe ars
 pump ed
 F E
 Dani els
 19 38
 Green e
oc re
 promin ence
 de ception
 M ubarak
 stim ulate
 swing ing
 Sub ject
 R iot
 incons ist
 N u
 t an
 Sad ly
 fear ful
 L I
j ad
 Antar ctica
ron ting
 condem ning
 Mon itor
mod el
Or gan
 diff ers
 sacrific es
 Phys ics
 g n
 Whe never
 grad uating
on el
 teasp oon
 Mart y
 Mar riage
 Hoff man
 Com pl
 prov oked
 g ast
 M au
Com ments
ym ph
cl oud
ble ms
 jihad ist
 Ana heim
raft ed
 Al leg
F E
 disrupt ed
 AC T
 rou ter
ment ia
 Wol ver
 n ause
 disgr ace
 text ures
 b olt
 V II
ilib rium
ag netic
 Stat us
 termin ated
 R OM
 elev ation
 L inks
 Hann ah
 pack et
d ates
 pir ate
 bull pen
let ion
 conf ession
ish i
St ay
 ori ented
 nostal gia
 hur ry
 comp ute
Short ly
 theat rical
 st ared
 Sch wartz
 Finn ish
 collabor ate
 Ton ight
 S ou
 Manit oba
 S uff
 I X
 11 4
� �
 subst it
 Hist orical
 H ash
 he fty
 conserv atism
 Crit ics
 un sett
 res umed
M oney
 R NA
 sky rock
 pir ates
 Ar g
 G ust
 possess es
 Wik ileaks
 presum ed
 mel ted
 burd ens
AM A
 wheel chair
 S z
 downt urn
 12 3
 tro lls
A ccess
о� �
ang ling
 end urance
 ing en
 c apped
 Elect ions
fashion ed
 re written
 l ays
F M
 overse es
 R an
 mim ic
16 8
 ostens ibly
F re
 tempt ed
ad an
in ness
Japan ese
 conf inement
 B U
 Ra q
é n
� �
or st
L ow
 pun ches
 sc outs
 m og
Writ ten
 unfair ly
 key word
 e in
per cent
l aughter
 w aving
 chrom os
 Mic key
 DI Y
yr r
 Ori oles
 L imb
per fect
 mon st
 th igh
 insult s
indust rial
 rev ol
 V C
ere m
ff ield
 M H
in ion
 Ar ray
 Y ORK
 Will ie
 G ig
 R anch
 Kaz akh
Sm all
Act ually
 fold ed
 ID F
11 3
g ic
e as
 gun shot
 S we
ow ler
 out ward
 entit lement
Ne il
D L
 t ones
 viol ently
 rot ate
 harm less
 legal ized
 ban ana
 Ug anda
OT H
 a ce
 guess ed
 Bund es
ut able
 ext r
 rec ap
 Book er
 grav itational
 dr ank
 Re ason
d ead
 P ull
 d ar
 Kn ox
Tur key
 pip elines
 think ers
 ex ert
K A
 ter med
 metabol ism
 fun nel
j et
 transfer ring
 sal vation
 Saskat chewan
 Hard y
R od
so ld
 command ing
 T ut
IN S
D ead
 mut ually
[...]
