{
  "0": "\u0000",
  "1": "\u0001",
  "2": "\u0002",
  "3": "\u0003",
  "4": "\u0004",
  "5": "\u0005",
  "6": "\u0006",
  "7": "\u0007",
  "8": "\b",
  "9": "\t",
  "10": "\n",
  "11": "\u000b",
  "12": "\f",
  "13": "\r",
  "14": "\u000e",
  "15": "\u000f",
  "16": "\u0010",
  "17": "\u0011",
  "18": "\u0012",
  "19": "\u0013",
  "20": "\u0014",
  "21": "\u0015",
  "22": "\u0016",
  "23": "\u0017",
  "24": "\u0018",
  "25": "\u0019",
  "26": "\u001a",
  "27": "\u001b",
  "28": "\u001c",
  "29": "\u001d",
  "30": "\u001e",
  "31": "\u001f",
  "32": " ",
  "33": "!",
  "34": "\"",
  "35": "#",
  "36": "$",
  "37": "%",
  "38": "&",
  "39": "'",
  "40": "(",
  "41": ")",
  "42": "*",
  "43": "+",
  "44": ",",
  "45": "-",
  "46": ".",
  "47": "/",
  "48": "0",
  "49": "1",
  "50": "2",
  "51": "3",
  "52": "4",
  "53": "5",
  "54": "6",
  "55": "7",
  "56": "8",
  "57": "9",
  "58": ":",
  "59": ";",
  "60": "<",
  "61": "=",
  "62": ">",
  "63": "?",
  "64": "@",
  "65": "A",
  "66": "B",
  "67": "C",
  "68": "D",
  "69": "E",
  "70": "F",
  "71": "G",
  "72": "H",
  "73": "I",
  "74": "J",
  "75": "K",
  "76": "L",
  "77": "M",
  "78": "N",
  "79": "O",
  "80": "P",
  "81": "Q",
  "82": "R",
  "83": "S",
  "84": "T",
  "85": "U",
  "86": "V",
  "87": "W",
  "88": "X",
  "89": "Y",
  "90": "Z",
  "91": "[",
  "92": "\\",
  "93": "]",
  "94": "^",
  "95": "_",
  "96": "`",
  "97": "a",
  "98": "b",
  "99": "c",
  "100": "d",
  "101": "e",
  "102": "f",
  "103": "g",
  "104": "h",
  "105": "i",
  "106": "j",
  "107": "k",
  "108": "l",
  "109": "m",
  "110": "n",
  "111": "o",
  "112": "p",
  "113": "q",
  "114": "r",
  "115": "s",
  "116": "t",
  "117": "u",
  "118": "v",
  "119": "w",
  "120": "x",
  "121": "y",
  "122": "z",
  "123": "{",
  "124": "|",
  "125": "}",
  "126": "~",
  "127": "",
  "128": "�",
  "129": "�",
  "130": "�",
  "131": "�",
  "132": "�",
  "133": "�",
  "134": "�",
  "135": "�",
  "136": "�",
  "137": "�",
  "138": "�",
  "139": "�",
  "140": "�",
  "141": "�",
  "142": "�",
  "143": "�",
  "144": "�",
  "145": "�",
  "146": "�",
  "147": "�",
  "148": "�",
  "149": "�",
  "150": "�",
  "151": "�",
  "152": "�",
  "153": "�",
  "154": "�",
  "155": "�",
  "156": "�",
  "157": "�",
  "158": "�",
  "159": "�",
  "160": "�",
  "161": "�",
  "162": "�",
  "163": "�",
  "164": "�",
  "165": "�",
  "166": "�",
  "167": "�",
  "168": "�",
  "169": "�",
  "170": "�",
  "171": "�",
  "172": "�",
  "173": "�",
  "174": "�",
  "175": "�",
  "176": "�",
  "177": "�",
  "178": "�",
  "179": "�",
  "180": "�",
  "181": "�",
  "182": "�",
  "183": "�",
  "184": "�",
  "185": "�",
  "186": "�",
  "187": "�",
  "188": "�",
  "189": "�",
  "190": "�",
  "191": "�",
  "192": "�",
  "193": "�",
  "194": "�",
  "195": "�",
  "196": "�",
  "197": "�",
  "198": "�",
  "199": "�",
  "200": "�",
  "201": "�",
  "202": "�",
  "203": "�",
  "204": "�",
  "205": "�",
  "206": "�",
  "207": "�",
  "208": "�",
  "209": "�",
  "210": "�",
  "211": "�",
  "212": "�",
  "213": "�",
  "214": "�",
  "215": "�",
  "216": "�",
  "217": "�",
  "218": "�",
  "219": "�",
  "220": "�",
  "221": "�",
  "222": "�",
  "223": "�",
  "224": "�",
  "225": "�",
  "226": "�",
  "227": "�",
  "228": "�",
  "229": "�",
  "230": "�",
  "231": "�",
  "232": "�",
  "233": "�",
  "234": "�",
  "235": "�",
  "236": "�",
  "237": "�",
  "238": "�",
  "239": "�",
  "240": "�",
  "241": "�",
  "242": "�",
  "243": "�",
  "244": "�",
  "245": "�",
  "246": "�",
  "247": "�",
  "248": "�",
  "249": "�",
  "250": "�",
  "251": "�",
  "252": "�",
  "253": "�",
  "254": "�",
  "255": "�",
  "256": "<|endoftext|>",
  "257": " t",
  "258": "he",
  "259": " a",
  "260": " s",
  "261": " w",
  "262": "nd",
  "263": " the",
  "264": "ed",
  "265": " b",
  "266": " to",
  "267": " and",
  "268": " h",
  "269": " f",
  "270": "in",
  "271": " T",
  "272": " wa",
  "273": "re",
  "274": "it",
  "275": "ou",
  "276": " l",
  "277": " d",
  "278": " c",
  "279": " p",
  "280": "ay",
  "281": " m",
  "282": "er",
  "283": " was",
  "284": "om",
  "285": " The",
  "286": " he",
  "287": "is",
  "288": "ar",
  "289": " n",
  "290": "im",
  "291": "on",
  "292": " sa",
  "293": "id",
  "294": "ll",
  "295": " ha",
  "296": " g",
  "297": "at",
  "298": " S",
  "299": "ing",
  "300": "ot",
  "301": "en",
  "302": "an",
  "303": "le",
  "304": "or",
  "305": "ir",
  "306": "am",
  "307": "et",
  "308": " H",
  "309": " it",
  "310": " th",
  "311": "ig",
  "312": " They",
  "313": " in",
  "314": "il",
  "315": " pl",
  "316": " He",
  "317": " \"",
  "318": "ow",
  "319": "ver",
  "320": "ri",
  "321": "ut",
  "322": " be",
  "323": " u",
  "324": " said",
  "325": " play",
  "326": "ith",
  "327": " day",
  "328": " with",
  "329": "pp",
  "330": "On",
  "331": " o",
  "332": " y",
  "333": "oo",
  "334": "ked",
  "335": " r",
  "336": " her",
  "337": "ce",
  "338": " I",
  "339": " She",
  "340": "ld",
  "341": " Tim",
  "342": " his",
  "343": " st",
  "344": "ke",
  "345": " e",
  "346": " big",
  "347": "nt",
  "348": "ck",
  "349": " you",
  "350": "very",
  "351": "st",
  "352": "ve",
  "353": "end",
  "354": " on",
  "355": "un",
  "356": " happ",
  "357": "riend",
  "358": " friend",
  "359": "all",
  "360": "ily",
  "361": " L",
  "362": " they",
  "363": " we",
  "364": " had",
  "365": " not",
  "366": " li",
  "367": " up",
  "368": "her",
  "369": " want",
  "370": " of",
  "371": "ad",
  "372": "itt",
  "373": "se",
  "374": " B",
  "375": " do",
  "376": " happy",
  "377": "ent",
  "378": " very",
  "379": " M",
  "380": "es",
  "381": " that",
  "382": " saw",
  "383": "One",
  "384": "'s",
  "385": "ould",
  "386": " mom",
  "387": " for",
  "388": " sh",
  "389": "ittle",
  "390": " little",
  "391": " so",
  "392": " she",
  "393": "ch",
  "394": "ime",
  "395": " ne",
  "396": " nam",
  "397": ".\"",
  "398": " time",
  "399": " k",
  "400": "ound",
  "401": " there",
  "402": " named",
  "403": " sm",
  "404": " bo",
  "405": " were",
  "406": " Lily",
  "407": " wanted",
  "408": " but",
  "409": "out",
  "410": "The",
  "411": " friends",
  "412": "ved",
  "413": "!\"",
  "414": "ht",
  "415": " Tom",
  "416": "ird",
  "417": "el",
  "418": " bird",
  "419": "al",
  "420": " an",
  "421": "ake",
  "422": " too",
  "423": "ome",
  "424": " It",
  "425": "ug",
  "426": "ide",
  "427": " went",
  "428": " wh",
  "429": " hel",
  "430": "Once",
  "431": " is",
  "432": " all",
  "433": " help",
  "434": "ue",
  "435": " loo",
  "436": " lo",
  "437": "ter",
  "438": " A",
  "439": " upon",
  "440": "ry",
  "441": "ore",
  "442": "ind",
  "443": " fun",
  "444": "get",
  "445": " toy",
  "446": "ill",
  "447": "ame",
  "448": " as",
  "449": " at",
  "450": "ra",
  "451": " j",
  "452": " did",
  "453": "gether",
  "454": " re",
  "455": "ur",
  "456": " se",
  "457": " together",
  "458": "ack",
  "459": " cat",
  "460": "ly",
  "461": " tre",
  "462": "ood",
  "463": "ic",
  "464": "ted",
  "465": " dog",
  "466": " could",
  "467": " can",
  "468": " their",
  "469": "ard",
  "470": "ec",
  "471": "ark",
  "472": " gir",
  "473": " played",
  "474": " him",
  "475": " ball",
  "476": "?\"",
  "477": " girl",
  "478": "way",
  "479": " ro",
  "480": " go",
  "481": "hed",
  "482": "my",
  "483": " are",
  "484": " out",
  "485": " le",
  "486": " fr",
  "487": "ain",
  "488": " kn",
  "489": "hen",
  "490": " them",
  "491": "um",
  "492": "'t",
  "493": "ax",
  "494": " sad",
  "495": "ul",
  "496": " boy",
  "497": " tree",
  "498": "other",
  "499": " have",
  "500": " man",
  "501": " cl",
  "502": " loved",
  "503": " looked",
  "504": "oug",
  "505": " found",
  "506": " sp",
  "507": " star",
  "508": " Sue",
  "509": "one",
  "510": "hing",
  "511": " sc",
  "512": " back",
  "513": "own",
  "514": " Max",
  "515": "are",
  "516": " like",
  "517": "ful",
  "518": "side",
  "519": " me",
  "520": " bec",
  "521": " park",
  "522": "ight",
  "523": "ong",
  "524": " car",
  "525": "op",
  "526": "elt",
  "527": " One",
  "528": " liked",
  "529": " would",
  "530": " make",
  "531": "round",
  "532": " la",
  "533": " fa",
  "534": " felt",
  "535": "You",
  "536": " W",
  "537": "ell",
  "538": " see",
  "539": " But",
  "540": "omet",
  "541": " asked",
  "542": "ag",
  "543": " new",
  "544": " no",
  "545": "ice",
  "546": " Sam",
  "547": "ouse",
  "548": " started",
  "549": "ared",
  "550": " came",
  "551": " Ben",
  "552": " al",
  "553": " other",
  "554": "ought",
  "555": "iled",
  "556": " somet",
  "557": " ag",
  "558": " good",
  "559": " small",
  "560": "ss",
  "561": " br",
  "562": " smiled",
  "563": " say",
  "564": "ried",
  "565": "ade",
  "566": "ings",
  "567": "ob",
  "568": "pot",
  "569": " wor",
  "570": " find",
  "571": " ex",
  "572": "ia",
  "573": " away",
  "574": "ty",
  "575": " put",
  "576": " what",
  "577": " something",
  "578": " co",
  "579": " from",
  "580": " made",
  "581": " thought",
  "582": "ened",
  "583": " home",
  "584": " playing",
  "585": "ook",
  "586": " every",
  "587": " wal",
  "588": " mu",
  "589": "uc",
  "590": "ach",
  "591": "arn",
  "592": " Spot",
  "593": " ran",
  "594": "ile",
  "595": " F",
  "596": "ie",
  "597": " J",
  "598": "ave",
  "599": " again",
  "600": " some",
  "601": " laug",
  "602": "dd",
  "603": " house",
  "604": " down",
  "605": " fl",
  "606": "king",
  "607": " took",
  "608": " scared",
  "609": " pr",
  "610": "ny",
  "611": "ure",
  "612": " toys",
  "613": " learn",
  "614": " You",
  "615": "if",
  "616": " will",
  "617": " box",
  "618": "ick",
  "619": "ret",
  "620": "ab",
  "621": "ep",
  "622": " my",
  "623": " around",
  "624": " things",
  "625": " your",
  "626": "oud",
  "627": " bl",
  "628": "uck",
  "629": " when",
  "630": "ish",
  "631": " lived",
  "632": " fe",
  "633": " then",
  "634": " sun",
  "635": "as",
  "636": " sw",
  "637": ",\"",
  "638": " ch",
  "639": "us",
  "640": "pped",
  "641": " ab",
  "642": " Mia",
  "643": "ank",
  "644": " get",
  "645": "ucy",
  "646": "Tim",
  "647": "ump",
  "648": "Th",
  "649": " lot",
  "650": "ist",
  "651": "oth",
  "652": " tried",
  "653": "ap",
  "654": " know",
  "655": " says",
  "656": " got",
  "657": "ited",
  "658": " who",
  "659": " kne",
  "660": "ust",
  "661": " many",
  "662": "nder",
  "663": " int",
  "664": " about",
  "665": "Lily",
  "666": " pret",
  "667": " dec",
  "668": " any",
  "669": " red",
  "670": " D",
  "671": "ive",
  "672": " knew",
  "673": "ace",
  "674": "ous",
  "675": " more",
  "676": "ise",
  "677": " care",
  "678": "ally",
  "679": " pic",
  "680": "au",
  "681": "qu",
  "682": " hug",
  "683": " Lucy",
  "684": " learned",
  "685": " po",
  "686": " water",
  "687": "fter",
  "688": " v",
  "689": " became",
  "690": " best",
  "691": "ause",
  "692": " op",
  "693": " gre",
  "694": " exc",
  "695": "urp",
  "696": "ways",
  "697": "�",
  "698": " outside",
  "699": " laughed",
  "700": " look",
  "701": " always",
  "702": " decid",
  "703": " show",
  "704": " un",
  "705": "ant",
  "706": " Bob",
  "707": " room",
  "708": "fe",
  "709": " decided",
  "710": " ho",
  "711": " because",
  "712": " So",
  "713": " into",
  "714": " eat",
  "715": "ite",
  "716": " jump",
  "717": " And",
  "718": " pe",
  "719": " both",
  "720": "ers",
  "721": " Mom",
  "722": " dad",
  "723": "They",
  "724": "udd",
  "725": " ke",
  "726": " one",
  "727": "nn",
  "728": " this",
  "729": " excited",
  "730": " fast",
  "731": " nice",
  "732": " E",
  "733": " feel",
  "734": "Tom",
  "735": "Yes",
  "736": " run",
  "737": " long",
  "738": " told",
  "739": " sk",
  "740": " am",
  "741": "urpr",
  "742": "our",
  "743": " inside",
  "744": "ull",
  "745": " tr",
  "746": " surpr",
  "747": " mo",
  "748": "ink",
  "749": " pretty",
  "750": "iny",
  "751": " sor",
  "752": "Wh",
  "753": " take",
  "754": "og",
  "755": " sl",
  "756": " each",
  "757": " gave",
  "758": " much",
  "759": " gra",
  "760": "lew",
  "761": "nna",
  "762": " rock",
  "763": " how",
  "764": " str",
  "765": "ara",
  "766": "imal",
  "767": " animal",
  "768": "ged",
  "769": " need",
  "770": " than",
  "771": "But",
  "772": "ven",
  "773": "etter",
  "774": " tow",
  "775": " or",
  "776": " C",
  "777": " under",
  "778": "ess",
  "779": " old",
  "780": " sorry",
  "781": "ge",
  "782": "ised",
  "783": "ro",
  "784": "urt",
  "785": " cle",
  "786": " fish",
  "787": " walked",
  "788": " clo",
  "789": "and",
  "790": " bear",
  "791": "ft",
  "792": "ase",
  "793": "ast",
  "794": " hand",
  "795": "urn",
  "796": " We",
  "797": " kind",
  "798": " His",
  "799": " te",
  "800": "here",
  "801": " happened",
  "802": " just",
  "803": " flow",
  "804": " food",
  "805": " list",
  "806": " didn",
  "807": " animals",
  "808": " hig",
  "809": "pl",
  "810": " near",
  "811": " wat",
  "812": " ide",
  "813": " try",
  "814": "ched",
  "815": " sky",
  "816": "ine",
  "817": " sn",
  "818": "ving",
  "819": " fi",
  "820": "rom",
  "821": " us",
  "822": " idea",
  "823": " better",
  "824": " Amy",
  "825": " bug",
  "826": " heard",
  "827": "gry",
  "828": " its",
  "829": " tw",
  "830": " let",
  "831": "pec",
  "832": "ate",
  "833": "able",
  "834": "ff",
  "835": " en",
  "836": " careful",
  "837": " share",
  "838": "ex",
  "839": " if",
  "840": "Thank",
  "841": "Mom",
  "842": " fly",
  "843": " stor",
  "844": "ial",
  "845": " flew",
  "846": "more",
  "847": " anymore",
  "848": " Th",
  "849": " spec",
  "850": " special",
  "851": "ion",
  "852": " com",
  "853": " lots",
  "854": " never",
  "855": " by",
  "856": "lf",
  "857": "ream",
  "858": " dan",
  "859": " bu",
  "860": " fo",
  "861": " wind",
  "862": " don",
  "863": " tal",
  "864": " clean",
  "865": "ort",
  "866": " gr",
  "867": " love",
  "868": "rm",
  "869": "ber",
  "870": " end",
  "871": "\n\n",
  "872": " Then",
  "873": "ople",
  "874": " even",
  "875": " mag",
  "876": " hard",
  "877": " shiny",
  "878": "udden",
  "879": " fore",
  "880": " over",
  "881": " cake",
  "882": "ak",
  "883": " book",
  "884": " col",
  "885": " turn",
  "886": " fam",
  "887": " bad",
  "888": " safe",
  "889": " after",
  "890": "ady",
  "891": " Anna",
  "892": "uddenly",
  "893": " people",
  "894": " proud",
  "895": " Every",
  "896": " surprised",
  "897": "pected",
  "898": "Let",
  "899": " high",
  "900": " cu",
  "901": " hurt",
  "902": " come",
  "903": "imb",
  "904": "arden",
  "905": " door",
  "906": " garden",
  "907": "bb",
  "908": " ground",
  "909": " opened",
  "910": " picked",
  "911": " loud",
  "912": " climb",
  "913": "expected",
  "914": " unexpected",
  "915": " gl",
  "916": " che",
  "917": "ild",
  "918": " im",
  "919": "As",
  "920": " give",
  "921": " way",
  "922": "ail",
  "923": "'m",
  "924": " thanked",
  "925": " color",
  "926": " blue",
  "927": " still",
  "928": " ever",
  "929": " hugged",
  "930": " From",
  "931": " call",
  "932": " far",
  "933": "ip",
  "934": " Her",
  "935": " Sara",
  "936": " When",
  "937": "No",
  "938": " off",
  "939": " magic",
  "940": "iz",
  "941": "ough",
  "942": "age",
  "943": "ummy",
  "944": " K",
  "945": " jumped",
  "946": " should",
  "947": " family",
  "948": " par",
  "949": "ool",
  "950": " kid",
  "951": " smile",
  "952": "hes",
  "953": "uff",
  "954": " place",
  "955": "kay",
  "956": " walk",
  "957": " now",
  "958": "ct",
  "959": " In",
  "960": " great",
  "961": "em",
  "962": "ture",
  "963": " qu",
  "964": "les",
  "965": " strong",
  "966": " stay",
  "967": " unt",
  "968": " sto",
  "969": "aut",
  "970": " forest",
  "971": "ane",
  "972": " bra",
  "973": "itty",
  "974": " P",
  "975": " frog",
  "976": " bro",
  "977": " until",
  "978": "oon",
  "979": " beaut",
  "980": "dy",
  "981": " squ",
  "982": " stick",
  "983": "xt",
  "984": " next",
  "985": " boat",
  "986": "lease",
  "987": "ning",
  "988": " happily",
  "989": " listen",
  "990": "aking",
  "991": " kids",
  "992": " tra",
  "993": "ies",
  "994": "iful",
  "995": " beautiful",
  "996": " app",
  "997": "th",
  "998": " helped",
  "999": " dra",
  "1000": " showed",
  "1001": " clos",
  "1002": "be",
  "1003": " imp",
  "1004": " story",
  "1005": "unny",
  "1006": "oy",
  "1007": " while",
  "1008": " town",
  "1009": "rel",
  "1010": "pt",
  "1011": " rain",
  "1012": "ress",
  "1013": " picture",
  "1014": " being",
  "1015": " rem",
  "1016": " everyone",
  "1017": "It",
  "1018": "ary",
  "1019": "ree",
  "1020": " mor",
  "1021": " hat",
  "1022": " called",
  "1023": " met",
  "1024": " stopped",
  "1025": " ad",
  "1026": " game",
  "1027": "Now",
  "1028": "He",
  "1029": "Can",
  "1030": " angry",
  "1031": "ger",
  "1032": "uffy",
  "1033": " open",
  "1034": " wo",
  "1035": " truck",
  "1036": " keep",
  "1037": " soft",
  "1038": "When",
  "1039": " cry",
  "1040": " yummy",
  "1041": " lost",
  "1042": " bed",
  "1043": " Let",
  "1044": " Sally",
  "1045": " warm",
  "1046": "by",
  "1047": "vent",
  "1048": " brave",
  "1049": " mouse",
  "1050": " Wh",
  "1051": " ate",
  "1052": " Kitty",
  "1053": "ished",
  "1054": " de",
  "1055": "fore",
  "1056": " doll",
  "1057": "so",
  "1058": " couldn",
  "1059": " watch",
  "1060": " leave",
  "1061": " also",
  "1062": "dded",
  "1063": " fell",
  "1064": " green",
  "1065": " face",
  "1066": " two",
  "1067": "gan",
  "1068": "iss",
  "1069": " flowers",
  "1070": "bit",
  "1071": "What",
  "1072": " R",
  "1073": "ble",
  "1074": " noise",
  "1075": "abbit",
  "1076": "irst",
  "1077": "owl",
  "1078": " where",
  "1079": "az",
  "1080": "ock",
  "1081": " soon",
  "1082": "self",
  "1083": " slide",
  "1084": " rabbit",
  "1085": " hole",
  "1086": "luffy",
  "1087": " before",
  "1088": "irrel",
  "1089": " pus",
  "1090": "ired",
  "1091": " sat",
  "1092": "illy",
  "1093": " hear",
  "1094": " use",
  "1095": "”",
  "1096": "Hi",
  "1097": " pa",
  "1098": " kept",
  "1099": "“",
  "1100": "That",
  "1101": " squirrel",
  "1102": "ear",
  "1103": "Then",
  "1104": "ma",
  "1105": " nodded",
  "1106": " expl",
  "1107": " store",
  "1108": " cook",
  "1109": " hands",
  "1110": "Look",
  "1111": " birds",
  "1112": " pain",
  "1113": " going",
  "1114": " funny",
  "1115": " having",
  "1116": "day",
  "1117": " sing",
  "1118": "aybe",
  "1119": "uch",
  "1120": " ey",
  "1121": "aug",
  "1122": " catch",
  "1123": "aught",
  "1124": " Can",
  "1125": " Fluffy",
  "1126": "uit",
  "1127": " yell",
  "1128": " think",
  "1129": "leep",
  "1130": " cra",
  "1131": " fin",
  "1132": "Ben",
  "1133": " bre",
  "1134": " fix",
  "1135": " tired",
  "1136": " bunny",
  "1137": " used",
  "1138": " looking",
  "1139": " bus",
  "1140": "ange",
  "1141": "air",
  "1142": " work",
  "1143": " wr",
  "1144": " our",
  "1145": " pull",
  "1146": "We",
  "1147": " thr",
  "1148": "thing",
  "1149": " Now",
  "1150": " wait",
  "1151": " kit",
  "1152": " sound",
  "1153": "ting",
  "1154": " jo",
  "1155": " has",
  "1156": " G",
  "1157": " mean",
  "1158": " pond",
  "1159": "ember",
  "1160": " beh",
  "1161": " dr",
  "1162": " sunny",
  "1163": "led",
  "1164": " others",
  "1165": " ask",
  "1166": "ng",
  "1167": "chen",
  "1168": " kitchen",
  "1169": " talk",
  "1170": " flo",
  "1171": " dif",
  "1172": "rew",
  "1173": " pie",
  "1174": " Jo",
  "1175": " head",
  "1176": " real",
  "1177": " first",
  "1178": " tri",
  "1179": " mommy",
  "1180": " eyes",
  "1181": "ello",
  "1182": " import",
  "1183": "Hello",
  "1184": " fav",
  "1185": "ath",
  "1186": "joy",
  "1187": " z",
  "1188": " remember",
  "1189": " right",
  "1190": " flower",
  "1191": " con",
  "1192": " mess",
  "1193": " party",
  "1194": " cold",
  "1195": " Do",
  "1196": " vo",
  "1197": " swe",
  "1198": "ious",
  "1199": " sand",
  "1200": " “",
  "1201": "ac",
  "1202": "orn",
  "1203": " race",
  "1204": " curi",
  "1205": "imes",
  "1206": " important",
  "1207": " duck",
  "1208": " moral",
  "1209": " shared",
  "1210": "zy",
  "1211": "ount",
  "1212": " Jack",
  "1213": " ice",
  "1214": " okay",
  "1215": " advent",
  "1216": " worked",
  "1217": "llow",
  "1218": "At",
  "1219": " enjoy",
  "1220": " dress",
  "1221": " bright",
  "1222": " making",
  "1223": " curious",
  "1224": " own",
  "1225": " tall",
  "1226": " dir",
  "1227": " hop",
  "1228": "reed",
  "1229": " hid",
  "1230": " favor",
  "1231": " ri",
  "1232": "hn",
  "1233": " sleep",
  "1234": " dis",
  "1235": "Wow",
  "1236": " favorite",
  "1237": " thing",
  "1238": " began",
  "1239": " mon",
  "1240": " bag",
  "1241": " hill",
  "1242": "Don",
  "1243": " cla",
  "1244": " draw",
  "1245": " rest",
  "1246": " here",
  "1247": " yard",
  "1248": " tell",
  "1249": " Fin",
  "1250": "ster",
  "1251": " watched",
  "1252": "que",
  "1253": " follow",
  "1254": " move",
  "1255": " bel",
  "1256": "ect",
  "1257": " cut",
  "1258": " night",
  "1259": " agreed",
  "1260": " pick",
  "1261": "co",
  "1262": " block",
  "1263": " hun",
  "1264": "aper",
  "1265": "lly",
  "1266": " stop",
  "1267": " behind",
  "1268": " This",
  "1269": " surprise",
  "1270": "ied",
  "1271": " sho",
  "1272": " hot",
  "1273": "After",
  "1274": " table",
  "1275": " grass",
  "1276": " worry",
  "1277": " dark",
  "1278": " trees",
  "1279": " voice",
  "1280": " walking",
  "1281": "fere",
  "1282": " floor",
  "1283": " farm",
  "1284": " lion",
  "1285": " top",
  "1286": " differe",
  "1287": " please",
  "1288": " ru",
  "1289": " song",
  "1290": " butter",
  "1291": " tail",
  "1292": " sweet",
  "1293": "Max",
  "1294": " shout",
  "1295": " colors",
  "1296": " read",
  "1297": " Dad",
  "1298": " lady",
  "1299": " forg",
  "1300": "isy",
  "1301": " leaves",
  "1302": " closer",
  "1303": "ign",
  "1304": " cars",
  "1305": " turned",
  "1306": " needed",
  "1307": " tast",
  "1308": "Why",
  "1309": "aring",
  "1310": " wood",
  "1311": " cried",
  "1312": " different",
  "1313": " laugh",
  "1314": " del",
  "1315": " piece",
  "1316": "’",
  "1317": "ered",
  "1318": " Mr",
  "1319": " roll",
  "1320": " adventure",
  "1321": " fire",
  "1322": " does",
  "1323": "ike",
  "1324": " cr",
  "1325": " hungry",
  "1326": " hair",
  "1327": " Suddenly",
  "1328": " paper",
  "1329": " feeling",
  "1330": " yellow",
  "1331": " full",
  "1332": " prin",
  "1333": "bo",
  "1334": "Sue",
  "1335": " touch",
  "1336": " As",
  "1337": "Anna",
  "1338": "Sam",
  "1339": " wet",
  "1340": " friendly",
  "1341": " per",
  "1342": "oom",
  "1343": "ken",
  "1344": "cked",
  "1345": "ached",
  "1346": " swing",
  "1347": " fruit",
  "1348": "ient",
  "1349": " broken",
  "1350": " ready",
  "1351": "bye",
  "1352": "ppy",
  "1353": " prom",
  "1354": " That",
  "1355": " another",
  "1356": " light",
  "1357": " pretend",
  "1358": " dance",
  "1359": "ater",
  "1360": " climbed",
  "1361": "where",
  "1362": " listened",
  "1363": " Bobo",
  "1364": " danc",
  "1365": " running",
  "1366": " only",
  "1367": " plan",
  "1368": " gone",
  "1369": " swim",
  "1370": "bbed",
  "1371": "Suddenly",
  "1372": "sh",
  "1373": " train",
  "1374": "ila",
  "1375": "ndma",
  "1376": "Sara",
  "1377": " Jane",
  "1378": " close",
  "1379": "av",
  "1380": "She",
  "1381": " smell",
  "1382": "So",
  "1383": "aby",
  "1384": " amaz",
  "1385": " hold",
  "1386": " blocks",
  "1387": " wonder",
  "1388": " Timmy",
  "1389": " repl",
  "1390": " All",
  "1391": " butterf",
  "1392": " sees",
  "1393": " reached",
  "1394": " wall",
  "1395": " pu",
  "1396": "oney",
  "1397": "red",
  "1398": " slow",
  "1399": " helping",
  "1400": " dri",
  "1401": " cream",
  "1402": " cool",
  "1403": " glad",
  "1404": "af",
  "1405": " ant",
  "1406": " less",
  "1407": " been",
  "1408": " goodbye",
  "1409": " ac",
  "1410": " fight",
  "1411": "ather",
  "1412": "Mia",
  "1413": " pushed",
  "1414": "iced",
  "1415": " fair",
  "1416": " must",
  "1417": " hide",
  "1418": " moment",
  "1419": " window",
  "1420": " O",
  "1421": " sit",
  "1422": " balloon",
  "1423": " snow",
  "1424": " child",
  "1425": " explore",
  "1426": " Everyone",
  "1427": " ar",
  "1428": " wished",
  "1429": " baby",
  "1430": " done",
  "1431": " wag",
  "1432": " ste",
  "1433": " buy",
  "1434": " stuck",
  "1435": " perf",
  "1436": " thank",
  "1437": " might",
  "1438": "icy",
  "1439": " name",
  "1440": "ized",
  "1441": " trying",
  "1442": " bit",
  "1443": " coming",
  "1444": " bar",
  "1445": " quick",
  "1446": " fall",
  "1447": " apple",
  "1448": "ash",
  "1449": " scary",
  "1450": " looks",
  "1451": " build",
  "1452": " doing",
  "1453": " win",
  "1454": " underst",
  "1455": "aisy",
  "1456": " din",
  "1457": " dream",
  "1458": " dirty",
  "1459": " held",
  "1460": "ames",
  "1461": " books",
  "1462": " mar",
  "1463": "In",
  "1464": " butterfly",
  "1465": " left",
  "1466": " shouted",
  "1467": " count",
  "1468": " replied",
  "1469": "avy",
  "1470": " reach",
  "1471": " tiny",
  "1472": " through",
  "1473": "ott",
  "1474": " dro",
  "1475": " why",
  "1476": " air",
  "1477": " bran",
  "1478": " land",
  "1479": "key",
  "1480": " three",
  "1481": " pulled",
  "1482": " spl",
  "1483": " grow",
  "1484": " treat",
  "1485": " brother",
  "1486": " wise",
  "1487": " woods",
  "1488": " sure",
  "1489": "'re",
  "1490": " chair",
  "1491": "ix",
  "1492": " mat",
  "1493": "ins",
  "1494": " seen",
  "1495": " pink",
  "1496": " clapped",
  "1497": " plant",
  "1498": "ely",
  "1499": " owl",
  "1500": " cup",
  "1501": "ield",
  "1502": " sometimes",
  "1503": "andy",
  "1504": " fill",
  "1505": " cloud",
  "1506": "ask",
  "1507": " swam",
  "1508": "outh",
  "1509": " job",
  "1510": " colorful",
  "1511": " remembered",
  "1512": " bigger",
  "1513": " nest",
  "1514": " mouth",
  "1515": "pe",
  "1516": "Okay",
  "1517": " lesson",
  "1518": " join",
  "1519": " cre",
  "1520": "ph",
  "1521": " There",
  "1522": "oup",
  "1523": "room",
  "1524": "art",
  "1525": " waved",
  "1526": "uddy",
  "1527": " grabbed",
  "1528": " stayed",
  "1529": "Oh",
  "1530": " paint",
  "1531": "This",
  "1532": " clot",
  "1533": " cont",
  "1534": " clothes",
  "1535": " ve",
  "1536": "ower",
  "1537": " After",
  "1538": " waited",
  "1539": " quickly",
  "1540": "cle",
  "1541": " word",
  "1542": " broke",
  "1543": "ucky",
  "1544": " games",
  "1545": " cast",
  "1546": " blew",
  "1547": " gent",
  "1548": " Mommy",
  "1549": " enjoyed",
  "1550": " noticed",
  "1551": "Jo",
  "1552": "ries",
  "1553": "ation",
  "1554": " set",
  "1555": " likes",
  "1556": " pictures",
  "1557": "ton",
  "1558": " sea",
  "1559": " heavy",
  "1560": " mus",
  "1561": " alone",
  "1562": " gif",
  "1563": "asure",
  "1564": " anything",
  "1565": " spot",
  "1566": " miss",
  "1567": " hopped",
  "1568": " world",
  "1569": " turns",
  "1570": "orm",
  "1571": " year",
  "1572": "der",
  "1573": " bott",
  "1574": " pat",
  "1575": " pot",
  "1576": " pen",
  "1577": "lc",
  "1578": "Her",
  "1579": " mix",
  "1580": " arm",
  "1581": " bike",
  "1582": " tight",
  "1583": " everywhere",
  "1584": " won",
  "1585": "Lucy",
  "1586": " tower",
  "1587": " threw",
  "1588": " himself",
  "1589": " followed",
  "1590": " Buddy",
  "1591": " ride",
  "1592": "man",
  "1593": "less",
  "1594": " ju",
  "1595": " je",
  "1596": "amp",
  "1597": "Bob",
  "1598": "ape",
  "1599": " comp",
  "1600": " key",
  "1601": "row",
  "1602": "\".",
  "1603": " white",
  "1604": "ctor",
  "1605": " wrong",
  "1606": " Daisy",
  "1607": " makes",
  "1608": " What",
  "1609": " break",
  "1610": " black",
  "1611": "arent",
  "1612": "ee",
  "1613": "ner",
  "1614": "Spot",
  "1615": "Do",
  "1616": " deep",
  "1617": "thy",
  "1618": " music",
  "1619": " pol",
  "1620": " delic",
  "1621": "cess",
  "1622": "ued",
  "1623": " forgot",
  "1624": " bee",
  "1625": " parent",
  "1626": " castle",
  "1627": "ves",
  "1628": "olly",
  "1629": " em",
  "1630": "iet",
  "1631": " wear",
  "1632": " hit",
  "1633": "ister",
  "1634": "oun",
  "1635": " quiet",
  "1636": " round",
  "1637": "ance",
  "1638": " stu",
  "1639": " danced",
  "1640": " vis",
  "1641": "ully",
  "1642": " wants",
  "1643": " leaf",
  "1644": " monster",
  "1645": " nap",
  "1646": " John",
  "1647": " understand",
  "1648": "ang",
  "1649": " bowl",
  "1650": "os",
  "1651": "rot",
  "1652": "ren",
  "1653": " bor",
  "1654": " talked",
  "1655": "itten",
  "1656": " dry",
  "1657": " faster",
  "1658": " cookies",
  "1659": " brought",
  "1660": "fully",
  "1661": " leg",
  "1662": "ross",
  "1663": " mum",
  "1664": "zz",
  "1665": " side",
  "1666": "ts",
  "1667": "From",
  "1668": " sign",
  "1669": " Inside",
  "1670": " smart",
  "1671": "cy",
  "1672": " rocks",
  "1673": " someone",
  "1674": "His",
  "1675": " poin",
  "1676": " sec",
  "1677": " sharing",
  "1678": " fox",
  "1679": " well",
  "1680": " res",
  "1681": " rel",
  "1682": " happen",
  "1683": " button",
  "1684": " branch",
  "1685": " Lila",
  "1686": " really",
  "1687": " finished",
  "1688": "ence",
  "1689": "ards",
  "1690": " dinner",
  "1691": " sister",
  "1692": " flying",
  "1693": "eddy",
  "1694": " contin",
  "1695": " worried",
  "1696": " ele",
  "1697": " To",
  "1698": " visit",
  "1699": " Maybe",
  "1700": " beach",
  "1701": " que",
  "1702": " secret",
  "1703": " el",
  "1704": " Sarah",
  "1705": " king",
  "1706": "John",
  "1707": "gy",
  "1708": " today",
  "1709": " perfect",
  "1710": " river",
  "1711": " everything",
  "1712": " silly",
  "1713": " shin",
  "1714": " Joe",
  "1715": " danger",
  "1716": "ipp",
  "1717": " children",
  "1718": " gu",
  "1719": " Soon",
  "1720": " field",
  "1721": " filled",
  "1722": " fur",
  "1723": " else",
  "1724": " smiles",
  "1725": " welc",
  "1726": " At",
  "1727": " wish",
  "1728": " Em",
  "1729": "While",
  "1730": " sang",
  "1731": " gi",
  "1732": "ze",
  "1733": " pudd",
  "1734": " snack",
  "1735": " eating",
  "1736": " realized",
  "1737": " pieces",
  "1738": " promised",
  "1739": "ord",
  "1740": " spr",
  "1741": " pig",
  "1742": " free",
  "1743": " continued",
  "1744": " bite",
  "1745": "ead",
  "1746": " parents",
  "1747": " carefully",
  "1748": "ated",
  "1749": "itting",
  "1750": " ear",
  "1751": "Just",
  "1752": " jar",
  "1753": "Maybe",
  "1754": " cow",
  "1755": "Amy",
  "1756": " blank",
  "1757": " drag",
  "1758": "stead",
  "1759": " orange",
  "1760": " mud",
  "1761": " crying",
  "1762": " blanket",
  "1763": " enough",
  "1764": " rolled",
  "1765": "cket",
  "1766": " soup",
  "1767": " sail",
  "1768": " purp",
  "1769": "imi",
  "1770": " yes",
  "1771": "ale",
  "1772": " drink",
  "1773": " snake",
  "1774": "ses",
  "1775": " boun",
  "1776": " pet",
  "1777": " crab",
  "1778": " throw",
  "1779": " laughing",
  "1780": " fairy",
  "1781": " words",
  "1782": " amazing",
  "1783": " bath",
  "1784": "ich",
  "1785": " purple",
  "1786": " Z",
  "1787": " without",
  "1788": "ire",
  "1789": " bottle",
  "1790": " Billy",
  "1791": " gift",
  "1792": " grandma",
  "1793": "Fin",
  "1794": "used",
  "1795": "ons",
  "1796": " past",
  "1797": " money",
  "1798": "iver",
  "1799": "fort",
  "1800": " mail",
  "1801": " Gra",
  "1802": " barked",
  "1803": " wagged",
  "1804": " att",
  "1805": "chool",
  "1806": " monkey",
  "1807": " doctor",
  "1808": "unch",
  "1809": " brown",
  "1810": " moved",
  "1811": "ises",
  "1812": " asks",
  "1813": " getting",
  "1814": " closed",
  "1815": " whe",
  "1816": " welcome",
  "1817": " su",
  "1818": " candy",
  "1819": " school",
  "1820": " morning",
  "1821": " owner",
  "1822": "gg",
  "1823": " lon",
  "1824": " mother",
  "1825": " higher",
  "1826": " sitting",
  "1827": " treasure",
  "1828": ".”",
  "1829": " smo",
  "1830": "!”",
  "1831": " dangerous",
  "1832": " lonely",
  "1833": " Ch",
  "1834": " living",
  "1835": " apples",
  "1836": "ush",
  "1837": " shop",
  "1838": "ased",
  "1839": " strange",
  "1840": "vel",
  "1841": " shining",
  "1842": " road",
  "1843": "ere",
  "1844": " Tommy",
  "1845": " creat",
  "1846": "una",
  "1847": " paw",
  "1848": "ey",
  "1849": " ra",
  "1850": " shoes",
  "1851": " pre",
  "1852": "ible",
  "1853": " -",
  "1854": " stre",
  "1855": " talking",
  "1856": "althy",
  "1857": " caught",
  "1858": " egg",
  "1859": "ol",
  "1860": " pass",
  "1861": " lake",
  "1862": " runs",
  "1863": " buck",
  "1864": " letter",
  "1865": " wings",
  "1866": " chee",
  "1867": "fish",
  "1868": " mad",
  "1869": " fan",
  "1870": "asket",
  "1871": " basket",
  "1872": "ass",
  "1873": " dragon",
  "1874": "app",
  "1875": "est",
  "1876": "Mommy",
  "1877": "set",
  "1878": "cks",
  "1879": " stone",
  "1880": " thinks",
  "1881": " stand",
  "1882": " delicious",
  "1883": " nose",
  "1884": " puddle",
  "1885": " tom",
  "1886": " Bl",
  "1887": " Mimi",
  "1888": " belie",
  "1889": " sam",
  "1890": " farmer",
  "1891": " same",
  "1892": " years",
  "1893": "board",
  "1894": " teddy",
  "1895": " bat",
  "1896": "isk",
  "1897": "itch",
  "1898": " mine",
  "1899": " sear",
  "1900": " coat",
  "1901": "ches",
  "1902": "igh",
  "1903": " days",
  "1904": " bring",
  "1905": " gentle",
  "1906": " fit",
  "1907": " start",
  "1908": " finally",
  "1909": " whist",
  "1910": " cray",
  "1911": "igg",
  "1912": " scream",
  "1913": " kite",
  "1914": " pill",
  "1915": "phant",
  "1916": "arm",
  "1917": " vill",
  "1918": " cho",
  "1919": " singing",
  "1920": "ella",
  "1921": "sw",
  "1922": "ined",
  "1923": " tasty",
  "1924": " ph",
  "1925": " ben",
  "1926": " trou",
  "1927": " shell",
  "1928": " herself",
  "1929": " hoped",
  "1930": " answ",
  "1931": " wore",
  "1932": " swings",
  "1933": "sy",
  "1934": " hor",
  "1935": " belong",
  "1936": "Please",
  "1937": " push",
  "1938": " bush",
  "1939": "iskers",
  "1940": " carrot",
  "1941": " arri",
  "1942": "aughty",
  "1943": " teach",
  "1944": "bow",
  "1945": "ract",
  "1946": " naughty",
  "1947": " elephant",
  "1948": " dropped",
  "1949": " shap",
  "1950": "ier",
  "1951": " coll",
  "1952": "sc",
  "1953": " teac",
  "1954": "emy",
  "1955": " woke",
  "1956": "ball",
  "1957": " pile",
  "1958": " hiding",
  "1959": " cour",
  "1960": "isa",
  "1961": "erry",
  "1962": " touc",
  "1963": " min",
  "1964": " puppy",
  "1965": "'ll",
  "1966": " seem",
  "1967": "llie",
  "1968": " twins",
  "1969": "ama",
  "1970": " lunch",
  "1971": " bow",
  "1972": " sack",
  "1973": " pers",
  "1974": " course",
  "1975": " cheered",
  "1976": " shapes",
  "1977": " Jen",
  "1978": " grew",
  "1979": "fused",
  "1980": " rope",
  "1981": " village",
  "1982": "irth",
  "1983": "irthday",
  "1984": " juice",
  "1985": "ipped",
  "1986": " rainbow",
  "1987": " spin",
  "1988": "OK",
  "1989": " shook",
  "1990": "Jack",
  "1991": " spoon",
  "1992": " bench",
  "1993": " street",
  "1994": " fence",
  "1995": " Fred",
  "1996": " rob",
  "1997": " nut",
  "1998": " cheese",
  "1999": " prob",
  "2000": " cute",
  "2001": " touched",
  "2002": "idge",
  "2003": "col",
  "2004": " joy",
  "2005": " Whiskers",
  "2006": " arrived",
  "2007": " seed",
  "2008": " war",
  "2009": " teacher",
  "2010": " corn",
  "2011": "Good",
  "2012": " forever",
  "2013": " able",
  "2014": " bell",
  "2015": " few",
  "2016": " carry",
  "2017": " most",
  "2018": " plane",
  "2019": " Blue",
  "2020": "lem",
  "2021": " eas",
  "2022": " sounds",
  "2023": "lla",
  "2024": " des",
  "2025": " spo",
  "2026": " problem",
  "2027": " birthday",
  "2028": " power",
  "2029": " inc",
  "2030": "umb",
  "2031": "br",
  "2032": "\n ",
  "2033": " bugs",
  "2034": "ilk",
  "2035": " wonderful",
  "2036": " dolls",
  "2037": " busy",
  "2038": "ato",
  "2039": "irp",
  "2040": "eb",
  "2041": " wra",
  "2042": " promise",
  "2043": " Thank",
  "2044": " feels",
  "2045": "ian",
  "2046": " Emma",
  "2047": "eter",
  "2048": " bread",
  "2049": " neck",
  "2050": "Finally",
  "2051": " milk",
  "2052": " robot",
  "2053": " rec",
  "2054": " shy",
  "2055": "ountain",
  "2056": " kiss",
  "2057": "irt",
  "2058": " heart",
  "2059": " band",
  "2060": " cave",
  "2061": " pocket",
  "2062": "ub",
  "2063": " helpful",
  "2064": "gly",
  "2065": " slowly",
  "2066": " believe",
  "2067": " shake",
  "2068": "umpy",
  "2069": "eared",
  "2070": " patient",
  "2071": " pop",
  "2072": " ob",
  "2073": "arp",
  "2074": " live",
  "2075": " storm",
  "2076": " holding",
  "2077": " ugly",
  "2078": " towards",
  "2079": " upset",
  "2080": " turt",
  "2081": " shr",
  "2082": "adow",
  "2083": " cover",
  "2084": " kitten",
  "2085": "ost",
  "2086": " Remy",
  "2087": " sharp",
  "2088": " disapp",
  "2089": " stories",
  "2090": " suc",
  "2091": " honey",
  "2092": "ove",
  "2093": " Bella",
  "2094": "read",
  "2095": " noises",
  "2096": " Le",
  "2097": " cir",
  "2098": " balls",
  "2099": " spark",
  "2100": " gray",
  "2101": " dist",
  "2102": " dirt",
  "2103": "oggy",
  "2104": " late",
  "2105": " driver",
  "2106": " seat",
  "2107": " bucket",
  "2108": " meet",
  "2109": " young",
  "2110": " amazed",
  "2111": "alm",
  "2112": " turtle",
  "2113": " spid",
  "2114": " treats",
  "2115": " magical",
  "2116": "unt",
  "2117": "ator",
  "2118": " glow",
  "2119": " seek",
  "2120": " zoom",
  "2121": " lem",
  "2122": " sandw",
  "2123": "fortable",
  "2124": "umber",
  "2125": " trip",
  "2126": " mist",
  "2127": "ourn",
  "2128": " splas",
  "2129": " mark",
  "2130": " journ",
  "2131": " fold",
  "2132": " mach",
  "2133": " puzz",
  "2134": " part",
  "2135": "ling",
  "2136": " horse",
  "2137": " organ",
  "2138": " wild",
  "2139": " princess",
  "2140": "pping",
  "2141": "oose",
  "2142": " cookie",
  "2143": "Sure",
  "2144": "ens",
  "2145": " hugs",
  "2146": " Mark",
  "2147": " taking",
  "2148": "ung",
  "2149": " wheel",
  "2150": "epend",
  "2151": " cloth",
  "2152": " Lisa",
  "2153": " sug",
  "2154": " instead",
  "2155": " bubb",
  "2156": " string",
  "2157": " rud",
  "2158": " net",
  "2159": " drove",
  "2160": "iling",
  "2161": " rude",
  "2162": " huge",
  "2163": " Jim",
  "2164": " coin",
  "2165": " stars",
  "2166": " fighting",
  "2167": " spicy",
  "2168": " lucky",
  "2169": "Be",
  "2170": "Of",
  "2171": " craw",
  "2172": "Hey",
  "2173": " bone",
  "2174": " inv",
  "2175": " Grandma",
  "2176": "ors",
  "2177": "not",
  "2178": " ca",
  "2179": "pper",
  "2180": " forget",
  "2181": "up",
  "2182": " di",
  "2183": "aur",
  "2184": " sal",
  "2185": " Finally",
  "2186": " cannot",
  "2187": " whistle",
  "2188": " card",
  "2189": " sick",
  "2190": " path",
  "2191": " cou",
  "2192": " spider",
  "2193": " wide",
  "2194": "Lila",
  "2195": " foot",
  "2196": " snowman",
  "2197": " songs",
  "2198": " life",
  "2199": " pillow",
  "2200": "ize",
  "2201": "ular",
  "2202": " Just",
  "2203": "Later",
  "2204": " Ann",
  "2205": "ert",
  "2206": " fixed",
  "2207": " giant",
  "2208": "oph",
  "2209": "rill",
  "2210": " nod",
  "2211": " boss",
  "2212": " last",
  "2213": " comes",
  "2214": " joke",
  "2215": " moon",
  "2216": " taste",
  "2217": " machine",
  "2218": " grumpy",
  "2219": "den",
  "2220": " wave",
  "2221": " thin",
  "2222": " drive",
  "2223": " cart",
  "2224": " ash",
  "2225": " ser",
  "2226": " grab",
  "2227": " peace",
  "2228": "lower",
  "2229": " daddy",
  "2230": " On",
  "2231": " Leo",
  "2232": "ery",
  "2233": " sel",
  "2234": " shelf",
  "2235": " hidden",
  "2236": "erest",
  "2237": " suddenly",
  "2238": " wasn",
  "2239": " write",
  "2240": " landed",
  "2241": " confused",
  "2242": " ring",
  "2243": " change",
  "2244": " worm",
  "2245": " interest",
  "2246": " chased",
  "2247": "oop",
  "2248": " fruits",
  "2249": " sour",
  "2250": "ity",
  "2251": " myster",
  "2252": " bark",
  "2253": " rad",
  "2254": " smooth",
  "2255": " Come",
  "2256": " adventures",
  "2257": " val",
  "2258": " stepped",
  "2259": " fle",
  "2260": "ope",
  "2261": " oven",
  "2262": " takes",
  "2263": " missed",
  "2264": " selfish",
  "2265": "kin",
  "2266": " sheep",
  "2267": " messy",
  "2268": "To",
  "2269": " across",
  "2270": " ent",
  "2271": " exp",
  "2272": "to",
  "2273": " ce",
  "2274": " later",
  "2275": "elly",
  "2276": " N",
  "2277": "ife",
  "2278": " sticks",
  "2279": " tie",
  "2280": "St",
  "2281": "ever",
  "2282": " Luna",
  "2283": " step",
  "2284": " bought",
  "2285": " drew",
  "2286": " tea",
  "2287": "pect",
  "2288": " ban",
  "2289": "irpy",
  "2290": "box",
  "2291": "?”",
  "2292": " wash",
  "2293": " lay",
  "2294": " pour",
  "2295": " beak",
  "2296": "ose",
  "2297": " jog",
  "2298": " grate",
  "2299": " ducks",
  "2300": " spe",
  "2301": " legs",
  "2302": "ugg",
  "2303": " fil",
  "2304": " Bu",
  "2305": " emp",
  "2306": "mer",
  "2307": " hope",
  "2308": " empty",
  "2309": " slid",
  "2310": " feather",
  "2311": " sleepy",
  "2312": " drum",
  "2313": "amed",
  "2314": "ars",
  "2315": "eth",
  "2316": " zoo",
  "2317": " pan",
  "2318": " phone",
  "2319": " grateful",
  "2320": " fing",
  "2321": "ions",
  "2322": " lemon",
  "2323": "let",
  "2324": " Cat",
  "2325": " clever",
  "2326": " Molly",
  "2327": " smelly",
  "2328": " imag",
  "2329": " splash",
  "2330": " interesting",
  "2331": " Jill",
  "2332": " save",
  "2333": " chick",
  "2334": " calm",
  "2335": " med",
  "2336": " watching",
  "2337": "Soon",
  "2338": "izzy",
  "2339": "izz",
  "2340": " plate",
  "2341": " ign",
  "2342": "yard",
  "2343": " clouds",
  "2344": " banan",
  "2345": " line",
  "2346": " faces",
  "2347": " ba",
  "2348": " act",
  "2349": " lift",
  "2350": " though",
  "2351": " wolf",
  "2352": " backyard",
  "2353": "wel",
  "2354": " seemed",
  "2355": " dogs",
  "2356": " spray",
  "2357": "Come",
  "2358": " prot",
  "2359": " whole",
  "2360": " mot",
  "2361": " fancy",
  "2362": " Daddy",
  "2363": " quest",
  "2364": " arms",
  "2365": " puzzle",
  "2366": " healthy",
  "2367": " supp",
  "2368": "ward",
  "2369": " finish",
  "2370": "erly",
  "2371": " along",
  "2372": "llo",
  "2373": " rocket",
  "2374": " explain",
  "2375": " rod",
  "2376": "dge",
  "2377": " easy",
  "2378": " jewel",
  "2379": "ont",
  "2380": " pract",
  "2381": " jelly",
  "2382": " Chirpy",
  "2383": " tid",
  "2384": " fake",
  "2385": " crayons",
  "2386": " wondered",
  "2387": " maybe",
  "2388": " scar",
  "2389": " ship",
  "2390": " nothing",
  "2391": "onest",
  "2392": " emb",
  "2393": "iger",
  "2394": " pool",
  "2395": " longer",
  "2396": " anyone",
  "2397": " Be",
  "2398": " Jerry",
  "2399": "ually",
  "2400": " front",
  "2401": " working",
  "2402": " gives",
  "2403": "irr",
  "2404": " pack",
  "2405": " such",
  "2406": " Bunny",
  "2407": "ocked",
  "2408": "ment",
  "2409": " bossy",
  "2410": " Doggy",
  "2411": " trouble",
  "2412": " smelled",
  "2413": " saved",
  "2414": " pin",
  "2415": "rass",
  "2416": " neigh",
  "2417": "arrass",
  "2418": "iting",
  "2419": " honest",
  "2420": " av",
  "2421": "arge",
  "2422": " embarrass",
  "2423": " van",
  "2424": " forgive",
  "2425": " tidy",
  "2426": " weak",
  "2427": "urse",
  "2428": " puts",
  "2429": "unk",
  "2430": " kick",
  "2431": " shirt",
  "2432": " With",
  "2433": " mind",
  "2434": " Ollie",
  "2435": " neighb",
  "2436": " plants",
  "2437": " sol",
  "2438": " Momo",
  "2439": " gently",
  "2440": " cozy",
  "2441": "orrow",
  "2442": "ming",
  "2443": " explor",
  "2444": "sp",
  "2445": " mistake",
  "2446": " yog",
  "2447": "oc",
  "2448": "oomy",
  "2449": " pointed",
  "2450": " lad",
  "2451": " af",
  "2452": " stood",
  "2453": "ork",
  "2454": " onto",
  "2455": " waiting",
  "2456": " jumping",
  "2457": " prince",
  "2458": " cross",
  "2459": " lock",
  "2460": " cheer",
  "2461": " queen",
  "2462": " Why",
  "2463": " Mary",
  "2464": " wing",
  "2465": "ones",
  "2466": "we",
  "2467": " large",
  "2468": " lovely",
  "2469": "ult",
  "2470": " sur",
  "2471": " ret",
  "2472": "And",
  "2473": " deer",
  "2474": " chew",
  "2475": " couch",
  "2476": " bal",
  "2477": "aughter",
  "2478": " stret",
  "2479": "era",
  "2480": " Their",
  "2481": " places",
  "2482": " My",
  "2483": " ladder",
  "2484": "oof",
  "2485": " return",
  "2486": "raid",
  "2487": " ants",
  "2488": " dish",
  "2489": " afraid",
  "2490": " cleaned",
  "2491": " tomorrow",
  "2492": " building",
  "2493": " sandwich",
  "2494": " person",
  "2495": "Sally",
  "2496": "ned",
  "2497": " pretended",
  "2498": " bounce",
  "2499": " wip",
  "2500": "gest",
  "2501": " match",
  "2502": " rich",
  "2503": "uce",
  "2504": " pizz",
  "2505": " gather",
  "2506": " search",
  "2507": " boring",
  "2508": "oman",
  "2509": " Somet",
  "2510": " teeth",
  "2511": " hum",
  "2512": "Kitty",
  "2513": "My",
  "2514": "aced",
  "2515": " daughter",
  "2516": " woman",
  "2517": " scarf",
  "2518": " goes",
  "2519": " Together",
  "2520": " law",
  "2521": " stra",
  "2522": " swimming",
  "2523": " furry",
  "2524": " splashed",
  "2525": " pri",
  "2526": " loves",
  "2527": " true",
  "2528": " screamed",
  "2529": " lazy",
  "2530": " gen",
  "2531": " answer",
  "2532": " number",
  "2533": " eag",
  "2534": " ashamed",
  "2535": " pizza",
  "2536": "aw",
  "2537": " appeared",
  "2538": " fear",
  "2539": " nearby",
  "2540": " powerful",
  "2541": " flag",
  "2542": " St",
  "2543": " hang",
  "2544": "vous",
  "2545": " clown",
  "2546": "ek",
  "2547": " chase",
  "2548": " motor",
  "2549": " wand",
  "2550": " TV",
  "2551": " rub",
  "2552": " success",
  "2553": " chocol",
  "2554": " If",
  "2555": " creative",
  "2556": " trust",
  "2557": " wearing",
  "2558": " noisy",
  "2559": " matter",
  "2560": "pa",
  "2561": " dig",
  "2562": " hello",
  "2563": " ner",
  "2564": " tool",
  "2565": " saf",
  "2566": " Bird",
  "2567": "ado",
  "2568": " nervous",
  "2569": "elp",
  "2570": " test",
  "2571": " smiling",
  "2572": " sold",
  "2573": "icked",
  "2574": "oppy",
  "2575": "osaur",
  "2576": " circle",
  "2577": "mb",
  "2578": " map",
  "2579": " drank",
  "2580": " class",
  "2581": " tries",
  "2582": " chocolate",
  "2583": " Please",
  "2584": " impress",
  "2585": " knee",
  "2586": " gener",
  "2587": " dinosaur",
  "2588": " polite",
  "2589": " mirr",
  "2590": " Bobby",
  "2591": " Tiny",
  "2592": " balloons",
  "2593": " gold",
  "2594": " rare",
  "2595": " protect",
  "2596": " cand",
  "2597": "Stop",
  "2598": " carried",
  "2599": " Go",
  "2600": "ensive",
  "2601": " ap",
  "2602": " shadow",
  "2603": " mirror",
  "2604": " Don",
  "2605": " bald",
  "2606": " gun",
  "2607": "ina",
  "2608": " expensive",
  "2609": " reg",
  "2610": "iff",
  "2611": " mysterious",
  "2612": " Sp",
  "2613": " pump",
  "2614": " note",
  "2615": " hero",
  "2616": " march",
  "2617": " har",
  "2618": "arl",
  "2619": " icy",
  "2620": " respect",
  "2621": " weird",
  "2622": " snee",
  "2623": " cri",
  "2624": " gate",
  "2625": " soap",
  "2626": "rag",
  "2627": "ute",
  "2628": "issors",
  "2629": " these",
  "2630": " poor",
  "2631": " towel",
  "2632": " whale",
  "2633": " feet",
  "2634": " tape",
  "2635": " dizzy",
  "2636": "itter",
  "2637": " generous",
  "2638": "ndpa",
  "2639": " pres",
  "2640": " Benny",
  "2641": "nic",
  "2642": " disco",
  "2643": "Help",
  "2644": "ventually",
  "2645": " picnic",
  "2646": " mic",
  "2647": " lead",
  "2648": " sque",
  "2649": " embarrassed",
  "2650": " journey",
  "2651": " sugar",
  "2652": "isp",
  "2653": "scape",
  "2654": " boot",
  "2655": " tent",
  "2656": " peaceful",
  "2657": " fat",
  "2658": " Bear",
  "2659": " scissors",
  "2660": " tasted",
  "2661": " yelled",
  "2662": "Tommy",
  "2663": " tick",
  "2664": " mel",
  "2665": " brush",
  "2666": " dancing",
  "2667": "ness",
  "2668": " glue",
  "2669": " hur",
  "2670": " rough",
  "2671": " clap",
  "2672": " bridge",
  "2673": "ote",
  "2674": " decor",
  "2675": " closet",
  "2676": " crown",
  "2677": " stir",
  "2678": "ual",
  "2679": "imp",
  "2680": " print",
  "2681": " Sometimes",
  "2682": "owed",
  "2683": "airs",
  "2684": " How",
  "2685": "ume",
  "2686": " cap",
  "2687": " mod",
  "2688": " lamp",
  "2689": " vase",
  "2690": " scare",
  "2691": "lebr",
  "2692": " relie",
  "2693": "lves",
  "2694": "any",
  "2695": " eld",
  "2696": " tele",
  "2697": " celebr",
  "2698": " gigg",
  "2699": " whisp",
  "2700": " log",
  "2701": " sco",
  "2702": " blow",
  "2703": " painted",
  "2704": " Ducky",
  "2705": " pay",
  "2706": "erries",
  "2707": " wis",
  "2708": " berries",
  "2709": " mixed",
  "2710": " spread",
  "2711": " wouldn",
  "2712": " cage",
  "2713": " bake",
  "2714": "rob",
  "2715": "getable",
  "2716": " mountain",
  "2717": " adm",
  "2718": " drawing",
  "2719": " become",
  "2720": " famous",
  "2721": " knocked",
  "2722": " bean",
  "2723": " norm",
  "2724": " vegetable",
  "2725": "asp",
  "2726": " kicked",
  "2727": "ustr",
  "2728": " shark",
  "2729": "ser",
  "2730": " incred",
  "2731": " lose",
  "2732": " normal",
  "2733": " wrap",
  "2734": "ced",
  "2735": " group",
  "2736": " thick",
  "2737": " 3",
  "2738": " fine",
  "2739": " glass",
  "2740": " ignor",
  "2741": " clock",
  "2742": " team",
  "2743": " elderly",
  "2744": " clear",
  "2745": " corner",
  "2746": " frustr",
  "2747": " mighty",
  "2748": "robe",
  "2749": " cone",
  "2750": " incredible",
  "2751": " Br",
  "2752": "ighed",
  "2753": "Dad",
  "2754": " moms",
  "2755": " balance",
  "2756": " sock",
  "2757": " space",
  "2758": " jam",
  "2759": "ragile",
  "2760": " fright",
  "2761": " organized",
  "2762": " branches",
  "2763": " roar",
  "2764": "port",
  "2765": " sword",
  "2766": "alous",
  "2767": " Mama",
  "2768": " guess",
  "2769": " fool",
  "2770": " sell",
  "2771": " feed",
  "2772": " Some",
  "2773": " which",
  "2774": " horn",
  "2775": " present",
  "2776": " jealous",
  "2777": " yarn",
  "2778": "ony",
  "2779": " fragile",
  "2780": " burn",
  "2781": " understood",
  "2782": " mis",
  "2783": " stubb",
  "2784": " ter",
  "2785": " frustrated",
  "2786": "Where",
  "2787": "ray",
  "2788": " hose",
  "2789": "cient",
  "2790": " spent",
  "2791": " shoe",
  "2792": " taught",
  "2793": " stubborn",
  "2794": " twist",
  "2795": " creature",
  "2796": " chest",
  "2797": " spoiled",
  "2798": " relieved",
  "2799": "ym",
  "2800": " ancient",
  "2801": "ique",
  "2802": " wake",
  "2803": " fier",
  "2804": " pray",
  "2805": " fierce",
  "2806": " eggs",
  "2807": " cab",
  "2808": " terri",
  "2809": " barn",
  "2810": " ord",
  "2811": " pumpkin",
  "2812": " comfortable",
  "2813": " frightened",
  "2814": "orry",
  "2815": " toug",
  "2816": " unique",
  "2817": " measure",
  "2818": " goat",
  "2819": " wagon",
  "2820": " unus",
  "2821": " breath",
  "2822": " foolish",
  "2823": " useful",
  "2824": " exploring",
  "2825": "dle",
  "2826": " straw",
  "2827": " unusual",
  "2828": " dug",
  "2829": " clay",
  "2830": " discover",
  "2831": " tomato",
  "2832": " Pe",
  "2833": " dead",
  "2834": " finding",
  "2835": " police",
  "2836": " wrote",
  "2837": " clum",
  "2838": " exam",
  "2839": "lace",
  "2840": " waves",
  "2841": " square",
  "2842": " hears",
  "2843": " cabin",
  "2844": " tells",
  "2845": " necklace",
  "2846": " dull",
  "2847": " clumsy",
  "2848": " tough",
  "2849": " bubbles",
  "2850": " nosy",
  "2851": "kn",
  "2852": " searched",
  "2853": "Together",
  "2854": " washed",
  "2855": " bathroom",
  "2856": " paws",
  "2857": "bby",
  "2858": "ond",
  "2859": "unn",
  "2860": "anged",
  "2861": " board",
  "2862": "fic",
  "2863": "known",
  "2864": " asking",
  "2865": " crazy",
  "2866": " thankful",
  "2867": " sunf",
  "2868": " bitter",
  "2869": "yal",
  "2870": " pir",
  "2871": "berry",
  "2872": "alk",
  "2873": " ind",
  "2874": " diffic",
  "2875": " rose",
  "2876": "cil",
  "2877": " swan",
  "2878": " bloom",
  "2879": " unknown",
  "2880": " Ella",
  "2881": " covered",
  "2882": " difficult",
  "2883": " add",
  "2884": " pencil",
  "2885": " finger",
  "2886": " ham",
  "2887": " hoop",
  "2888": " jet",
  "2889": " witch",
  "2890": " drop",
  "2891": "Me",
  "2892": " '",
  "2893": " chicken",
  "2894": " gloomy",
  "2895": "apped",
  "2896": " loyal",
  "2897": "als",
  "2898": "Here",
  "2899": " wealthy",
  "2900": "com",
  "2901": "light",
  "2902": " unl",
  "2903": " cats",
  "2904": " ending",
  "2905": " guit",
  "2906": "bled",
  "2907": "shine",
  "2908": " dove",
  "2909": " joined",
  "2910": " cher",
  "2911": "anut",
  "2912": " mov",
  "2913": " terrible",
  "2914": " yours",
  "2915": "iant",
  "2916": " U",
  "2917": " Rex",
  "2918": " salad",
  "2919": " Andy",
  "2920": " nuts",
  "2921": " rat",
  "2922": "ground",
  "2923": " tiger",
  "2924": " potato",
  "2925": " mask",
  "2926": "xible",
  "2927": "selves",
  "2928": " value",
  "2929": " changed",
  "2930": " moving",
  "2931": " exciting",
  "2932": "ormous",
  "2933": " Many",
  "2934": " body",
  "2935": " Tr",
  "2936": " toast",
  "2937": " record",
  "2938": "erp",
  "2939": " zip",
  "2940": " disg",
  "2941": " cheap",
  "2942": " guitar",
  "2943": "irsty",
  "2944": " knowing",
  "2945": " adventur",
  "2946": " yourself",
  "2947": " enormous",
  "2948": " hairy",
  "2949": "Every",
  "2950": " shoot",
  "2951": " Brown",
  "2952": " bored",
  "2953": " pepper",
  "2954": " remind",
  "2955": "ory",
  "2956": "land",
  "2957": " acorn",
  "2958": " adventurous",
  "2959": " sunshine",
  "2960": " smaller",
  "2961": " stuff",
  "2962": " hats",
  "2963": " solve",
  "2964": " Jimmy",
  "2965": " flexible",
  "2966": " cost",
  "2967": "rilliant",
  "2968": " knife",
  "2969": " perform",
  "2970": " snacks",
  "2971": " nods",
  "2972": " shore",
  "2973": " brilliant",
  "2974": " thirsty",
  "2975": " delicate",
  "2976": " frown",
  "2977": " disgust",
  "2978": " collect",
  "2979": " stri",
  "2980": " seeds",
  "2981": " counted",
  "2982": " asleep",
  "2983": " banana",
  "2984": "reen",
  "2985": " mailbox",
  "2986": "iness",
  "2987": " dough",
  "2988": " trick",
  "2989": " neighbor",
  "2990": "ungle",
  "2991": " heal",
  "2992": "live",
  "2993": "Who",
  "2994": " stage",
  "2995": "ident",
  "2996": " market",
  "2997": " cube",
  "2998": " stat",
  "2999": " jungle",
  "3000": " squee",
  "3001": "mbre",
  "3002": " explained",
  "3003": "ates",
  "3004": " umbre",
  "3005": " disgusting",
  "3006": "Jim",
  "3007": "fted",
  "3008": " lab",
  "3009": " jolly",
  "3010": " flash",
  "3011": "und",
  "3012": " fridge",
  "3013": "inal",
  "3014": "pid",
  "3015": "ilt",
  "3016": " crane",
  "3017": "corn",
  "3018": " suit",
  "3019": " rh",
  "3020": "iddle",
  "3021": " sunflower",
  "3022": " times",
  "3023": " Al",
  "3024": "erpill",
  "3025": " caterpill",
  "3026": " relax",
  "3027": " shiver",
  "3028": " four",
  "3029": " island",
  "3030": "iginal",
  "3031": " harm",
  "3032": "ict",
  "3033": " While",
  "3034": "ying",
  "3035": " stupid",
  "3036": " medic",
  "3037": " Instead",
  "3038": " comb",
  "3039": " goose",
  "3040": " cro",
  "3041": "edient",
  "3042": " Will",
  "3043": " stove",
  "3044": "If",
  "3045": "Are",
  "3046": " independ",
  "3047": "Mum",
  "3048": "most",
  "3049": " spring",
  "3050": " gem",
  "3051": " batter",
  "3052": " sighed",
  "3053": " vegetables",
  "3054": " stones",
  "3055": "pes",
  "3056": " shine",
  "3057": "How",
  "3058": " medicine",
  "3059": " depend",
  "3060": " rug",
  "3061": " Your",
  "3062": " careless",
  "3063": " original",
  "3064": " stamp",
  "3065": " gar",
  "3066": " cries",
  "3067": "Inside",
  "3068": "gu",
  "3069": " carrots",
  "3070": " scr",
  "3071": " successful",
  "3072": " sauce",
  "3073": " jeep",
  "3074": " popcorn",
  "3075": " meal",
  "3076": " obedient",
  "3077": " almost",
  "3078": " middle",
  "3079": " magn",
  "3080": " study",
  "3081": " independent",
  "3082": " fearful",
  "3083": " jack",
  "3084": "met",
  "3085": "inky",
  "3086": "Sorry",
  "3087": " Sammy",
  "3088": " escape",
  "3089": " caterpillar",
  "3090": " serious",
  "3091": " peanut",
  "3092": " bedroom",
  "3093": " eager",
  "3094": "aken",
  "3095": " gets",
  "3096": " parrot",
  "3097": " statue",
  "3098": " helmet",
  "3099": " pebb",
  "3100": " No",
  "3101": " fountain",
  "3102": " raven",
  "3103": " ang",
  "3104": " pasta",
  "3105": " umbrella",
  "3106": " compet",
  "3107": "There",
  "3108": " jacket",
  "3109": " belonged",
  "3110": " dest",
  "3111": " filthy",
  "3112": " design",
  "3113": " borrow",
  "3114": " cam",
  "3115": "erable",
  "3116": " houses",
  "3117": " prize",
  "3118": " hay",
  "3119": " brace",
  "3120": " standing",
  "3121": " miserable",
  "3122": " raced",
  "3123": " taken",
  "3124": "ages",
  "3125": " fork",
  "3126": " crayon",
  "3127": " painting",
  "3128": "io",
  "3129": " triang",
  "3130": " impressive",
  "3131": "ud",
  "3132": " choose",
  "3133": " fig",
  "3134": " tied",
  "3135": "iable",
  "3136": " spotted",
  "3137": " lifted",
  "3138": " slipped",
  "3139": "ours",
  "3140": " tank",
  "3141": " thoughtful",
  "3142": " dependable",
  "3143": " steal",
  "3144": " garage",
  "3145": "enny",
  "3146": " built",
  "3147": " mush",
  "3148": " er",
  "3149": "ipe",
  "3150": " mole",
  "3151": " crawled",
  "3152": " scale",
  "3153": " boats",
  "3154": " pian",
  "3155": " pant",
  "3156": " hammer",
  "3157": " bottom",
  "3158": "lph",
  "3159": " cheerful",
  "3160": " using",
  "3161": " smoke",
  "3162": " picks",
  "3163": " moder",
  "3164": "berries",
  "3165": " shows",
  "3166": "rn",
  "3167": " piano",
  "3168": " magnet",
  "3169": "dile",
  "3170": "codile",
  "3171": " hurts",
  "3172": "inary",
  "3173": " ref",
  "3174": " crack",
  "3175": " eng",
  "3176": " aunt",
  "3177": " melon",
  "3178": " waff",
  "3179": " modern",
  "3180": " dolph",
  "3181": "unnel",
  "3182": "cream",
  "3183": "pack",
  "3184": " tunnel",
  "3185": "oin",
  "3186": " arrow",
  "3187": " reliable",
  "3188": " hopping",
  "3189": " mushroom",
  "3190": " jug",
  "3191": "Timmy",
  "3192": " squash",
  "3193": " gum",
  "3194": " sink",
  "3195": " movie",
  "3196": " tax",
  "3197": " flute",
  "3198": " beet",
  "3199": " lean",
  "3200": "Their",
  "3201": "iv",
  "3202": " popular",
  "3203": "opter",
  "3204": "icopter",
  "3205": " cryst",
  "3206": " ones",
  "3207": " sil",
  "3208": " competit",
  "3209": " helicopter",
  "3210": "aser",
  "3211": " needs",
  "3212": "ipop",
  "3213": "llipop",
  "3214": " crocodile",
  "3215": " liz",
  "3216": "Molly",
  "3217": " press",
  "3218": " troubled",
  "3219": " pige",
  "3220": " locked",
  "3221": " tricks",
  "3222": " lollipop",
  "3223": " playful",
  "3224": " humble",
  "3225": " taxi",
  "3226": " kissed",
  "3227": " low",
  "3228": "appy",
  "3229": "comfortable",
  "3230": "amond",
  "3231": " uncomfortable",
  "3232": " rid",
  "3233": "host",
  "3234": " wander",
  "3235": "atch",
  "3236": " angel",
  "3237": "edy",
  "3238": "cles",
  "3239": " torn",
  "3240": " grace",
  "3241": " anx",
  "3242": " wrapped",
  "3243": " muff",
  "3244": " twig",
  "3245": " pants",
  "3246": " disappoin",
  "3247": " Sn",
  "3248": " helps",
  "3249": " diamond",
  "3250": " camera",
  "3251": "atter",
  "3252": "oto",
  "3253": " anxious",
  "3254": " ghost",
  "3255": " tears",
  "3256": " ruined",
  "3257": "cident",
  "3258": " Jenny",
  "3259": "ilty",
  "3260": " quar",
  "3261": "aff",
  "3262": " Even",
  "3263": " fis",
  "3264": "opl",
  "3265": " belt",
  "3266": "eropl",
  "3267": " env",
  "3268": " guilty",
  "3269": " bull",
  "3270": " aeropl",
  "3271": " helpless",
  "3272": " happiness",
  "3273": " lizard",
  "3274": " boys",
  "3275": "cut",
  "3276": "ext",
  "3277": " cere",
  "3278": " walks",
  "3279": "cean",
  "3280": " passed",
  "3281": " meant",
  "3282": " ocean",
  "3283": " fluffy",
  "3284": " wire",
  "3285": " nail",
  "3286": " bracelet",
  "3287": " deaf",
  "3288": "zed",
  "3289": " stretch",
  "3290": " candle",
  "3291": " cact",
  "3292": "tt",
  "3293": " beetle",
  "3294": " mop",
  "3295": " harmless",
  "3296": "umpet",
  "3297": " ordinary",
  "3298": " answered",
  "3299": " collar",
  "3300": " cop",
  "3301": " bees",
  "3302": " tire",
  "3303": " shape",
  "3304": " quarrel",
  "3305": " radio",
  "3306": " flashlight",
  "3307": " crystal",
  "3308": " harder",
  "3309": " poured",
  "3310": " trumpet",
  "3311": " engine",
  "3312": "Mama",
  "3313": " persist",
  "3314": " hunt",
  "3315": " tooth",
  "3316": " cereal",
  "3317": " invited",
  "3318": " comput",
  "3319": " tag",
  "3320": " office",
  "3321": " melt",
  "3322": " spill",
  "3323": " charm",
  "3324": "coa",
  "3325": " lit",
  "3326": " scoot",
  "3327": " comet",
  "3328": " triangle",
  "3329": "ief",
  "3330": " mug",
  "3331": " rep",
  "3332": "ube",
  "3333": " yogurt",
  "3334": " spend",
  "3335": " compass",
  "3336": " accident",
  "3337": " shade",
  "3338": "hett",
  "3339": "aghett",
  "3340": "aghetti",
  "3341": " disappointed",
  "3342": " licked",
  "3343": " cactus",
  "3344": " pale",
  "3345": " cush",
  "3346": " figure",
  "3347": " regular",
  "3348": " giving",
  "3349": " avoc",
  "3350": " pro",
  "3351": " sheet",
  "3352": " whispered",
  "3353": "aze",
  "3354": "uth",
  "3355": "ellig",
  "3356": " create",
  "3357": " barber",
  "3358": " intellig",
  "3359": " pipe",
  "3360": " rode",
  "3361": " roof",
  "3362": "Jane",
  "3363": " thread",
  "3364": "ither",
  "3365": " vi",
  "3366": " load",
  "3367": " libr",
  "3368": " gifted",
  "3369": "ccol",
  "3370": " practiced",
  "3371": " delight",
  "3372": "ccoli",
  "3373": " harsh",
  "3374": "asses",
  "3375": " pow",
  "3376": " dust",
  "3377": " True",
  "3378": " bicy",
  "3379": "azz",
  "3380": " spaghetti",
  "3381": " compassion",
  "3382": " sailed",
  "3383": "urkey",
  "3384": "ubby",
  "3385": " forward",
  "3386": " persistent",
  "3387": " speed",
  "3388": " mitten",
  "3389": " cocoa",
  "3390": " envel",
  "3391": " questions",
  "3392": " computer",
  "3393": " coo",
  "3394": " feathers",
  "3395": "hip",
  "3396": " glove",
  "3397": "ging",
  "3398": "Bobo",
  "3399": " rice",
  "3400": " shrimp",
  "3401": " desk",
  "3402": " stream",
  "3403": " inse",
  "3404": " pigeon",
  "3405": " charming",
  "3406": " ears",
  "3407": " carp",
  "3408": "lcan",
  "3409": " raft",
  "3410": " envious",
  "3411": " knot",
  "3412": " turkey",
  "3413": " stronger",
  "3414": "omes",
  "3415": " coins",
  "3416": " tap",
  "3417": "lcano",
  "3418": "weet",
  "3419": " trap",
  "3420": "umbers",
  "3421": " aeroplane",
  "3422": " trunk",
  "3423": " wheat",
  "3424": " boxes",
  "3425": " chubby",
  "3426": " carpet",
  "3427": " restless",
  "3428": " intelligent",
  "3429": " tube",
  "3430": " spun",
  "3431": " dreams",
  "3432": " friendship",
  "3433": "ulif",
  "3434": "olin",
  "3435": " half",
  "3436": " loop",
  "3437": " crawl",
  "3438": " broccoli",
  "3439": " onion",
  "3440": " deliver",
  "3441": "anger",
  "3442": " acce",
  "3443": " vide",
  "3444": " volcano",
  "3445": " Jake",
  "3446": " sle",
  "3447": " track",
  "3448": " bri",
  "3449": " caulif",
  "3450": " vine",
  "3451": "ye",
  "3452": " ticket",
  "3453": " thief",
  "3454": "essie",
  "3455": "cycle",
  "3456": " louder",
  "3457": " insect",
  "3458": " numbers",
  "3459": "asing",
  "3460": " yaw",
  "3461": " haircut",
  "3462": "ital",
  "3463": " sleeping",
  "3464": " mill",
  "3465": " eventually",
  "3466": " alert",
  "3467": " excite",
  "3468": " pebble",
  "3469": " hosp",
  "3470": " attract",
  "3471": " planet",
  "3472": " Today",
  "3473": " univer",
  "3474": "isted",
  "3475": "ulu",
  "3476": " hospital",
  "3477": " eraser",
  "3478": " returned",
  "3479": " destro",
  "3480": " graceful",
  "3481": " happening",
  "3482": "ache",
  "3483": " OK",
  "3484": " Emily",
  "3485": " decide",
  "3486": " learning",
  "3487": " screen",
  "3488": "rework",
  "3489": " nicely",
  "3490": " leop",
  "3491": " cauliflower",
  "3492": " competitive",
  "3493": " poem",
  "3494": " celebrate",
  "3495": " curt",
  "3496": " peach",
  "3497": " soldier",
  "3498": " saus",
  "3499": " parade",
  "3500": "atient",
  "3501": " attractive",
  "3502": " curtain",
  "3503": " dolphin",
  "3504": " base",
  "3505": " violin",
  "3506": " ways",
  "3507": "Go",
  "3508": "ats",
  "3509": " travel",
  "3510": "ten",
  "3511": " ignorant",
  "3512": "ulb",
  "3513": " wheels",
  "3514": " yach",
  "3515": " scatter",
  "3516": " deter",
  "3517": " compassionate",
  "3518": " barrel",
  "3519": " envelope",
  "3520": " bubble",
  "3521": " lying",
  "3522": " firework",
  "3523": " sort",
  "3524": " question",
  "3525": "zzy",
  "3526": " Pipp",
  "3527": " scooter",
  "3528": " determ",
  "3529": " rag",
  "3530": " bicycle",
  "3531": "elery",
  "3532": " needle",
  "3533": " Fr",
  "3534": " judge",
  "3535": " bulb",
  "3536": " leopard",
  "3537": " tem",
  "3538": " yacht",
  "3539": " pony",
  "3540": " cricket",
  "3541": " order",
  "3542": " homes",
  "3543": " ador",
  "3544": "tern",
  "3545": " truth",
  "3546": " hook",
  "3547": "dom",
  "3548": " rubbed",
  "3549": "ete",
  "3550": "igator",
  "3551": " bushes",
  "3552": "Sarah",
  "3553": " uncle",
  "3554": " cushion",
  "3555": " spell",
  "3556": " grown",
  "3557": " cooked",
  "3558": " adorable",
  "3559": " chalk",
  "3560": " soar",
  "3561": " purse",
  "3562": " skin",
  "3563": " themselves",
  "3564": " impatient",
  "3565": " celery",
  "3566": " tray",
  "3567": " shells",
  "3568": " pengu",
  "3569": " sniff",
  "3570": " prun",
  "3571": " walls",
  "3572": " seal",
  "3573": " lively",
  "3574": " case",
  "3575": " alligator",
  "3576": " distant",
  "3577": " radish",
  "3578": " saying",
  "3579": " speak",
  "3580": " motorcycle",
  "3581": " meat",
  "3582": " send",
  "3583": "illa",
  "3584": " spinning",
  "3585": " forth",
  "3586": " counting",
  "3587": " enth",
  "3588": " bounced",
  "3589": " chain",
  "3590": " ed",
  "3591": " cleaning",
  "3592": "ebra",
  "3593": " film",
  "3594": " slept",
  "3595": " pit",
  "3596": " surf",
  "3597": " marry",
  "3598": "usia",
  "3599": " wallet",
  "3600": " enthusia",
  "3601": " metal",
  "3602": "urb",
  "3603": "ebook",
  "3604": " bin",
  "3605": " week",
  "3606": " notebook",
  "3607": " wiped",
  "3608": " skip",
  "3609": "ision",
  "3610": "chair",
  "3611": " biggest",
  "3612": " impro",
  "3613": " avocado",
  "3614": " behave",
  "3615": " destroy",
  "3616": "vator",
  "3617": " bandage",
  "3618": " laughs",
  "3619": " steak",
  "3620": " pattern",
  "3621": " Sh",
  "3622": " post",
  "3623": " elevator",
  "3624": " Buzz",
  "3625": "usie",
  "3626": " dive",
  "3627": " shut",
  "3628": " skipped",
  "3629": " unlock",
  "3630": " diary",
  "3631": "ject",
  "3632": " zebra",
  "3633": " bags",
  "3634": "ating",
  "3635": " armchair",
  "3636": "rage",
  "3637": "aged",
  "3638": "under",
  "3639": " disturb",
  "3640": " oy",
  "3641": " pole",
  "3642": " showing",
  "3643": " gathered",
  "3644": " club",
  "3645": " nurse",
  "3646": "bul",
  "3647": " earth",
  "3648": " enc",
  "3649": " stranger",
  "3650": " sweater",
  "3651": " jellyfish",
  "3652": " screw",
  "3653": " temp",
  "3654": " Poppy",
  "3655": " compl",
  "3656": " mixer",
  "3657": "Give",
  "3658": " skull",
  "3659": " lime",
  "3660": " bump",
  "3661": "bulance",
  "3662": " ambulance",
  "3663": "nam",
  "3664": " father",
  "3665": " journal",
  "3666": "Gra",
  "3667": " loudly",
  "3668": "ito",
  "3669": " folder",
  "3670": " shield",
  "3671": " Bet",
  "3672": " Lulu",
  "3673": " library",
  "3674": " Peter",
  "3675": " buttons",
  "3676": " playground",
  "3677": " trucks",
  "3678": " ink",
  "3679": " lights",
  "3680": " tummy",
  "3681": " pointing",
  "3682": " city",
  "3683": " decorate",
  "3684": " station",
  "3685": "irit",
  "3686": " prep",
  "3687": " falls",
  "3688": "quito",
  "3689": " Polly",
  "3690": "Billy",
  "3691": " Fo",
  "3692": " fu",
  "3693": "ention",
  "3694": "nger",
  "3695": " Birdy",
  "3696": "lies",
  "3697": " herb",
  "3698": "nament",
  "3699": " ornament",
  "3700": " modest",
  "3701": " guard",
  "3702": " mos",
  "3703": " knows",
  "3704": " cord",
  "3705": " polish",
  "3706": " marble",
  "3707": "oby",
  "3708": " mosquito",
  "3709": "umbled",
  "3710": " salt",
  "3711": " attic",
  "3712": " whenever",
  "3713": " vest",
  "3714": "ctop",
  "3715": " resc",
  "3716": " yet",
  "3717": " ple",
  "3718": " disappeared",
  "3719": "ceed",
  "3720": " strawberry",
  "3721": " once",
  "3722": " Mum",
  "3723": " kay",
  "3724": " brothers",
  "3725": " itch",
  "3726": " pirate",
  "3727": " football",
  "3728": " split",
  "3729": "kele",
  "3730": "keleton",
  "3731": " hipp",
  "3732": " aut",
  "3733": " led",
  "3734": "uring",
  "3735": "ctopus",
  "3736": " driving",
  "3737": " cable",
  "3738": " support",
  "3739": " calling",
  "3740": " cupboard",
  "3741": "aky",
  "3742": "ushed",
  "3743": " wishes",
  "3744": " complet",
  "3745": " tripped",
  "3746": " root",
  "3747": " kayak",
  "3748": " octopus",
  "3749": "obile",
  "3750": " added",
  "3751": " edge",
  "3752": " mild",
  "3753": "stic",
  "3754": " determined",
  "3755": " succeed",
  "3756": "?\".",
  "3757": " reading",
  "3758": "omobile",
  "3759": " coal",
  "3760": "Well",
  "3761": "gl",
  "3762": "utes",
  "3763": "par",
  "3764": " suggest",
  "3765": " stack",
  "3766": " thunder",
  "3767": " kindness",
  "3768": " automobile",
  "3769": " complain",
  "3770": " enthusiastic",
  "3771": " sneeze",
  "3772": " cartoon",
  "3773": " yoga",
  "3774": " Little",
  "3775": " growl",
  "3776": "htub",
  "3777": " flea",
  "3778": "la",
  "3779": " meadow",
  "3780": " drawer",
  "3781": " bathtub",
  "3782": " ribb",
  "3783": "ophone",
  "3784": " means",
  "3785": " hall",
  "3786": " golf",
  "3787": " skeleton",
  "3788": " math",
  "3789": " veil",
  "3790": " hunter",
  "3791": " gor",
  "3792": " flame",
  "3793": " poke",
  "3794": " video",
  "3795": " chess",
  "3796": " troph",
  "3797": " cups",
  "3798": " glowing",
  "3799": " matt",
  "3800": " oyster",
  "3801": "work",
  "3802": " penny",
  "3803": " spear",
  "3804": " itself",
  "3805": " drawings",
  "3806": " hippo",
  "3807": " repair",
  "3808": " switch",
  "3809": "glasses",
  "3810": " sunglasses",
  "3811": " teleph",
  "3812": " costume",
  "3813": " dess",
  "3814": " zipp",
  "3815": ",”",
  "3816": " repe",
  "3817": " muffin",
  "3818": " arg",
  "3819": " pastry",
  "3820": " pun",
  "3821": " rolling",
  "3822": " minutes",
  "3823": " packed",
  "3824": " makeup",
  "3825": "iron",
  "3826": "ric",
  "3827": " People",
  "3828": " waffle",
  "3829": "case",
  "3830": " handle",
  "3831": " pear",
  "3832": " maze",
  "3833": " telephone",
  "3834": " pine",
  "3835": "ait",
  "3836": " gear",
  "3837": " hedge",
  "3838": " mattress",
  "3839": " package",
  "3840": "aving",
  "3841": " Miss",
  "3842": " shocked",
  "3843": "ines",
  "3844": " trophy",
  "3845": " powder",
  "3846": " knight",
  "3847": " cob",
  "3848": " missile",
  "3849": " managed",
  "3850": " frame",
  "3851": " encou",
  "3852": " wife",
  "3853": " ok",
  "3854": " separ",
  "3855": "web",
  "3856": " stairs",
  "3857": " rot",
  "3858": " camp",
  "3859": "urch",
  "3860": "rophone",
  "3861": " magaz",
  "3862": " strugg",
  "3863": " colour",
  "3864": " grapes",
  "3865": "time",
  "3866": " file",
  "3867": "head",
  "3868": " Tina",
  "3869": " basketball",
  "3870": "Bye",
  "3871": "old",
  "3872": "per",
  "3873": " cobweb",
  "3874": "Re",
  "3875": "Jimmy",
  "3876": " Tweet",
  "3877": "See",
  "3878": " perm",
  "3879": " wool",
  "3880": " Dan",
  "3881": " microphone",
  "3882": "esday",
  "3883": " eye",
  "3884": " leash",
  "3885": " gasp",
  "3886": "iew",
  "3887": "keep",
  "3888": " weep",
  "3889": " barking",
  "3890": "ature",
  "3891": " safely",
  "3892": " tear",
  "3893": " view",
  "3894": "ffe",
  "3895": " slides",
  "3896": " steps",
  "3897": "istol",
  "3898": "ffee",
  "3899": " bananas",
  "3900": " staff",
  "3901": " spirit",
  "3902": " task",
  "3903": " giggled",
  "3904": " hoc",
  "3905": " hockey",
  "3906": " vend",
  "3907": " those",
  "3908": " gorilla",
  "3909": "Jill",
  "3910": " cooler",
  "3911": " Rose",
  "3912": "was",
  "3913": "cing",
  "3914": " early",
  "3915": " marched",
  "3916": "rosc",
  "3917": " mint",
  "3918": " Look",
  "3919": "washer",
  "3920": " flour",
  "3921": " hotel",
  "3922": "hic",
  "3923": " sailor",
  "3924": " dessert",
  "3925": " photo",
  "3926": "roscope",
  "3927": " vehic",
  "3928": "ilot",
  "3929": " often",
  "3930": " church",
  "3931": " Pete",
  "3932": " cooking",
  "3933": " remain",
  "3934": " five",
  "3935": " sausage",
  "3936": "otter",
  "3937": " ten",
  "3938": " tools",
  "3939": " medal",
  "3940": " either",
  "3941": " fireman",
  "3942": "chor",
  "3943": " grandpa",
  "3944": " otter",
  "3945": " baseball",
  "3946": " pretending",
  "3947": " pistol",
  "3948": " dishwasher",
  "3949": " rever",
  "3950": " organize",
  "3951": " pee",
  "3952": " vendor",
  "3953": " knock",
  "3954": " sight",
  "3955": " grill",
  "3956": " temple",
  "3957": " battery",
  "3958": " thinking",
  "3959": " opens",
  "3960": " ow",
  "3961": " realised",
  "3962": " iron",
  "3963": " laser",
  "3964": " sne",
  "3965": " sandbox",
  "3966": " oil",
  "3967": " patch",
  "3968": " hours",
  "3969": " rise",
  "3970": " whip",
  "3971": "'d",
  "3972": "ctory",
  "3973": " Give",
  "3974": " anchor",
  "3975": " trash",
  "3976": "ense",
  "3977": " short",
  "3978": "ney",
  "3979": " Betty",
  "3980": " rhin",
  "3981": " factory",
  "3982": "seum",
  "3983": " may",
  "3984": " ward",
  "3985": "ately",
  "3986": " cardboard",
  "3987": "ugged",
  "3988": " lotion",
  "3989": "Al",
  "3990": " message",
  "3991": " valu",
  "3992": " wardrobe",
  "3993": " cell",
  "3994": " museum",
  "3995": "apers",
  "3996": " ur",
  "3997": "ination",
  "3998": " hanging",
  "3999": "ucet",
  "4000": "ailable",
  "4001": " Sunny",
  "4002": " Zoom",
  "4003": " hive",
  "4004": "eer",
  "4005": " towers",
  "4006": "keeper",
  "4007": " blackboard",
  "4008": " mem",
  "4009": " excitement",
  "4010": " coffee",
  "4011": " pilot",
  "4012": "ready",
  "4013": "Fluffy",
  "4014": " napkin",
  "4015": " penguin",
  "4016": "ron",
  "4017": " check",
  "4018": " reward",
  "4019": "loo",
  "4020": " quit",
  "4021": " Pippin",
  "4022": " cane",
  "4023": " picking",
  "4024": "place",
  "4025": " Snow",
  "4026": "azor",
  "4027": " faucet",
  "4028": " ig",
  "4029": " passport",
  "4030": " Rob",
  "4031": " stumbled",
  "4032": " dreamed",
  "4033": " igloo",
  "4034": " Bessie",
  "4035": "aroo",
  "4036": "angaroo",
  "4037": " freez",
  "4038": " juicy",
  "4039": " allowed",
  "4040": "play",
  "4041": " holds",
  "4042": " already",
  "4043": " available",
  "4044": " sett",
  "4045": " bathe",
  "4046": " tornado",
  "4047": "imney",
  "4048": " fingers",
  "4049": "htray",
  "4050": " hanger",
  "4051": " newsp",
  "4052": " size",
  "4053": " laund",
  "4054": " lend",
  "4055": " chimney",
  "4056": " laundry",
  "4057": " oak",
  "4058": " fisher",
  "4059": " kangaroo",
  "4060": " men",
  "4061": " Everywhere",
  "4062": " telling",
  "4063": "Em",
  "4064": " novel",
  "4065": "body",
  "4066": " mummy",
  "4067": " pal",
  "4068": " mule",
  "4069": " cherries",
  "4070": " notice",
  "4071": " practice",
  "4072": " spilled",
  "4073": " reind",
  "4074": " complete",
  "4075": " enjoying",
  "4076": " microscope",
  "4077": "arian",
  "4078": "ampoo",
  "4079": " gain",
  "4080": " sub",
  "4081": " fireplace",
  "4082": " imagine",
  "4083": "anda",
  "4084": " display",
  "4085": "ocer",
  "4086": " Zip",
  "4087": " fastest",
  "4088": " magazine",
  "4089": " hurry",
  "4090": " cabinet",
  "4091": " shrink",
  "4092": " ashtray",
  "4093": "Wait",
  "4094": " cows",
  "4095": " Spike",
  "4096": "Joe",
  "4097": "gen",
  "4098": " palace",
  "4099": " improve",
  "4100": "aches",
  "4101": " rake",
  "4102": " reindeer",
  "4103": " falling",
  "4104": "oceros",
  "4105": " skirt",
  "4106": "ured",
  "4107": " discovered",
  "4108": " stared",
  "4109": " roared",
  "4110": "aid",
  "4111": " silver",
  "4112": " tub",
  "4113": " trail",
  "4114": "Is",
  "4115": " miner",
  "4116": "come",
  "4117": " bill",
  "4118": "iction",
  "4119": " fog",
  "4120": " ax",
  "4121": "stairs",
  "4122": "ilet",
  "4123": " hut",
  "4124": " happier",
  "4125": " taller",
  "4126": "ictionary",
  "4127": " oats",
  "4128": " fisherman",
  "4129": " object",
  "4130": " por",
  "4131": "vision",
  "4132": " valuable",
  "4133": " shampoo",
  "4134": " holes",
  "4135": " offered",
  "4136": " boots",
  "4137": " rhinoceros",
  "4138": " names",
  "4139": " toilet",
  "4140": " climbing",
  "4141": " blin",
  "4142": "vice",
  "4143": "Ow",
  "4144": " stretched",
  "4145": "iest",
  "4146": " zipper",
  "4147": " listening",
  "4148": " sym",
  "4149": " bathrobe",
  "4150": "alend",
  "4151": " jewelry",
  "4152": " Here",
  "4153": " jokes",
  "4154": " television",
  "4155": " prov",
  "4156": " calend",
  "4157": " stops",
  "4158": " axe",
  "4159": " jumps",
  "4160": " fuel",
  "4161": " sparkly",
  "4162": "cu",
  "4163": " perfume",
  "4164": " Susie",
  "4165": " bury",
  "4166": "bol",
  "4167": "Mummy",
  "4168": " pressed",
  "4169": " Kim",
  "4170": "reek",
  "4171": " rece",
  "4172": "fa",
  "4173": " Toby",
  "4174": " neat",
  "4175": " creek",
  "4176": " popped",
  "4177": " opera",
  "4178": " calendar",
  "4179": " snap",
  "4180": " gasped",
  "4181": " attach",
  "4182": " symbol",
  "4183": " tuna",
  "4184": " Mar",
  "4185": " papers",
  "4186": "Mr",
  "4187": " unpack",
  "4188": " resist",
  "4189": "lud",
  "4190": " dictionary",
  "4191": " subway",
  "4192": " letters",
  "4193": " freezer",
  "4194": " chose",
  "4195": " pinch",
  "4196": "zag",
  "4197": " spoke",
  "4198": " anyway",
  "4199": " super",
  "4200": " porch",
  "4201": " helper",
  "4202": "affe",
  "4203": " bikes",
  "4204": " lie",
  "4205": "arry",
  "4206": "iches",
  "4207": " tightly",
  "4208": " comfort",
  "4209": " shaking",
  "4210": " bookcase",
  "4211": " son",
  "4212": " razor",
  "4213": "aurant",
  "4214": " sandwiches",
  "4215": " Are",
  "4216": "igzag",
  "4217": " weigh",
  "4218": " against",
  "4219": " stickers",
  "4220": " restaurant",
  "4221": " newspaper",
  "4222": " blouse",
  "4223": " vehicle",
  "4224": " swinging",
  "4225": " ped",
  "4226": " disag",
  "4227": " nature",
  "4228": " squirrels",
  "4229": "ival",
  "4230": " belongs",
  "4231": " swamp",
  "4232": " butterflies",
  "4233": " gym",
  "4234": " includ",
  "4235": " growing",
  "4236": " buckle",
  "4237": "omed",
  "4238": " stirred",
  "4239": " mustache",
  "4240": " billboard",
  "4241": "xy",
  "4242": " beep",
  "4243": "te",
  "4244": " alarm",
  "4245": " lightning",
  "4246": " lip",
  "4247": " fest",
  "4248": " hung",
  "4249": "utor",
  "4250": " distance",
  "4251": "ogn",
  "4252": " cards",
  "4253": " obser",
  "4254": " agree",
  "4255": "Little",
  "4256": " ext",
  "4257": " tease",
  "4258": " recogn",
  "4259": " rubber",
  "4260": "ik",
  "4261": " hate",
  "4262": "fast",
  "4263": "ef",
  "4264": "Ouch",
  "4265": " doesn",
  "4266": " musician",
  "4267": " advice",
  "4268": " beef",
  "4269": " serve",
  "4270": "aspoon",
  "4271": " sweetie",
  "4272": " model",
  "4273": "lter",
  "4274": " crib",
  "4275": " blueberries",
  "4276": " sofa",
  "4277": " circles",
  "4278": " breakfast",
  "4279": " tutor",
  "4280": "asis",
  "4281": " bookshe",
  "4282": " giraffe",
  "4283": "stri",
  "4284": " festival",
  "4285": " separate",
  "4286": " shelter",
  "4287": " gas",
  "4288": " airport",
  "4289": " olive",
  "4290": " rail",
  "4291": " bookshelf",
  "4292": " frogs",
  "4293": " teaspoon",
  "4294": " reverse",
  "4295": " junk",
  "4296": " riding",
  "4297": " pleased",
  "4298": " drain",
  "4299": " Mrs",
  "4300": " wipe",
  "4301": " oasis",
  "4302": " soil",
  "4303": " ahead",
  "4304": " rescue",
  "4305": " leaving",
  "4306": "ummer",
  "4307": " painter",
  "4308": " squeeze",
  "4309": " chance",
  "4310": " poked",
  "4311": " knob",
  "4312": " Teddy",
  "4313": " peeked",
  "4314": " lumber",
  "4315": " trains",
  "4316": " extra",
  "4317": " slipp",
  "4318": " quiz",
  "4319": " refused",
  "4320": "res",
  "4321": "rmomet",
  "4322": " page",
  "4323": " rules",
  "4324": " happens",
  "4325": " sounded",
  "4326": " ins",
  "4327": " point",
  "4328": " winter",
  "4329": " dancer",
  "4330": " Grandpa",
  "4331": " birdc",
  "4332": " disappear",
  "4333": "rmometer",
  "4334": " Dolly",
  "4335": " weather",
  "4336": " waste",
  "4337": " lic",
  "4338": " birdcage",
  "4339": " theater",
  "4340": " reef",
  "4341": " carrying",
  "4342": "Daisy",
  "4343": " invite",
  "4344": "iform",
  "4345": " goal",
  "4346": " ostri",
  "4347": " uniform",
  "4348": " swung",
  "4349": " trade",
  "4350": " cliff",
  "4351": "ience",
  "4352": " lawn",
  "4353": "ola",
  "4354": " leaned",
  "4355": " Pandy",
  "4356": "angu",
  "4357": " accept",
  "4358": " admire",
  "4359": " fort",
  "4360": " accidentally",
  "4361": " pastel",
  "4362": "bbles",
  "4363": " stom",
  "4364": " langu",
  "4365": " twir",
  "4366": " suff",
  "4367": " panda",
  "4368": "riger",
  "4369": " bet",
  "4370": "rigerator",
  "4371": " peek",
  "4372": "render",
  "4373": " blinked",
  "4374": " starts",
  "4375": " refrigerator",
  "4376": " anywhere",
  "4377": "!\".",
  "4378": " imagined",
  "4379": " dreaming",
  "4380": " remove",
  "4381": "night",
  "4382": " shower",
  "4383": " Lee",
  "4384": " Co",
  "4385": " classroom",
  "4386": " ceiling",
  "4387": " caring",
  "4388": "ium",
  "4389": " grand",
  "4390": " missing",
  "4391": "aked",
  "4392": " license",
  "4393": " stable",
  "4394": " thermometer",
  "4395": " monkeys",
  "4396": "astic",
  "4397": " warned",
  "4398": " summer",
  "4399": " Where",
  "4400": " above",
  "4401": " brick",
  "4402": "ected",
  "4403": " cudd",
  "4404": " problems",
  "4405": "amber",
  "4406": " chasing",
  "4407": " label",
  "4408": " apron",
  "4409": " sent",
  "4410": "urnit",
  "4411": "urniture",
  "4412": " lawy",
  "4413": " lid",
  "4414": "uggage",
  "4415": "med",
  "4416": " respectful",
  "4417": " furniture",
  "4418": " frowned",
  "4419": " zoomed",
  "4420": " pages",
  "4421": " prevent",
  "4422": " bent",
  "4423": " luggage",
  "4424": " mistakes",
  "4425": " sunset",
  "4426": " ostrich",
  "4427": "ison",
  "4428": " suggested",
  "4429": " windows",
  "4430": "ations",
  "4431": " jail",
  "4432": "low",
  "4433": " wine",
  "4434": " ribbon",
  "4435": " older",
  "4436": " shouts",
  "4437": " grape",
  "4438": " Cl",
  "4439": " wigg",
  "4440": "ucture",
  "4441": " structure",
  "4442": " spoil",
  "4443": "eor",
  "4444": " fixing",
  "4445": " chamber",
  "4446": " lions",
  "4447": " delay",
  "4448": " finds",
  "4449": " handed",
  "4450": " searching",
  "4451": " unite",
  "4452": "Did",
  "4453": " fought",
  "4454": " lawyer",
  "4455": " brightly",
  "4456": " pair",
  "4457": " meeting",
  "4458": " choice",
  "4459": " surprises",
  "4460": " Un",
  "4461": " Ellie",
  "4462": " art",
  "4463": "Ch",
  "4464": " favour",
  "4465": "eterin",
  "4466": "eterinarian",
  "4467": "adium",
  "4468": " stadium",
  "4469": " proudly",
  "4470": "iki",
  "4471": " veterinarian",
  "4472": "vet",
  "4473": "rod",
  "4474": " chairs",
  "4475": " slip",
  "4476": " Spe",
  "4477": " sadly",
  "4478": " Bow",
  "4479": " incre",
  "4480": " Carl",
  "4481": " puddles",
  "4482": " berry",
  "4483": " introd",
  "4484": " ranch",
  "4485": "veal",
  "4486": " Boun",
  "4487": " argue",
  "4488": " V",
  "4489": " admired",
  "4490": " cur",
  "4491": " favourite",
  "4492": "Your",
  "4493": " inf",
  "4494": " excitedly",
  "4495": " rac",
  "4496": " grabs",
  "4497": "mend",
  "4498": " steam",
  "4499": "thank",
  "4500": " human",
  "4501": "eorge",
  "4502": "sity",
  "4503": " Hel",
  "4504": " pushing",
  "4505": " saving",
  "4506": " Red",
  "4507": " reveal",
  "4508": "ommend",
  "4509": "alley",
  "4510": " yield",
  "4511": "olog",
  "4512": " mall",
  "4513": " reminded",
  "4514": " recommend",
  "4515": " leak",
  "4516": " surrender",
  "4517": " harb",
  "4518": " appl",
  "4519": "cuss",
  "4520": "aul",
  "4521": " weap",
  "4522": " regret",
  "4523": " putting",
  "4524": " valley",
  "4525": " mineral",
  "4526": " evening",
  "4527": "elcome",
  "4528": " matches",
  "4529": " forgave",
  "4530": " sneezed",
  "4531": " pup",
  "4532": " aw",
  "4533": " rushed",
  "4534": "ecause",
  "4535": " spade",
  "4536": " apolog",
  "4537": " plates",
  "4538": " discuss",
  "4539": " prepare",
  "4540": " harbor",
  "4541": " ignore",
  "4542": " Big",
  "4543": " country",
  "4544": " language",
  "4545": " Buzzy",
  "4546": " pulls",
  "4547": " plastic",
  "4548": " supply",
  "4549": " float",
  "4550": " sniffed",
  "4551": " Jazz",
  "4552": " replace",
  "4553": " meas",
  "4554": " shovel",
  "4555": " Bill",
  "4556": " raise",
  "4557": " Next",
  "4558": " fre",
  "4559": " cared",
  "4560": " socks",
  "4561": " strip",
  "4562": " doors",
  "4563": " mystery",
  "4564": " lives",
  "4565": " restore",
  "4566": " sticker",
  "4567": " sudden",
  "4568": "ari",
  "4569": " kinds",
  "4570": " slippery",
  "4571": "ero",
  "4572": " Ow",
  "4573": " player",
  "4574": " panic",
  "4575": "ricane",
  "4576": " hoping",
  "4577": "iday",
  "4578": " shone",
  "4579": "lex",
  "4580": "hero",
  "4581": " beg",
  "4582": "aud",
  "4583": " Mike",
  "4584": " Binky",
  "4585": " superhero",
  "4586": " delighted",
  "4587": " gro",
  "4588": "Yay",
  "4589": "chan",
  "4590": " chickens",
  "4591": " shoulder",
  "4592": " rained",
  "4593": " colourful",
  "4594": " breat",
  "4595": " Alice",
  "4596": " claw",
  "4597": " Bubbles",
  "4598": "Yuck",
  "4599": " softly",
  "4600": "rise",
  "4601": " port",
  "4602": "Grandma",
  "4603": " hol",
  "4604": "icer",
  "4605": " holiday",
  "4606": " �",
  "4607": " barks",
  "4608": "ason",
  "4609": " throwing",
  "4610": " planes",
  "4611": "Mary",
  "4612": " bend",
  "4613": " Freddy",
  "4614": " shakes",
  "4615": " infant",
  "4616": " ended",
  "4617": " shivering",
  "4618": " kneel",
  "4619": " sunrise",
  "4620": " pushes",
  "4621": " Olive",
  "4622": " thanks",
  "4623": " fresh",
  "4624": " suffer",
  "4625": " points",
  "4626": "imed",
  "4627": "wards",
  "4628": " Pat",
  "4629": " tip",
  "4630": " Speedy",
  "4631": " freeze",
  "4632": " keeping",
  "4633": " Would",
  "4634": " giggle",
  "4635": " copper",
  "4636": " smells",
  "4637": " dear",
  "4638": "ah",
  "4639": " enter",
  "4640": " provide",
  "4641": "cast",
  "4642": "chanic",
  "4643": " dishes",
  "4644": " End",
  "4645": "cond",
  "4646": " applaud",
  "4647": " unh",
  "4648": "Next",
  "4649": " heads",
  "4650": " hurricane",
  "4651": " cherry",
  "4652": " thumb",
  "4653": " menu",
  "4654": " meowed",
  "4655": " mass",
  "4656": " second",
  "4657": " brighter",
  "4658": "ince",
  "4659": " sandcast",
  "4660": " mechanic",
  "4661": " wre",
  "4662": " sprayed",
  "4663": " letting",
  "4664": " event",
  "4665": " weapon",
  "4666": " laught",
  "4667": " x",
  "4668": " laughter",
  "4669": " clapping",
  "4670": " feelings",
  "4671": "Will",
  "4672": "icky",
  "4673": " splashing",
  "4674": "ement",
  "4675": " Or",
  "4676": "acked",
  "4677": " castles",
  "4678": " Fl",
  "4679": "cer",
  "4680": " score",
  "4681": "apping",
  "4682": " universe",
  "4683": " navy",
  "4684": " dem",
  "4685": " sticky",
  "4686": "ophie",
  "4687": " rooms",
  "4688": " row",
  "4689": " flies",
  "4690": "igi",
  "4691": " Dave",
  "4692": " unhappy",
  "4693": " greedy",
  "4694": " dare",
  "4695": " alive",
  "4696": " breaks",
  "4697": " ener",
  "4698": " courage",
  "4699": " invit",
  "4700": "Ready",
  "4701": " repeat",
  "4702": " demand",
  "4703": " trusted",
  "4704": "Lisa",
  "4705": " somewhere",
  "4706": "arlie",
  "4707": " prune",
  "4708": "bles",
  "4709": " wreck",
  "4710": " Y",
  "4711": " skill",
  "4712": " examine",
  "4713": " parts",
  "4714": "year",
  "4715": " eaten",
  "4716": "oe",
  "4717": "All",
  "4718": "erc",
  "4719": "enry",
  "4720": " mention",
  "4721": " raining",
  "4722": " Help",
  "4723": "Buddy",
  "4724": " throws",
  "4725": " jogged",
  "4726": "quest",
  "4727": " starting",
  "4728": " rush",
  "4729": " poison",
  "4730": " pirates",
  "4731": "heart",
  "4732": " vac",
  "4733": " content",
  "4734": "Emma",
  "4735": " Kiki",
  "4736": " sigh",
  "4737": " flapped",
  "4738": " drops",
  "4739": " chirp",
  "4740": " sport",
  "4741": "Qu",
  "4742": " sparkled",
  "4743": " Zoomy",
  "4744": " given",
  "4745": " streng",
  "4746": " steel",
  "4747": "Ann",
  "4748": " bumped",
  "4749": " yawned",
  "4750": " stud",
  "4751": " request",
  "4752": " scold",
  "4753": " myself",
  "4754": " strength",
  "4755": " shrugged",
  "4756": "Mark",
  "4757": " coats",
  "4758": " punish",
  "4759": " equ",
  "4760": " snugg",
  "4761": " university",
  "4762": " paid",
  "4763": " Johnny",
  "4764": " pigs",
  "4765": " scratch",
  "4766": " toe",
  "4767": " exerc",
  "4768": " tracks",
  "4769": " upstairs",
  "4770": " prayed",
  "4771": " crossed",
  "4772": " squeezed",
  "4773": " impressed",
  "4774": " flood",
  "4775": " bouncing",
  "4776": "Alice",
  "4777": " rabbits",
  "4778": "ges",
  "4779": " badly",
  "4780": "..",
  "4781": " warn",
  "4782": " leather",
  "4783": " expect",
  "4784": " news",
  "4785": " tide",
  "4786": " Ted",
  "4787": " minute",
  "4788": " bears",
  "4789": " claws",
  "4790": " buzz",
  "4791": " sweetheart",
  "4792": " Sm",
  "4793": "yth",
  "4794": " nation",
  "4795": "Sh",
  "4796": "ythm",
  "4797": " vacation",
  "4798": " hist",
  "4799": " heat",
  "4800": " strawberries",
  "4801": " observe",
  "4802": " explored",
  "4803": " settle",
  "4804": " sandcastle",
  "4805": " yawn",
  "4806": " history",
  "4807": " Lilly",
  "4808": " Lola",
  "4809": "mare",
  "4810": " Mummy",
  "4811": " Sque",
  "4812": "ially",
  "4813": "inking",
  "4814": " believed",
  "4815": " horses",
  "4816": "Daddy",
  "4817": " Hoppy",
  "4818": " checked",
  "4819": " Mandy",
  "4820": " tour",
  "4821": " network",
  "4822": " cheek",
  "4823": " Under",
  "4824": " offer",
  "4825": " easily",
  "4826": " placed",
  "4827": "spec",
  "4828": " spots",
  "4829": " snowball",
  "4830": "ween",
  "4831": "men",
  "4832": " energy",
  "4833": " Bee",
  "4834": " imagination",
  "4835": " blueberry",
  "4836": "otten",
  "4837": " between",
  "4838": "specially",
  "4839": " Gigi",
  "4840": "izes",
  "4841": " daisy",
  "4842": " waving",
  "4843": "reeze",
  "4844": "reat",
  "4845": " vroom",
  "4846": " soak",
  "4847": " safari",
  "4848": " rhythm",
  "4849": " massage",
  "4850": " stomach",
  "4851": " baking",
  "4852": "quake",
  "4853": " nightmare",
  "4854": " insisted",
  "4855": " blowing",
  "4856": " entered",
  "4857": "Before",
  "4858": " stair",
  "4859": " palm",
  "4860": " beauty",
  "4861": " twisted",
  "4862": " bother",
  "4863": " writing",
  "4864": " scoop",
  "4865": " prunes",
  "4866": " brain",
  "4867": " ing",
  "4868": "ipment",
  "4869": " poppy",
  "4870": " hills",
  "4871": "noon",
  "4872": " afternoon",
  "4873": " equipment",
  "4874": " especially",
  "4875": " Ru",
  "4876": "hest",
  "4877": " sir",
  "4878": " pad",
  "4879": " See",
  "4880": " ingred",
  "4881": " calls",
  "4882": " ingredient",
  "4883": " Fox",
  "4884": " earthquake",
  "4885": " ignored",
  "4886": " Snowy",
  "4887": " burned",
  "4888": " nobody",
  "4889": "mble",
  "4890": " sty",
  "4891": "apa",
  "4892": " sew",
  "4893": " tug",
  "4894": "isty",
  "4895": "xygen",
  "4896": " hearts",
  "4897": " lear",
  "4898": " learnt",
  "4899": " lemonade",
  "4900": " increase",
  "4901": "illie",
  "4902": "Jenny",
  "4903": " gaz",
  "4904": " backpack",
  "4905": " mailman",
  "4906": " whistled",
  "4907": " pedal",
  "4908": " Sk",
  "4909": "Fred",
  "4910": " shopkeeper",
  "4911": "ffic",
  "4912": " permit",
  "4913": " tremble",
  "4914": " yucky",
  "4915": "anges",
  "4916": " moves",
  "4917": " introduce",
  "4918": " lemons",
  "4919": " crash",
  "4920": " beans",
  "4921": " floated",
  "4922": "edn",
  "4923": "ednesday",
  "4924": "ittens",
  "4925": "Welcome",
  "4926": " planned",
  "4927": " strike",
  "4928": " traffic",
  "4929": " include",
  "4930": " slap",
  "4931": " racing",
  "4932": " Lucky",
  "4933": "resses",
  "4934": " wisdom",
  "4935": " pur",
  "4936": " wags",
  "4937": " Finny",
  "4938": "laimed",
  "4939": " George",
  "4940": " luck",
  "4941": " following",
  "4942": " price",
  "4943": "ecting",
  "4944": " mama",
  "4945": " pitch",
  "4946": " below",
  "4947": " Elly",
  "4948": " Have",
  "4949": "Le",
  "4950": " weight",
  "4951": " exclaimed",
  "4952": "house",
  "4953": " buried",
  "4954": " follows",
  "4955": " comf",
  "4956": " recognize",
  "4957": " ingredients",
  "4958": " \n",
  "4959": " furt",
  "4960": "tain",
  "4961": " candles",
  "4962": "Mimi",
  "4963": " marbles",
  "4964": "riage",
  "4965": "unday",
  "4966": "emember",
  "4967": "eration",
  "4968": " Alex",
  "4969": " apart",
  "4970": " Wednesday",
  "4971": " growled",
  "4972": "uct",
  "4973": "ores",
  "4974": " conf",
  "4975": " teaching",
  "4976": " hopes",
  "4977": " folded",
  "4978": " closely",
  "4979": " Finn",
  "4980": " Who",
  "4981": " heel",
  "4982": " Su",
  "4983": " Sunday",
  "4984": " encourage",
  "4985": " Paul",
  "4986": " Owl",
  "4987": " zigzag",
  "4988": " pulling",
  "4989": " digg",
  "4990": " bouncy",
  "4991": " further",
  "4992": " chewed",
  "4993": " digging",
  "4994": " winning",
  "4995": "Woof",
  "4996": "With",
  "4997": " dresses",
  "4998": " image",
  "4999": "rec",
  "5000": "cery",
  "5001": " shouting",
  "5002": " grocery",
  "5003": " twisty",
  "5004": " peanuts",
  "5005": " puzzles",
  "5006": "bbing",
  "5007": " Dog",
  "5008": "look",
  "5009": " scrat",
  "5010": " chores",
  "5011": " whisper",
  "5012": " Is",
  "5013": " spike",
  "5014": " Froggy",
  "5015": " cape",
  "5016": " snail",
  "5017": " acorns",
  "5018": " worms",
  "5019": "hood",
  "5020": " deeper",
  "5021": " urge",
  "5022": "ifi",
  "5023": " exper",
  "5024": " Whenever",
  "5025": " Tilly",
  "5026": " Squeaky",
  "5027": " Grace",
  "5028": " planted",
  "5029": " attention",
  "5030": "ecture",
  "5031": " exercise",
  "5032": " Danny",
  "5033": " cub",
  "5034": " operation",
  "5035": " underground",
  "5036": " hon",
  "5037": " agre",
  "5038": " quite",
  "5039": " creatures",
  "5040": " simp",
  "5041": "Everyone",
  "5042": " struggle",
  "5043": "oral",
  "5044": " Mittens",
  "5045": "ddy",
  "5046": " blood",
  "5047": " lecture",
  "5048": " washing",
  "5049": " hurting",
  "5050": " vanished",
  "5051": " gifts",
  "5052": " dressed",
  "5053": " invitation",
  "5054": " solved",
  "5055": " licks",
  "5056": " snuggled",
  "5057": " Sharing",
  "5058": "ippy",
  "5059": " ble",
  "5060": " marriage",
  "5061": " quietly",
  "5062": "gie",
  "5063": " warning",
  "5064": " jazz",
  "5065": " breathe",
  "5066": "reci",
  "5067": " elephants",
  "5068": " sizes",
  "5069": " dried",
  "5070": " fallen",
  "5071": " landscape",
  "5072": "ories",
  "5073": " sprink",
  "5074": " neighbour",
  "5075": " mice",
  "5076": "uesday",
  "5077": " appreci",
  "5078": " Sophie",
  "5079": " Joey",
  "5080": " –",
  "5081": " eagerly",
  "5082": " sailing",
  "5083": " Coco",
  "5084": " paused",
  "5085": "ips",
  "5086": " counter",
  "5087": " Good",
  "5088": " Bounce",
  "5089": " Penny",
  "5090": " worth",
  "5091": "looking",
  "5092": " Rock",
  "5093": " oxygen",
  "5094": "Because",
  "5095": " release",
  "5096": " shined",
  "5097": "Not",
  "5098": "pted",
  "5099": " reaches",
  "5100": " balan",
  "5101": " Zara",
  "5102": "isses",
  "5103": " oh",
  "5104": " kisses",
  "5105": " style",
  "5106": " bricks",
  "5107": " plays",
  "5108": " glo",
  "5109": " Tuesday",
  "5110": " ideas",
  "5111": "sed",
  "5112": " inst",
  "5113": " wob",
  "5114": " fireworks",
  "5115": "Bella",
  "5116": "iggly",
  "5117": "ucked",
  "5118": " seeing",
  "5119": " flap",
  "5120": "ops",
  "5121": " accepted",
  "5122": "right",
  "5123": " Pip",
  "5124": "Today",
  "5125": " blink",
  "5126": "mm",
  "5127": " Ros",
  "5128": " tremb",
  "5129": "These",
  "5130": " muddy",
  "5131": " memory",
  "5132": " married",
  "5133": " tomatoes",
  "5134": " exit",
  "5135": " Annie",
  "5136": " wagging",
  "5137": " fash",
  "5138": "Remy",
  "5139": " Charlie",
  "5140": " wandered",
  "5141": "unately",
  "5142": "ipping",
  "5143": " gloves",
  "5144": " captain",
  "5145": " pillows",
  "5146": " receive",
  "5147": " resp",
  "5148": " Pinky",
  "5149": "raged",
  "5150": " during",
  "5151": " Everything",
  "5152": "etch",
  "5153": " web",
  "5154": " petals",
  "5155": " watered",
  "5156": " Eventually",
  "5157": " si",
  "5158": "ived",
  "5159": " manage",
  "5160": " pinched",
  "5161": " brings",
  "5162": "ux",
  "5163": " vanish",
  "5164": " cakes",
  "5165": " fashion",
  "5166": " Bluey",
  "5167": " printer",
  "5168": " destroyed",
  "5169": " treasures",
  "5170": "nce",
  "5171": " allow",
  "5172": "ups",
  "5173": " hadn",
  "5174": " worse",
  "5175": " Fifi",
  "5176": "Surpr",
  "5177": " vel",
  "5178": " hits",
  "5179": " bur",
  "5180": "uxu",
  "5181": " velvet",
  "5182": " appear",
  "5183": " disagree",
  "5184": "do",
  "5185": " catching",
  "5186": " scattered",
  "5187": " Ro",
  "5188": " memories",
  "5189": " sorts",
  "5190": " Papa",
  "5191": " hers",
  "5192": " scolded",
  "5193": " signs",
  "5194": " pears",
  "5195": " oranges",
  "5196": " bones",
  "5197": " rang",
  "5198": " snapped",
  "5199": " sits",
  "5200": " seats",
  "5201": "Bl",
  "5202": " gazed",
  "5203": " raised",
  "5204": " Maria",
  "5205": " zipped",
  "5206": " pies",
  "5207": " prints",
  "5208": " shot",
  "5209": " sliding",
  "5210": " God",
  "5211": " fro",
  "5212": " easier",
  "5213": "ssible",
  "5214": " skills",
  "5215": " climbs",
  "5216": " twirled",
  "5217": "ccer",
  "5218": " blankets",
  "5219": "ester",
  "5220": " forgotten",
  "5221": " baked",
  "5222": "Yum",
  "5223": "esterday",
  "5224": " difference",
  "5225": "orted",
  "5226": " luxu",
  "5227": " golden",
  "5228": "ising",
  "5229": " kitty",
  "5230": " Tw",
  "5231": " cutting",
  "5232": " season",
  "5233": "aggie",
  "5234": " nowhere",
  "5235": " crow",
  "5236": " soccer",
  "5237": " dared",
  "5238": " bites",
  "5239": " Henry",
  "5240": " Harry",
  "5241": "anny",
  "5242": " lung",
  "5243": " celebrated",
  "5244": "choo",
  "5245": "chie",
  "5246": " straight",
  "5247": " unlocked",
  "5248": "sters",
  "5249": " sorting",
  "5250": " collected",
  "5251": " bleed",
  "5252": "aped",
  "5253": " welcomed",
  "5254": " visited",
  "5255": " spoons",
  "5256": " ours",
  "5257": " stitch",
  "5258": " jogging",
  "5259": "Surprise",
  "5260": "medi",
  "5261": " emer",
  "5262": " Spark",
  "5263": "mediately",
  "5264": " isn",
  "5265": " tong",
  "5266": " trave",
  "5267": " winner",
  "5268": "umble",
  "5269": " since",
  "5270": " ruin",
  "5271": " prett",
  "5272": "Ok",
  "5273": "Moral",
  "5274": " Tony",
  "5275": " attached",
  "5276": " weeping",
  "5277": " marching",
  "5278": " luxury",
  "5279": " simple",
  "5280": " Each",
  "5281": " shouldn",
  "5282": " guessed",
  "5283": " zero",
  "5284": " created",
  "5285": " stuffed",
  "5286": " pets",
  "5287": "ction",
  "5288": " waist",
  "5289": " famil",
  "5290": " urged",
  "5291": " bowed",
  "5292": " selling",
  "5293": " floating",
  "5294": "rr",
  "5295": " Smith",
  "5296": " bye",
  "5297": " King",
  "5298": " vict",
  "5299": " kingdom",
  "5300": " olives",
  "5301": " kicking",
  "5302": " Wiggly",
  "5303": " punished",
  "5304": " Liz",
  "5305": " Baby",
  "5306": "ann",
  "5307": "sit",
  "5308": " toes",
  "5309": " An",
  "5310": " grant",
  "5311": " muscles",
  "5312": " jewels",
  "5313": " Rosie",
  "5314": " beds",
  "5315": " melted",
  "5316": "Goodbye",
  "5317": " slice",
  "5318": " grin",
  "5319": " understanding",
  "5320": " collection",
  "5321": " tore",
  "5322": " measured",
  "5323": "aker",
  "5324": " cras",
  "5325": "omeday",
  "5326": "iers",
  "5327": " trapped",
  "5328": " lined",
  "5329": "'ve",
  "5330": " acted",
  "5331": "fortunately",
  "5332": " encouraged",
  "5333": "va",
  "5334": " Sandy",
  "5335": " received",
  "5336": " waffles",
  "5337": " Before",
  "5338": " Wally",
  "5339": " west",
  "5340": " meow",
  "5341": "ents",
  "5342": " patterns",
  "5343": "rin",
  "5344": "ino",
  "5345": "eath",
  "5346": " brus",
  "5347": " mouths",
  "5348": "kins",
  "5349": " bang",
  "5350": "ring",
  "5351": " Kate",
  "5352": "Meow",
  "5353": " peaches",
  "5354": " breeze",
  "5355": "aded",
  "5356": "une",
  "5357": " printed",
  "5358": " soldiers",
  "5359": " someday",
  "5360": " potatoes",
  "5361": " pupil",
  "5362": "umes",
  "5363": " Millie",
  "5364": " drinks",
  "5365": " shed",
  "5366": " experience",
  "5367": " Tuna",
  "5368": "eep",
  "5369": " presents",
  "5370": " firef",
  "5371": " Ruby",
  "5372": " surround",
  "5373": " none",
  "5374": "osed",
  "5375": " voices",
  "5376": " drinking",
  "5377": " Uncle",
  "5378": "ishing",
  "5379": " relaxed",
  "5380": " victory",
  "5381": "cus",
  "5382": " paints",
  "5383": " breaking",
  "5384": "eve",
  "5385": " hurried",
  "5386": "ission",
  "5387": " twink",
  "5388": " tongue",
  "5389": " costumes",
  "5390": " flat",
  "5391": " mentioned",
  "5392": " begged",
  "5393": " teasing",
  "5394": " whistling",
  "5395": " fetch",
  "5396": " permission",
  "5397": " sip",
  "5398": " disagreed",
  "5399": " pearl",
  "5400": "akes",
  "5401": " stro",
  "5402": "vest",
  "5403": " These",
  "5404": " esc",
  "5405": " appro",
  "5406": " skipping",
  "5407": " fishing",
  "5408": " May",
  "5409": "Leo",
  "5410": " highest",
  "5411": " pra",
  "5412": " watches",
  "5413": " sorted",
  "5414": " ringing",
  "5415": "ship",
  "5416": " tonight",
  "5417": " Bo",
  "5418": " opin",
  "5419": " lets",
  "5420": "icing",
  "5421": " Qu",
  "5422": " perfectly",
  "5423": " shadows",
  "5424": " immediately",
  "5425": " herbs",
  "5426": " warmth",
  "5427": " spit",
  "5428": " remained",
  "5429": "ther",
  "5430": " Its",
  "5431": "walk",
  "5432": "Bobby",
  "5433": "irring",
  "5434": "Jen",
  "5435": " sneak",
  "5436": " six",
  "5437": " lips",
  "5438": " kneeled",
  "5439": "Blue",
  "5440": " contest",
  "5441": " Che",
  "5442": "utter",
  "5443": " cartoons",
  "5444": " sidewalk",
  "5445": " colours",
  "5446": " stamps",
  "5447": " ago",
  "5448": "Ha",
  "5449": " Toto",
  "5450": " Boo",
  "5451": " Follow",
  "5452": " east",
  "5453": " headed",
  "5454": "oved",
  "5455": "\",",
  "5456": " strang",
  "5457": " ladyb",
  "5458": " fed",
  "5459": " supposed",
  "5460": " roots",
  "5461": " lick",
  "5462": " crunch",
  "5463": " mixing",
  "5464": " works",
  "5465": " decorations",
  "5466": " melting",
  "5467": " known",
  "5468": " emergen",
  "5469": "Mandy",
  "5470": " rested",
  "5471": " Ab",
  "5472": " lines",
  "5473": " Suzy",
  "5474": " lily",
  "5475": " Jul",
  "5476": " instr",
  "5477": " laid",
  "5478": " Gr",
  "5479": " succeeded",
  "5480": " cones",
  "5481": " wiggle",
  "5482": "ety",
  "5483": "sing",
  "5484": " shock",
  "5485": " setting",
  "5486": " Slow",
  "5487": " studied",
  "5488": " strangers",
  "5489": " Rocky",
  "5490": "Really",
  "5491": " twigs",
  "5492": " brid",
  "5493": " theirs",
  "5494": " Dr",
  "5495": " girls",
  "5496": "boo",
  "5497": "!\",",
  "5498": " screams",
  "5499": " lands",
  "5500": " ordered",
  "5501": " stirring",
  "5502": " moments",
  "5503": " fields",
  "5504": " alright",
  "5505": " stealing",
  "5506": "Andy",
  "5507": " rul",
  "5508": " bravely",
  "5509": "avid",
  "5510": " Both",
  "5511": " mister",
  "5512": "!'",
  "5513": " invest",
  "5514": " scratched",
  "5515": " playtime",
  "5516": " ripped",
  "5517": " investig",
  "5518": " tucked",
  "5519": " resting",
  "5520": " burning",
  "5521": "ishes",
  "5522": " Clara",
  "5523": " Chicky",
  "5524": " bridges",
  "5525": " officer",
  "5526": "please",
  "5527": "Sammy",
  "5528": "Bird",
  "5529": "abies",
  "5530": " settled",
  "5531": " matched",
  "5532": " achie",
  "5533": " tex",
  "5534": " texture",
  "5535": "Happy",
  "5536": " waits",
  "5537": " turning",
  "5538": " Sky",
  "5539": "Peter",
  "5540": "ored",
  "5541": " trembling",
  "5542": "isten",
  "5543": " nails",
  "5544": "atie",
  "5545": " muffins",
  "5546": " Someone",
  "5547": "ids",
  "5548": " escaped",
  "5549": " James",
  "5550": " piles",
  "5551": " investigate",
  "5552": "osity",
  "5553": " broom",
  "5554": " ladybug",
  "5555": " sore",
  "5556": " Pepper",
  "5557": " appreciate",
  "5558": " admir",
  "5559": " threat",
  "5560": " babies",
  "5561": " silence",
  "5562": " sisters",
  "5563": " emergency",
  "5564": " area",
  "5565": "ides",
  "5566": " dads",
  "5567": " answers",
  "5568": " pupp",
  "5569": " keys",
  "5570": " chewing",
  "5571": " slapped",
  "5572": " wiz",
  "5573": " importance",
  "5574": "Boo",
  "5575": " served",
  "5576": " Hop",
  "5577": " safety",
  "5578": "izing",
  "5579": "Would",
  "5580": "Bu",
  "5581": " sparkle",
  "5582": " touching",
  "5583": " Later",
  "5584": " soared",
  "5585": "igail",
  "5586": " sings",
  "5587": " hen",
  "5588": "allen",
  "5589": "Ella",
  "5590": "bers",
  "5591": "antly",
  "5592": "Momo",
  "5593": " Dino",
  "5594": " keeps",
  "5595": " amazement",
  "5596": " challen",
  "5597": " twin",
  "5598": " hesit",
  "5599": " revealed",
  "5600": "achel",
  "5601": " item",
  "5602": " dire",
  "5603": " soaked",
  "5604": "zing",
  "5605": " writ",
  "5606": " foods",
  "5607": " rides",
  "5608": " dinosaurs",
  "5609": " recorded",
  "5610": " tickle",
  "5611": " inch",
  "5612": " Zigzag",
  "5613": " Me",
  "5614": " wizard",
  "5615": " vet",
  "5616": " trips",
  "5617": " glowed",
  "5618": " Frog",
  "5619": "Mmm",
  "5620": " hi",
  "5621": " beamed",
  "5622": " quack",
  "5623": " curled",
  "5624": " hated",
  "5625": " wink",
  "5626": " shopping",
  "5627": " eats",
  "5628": "Eventually",
  "5629": " Bug",
  "5630": " praised",
  "5631": " wooden",
  "5632": " bringing",
  "5633": " mittens",
  "5634": " studying",
  "5635": " guy",
  "5636": " brushes",
  "5637": " spaceship",
  "5638": " gust",
  "5639": " crawling",
  "5640": " Something",
  "5641": "Cat",
  "5642": " ruler",
  "5643": " flav",
  "5644": " downstairs",
  "5645": " shooting",
  "5646": " tastes",
  "5647": " napping",
  "5648": " sprinkles",
  "5649": " marks",
  "5650": " cuddled",
  "5651": " dot",
  "5652": "hello",
  "5653": "plash",
  "5654": " fut",
  "5655": "ales",
  "5656": "aved",
  "5657": " future",
  "5658": " monsters",
  "5659": " collecting",
  "5660": " measuring",
  "5661": " Happy",
  "5662": "'.",
  "5663": " families",
  "5664": " Out",
  "5665": " First",
  "5666": " Mo",
  "5667": " thrill",
  "5668": " oat",
  "5669": "irts",
  "5670": " result",
  "5671": "Jake",
  "5672": " approached",
  "5673": " Rabbit",
  "5674": " crunchy",
  "5675": "act",
  "5676": "Un",
  "5677": " remem",
  "5678": " bleeding",
  "5679": " remembers",
  "5680": " nicer",
  "5681": " beat",
  "5682": "ding",
  "5683": " sneaky",
  "5684": " disturbed",
  "5685": " leader",
  "5686": " scaring",
  "5687": "Or",
  "5688": "hind",
  "5689": " peel",
  "5690": " Hope",
  "5691": " firemen",
  "5692": " neighborhood",
  "5693": " Star",
  "5694": " grey",
  "5695": " Not",
  "5696": " motion",
  "5697": " noon",
  "5698": " possible",
  "5699": "Emily",
  "5700": "Somet",
  "5701": " apologized",
  "5702": "ues",
  "5703": " weighed",
  "5704": "Cl",
  "5705": " Did",
  "5706": " tickets",
  "5707": " naps",
  "5708": " loose",
  "5709": " pride",
  "5710": " youth",
  "5711": " swims",
  "5712": "ped",
  "5713": " strings",
  "5714": " recognized",
  "5715": " siren",
  "5716": " poking",
  "5717": "fied",
  "5718": " Ho",
  "5719": "cious",
  "5720": "elvet",
  "5721": " tricked",
  "5722": " wonders",
  "5723": " gained",
  "5724": "ha",
  "5725": " wanting",
  "5726": " crashed",
  "5727": " obe",
  "5728": " seesaw",
  "5729": " worker",
  "5730": "unnies",
  "5731": "ls",
  "5732": "oming",
  "5733": " draws",
  "5734": " scooped",
  "5735": ".'",
  "5736": " zooming",
  "5737": " opinion",
  "5738": " yelling",
  "5739": " prepared",
  "5740": " grinned",
  "5741": " Slowly",
  "5742": " awe",
  "5743": " poems",
  "5744": " doggy",
  "5745": " acting",
  "5746": " Beep",
  "5747": " happiest",
  "5748": " chef",
  "5749": " sneaked",
  "5750": " respons",
  "5751": " eff",
  "5752": " Always",
  "5753": " Lizzy",
  "5754": " owned",
  "5755": " bunnies",
  "5756": " anytime",
  "5757": " struck",
  "5758": " pedals",
  "5759": "oys",
  "5760": " knelt",
  "5761": "ena",
  "5762": "Ollie",
  "5763": " secrets",
  "5764": " pause",
  "5765": " decorated",
  "5766": " horns",
  "5767": " agreement",
  "5768": " Squ",
  "5769": "ided",
  "5770": " frost",
  "5771": " tallest",
  "5772": " obey",
  "5773": "Remember",
  "5774": "riends",
  "5775": "ogo",
  "5776": " Stop",
  "5777": "Have",
  "5778": " decides",
  "5779": " Once",
  "5780": " behaved",
  "5781": " tugged",
  "5782": " sides",
  "5783": " woof",
  "5784": " slim",
  "5785": "zen",
  "5786": " goodnight",
  "5787": " keeper",
  "5788": " sparkling",
  "5789": " chirped",
  "5790": " precious",
  "5791": "mother",
  "5792": "lier",
  "5793": "ien",
  "5794": "Tr",
  "5795": " repeated",
  "5796": " claps",
  "5797": "indy",
  "5798": "affes",
  "5799": " snowballs",
  "5800": " contain",
  "5801": "rs",
  "5802": " Ray",
  "5803": " ourselves",
  "5804": "allow",
  "5805": " giraffes",
  "5806": " balancing",
  "5807": " kindly",
  "5808": " spending",
  "5809": " writes",
  "5810": "ays",
  "5811": "ppers",
  "5812": " Like",
  "5813": "omas",
  "5814": " prop",
  "5815": " hissed",
  "5816": "First",
  "5817": " frozen",
  "5818": " frosting",
  "5819": " effort",
  "5820": " buzzing",
  "5821": " struggled",
  "5822": "oh",
  "5823": " Steve",
  "5824": " admiring",
  "5825": " rele",
  "5826": "iggy",
  "5827": " sweeties",
  "5828": " Velvet",
  "5829": " slimy",
  "5830": " brushed",
  "5831": " Am",
  "5832": " bloomed",
  "5833": "Susie",
  "5834": " polished",
  "5835": " Zoe",
  "5836": "arth",
  "5837": "anted",
  "5838": " comfy",
  "5839": " boo",
  "5840": " staying",
  "5841": " rubbing",
  "5842": "Ducky",
  "5843": " rocking",
  "5844": " pockets",
  "5845": " thrilled",
  "5846": " beside",
  "5847": " comple",
  "5848": " Aunt",
  "5849": " Maggie",
  "5850": "Ah",
  "5851": " eight",
  "5852": "urry",
  "5853": "isdom",
  "5854": " machines",
  "5855": " earlier",
  "5856": " yesterday",
  "5857": " seems",
  "5858": " rust",
  "5859": " Keep",
  "5860": "Sp",
  "5861": " traveled",
  "5862": " folding",
  "5863": " boom",
  "5864": " cracked",
  "5865": "ities",
  "5866": " hugging",
  "5867": " radishes",
  "5868": " Stitch",
  "5869": " opening",
  "5870": " loving",
  "5871": " circus",
  "5872": " surrounded",
  "5873": " curiosity",
  "5874": " Rachel",
  "5875": " spraying",
  "5876": " demanded",
  "5877": " paintings",
  "5878": "amie",
  "5879": " Green",
  "5880": " removed",
  "5881": " gaze",
  "5882": " honk",
  "5883": " pebbles",
  "5884": " zookeeper",
  "5885": " hardly",
  "5886": " catches",
  "5887": "edding",
  "5888": " sting",
  "5889": " stripes",
  "5890": " powers",
  "5891": " loaded",
  "5892": " Pippa",
  "5893": "Sometimes",
  "5894": " splashes",
  "5895": " pots",
  "5896": " petted",
  "5897": " matching",
  "5898": " David",
  "5899": "Thanks",
  "5900": " toss",
  "5901": " stare",
  "5902": " belly",
  "5903": "Yummy",
  "5904": "ibb",
  "5905": " whatever",
  "5906": " apologize",
  "5907": " rocked",
  "5908": " comforted",
  "5909": " Bree",
  "5910": " decision",
  "5911": " ribbons",
  "5912": " Joy",
  "5913": " Birdie",
  "5914": "ern",
  "5915": " struggling",
  "5916": " expected",
  "5917": " deser",
  "5918": " steep",
  "5919": "wh",
  "5920": " protected",
  "5921": " neighbors",
  "5922": " smiley",
  "5923": " chases",
  "5924": "During",
  "5925": " granted",
  "5926": " crumb",
  "5927": " Mat",
  "5928": " purred",
  "5929": " diving",
  "5930": " sadness",
  "5931": "Whiskers",
  "5932": " organizing",
  "5933": "lowers",
  "5934": " eagle",
  "5935": " heroes",
  "5936": " dipped",
  "5937": " sunlight",
  "5938": " lied",
  "5939": " pastels",
  "5940": " Frank",
  "5941": "Ex",
  "5942": " safer",
  "5943": " roads",
  "5944": " scru",
  "5945": " argued",
  "5946": " Milly",
  "5947": " goals",
  "5948": " Water",
  "5949": " discovery",
  "5950": " Abigail",
  "5951": " villag",
  "5952": " peered",
  "5953": "Ro",
  "5954": " Bouncy",
  "5955": "use",
  "5956": "ana",
  "5957": "loe",
  "5958": " tim",
  "5959": " dragons",
  "5960": " buildings",
  "5961": " buckets",
  "5962": " parties",
  "5963": " beard",
  "5964": " wedding",
  "5965": "Rex",
  "5966": " padd",
  "5967": " flutter",
  "5968": " planets",
  "5969": " ann",
  "5970": " Robby",
  "5971": " polishing",
  "5972": " fasc",
  "5973": "ira",
  "5974": " released",
  "5975": " Chr",
  "5976": " crabs",
  "5977": " Gogo",
  "5978": " tails",
  "5979": " Watch",
  "5980": " sausages",
  "5981": " argu",
  "5982": " contro",
  "5983": " bottles",
  "5984": " wiggled",
  "5985": " teased",
  "5986": "uke",
  "5987": " arguing",
  "5988": " sled",
  "5989": " dragged",
  "5990": " Car",
  "5991": " roaring",
  "5992": " clearing",
  "5993": " shirts",
  "5994": " movies",
  "5995": " gathering",
  "5996": " airpl",
  "5997": " wid",
  "5998": "joyed",
  "5999": " teaches",
  "6000": " spiders",
  "6001": " limes",
  "6002": " Remember",
  "6003": " Dare",
  "6004": " overjoyed",
  "6005": " actually",
  "6006": " sighs",
  "6007": " continue",
  "6008": " cuddle",
  "6009": " soaring",
  "6010": " smallest",
  "6011": " Jess",
  "6012": " drives",
  "6013": " Ju",
  "6014": " sparkles",
  "6015": " rip",
  "6016": " situ",
  "6017": " cubes",
  "6018": " refres",
  "6019": " talent",
  "6020": " challenge",
  "6021": " Olly",
  "6022": " grandmother",
  "6023": " Splash",
  "6024": " pouring",
  "6025": "umm",
  "6026": " pretends",
  "6027": " fascin",
  "6028": " cuts",
  "6029": " quarreling",
  "6030": " peppers",
  "6031": " bank",
  "6032": " shivered",
  "6033": " mane",
  "6034": " dusty",
  "6035": " Jenn",
  "6036": "ley",
  "6037": " wondering",
  "6038": " villagers",
  "6039": " stretching",
  "6040": "njoy",
  "6041": "ib",
  "6042": " weeks",
  "6043": " wherever",
  "6044": " darker",
  "6045": "jam",
  "6046": "Tiny",
  "6047": "sses",
  "6048": " X",
  "6049": " rings",
  "6050": " onwards",
  "6051": " Katie",
  "6052": " united",
  "6053": "Achoo",
  "6054": " bead",
  "6055": " Everyday",
  "6056": " Being",
  "6057": " prettiest",
  "6058": "Johnny",
  "6059": " caut",
  "6060": " realize",
  "6061": " company",
  "6062": " penguins",
  "6063": "annah",
  "6064": "Luna",
  "6065": "Fr",
  "6066": " Spring",
  "6067": " bedtime",
  "6068": " completed",
  "6069": " Wisdom",
  "6070": " Leave",
  "6071": "”.",
  "6072": " knights",
  "6073": " flags",
  "6074": " Je",
  "6075": " Because",
  "6076": " playroom",
  "6077": " Prin",
  "6078": " actions",
  "6079": " Zero",
  "6080": " learns",
  "6081": " gotten",
  "6082": " patience",
  "6083": "inda",
  "6084": "dam",
  "6085": " shrug",
  "6086": " kites",
  "6087": " responsible",
  "6088": " fears",
  "6089": " destination",
  "6090": " wires",
  "6091": " reply",
  "6092": " wrist",
  "6093": " dam",
  "6094": "aws",
  "6095": " packing",
  "6096": " mountains",
  "6097": " fault",
  "6098": " applauded",
  "6099": " scrubbed",
  "6100": " ma",
  "6101": " crept",
  "6102": " Ava",
  "6103": "Uh",
  "6104": " Earth",
  "6105": " satis",
  "6106": " third",
  "6107": " phot",
  "6108": " pencils",
  "6109": " wins",
  "6110": " sticking",
  "6111": " baker",
  "6112": " visiting",
  "6113": " wound",
  "6114": " uses",
  "6115": " peas",
  "6116": " reminder",
  "6117": " control",
  "6118": "ashed",
  "6119": "Grandpa",
  "6120": " joking",
  "6121": " awake",
  "6122": " instruct",
  "6123": " staring",
  "6124": " healed",
  "6125": " Put",
  "6126": "An",
  "6127": " hitting",
  "6128": " Fish",
  "6129": " screaming",
  "6130": " begin",
  "6131": "Rob",
  "6132": "uckily",
  "6133": " Friends",
  "6134": " Moo",
  "6135": "icorn",
  "6136": " helmets",
  "6137": " crowd",
  "6138": "enty",
  "6139": " unicorn",
  "6140": "ler",
  "6141": "seek",
  "6142": " towels",
  "6143": "Silly",
  "6144": " Lou",
  "6145": " chips",
  "6146": "ica",
  "6147": " creation",
  "6148": " wasted",
  "6149": "bie",
  "6150": "Mar",
  "6151": " Behind",
  "6152": "laire",
  "6153": " masks",
  "6154": " items",
  "6155": " forgi",
  "6156": " firefight",
  "6157": " outdo",
  "6158": " lollipops",
  "6159": "Watch",
  "6160": " heav",
  "6161": " guns",
  "6162": " died",
  "6163": " Hippy",
  "6164": " seas",
  "6165": " glitter",
  "6166": "uddles",
  "6167": " arrive",
  "6168": " weren",
  "6169": " stole",
  "6170": " scales",
  "6171": " perched",
  "6172": " accom",
  "6173": " logs",
  "6174": " achieve",
  "6175": "die",
  "6176": " practicing",
  "6177": "ining",
  "6178": " whose",
  "6179": "Stay",
  "6180": " pumpkins",
  "6181": " instructions",
  "6182": " swoop",
  "6183": " batteries",
  "6184": " candies",
  "6185": " agrees",
  "6186": " project",
  "6187": " snakes",
  "6188": " chirping",
  "6189": "Benny",
  "6190": " shelves",
  "6191": " protecting",
  "6192": " parked",
  "6193": " exact",
  "6194": " Cra",
  "6195": " patiently",
  "6196": " activ",
  "6197": " videos",
  "6198": " shoulders",
  "6199": " blows",
  "6200": "hee",
  "6201": "Fo",
  "6202": " promises",
  "6203": "go",
  "6204": " dent",
  "6205": "usan",
  "6206": "uest",
  "6207": "jamas",
  "6208": " examined",
  "6209": " airplane",
  "6210": "Doggy",
  "6211": " roses",
  "6212": "ners",
  "6213": " accompl",
  "6214": " tasks",
  "6215": "Dave",
  "6216": " Hoot",
  "6217": "Poppy",
  "6218": " Bop",
  "6219": "Bunny",
  "6220": " beads",
  "6221": " bowls",
  "6222": " crumbs",
  "6223": "zes",
  "6224": " listens",
  "6225": " Love",
  "6226": " Catty",
  "6227": " Brownie",
  "6228": "Pete",
  "6229": " Ol",
  "6230": " dolphins",
  "6231": " cough",
  "6232": " bunch",
  "6233": " guest",
  "6234": "cakes",
  "6235": " requested",
  "6236": " remote",
  "6237": " improved",
  "6238": "anta",
  "6239": " reaching",
  "6240": " brand",
  "6241": "ayla",
  "6242": " alien",
  "6243": " Bye",
  "6244": "irm",
  "6245": " copy",
  "6246": " Sun",
  "6247": " cheering",
  "6248": " photos",
  "6249": " Julie",
  "6250": " Chew",
  "6251": "Bad",
  "6252": " Jan",
  "6253": " Blink",
  "6254": "Time",
  "6255": " cans",
  "6256": " Cuddles",
  "6257": " timer",
  "6258": " By",
  "6259": " replaced",
  "6260": "athy",
  "6261": " workers",
  "6262": " stern",
  "6263": " Enjoy",
  "6264": "aster",
  "6265": " neither",
  "6266": "Mike",
  "6267": " passing",
  "6268": " misses",
  "6269": " curtains",
  "6270": " confl",
  "6271": "Chirpy",
  "6272": " rainbows",
  "6273": " rubs",
  "6274": "George",
  "6275": "uctantly",
  "6276": " rolls",
  "6277": " patted",
  "6278": "ilo",
  "6279": " pajamas",
  "6280": " outdoors",
  "6281": "esome",
  "6282": "dies",
  "6283": " complaining",
  "6284": " Squirrel",
  "6285": "Lola",
  "6286": "Run",
  "6287": " puppet",
  "6288": " Princess",
  "6289": " closes",
  "6290": " beneath",
  "6291": " lap",
  "6292": " drums",
  "6293": " tune",
  "6294": " Beth",
  "6295": " Mouse",
  "6296": " filling",
  "6297": "Miss",
  "6298": "angled",
  "6299": " refuse",
  "6300": " Sorry",
  "6301": " sweat",
  "6302": " faced",
  "6303": "...",
  "6304": " seven",
  "6305": " balanced",
  "6306": "eal",
  "6307": " rescued",
  "6308": "neath",
  "6309": "bl",
  "6310": " quacked",
  "6311": " Abby",
  "6312": "Paul",
  "6313": "istle",
  "6314": " awesome",
  "6315": " 1",
  "6316": " mission",
  "6317": " However",
  "6318": " guys",
  "6319": " conflict",
  "6320": " cautious",
  "6321": " vent",
  "6322": " observed",
  "6323": " cause",
  "6324": " introduc",
  "6325": " Thomas",
  "6326": " pastries",
  "6327": "  ",
  "6328": " Our",
  "6329": " exactly",
  "6330": " doctors",
  "6331": " rule",
  "6332": " becoming",
  "6333": " policeman",
  "6334": " mes",
  "6335": "uly",
  "6336": " rockets",
  "6337": "you",
  "6338": " Yes",
  "6339": " Dot",
  "6340": " fairies",
  "6341": "lay",
  "6342": " pout",
  "6343": " insist",
  "6344": " blooming",
  "6345": " tractor",
  "6346": " farther",
  "6347": " Sad",
  "6348": "avi",
  "6349": "Oops",
  "6350": "Great",
  "6351": " remembering",
  "6352": " included",
  "6353": " curly",
  "6354": "Zoom",
  "6355": "Fine",
  "6356": " teamwork",
  "6357": "zie",
  "6358": " fascinated",
  "6359": " wobbled",
  "6360": " slam",
  "6361": " truly",
  "6362": " helpers",
  "6363": " sights",
  "6364": " paddle",
  "6365": " stumble",
  "6366": " firm",
  "6367": "onn",
  "6368": "Henry",
  "6369": " Jilly",
  "6370": "acob",
  "6371": " caused",
  "6372": " prayer",
  "6373": " spong",
  "6374": " recording",
  "6375": "kelly",
  "6376": "ais",
  "6377": " traded",
  "6378": " starfish",
  "6379": " supplies",
  "6380": " thro",
  "6381": " pointy",
  "6382": " situation",
  "6383": " inviting",
  "6384": "eah",
  "6385": "gers",
  "6386": " neighbourhood",
  "6387": " everyday",
  "6388": " ornaments",
  "6389": " Ally",
  "6390": "inkle",
  "6391": " valued",
  "6392": " adding",
  "6393": "Some",
  "6394": " reluctantly",
  "6395": " dots",
  "6396": " stays",
  "6397": " tables",
  "6398": " prettier",
  "6399": " bare",
  "6400": " desert",
  "6401": " snowmen",
  "6402": " steady",
  "6403": " minerals",
  "6404": "araway",
  "6405": " thorn",
  "6406": "ody",
  "6407": " ast",
  "6408": " glasses",
  "6409": " faraway",
  "6410": "sm",
  "6411": " Get",
  "6412": " Foxy",
  "6413": " swooped",
  "6414": " Welcome",
  "6415": " Two",
  "6416": " Sure",
  "6417": " unf",
  "6418": " forks",
  "6419": " usually",
  "6420": " usual",
  "6421": "Polly",
  "6422": " dar",
  "6423": " Jamie",
  "6424": " winked",
  "6425": " sneezing",
  "6426": " solut",
  "6427": " loading",
  "6428": " sponge",
  "6429": " Quick",
  "6430": " insects",
  "6431": " pans",
  "6432": "Dog",
  "6433": " sobbed",
  "6434": " Santa",
  "6435": "James",
  "6436": " growling",
  "6437": "arter",
  "6438": " throat",
  "6439": " Chloe",
  "6440": " noses",
  "6441": " Josh",
  "6442": " Dizzy",
  "6443": " scarves",
  "6444": " confident",
  "6445": " yourselves",
  "6446": " Want",
  "6447": "agull",
  "6448": " homework",
  "6449": " superheroes",
  "6450": " Stay",
  "6451": "Joey",
  "6452": " smarter",
  "6453": " windy",
  "6454": " librarian",
  "6455": "Tina",
  "6456": " Kids",
  "6457": " gems",
  "6458": "Days",
  "6459": "ora",
  "6460": " underneath",
  "6461": " kicks",
  "6462": " knowled",
  "6463": " itchy",
  "6464": " knowledge",
  "6465": " jackets",
  "6466": " Skelly",
  "6467": " For",
  "6468": " surface",
  "6469": " untie",
  "6470": " comm",
  "6471": " Duck",
  "6472": "eed",
  "6473": " princesses",
  "6474": "...\"",
  "6475": "Those",
  "6476": "ido",
  "6477": "Hold",
  "6478": "Yeah",
  "6479": "coon",
  "6480": " squares",
  "6481": " Henny",
  "6482": " warnings",
  "6483": " giggling",
  "6484": "iar",
  "6485": " reads",
  "6486": "vin",
  "6487": "Our",
  "6488": " choo",
  "6489": "son",
  "6490": " younger",
  "6491": " clowns",
  "6492": " Mix",
  "6493": "Toby",
  "6494": " ropes",
  "6495": " biting",
  "6496": " Unfortunately",
  "6497": "pite",
  "6498": "Danny",
  "6499": "True",
  "6500": " seagull",
  "6501": " paddled",
  "6502": " wears",
  "6503": " delivered",
  "6504": " Mon",
  "6505": " twirl",
  "6506": " onions",
  "6507": " buzzed",
  "6508": " complained",
  "6509": " bumpy",
  "6510": " stem",
  "6511": "Ew",
  "6512": " piggy",
  "6513": "Mrs",
  "6514": " Anne",
  "6515": " direction",
  "6516": "ouch",
  "6517": " dived",
  "6518": "Roar",
  "6519": " tangled",
  "6520": " startled",
  "6521": "ults",
  "6522": " leaning",
  "6523": "bbie",
  "6524": " Ant",
  "6525": " Jones",
  "6526": " badge",
  "6527": " Po",
  "6528": "Grace",
  "6529": " unp",
  "6530": " deal",
  "6531": "though",
  "6532": "Annie",
  "6533": " vowed",
  "6534": " napkins",
  "6535": "anes",
  "6536": " tickled",
  "6537": " risk",
  "6538": " covers",
  "6539": " pec",
  "6540": "Shh",
  "6541": " yells",
  "6542": " satisfied",
  "6543": "int",
  "6544": " knocks",
  "6545": " refreshed",
  "6546": "tuce",
  "6547": " Sc",
  "6548": "cuse",
  "6549": " cous",
  "6550": " arrows",
  "6551": "Maggie",
  "6552": " Whistle",
  "6553": "Pe",
  "6554": " wipes",
  "6555": " speaking",
  "6556": " lettuce",
  "6557": " guessing",
  "6558": "Unfortunately",
  "6559": " Quack",
  "6560": " ripe",
  "6561": " Susan",
  "6562": " hides",
  "6563": " choices",
  "6564": " Dodo",
  "6565": " Rover",
  "6566": "Buzz",
  "6567": " signed",
  "6568": " slower",
  "6569": " seeker",
  "6570": " introduced",
  "6571": " singer",
  "6572": " creating",
  "6573": " Matt",
  "6574": " froze",
  "6575": " cent",
  "6576": "uggles",
  "6577": " joked",
  "6578": " squeal",
  "6579": " toaster",
  "6580": " explorers",
  "6581": "fit",
  "6582": " avo",
  "6583": "anging",
  "6584": "Sophie",
  "6585": " praying",
  "6586": " written",
  "6587": " discovering",
  "6588": " provided",
  "6589": " Dara",
  "6590": " refle",
  "6591": " Lion",
  "6592": "Excuse",
  "6593": " mushrooms",
  "6594": " Jeff",
  "6595": " Paws",
  "6596": " paying",
  "6597": " knees",
  "6598": "ences",
  "6599": " hider",
  "6600": " wandering",
  "6601": " Ash",
  "6602": " images",
  "6603": "Charlie",
  "6604": " stung",
  "6605": " Wink",
  "6606": " magnets",
  "6607": " barely",
  "6608": " behaving",
  "6609": " tipto",
  "6610": "?\",",
  "6611": " marked",
  "6612": "brush",
  "6613": "rrr",
  "6614": " restored",
  "6615": " Dee",
  "6616": " leading",
  "6617": "lled",
  "6618": " chuck",
  "6619": "ados",
  "6620": " nine",
  "6621": " greet",
  "6622": "Teddy",
  "6623": " gears",
  "6624": " bravery",
  "6625": " Snuggles",
  "6626": "ky",
  "6627": " competition",
  "6628": " outfit",
  "6629": "oline",
  "6630": " wishing",
  "6631": " properly",
  "6632": " ventured",
  "6633": "tle",
  "6634": "aa",
  "6635": " muscle",
  "6636": " dances",
  "6637": " chat",
  "6638": " salty",
  "6639": " pens",
  "6640": "amb",
  "6641": " Betsy",
  "6642": " ranger",
  "6643": " Ziggy",
  "6644": " deserve",
  "6645": " however",
  "6646": "sequ",
  "6647": " matters",
  "6648": " darkness",
  "6649": " burst",
  "6650": " Fu",
  "6651": " rainy",
  "6652": " cobwebs",
  "6653": " ruining",
  "6654": " chefs",
  "6655": " consequ",
  "6656": " blocking",
  "6657": " bak",
  "6658": "usted",
  "6659": "itely",
  "6660": "sty",
  "6661": " scur",
  "6662": " vines",
  "6663": " fab",
  "6664": "abel",
  "6665": " fabric",
  "6666": " entire",
  "6667": " basement",
  "6668": " performed",
  "6669": " least",
  "6670": " Buggy",
  "6671": "Sn",
  "6672": " scratches",
  "6673": " heavier",
  "6674": " Claire",
  "6675": " mints",
  "6676": " twirling",
  "6677": " avocados",
  "6678": "However",
  "6679": " Linda",
  "6680": "rink",
  "6681": "fl",
  "6682": " scurried",
  "6683": " losing",
  "6684": " sunflowers",
  "6685": " Jenna",
  "6686": " rainco",
  "6687": " swords",
  "6688": "Tweet",
  "6689": " click",
  "6690": "agic",
  "6691": " Laser",
  "6692": " silent",
  "6693": " jobs",
  "6694": " necklaces",
  "6695": " flames",
  "6696": " Luke",
  "6697": " relief",
  "6698": " Grumpy",
  "6699": " snat",
  "6700": " sewed",
  "6701": " rotting",
  "6702": "len",
  "6703": "Listen",
  "6704": "Follow",
  "6705": " tricky",
  "6706": "Jerry",
  "6707": " lighter",
  "6708": "ophia",
  "6709": " bows",
  "6710": " Skip",
  "6711": " exha",
  "6712": " solution",
  "6713": " consequences",
  "6714": "Alex",
  "6715": " Lena",
  "6716": " tires",
  "6717": " stain",
  "6718": "Beep",
  "6719": " unpacked",
  "6720": "Ab",
  "6721": " partic",
  "6722": "rance",
  "6723": " races",
  "6724": " pins",
  "6725": " bumps",
  "6726": " wraps",
  "6727": "aisies",
  "6728": " wow",
  "6729": " decorating",
  "6730": " backed",
  "6731": "cher",
  "6732": " dentist",
  "6733": " purr",
  "6734": " needles",
  "6735": " cautiously",
  "6736": " lifting",
  "6737": "izzie",
  "6738": " Pr",
  "6739": " accomplish",
  "6740": "ude",
  "6741": " triangles",
  "6742": " daisies",
  "6743": "ept",
  "6744": " hesitated",
  "6745": " annoy",
  "6746": " Those",
  "6747": " growls",
  "6748": " crackers",
  "6749": "oke",
  "6750": " stomped",
  "6751": " grabbing",
  "6752": " cott",
  "6753": " figured",
  "6754": " bodies",
  "6755": " mater",
  "6756": " buying",
  "6757": " Tree",
  "6758": " material",
  "6759": " Rolly",
  "6760": " Fido",
  "6761": " Adam",
  "6762": " swans",
  "6763": " ties",
  "6764": " gri",
  "6765": "vers",
  "6766": " grows",
  "6767": " \n ",
  "6768": " sweets",
  "6769": " Goodbye",
  "6770": " El",
  "6771": " owners",
  "6772": " flavor",
  "6773": " cheeks",
  "6774": " Cathy",
  "6775": "Big",
  "6776": " suffering",
  "6777": " Jessie",
  "6778": "vroom",
  "6779": " fact",
  "6780": " groups",
  "6781": "bly",
  "6782": " forehead",
  "6783": " lungs",
  "6784": "Harry",
  "6785": " repa",
  "6786": " interested",
  "6787": " bakery",
  "6788": " Milo",
  "6789": " freed",
  "6790": "Lilly",
  "6791": "itches",
  "6792": " Nothing",
  "6793": " chuckled",
  "6794": "For",
  "6795": " swept",
  "6796": " conn",
  "6797": "?'",
  "6798": " thud",
  "6799": " exhausted",
  "6800": "Tw",
  "6801": " twinkling",
  "6802": " tapped",
  "6803": " nect",
  "6804": "rosty",
  "6805": " nectar",
  "6806": "elle",
  "6807": " feast",
  "6808": " darling",
  "6809": "indr",
  "6810": " Mad",
  "6811": " worries",
  "6812": " uns",
  "6813": " tunnels",
  "6814": " fuzzy",
  "6815": " repaired",
  "6816": " reason",
  "6817": " Trust",
  "6818": " Copper",
  "6819": " Ball",
  "6820": " activities",
  "6821": "lets",
  "6822": " pecked",
  "6823": " Hannah",
  "6824": " entrance",
  "6825": " Try",
  "6826": " raindr",
  "6827": " meals",
  "6828": " Listen",
  "6829": " particular",
  "6830": " completely",
  "6831": " mailed",
  "6832": "ctions",
  "6833": " nests",
  "6834": " waiter",
  "6835": " cuddly",
  "6836": " sense",
  "6837": "Ru",
  "6838": " Nana",
  "6839": " colored",
  "6840": "arky",
  "6841": " leap",
  "6842": "step",
  "6843": "band",
  "6844": " plenty",
  "6845": " peeking",
  "6846": " slammed",
  "6847": " Cara",
  "6848": "no",
  "6849": " players",
  "6850": " month",
  "6851": " budge",
  "6852": " Birthday",
  "6853": " Q",
  "6854": " scra",
  "6855": " forgets",
  "6856": " den",
  "6857": " handful",
  "6858": " Oliver",
  "6859": " mer",
  "6860": "ossible",
  "6861": " genie",
  "6862": " Christ",
  "6863": " stool",
  "6864": "iggie",
  "6865": " talks",
  "6866": " Pup",
  "6867": " Suzie",
  "6868": " passports",
  "6869": " feeding",
  "6870": " films",
  "6871": " baths",
  "6872": " impossible",
  "6873": " determination",
  "6874": "May",
  "6875": " printing",
  "6876": "boat",
  "6877": " designed",
  "6878": " buses",
  "6879": " opp",
  "6880": "ueen",
  "6881": "lephant",
  "6882": " suitcase",
  "6883": " bars",
  "6884": " counts",
  "6885": " stolen",
  "6886": " spreading",
  "6887": " spikes",
  "6888": " Snap",
  "6889": " wiping",
  "6890": " steer",
  "6891": " lamb",
  "6892": " Rain",
  "6893": " honked",
  "6894": "etty",
  "6895": "Whee",
  "6896": " cowb",
  "6897": " separated",
  "6898": "blings",
  "6899": " siblings",
  "6900": " hops",
  "6901": "od",
  "6902": " chop",
  "6903": " sewing",
  "6904": " fires",
  "6905": " Twinkle",
  "6906": " fever",
  "6907": " twinkle",
  "6908": " ty",
  "6909": " camping",
  "6910": " Mira",
  "6911": " lower",
  "6912": " changing",
  "6913": "yes",
  "6914": "retch",
  "6915": " behavi",
  "6916": " Bloom",
  "6917": "mas",
  "6918": " liqu",
  "6919": " celebration",
  "6920": "but",
  "6921": " squealed",
  "6922": " dollhouse",
  "6923": "Sunny",
  "6924": " backward",
  "6925": " age",
  "6926": " snatched",
  "6927": " cash",
  "6928": " twice",
  "6929": "lee",
  "6930": " sway",
  "6931": "itched",
  "6932": " celebrating",
  "6933": " Peanut",
  "6934": " shrinking",
  "6935": " ache",
  "6936": "weed",
  "6937": " kings",
  "6938": "rious",
  "6939": " shops",
  "6940": " kittens",
  "6941": "cope",
  "6942": "Rose",
  "6943": " Jessica",
  "6944": " Jacob",
  "6945": " Gina",
  "6946": "aura",
  "6947": " hus",
  "6948": " touches",
  "6949": "airy",
  "6950": " pancakes",
  "6951": "nies",
  "6952": " avoid",
  "6953": " spat",
  "6954": " Frosty",
  "6955": "rig",
  "6956": "hog",
  "6957": " Nina",
  "6958": " paths",
  "6959": "ives",
  "6960": "cky",
  "6961": " Hold",
  "6962": " rotten",
  "6963": " calmed",
  "6964": "Sandy",
  "6965": " seaweed",
  "6966": " dropping",
  "6967": " Mel",
  "6968": "iles",
  "6969": "Pipp",
  "6970": " twisting",
  "6971": " stroked",
  "6972": " Jon",
  "6973": " untied",
  "6974": "llen",
  "6975": " playhouse",
  "6976": "Millie",
  "6977": " students",
  "6978": " puppies",
  "6979": "cl",
  "6980": " Sof",
  "6981": "ho",
  "6982": "hi",
  "6983": " screws",
  "6984": " astron",
  "6985": " Re",
  "6986": " somebody",
  "6987": "igning",
  "6988": " liquid",
  "6989": "aren",
  "6990": "ammy",
  "6991": " wakes",
  "6992": " squish",
  "6993": " Woof",
  "6994": " bracelets",
  "6995": " astronaut",
  "6996": "immer",
  "6997": " thrown",
  "6998": " loops",
  "6999": " Other",
  "7000": "Luckily",
  "7001": " wrapping",
  "7002": " plain",
  "7003": " tramp",
  "7004": " planning",
  "7005": " skunk",
  "7006": " aimed",
  "7007": " pennies",
  "7008": " shoo",
  "7009": " lifts",
  "7010": " dancers",
  "7011": " sparks",
  "7012": " firefly",
  "7013": "pen",
  "7014": " poster",
  "7015": "yan",
  "7016": "endy",
  "7017": " cust",
  "7018": " Christmas",
  "7019": "Dan",
  "7020": " rewarded",
  "7021": " objects",
  "7022": " directions",
  "7023": "using",
  "7024": "ingo",
  "7025": " reflection",
  "7026": " husband",
  "7027": "—",
  "7028": "Take",
  "7029": "river",
  "7030": " clues",
  "7031": "uppy",
  "7032": " leads",
  "7033": " increased",
  "7034": " blocked",
  "7035": " rising",
  "7036": " dod",
  "7037": " cousin",
  "7038": " Yesterday",
  "7039": " Without",
  "7040": " forgetting",
  "7041": "rigued",
  "7042": " custom",
  "7043": "Kate",
  "7044": " trampoline",
  "7045": " beginning",
  "7046": " storekeeper",
  "7047": " pouted",
  "7048": " zebras",
  "7049": " hedgehog",
  "7050": " aff",
  "7051": " ‘",
  "7052": " borrowed",
  "7053": " Rollie",
  "7054": " snowfl",
  "7055": " countryside",
  "7056": "Jump",
  "7057": " mesmer",
  "7058": " Jay",
  "7059": " vehicles",
  "7060": " instrum",
  "7061": " Mic",
  "7062": " Kayla",
  "7063": " Up",
  "7064": " frowning",
  "7065": "ivity",
  "7066": "Pat",
  "7067": "Under",
  "7068": " marker",
  "7069": "yond",
  "7070": " presses",
  "7071": " beyond",
  "7072": " Queen",
  "7073": " damage",
  "7074": " Only",
  "7075": "iece",
  "7076": "ivery",
  "7077": " fart",
  "7078": " Tara",
  "7079": " Biggie",
  "7080": "jo",
  "7081": " health",
  "7082": " whispers",
  "7083": " swimsuit",
  "7084": " slips",
  "7085": " nibb",
  "7086": " Julia",
  "7087": "armer",
  "7088": " warmer",
  "7089": " flapping",
  "7090": " tiptoed",
  "7091": " regretted",
  "7092": "itted",
  "7093": "Zip",
  "7094": " laying",
  "7095": " Robo",
  "7096": "ades",
  "7097": " yelp",
  "7098": " Fire",
  "7099": " rains",
  "7100": " glued",
  "7101": " everybody",
  "7102": " creations",
  "7103": " hearing",
  "7104": " swir",
  "7105": " colder",
  "7106": "iversity",
  "7107": "ael",
  "7108": " shaped",
  "7109": " Elephant",
  "7110": " streets",
  "7111": " fins",
  "7112": " rusty",
  "7113": " cushions",
  "7114": "Out",
  "7115": " san",
  "7116": " farthest",
  "7117": " creativity",
  "7118": " Mikey",
  "7119": "ans",
  "7120": " sale",
  "7121": "Always",
  "7122": " strongest",
  "7123": "ibbit",
  "7124": " fits",
  "7125": " Sparky",
  "7126": "Co",
  "7127": " bells",
  "7128": " dollars",
  "7129": " Larry",
  "7130": " earn",
  "7131": "iam",
  "7132": "angle",
  "7133": " lending",
  "7134": " Moon",
  "7135": " Chirp",
  "7136": "eese",
  "7137": " cashier",
  "7138": "Milly",
  "7139": " including",
  "7140": " sniffs",
  "7141": " sank",
  "7142": " raincoat",
  "7143": " Rich",
  "7144": " trembled",
  "7145": " stopping",
  "7146": " source",
  "7147": "iti",
  "7148": "imon",
  "7149": "ae",
  "7150": " Missy",
  "7151": " wobbly",
  "7152": " indeed",
  "7153": "ters",
  "7154": " guests",
  "7155": " single",
  "7156": " recommended",
  "7157": " wee",
  "7158": " spells",
  "7159": " accomplishment",
  "7160": " belts",
  "7161": " surprising",
  "7162": " ends",
  "7163": " hopeful",
  "7164": "eet",
  "7165": " seasons",
  "7166": " Take",
  "7167": " Snowman",
  "7168": " Els",
  "7169": "Bear",
  "7170": " plans",
  "7171": "ichael",
  "7172": " encourag",
  "7173": " supported",
  "7174": "stick",
  "7175": "illed",
  "7176": " suffered",
  "7177": " artist",
  "7178": " performance",
  "7179": "Nina",
  "7180": " slowed",
  "7181": " gross",
  "7182": " flavors",
  "7183": "iding",
  "7184": "ertain",
  "7185": " spins",
  "7186": "cho",
  "7187": "Quack",
  "7188": " labels",
  "7189": "uing",
  "7190": " raindrops",
  "7191": " delivery",
  "7192": "arac",
  "7193": " raccoon",
  "7194": " forgiving",
  "7195": "obody",
  "7196": " Woo",
  "7197": " pours",
  "7198": "the",
  "7199": "ility",
  "7200": " vanilla",
  "7201": " turtles",
  "7202": " stands",
  "7203": "Bill",
  "7204": "uess",
  "7205": " recipe",
  "7206": " beam",
  "7207": " tying",
  "7208": " Sw",
  "7209": " geese",
  "7210": " willing",
  "7211": " robber",
  "7212": " drawn",
  "7213": "Vroom",
  "7214": " wept",
  "7215": " Bones",
  "7216": " charac",
  "7217": " pops",
  "7218": " corners",
  "7219": " Sophia",
  "7220": "elia",
  "7221": " queens",
  "7222": " sailboat",
  "7223": " grip",
  "7224": " die",
  "7225": " drivers",
  "7226": "itude",
  "7227": " moo",
  "7228": " hallway",
  "7229": " imagining",
  "7230": " seconds",
  "7231": " Fuzzy",
  "7232": "Mine",
  "7233": " preparing",
  "7234": " widened",
  "7235": " adult",
  "7236": " Spirit",
  "7237": " grocer",
  "7238": " coop",
  "7239": " talented",
  "7240": " Pam",
  "7241": " Beaky",
  "7242": " Izzy",
  "7243": "ummies",
  "7244": " sailors",
  "7245": "lling",
  "7246": " softer",
  "7247": " aside",
  "7248": " watering",
  "7249": " sending",
  "7250": " knots",
  "7251": " unsure",
  "7252": " tipped",
  "7253": "Lulu",
  "7254": " treehouse",
  "7255": " horiz",
  "7256": " Lizzie",
  "7257": " notes",
  "7258": " echo",
  "7259": "igers",
  "7260": " achieved",
  "7261": " horizon",
  "7262": " squeak",
  "7263": " delivering",
  "7264": " pleasure",
  "7265": " hotter",
  "7266": " Stella",
  "7267": "Clara",
  "7268": " pupils",
  "7269": " burrow",
  "7270": " angels",
  "7271": " curiously",
  "7272": "Ellie",
  "7273": " yum",
  "7274": " blinking",
  "7275": " June",
  "7276": " tweet",
  "7277": " symbols",
  "7278": " det",
  "7279": " Stretch",
  "7280": "wk",
  "7281": " passen",
  "7282": " Rudy",
  "7283": " Cindy",
  "7284": " tummies",
  "7285": " tiss",
  "7286": " pigeons",
  "7287": " figures",
  "7288": "umbling",
  "7289": "oey",
  "7290": " bandages",
  "7291": " Robert",
  "7292": " coup",
  "7293": " Doctor",
  "7294": " robots",
  "7295": "alph",
  "7296": " tossed",
  "7297": " hour",
  "7298": " backwards",
  "7299": " roars",
  "7300": "Baby",
  "7301": " merma",
  "7302": "uzz",
  "7303": " rather",
  "7304": "atur",
  "7305": "Maria",
  "7306": "cited",
  "7307": " Play",
  "7308": " Crab",
  "7309": "Moo",
  "7310": "ighting",
  "7311": "Dolly",
  "7312": " groceries",
  "7313": " zipping",
  "7314": "Put",
  "7315": "Very",
  "7316": " unw",
  "7317": "prin",
  "7318": " among",
  "7319": " blown",
  "7320": " icing",
  "7321": "!”.",
  "7322": " rumble",
  "7323": " afterwards",
  "7324": "ipper",
  "7325": " screwd",
  "7326": "ushing",
  "7327": " sped",
  "7328": " prove",
  "7329": " glee",
  "7330": " Titi",
  "7331": " Tia",
  "7332": " dip",
  "7333": " overcome",
  "7334": "Ruby",
  "7335": "Quick",
  "7336": " surfboard",
  "7337": " shovels",
  "7338": " slices",
  "7339": " Toot",
  "7340": " merry",
  "7341": " wobble",
  "7342": " mate",
  "7343": " Turt",
  "7344": " Abbie",
  "7345": " heading",
  "7346": " disturbing",
  "7347": " swall",
  "7348": " reversed",
  "7349": " firefighters",
  "7350": "Jul",
  "7351": " swallowed",
  "7352": " chip",
  "7353": " scored",
  "7354": " flipped",
  "7355": "eds",
  "7356": "awn",
  "7357": " Jump",
  "7358": " squeezing",
  "7359": "usty",
  "7360": "Frank",
  "7361": "aty",
  "7362": "Su",
  "7363": " waking",
  "7364": " intrigued",
  "7365": "Sad",
  "7366": "Like",
  "7367": " maker",
  "7368": " Barky",
  "7369": "Betty",
  "7370": " puff",
  "7371": " hawk",
  "7372": " encouraging",
  "7373": " aud",
  "7374": " Ex",
  "7375": "osen",
  "7376": "onies",
  "7377": " chosen",
  "7378": "hew",
  "7379": " Farmer",
  "7380": " Ang",
  "7381": " couple",
  "7382": " designs",
  "7383": " slipping",
  "7384": " screwdriver",
  "7385": " squishy",
  "7386": " Emmy",
  "7387": " gardener",
  "7388": " center",
  "7389": " rivers",
  "7390": " respond",
  "7391": " markers",
  "7392": "iley",
  "7393": " tigers",
  "7394": " jars",
  "7395": "pecting",
  "7396": " frowns",
  "7397": "bird",
  "7398": " fluttered",
  "7399": " Sadly",
  "7400": " Kit",
  "7401": "Ribbit",
  "7402": " firefighter",
  "7403": " Sl",
  "7404": " Ryan",
  "7405": " suits",
  "7406": " secure",
  "7407": " sprinkled",
  "7408": " creamy",
  "7409": "ashes",
  "7410": " sharks",
  "7411": " ignoring",
  "7412": " bru",
  "7413": " giggles",
  "7414": " tissue",
  "7415": " tighter",
  "7416": " firmly",
  "7417": "ounce",
  "7418": " Laura",
  "7419": "fly",
  "7420": " shown",
  "7421": " familiar",
  "7422": " thorns",
  "7423": "Spike",
  "7424": " Wo",
  "7425": " drawers",
  "7426": "child",
  "7427": " Zee",
  "7428": " express",
  "7429": "Car",
  "7430": "ments",
  "7431": " def",
  "7432": " daring",
  "7433": " crossing",
  "7434": " audience",
  "7435": " performing",
  "7436": " coloured",
  "7437": " cloudy",
  "7438": " cor",
  "7439": " ais",
  "7440": " Nick",
  "7441": "rat",
  "7442": " pedaled",
  "7443": "Get",
  "7444": " mixture",
  "7445": " til",
  "7446": " gracefully",
  "7447": "ggy",
  "7448": " haircuts",
  "7449": " yielded",
  "7450": " ponies",
  "7451": " disob",
  "7452": " crowns",
  "7453": " bits",
  "7454": " todd",
  "7455": " Sleep",
  "7456": " nervously",
  "7457": " hangers",
  "7458": "bbled",
  "7459": " Patch",
  "7460": "Zoomy",
  "7461": " pays",
  "7462": " 2",
  "7463": " peck",
  "7464": " stroke",
  "7465": " ev",
  "7466": "fall",
  "7467": "Bang",
  "7468": "een",
  "7469": " respected",
  "7470": " napped",
  "7471": " Ron",
  "7472": "aven",
  "7473": " minded",
  "7474": "ddie",
  "7475": "Bessie",
  "7476": "ably",
  "7477": "Boys",
  "7478": " tested",
  "7479": "ading",
  "7480": "parent",
  "7481": " Chris",
  "7482": "Kim",
  "7483": " University",
  "7484": " Near",
  "7485": " beeh",
  "7486": " Turtle",
  "7487": " surfing",
  "7488": " neighbours",
  "7489": "arrow",
  "7490": "vered",
  "7491": " shady",
  "7492": "iona",
  "7493": "arlings",
  "7494": " magician",
  "7495": " enthusiasm",
  "7496": " darlings",
  "7497": " wisely",
  "7498": " stitches",
  "7499": " sails",
  "7500": "kend",
  "7501": "Dear",
  "7502": " weekend",
  "7503": " thoughts",
  "7504": "Freddy",
  "7505": " Tweetie",
  "7506": " reminds",
  "7507": " temper",
  "7508": "oring",
  "7509": "tha",
  "7510": "antha",
  "7511": " surroundings",
  "7512": " spits",
  "7513": " fleas",
  "7514": " teams",
  "7515": " lessons",
  "7516": " fills",
  "7517": " flip",
  "7518": " Along",
  "7519": " paintbrush",
  "7520": " melons",
  "7521": " mermaid",
  "7522": "oni",
  "7523": "Katie",
  "7524": "rac",
  "7525": " grandchild",
  "7526": " hoops",
  "7527": " elbow",
  "7528": " sports",
  "7529": "Guess",
  "7530": " lies",
  "7531": " Fighting",
  "7532": " panicked",
  "7533": " cleaner",
  "7534": " amount",
  "7535": "cused",
  "7536": " longest",
  "7537": " scooters",
  "7538": " lent",
  "7539": "ita",
  "7540": "immering",
  "7541": " sill",
  "7542": " beloved",
  "7543": "Pippin",
  "7544": " beehive",
  "7545": "Alright",
  "7546": "ongrat",
  "7547": "oga",
  "7548": "lle",
  "7549": "ongratul",
  "7550": " oysters",
  "7551": " grandparent",
  "7552": " forgiven",
  "7553": " magazines",
  "7554": " arr",
  "7555": " Wise",
  "7556": " explod",
  "7557": " elf",
  "7558": " repeating",
  "7559": " discussed",
  "7560": " sweetest",
  "7561": " Thanks",
  "7562": "Keep",
  "7563": " wadd",
  "7564": " Maya",
  "7565": " reass",
  "7566": " lace",
  "7567": " Granny",
  "7568": " nightmares",
  "7569": " tubes",
  "7570": " Willy",
  "7571": "Am",
  "7572": " understands",
  "7573": " spoonful",
  "7574": " nood",
  "7575": " bathing",
  "7576": " Zoey",
  "7577": "asty",
  "7578": " sweep",
  "7579": " manners",
  "7580": "onna",
  "7581": "crow",
  "7582": "Uncle",
  "7583": " wrink",
  "7584": " sprang",
  "7585": " nur",
  "7586": " bully",
  "7587": " Holly",
  "7588": " guide",
  "7589": " Yet",
  "7590": "ancy",
  "7591": " crew",
  "7592": "romise",
  "7593": "Jazz",
  "7594": " breathed",
  "7595": "while",
  "7596": "steps",
  "7597": "ilda",
  "7598": "ently",
  "7599": " Bally",
  "7600": " bulbs",
  "7601": " neare",
  "7602": " grassy",
  "7603": " wiggly",
  "7604": " testing",
  "7605": " spies",
  "7606": " coug",
  "7607": " solving",
  "7608": " sheets",
  "7609": " Roo",
  "7610": " footsteps",
  "7611": "ntil",
  "7612": "Afterwards",
  "7613": " speeding",
  "7614": " focused",
  "7615": "ounced",
  "7616": "cept",
  "7617": "?!\"",
  "7618": " mesmerized",
  "7619": " camel",
  "7620": " braver",
  "7621": " hesitant",
  "7622": " Sparkle",
  "7623": " licking",
  "7624": " rushing",
  "7625": " Well",
  "7626": "ne",
  "7627": " joining",
  "7628": " Puppy",
  "7629": " polar",
  "7630": " greeted",
  "7631": " Martha",
  "7632": "espite",
  "7633": "anna",
  "7634": "--",
  "7635": " Bubb",
  "7636": "Which",
  "7637": "Kiki",
  "7638": " worn",
  "7639": " materials",
  "7640": " changes",
  "7641": " aren",
  "7642": " Nobody",
  "7643": "undred",
  "7644": " stored",
  "7645": " bicycles",
  "7646": " mast",
  "7647": " anger",
  "7648": "Leave",
  "7649": " peacefully",
  "7650": " ships",
  "7651": " spice",
  "7652": " terrified",
  "7653": " nuzz",
  "7654": " gonna",
  "7655": " Show",
  "7656": " politely",
  "7657": "Snow",
  "7658": " spills",
  "7659": " scarecrow",
  "7660": " knives",
  "7661": " evil",
  "7662": " Mixy",
  "7663": "ppies",
  "7664": " burying",
  "7665": "ca",
  "7666": " healing",
  "7667": " donkey",
  "7668": " aeroplanes",
  "7669": "freeze",
  "7670": "Even",
  "7671": " seals",
  "7672": " scattering",
  "7673": " miles",
  "7674": " Chewy",
  "7675": "amboo",
  "7676": " dump",
  "7677": " worrying",
  "7678": "Bee",
  "7679": "zoom",
  "7680": "beep",
  "7681": "David",
  "7682": " Lenny",
  "7683": " puzzled",
  "7684": " stacked",
  "7685": " Kip",
  "7686": "Penny",
  "7687": " Nice",
  "7688": " loses",
  "7689": "dding",
  "7690": " travelled",
  "7691": " baskets",
  "7692": " Win",
  "7693": " Okay",
  "7694": " gazing",
  "7695": " blast",
  "7696": "ipes",
  "7697": " Tess",
  "7698": "Hurry",
  "7699": " temperature",
  "7700": " und",
  "7701": " tasting",
  "7702": " dripping",
  "7703": " clue",
  "7704": " believing",
  "7705": " pinching",
  "7706": "erm",
  "7707": " soaking",
  "7708": " rats",
  "7709": " 10",
  "7710": "isc",
  "7711": " sandy",
  "7712": "rect",
  "7713": " Isn",
  "7714": " Simon",
  "7715": "rey",
  "7716": "anwhile",
  "7717": " Abi",
  "7718": "Binky",
  "7719": " punishment",
  "7720": " banged",
  "7721": " humans",
  "7722": " crashing",
  "7723": " force",
  "7724": " Ana",
  "7725": " hundred",
  "7726": " gest",
  "7727": " Lia",
  "7728": " swimmer",
  "7729": " Chess",
  "7730": " snowflakes",
  "7731": " relaxing",
  "7732": " resisted",
  "7733": " beeped",
  "7734": " Fairy",
  "7735": " quarreled",
  "7736": "form",
  "7737": "elie",
  "7738": " ramp",
  "7739": " Wendy",
  "7740": " joins",
  "7741": "abby",
  "7742": " backpacks",
  "7743": " Ph",
  "7744": "years",
  "7745": " dressing",
  "7746": " delayed",
  "7747": " toddler",
  "7748": " Luckily",
  "7749": " flight",
  "7750": " covering",
  "7751": " Te",
  "7752": "orter",
  "7753": "Two",
  "7754": "Open",
  "7755": "By",
  "7756": " encouragement",
  "7757": " benches",
  "7758": " toward",
  "7759": " scraped",
  "7760": " purpose",
  "7761": " focus",
  "7762": " Judy",
  "7763": "Bow",
  "7764": " correct",
  "7765": "'.\"",
  "7766": " lipstick",
  "7767": " bamboo",
  "7768": "Spe",
  "7769": " twinkled",
  "7770": " potion",
  "7771": " permitted",
  "7772": " months",
  "7773": " Cow",
  "7774": " languages",
  "7775": " orders",
  "7776": " freedom",
  "7777": "Tony",
  "7778": " risks",
  "7779": " poppies",
  "7780": " master",
  "7781": "shm",
  "7782": " noodles",
  "7783": " faded",
  "7784": " wounds",
  "7785": "shmallow",
  "7786": "rier",
  "7787": "Kids",
  "7788": "isions",
  "7789": " Jojo",
  "7790": " creams",
  "7791": " birdhouse",
  "7792": " cells",
  "7793": " annoyed",
  "7794": " Herb",
  "7795": "opes",
  "7796": " sniffing",
  "7797": " cheers",
  "7798": " adults",
  "7799": "Birdy",
  "7800": " unwra",
  "7801": "ecca",
  "7802": "Buzzy",
  "7803": " puck",
  "7804": " opinions",
  "7805": " floats",
  "7806": "andas",
  "7807": "Instead",
  "7808": " flown",
  "7809": " sneezes",
  "7810": " scen",
  "7811": " handsome",
  "7812": " nodding",
  "7813": " Mint",
  "7814": " smelling",
  "7815": " burnt",
  "7816": " 5",
  "7817": " drifted",
  "7818": "ider",
  "7819": "bage",
  "7820": " within",
  "7821": " scient",
  "7822": " height",
  "7823": " damaged",
  "7824": " bothering",
  "7825": " tearing",
  "7826": " slither",
  "7827": " pleaded",
  "7828": " instruments",
  "7829": " ease",
  "7830": " Ali",
  "7831": "Back",
  "7832": " scientist",
  "7833": " Marie",
  "7834": "Mira",
  "7835": "Goodnight",
  "7836": " pound",
  "7837": " seller",
  "7838": " handing",
  "7839": " germ",
  "7840": " Say",
  "7841": " wasting",
  "7842": " files",
  "7843": " results",
  "7844": " dreamt",
  "7845": " Mabel",
  "7846": "bell",
  "7847": " explains",
  "7848": " destroying",
  "7849": " brushing",
  "7850": "ousy",
  "7851": " hiss",
  "7852": " characters",
  "7853": " Razor",
  "7854": " Cr",
  "7855": "Carl",
  "7856": " certain",
  "7857": " Ste",
  "7858": "Pandy",
  "7859": "Behind",
  "7860": " sweaty",
  "7861": " Hug",
  "7862": "unched",
  "7863": " business",
  "7864": " Robbie",
  "7865": " talents",
  "7866": " onward",
  "7867": "Try",
  "7868": " engines",
  "7869": " bravest",
  "7870": "ition",
  "7871": " sternly",
  "7872": " Pen",
  "7873": " Janie",
  "7874": "prints",
  "7875": " postman",
  "7876": " mosquitoes",
  "7877": " minds",
  "7878": "cake",
  "7879": " tuck",
  "7880": " scares",
  "7881": "urious",
  "7882": " stomp",
  "7883": " apologised",
  "7884": "uel",
  "7885": " manag",
  "7886": " snuck",
  "7887": " bitten",
  "7888": "attered",
  "7889": " tilted",
  "7890": " switched",
  "7891": " reminding",
  "7892": " decisions",
  "7893": " singers",
  "7894": " desper",
  "7895": " behavior",
  "7896": " Poor",
  "7897": "ashing",
  "7898": " Judge",
  "7899": "bbers",
  "7900": "inny",
  "7901": "da",
  "7902": " squeaked",
  "7903": " peeled",
  "7904": " Everybody",
  "7905": " yumm",
  "7906": " purrs",
  "7907": " Bra",
  "7908": " treated",
  "7909": " smashed",
  "7910": " rustling",
  "7911": " displayed",
  "7912": " Until",
  "7913": " neatly",
  "7914": " matey",
  "7915": " planting",
  "7916": " Bess",
  "7917": " marshmallow",
  "7918": " insp",
  "7919": " yelped",
  "7920": " sy",
  "7921": " grandparents",
  "7922": " cracks",
  "7923": " bellies",
  "7924": "aver",
  "7925": " shines",
  "7926": " scamp",
  "7927": " Navy",
  "7928": " hoo",
  "7929": " failed",
  "7930": " coloring",
  "7931": " Yoga",
  "7932": "line",
  "7933": " zooms",
  "7934": " Make",
  "7935": "rup",
  "7936": " nasty",
  "7937": " breathing",
  "7938": " combed",
  "7939": " pandas",
  "7940": " despite",
  "7941": " address",
  "7942": "ighing",
  "7943": " waterfall",
  "7944": "uffin",
  "7945": "omp",
  "7946": "cc",
  "7947": " Loop",
  "7948": " Angel",
  "7949": "Tilly",
  "7950": " wider",
  "7951": " robbers",
  "7952": " antic",
  "7953": "Play",
  "7954": "Abigail",
  "7955": " sweaters",
  "7956": " echoed",
  "7957": " doorway",
  "7958": " Todd",
  "7959": "evin",
  "7960": " edges",
  "7961": " inj",
  "7962": " Shadow",
  "7963": "Aunt",
  "7964": " gap",
  "7965": " disobey",
  "7966": " Blinky",
  "7967": "wise",
  "7968": "Liz",
  "7969": " Michael",
  "7970": " tar",
  "7971": " Flick",
  "7972": "oscope",
  "7973": "orking",
  "7974": "Wake",
  "7975": " taped",
  "7976": " magnif",
  "7977": "ulp",
  "7978": "father",
  "7979": " scolds",
  "7980": " flaps",
  "7981": " action",
  "7982": " crawls",
  "7983": " Mindy",
  "7984": "Ros",
  "7985": " swap",
  "7986": " gobbled",
  "7987": " backs",
  "7988": " Gary",
  "7989": " warri",
  "7990": " Fishy",
  "7991": " Eddie",
  "7992": "Slow",
  "7993": " steth",
  "7994": " sever",
  "7995": " shinier",
  "7996": " probably",
  "7997": " newspapers",
  "7998": " several",
  "7999": " occ",
  "8000": "Rock",
  "8001": "Lena",
  "8002": " encount",
  "8003": " Meg",
  "8004": " serving",
  "8005": " quieter",
  "8006": " plucked",
  "8007": " connected",
  "8008": "tock",
  "8009": " Share",
  "8010": " ouch",
  "8011": "igger",
  "8012": "Ted",
  "8013": "Adam",
  "8014": " gesture",
  "8015": "Too",
  "8016": "Fl",
  "8017": " student",
  "8018": " plot",
  "8019": " doorbell",
  "8020": " squaw",
  "8021": " cares",
  "8022": "fire",
  "8023": " rescuing",
  "8024": " grandson",
  "8025": " Se",
  "8026": " spy",
  "8027": " simply",
  "8028": " rows",
  "8029": " goo",
  "8030": "iel",
  "8031": " whistles",
  "8032": "mies",
  "8033": "vant",
  "8034": "Shrink",
  "8035": "Magic",
  "8036": " snaps",
  "8037": " shorter",
  "8038": " astronauts",
  "8039": "ssss",
  "8040": " unpacking",
  "8041": " cottage",
  "8042": " Time",
  "8043": " swo",
  "8044": " accidents",
  "8045": "ibi",
  "8046": " swollen",
  "8047": " mood",
  "8048": " Nut",
  "8049": "Steve",
  "8050": "abelle",
  "8051": " Zippy",
  "8052": " Mousy",
  "8053": "anie",
  "8054": "Zara",
  "8055": " bothered",
  "8056": "Hannah",
  "8057": " stethoscope",
  "8058": "found",
  "8059": " trusting",
  "8060": " causing",
  "8061": "Mat",
  "8062": "Mad",
  "8063": " leapt",
  "8064": " dresser",
  "8065": "aint",
  "8066": " sou",
  "8067": " proper",
  "8068": " pills",
  "8069": "retty",
  "8070": " throughout",
  "8071": "Olive",
  "8072": " runner",
  "8073": " prayers",
  "8074": " Dina",
  "8075": " joyful",
  "8076": "Thomas",
  "8077": " Karen",
  "8078": "mates",
  "8079": " locks",
  "8080": " Prince",
  "8081": "Jamie",
  "8082": " goats",
  "8083": "what",
  "8084": " target",
  "8085": "rest",
  "8086": " Wait",
  "8087": " dears",
  "8088": " Bang",
  "8089": "artled",
  "8090": "Red",
  "8091": " waddled",
  "8092": " munch",
  "8093": " flips",
  "8094": " Cro",
  "8095": "onnie",
  "8096": " lowered",
  "8097": " stepping",
  "8098": " cons",
  "8099": " Jackie",
  "8100": " teachers",
  "8101": " cowboy",
  "8102": " Toys",
  "8103": " inches",
  "8104": " envelopes",
  "8105": "ears",
  "8106": " char",
  "8107": " Vroom",
  "8108": " explorer",
  "8109": " anticip",
  "8110": " playd",
  "8111": " Ready",
  "8112": " Ruff",
  "8113": " Ralph",
  "8114": "unity",
  "8115": "Nice",
  "8116": "Finn",
  "8117": " Bad",
  "8118": "ening",
  "8119": " knocking",
  "8120": " floors",
  "8121": " efforts",
  "8122": " Pl",
  "8123": " uniforms",
  "8124": "lied",
  "8125": " Tri",
  "8126": " aware",
  "8127": " footprints",
  "8128": "Someone",
  "8129": " nearly",
  "8130": " Fiona",
  "8131": "llas",
  "8132": " disc",
  "8133": " Ria",
  "8134": "ivi",
  "8135": " whimp",
  "8136": " trot",
  "8137": " sens",
  "8138": " glitt",
  "8139": " appreciation",
  "8140": "oosh",
  "8141": " necks",
  "8142": " collap",
  "8143": " checks",
  "8144": " lapt",
  "8145": " except",
  "8146": " plug",
  "8147": " charge",
  "8148": " Jacky",
  "8149": " fluttering",
  "8150": " umbrellas",
  "8151": " stamped",
  "8152": "acy",
  "8153": " sandcastles",
  "8154": " Davey",
  "8155": " statues",
  "8156": " Honey",
  "8157": "omb",
  "8158": "iscuit",
  "8159": "ails",
  "8160": "Hoppy",
  "8161": " shrank",
  "8162": " Amelia",
  "8163": "rily",
  "8164": " prick",
  "8165": " finishing",
  "8166": " adds",
  "8167": "rons",
  "8168": " stroll",
  "8169": " hunters",
  "8170": " dodged",
  "8171": " chocolates",
  "8172": " passengers",
  "8173": " germs",
  "8174": "oger",
  "8175": "nie",
  "8176": " wrigg",
  "8177": " aprons",
  "8178": " aisle",
  "8179": " sets",
  "8180": ".'\"",
  "8181": " Gerry",
  "8182": " weeds",
  "8183": " novels",
  "8184": "order",
  "8185": " demanding",
  "8186": " Taking",
  "8187": " scratching",
  "8188": " meows",
  "8189": "issa",
  "8190": "Dr",
  "8191": " nurses",
  "8192": "Lucky",
  "8193": " minding",
  "8194": " discussing",
  "8195": "urrender",
  "8196": " killed",
  "8197": " driveway",
  "8198": " Cari",
  "8199": " becomes",
  "8200": " toolbox",
  "8201": " laptop",
  "8202": " haird",
  "8203": " Eliz",
  "8204": " posit",
  "8205": " attack",
  "8206": " Sadie",
  "8207": " Gl",
  "8208": " Despite",
  "8209": "Speedy",
  "8210": "sol",
  "8211": " scampered",
  "8212": " bounces",
  "8213": " supplied",
  "8214": " sprays",
  "8215": " deed",
  "8216": " tempt",
  "8217": " suggestion",
  "8218": " friendships",
  "8219": " burns",
  "8220": "Coco",
  "8221": " slapping",
  "8222": " closing",
  "8223": "Arrr",
  "8224": " invites",
  "8225": " belongings",
  "8226": " anticipation",
  "8227": " springing",
  "8228": " form",
  "8229": " erase",
  "8230": " cotton",
  "8231": " Stan",
  "8232": " twists",
  "8233": " rays",
  "8234": " snuggle",
  "8235": " forgives",
  "8236": " models",
  "8237": " shall",
  "8238": " massages",
  "8239": " humming",
  "8240": " responded",
  "8241": " newfound",
  "8242": " ghosts",
  "8243": " expecting",
  "8244": " Shelly",
  "8245": " cheated",
  "8246": "Does",
  "8247": " Wooly",
  "8248": "Gigi",
  "8249": "otte",
  "8250": " traveling",
  "8251": " Ne",
  "8252": " cond",
  "8253": " battle",
  "8254": " although",
  "8255": "alloween",
  "8256": " mommies",
  "8257": " invitations",
  "8258": " carries",
  "8259": " aim",
  "8260": " refreshing",
  "8261": " presented",
  "8262": " conc",
  "8263": "hel",
  "8264": " twenty",
  "8265": " rowed",
  "8266": " Bumpy",
  "8267": "ots",
  "8268": " squir",
  "8269": "rie",
  "8270": "arlotte",
  "8271": " foxes",
  "8272": " cooper",
  "8273": " final",
  "8274": " duckling",
  "8275": " cafe",
  "8276": " Bibi",
  "8277": "Pip",
  "8278": " marshmallows",
  "8279": " clicked",
  "8280": " Zipper",
  "8281": "oor",
  "8282": " jets",
  "8283": " designing",
  "8284": " beaver",
  "8285": "five",
  "8286": " Muffin",
  "8287": " Halloween",
  "8288": " mugs",
  "8289": " Whoever",
  "8290": " drown",
  "8291": " Although",
  "8292": " tricycle",
  "8293": " picnics",
  "8294": " oppos",
  "8295": " convin",
  "8296": " Ruth",
  "8297": " Excited",
  "8298": "iens",
  "8299": " Cle",
  "8300": " scoops",
  "8301": " congratul",
  "8302": " Pop",
  "8303": " Maddie",
  "8304": "Sadly",
  "8305": " —",
  "8306": " travels",
  "8307": " aliens",
  "8308": " tests",
  "8309": " questioned",
  "8310": " Speed",
  "8311": "inted",
  "8312": " strips",
  "8313": " craft",
  "8314": " Im",
  "8315": "Near",
  "8316": "atty",
  "8317": "Mouse",
  "8318": "covered",
  "8319": " defe",
  "8320": " Flutter",
  "8321": " Bubba",
  "8322": "iri",
  "8323": "Br",
  "8324": " fights",
  "8325": "roken",
  "8326": "Ball",
  "8327": " opposite",
  "8328": " Biggy",
  "8329": "Hmm",
  "8330": "Find",
  "8331": "Elly",
  "8332": "Chloe",
  "8333": " rout",
  "8334": " grandfather",
  "8335": " encountered",
  "8336": " afford",
  "8337": " Never",
  "8338": " decl",
  "8339": "inch",
  "8340": " raising",
  "8341": "iment",
  "8342": " upside",
  "8343": " Vivi",
  "8344": "Meanwhile",
  "8345": "Jess",
  "8346": " flashed",
  "8347": " calmly",
  "8348": " Rita",
  "8349": "po",
  "8350": " yawning",
  "8351": " sincere",
  "8352": " realizes",
  "8353": "aturday",
  "8354": "Trust",
  "8355": "Choo",
  "8356": " crystals",
  "8357": " buddy",
  "8358": " Samantha",
  "8359": " cupcakes",
  "8360": " buckled",
  "8361": "byes",
  "8362": "Both",
  "8363": " winners",
  "8364": " defin",
  "8365": "verse",
  "8366": "ris",
  "8367": "',",
  "8368": " weapons",
  "8369": " caw",
  "8370": "shadow",
  "8371": "Josh",
  "8372": " packages",
  "8373": " cheat",
  "8374": " Saturday",
  "8375": " sacks",
  "8376": " messes",
  "8377": " goodbyes",
  "8378": " coach",
  "8379": " attem",
  "8380": "quet",
  "8381": " convers",
  "8382": " Truck",
  "8383": " Flo",
  "8384": "val",
  "8385": " drift",
  "8386": " caps",
  "8387": " Mina",
  "8388": " Eva",
  "8389": "emies",
  "8390": " enemies",
  "8391": "asha",
  "8392": " yummiest",
  "8393": " scrub",
  "8394": " swallow",
  "8395": " returning",
  "8396": " admiration",
  "8397": " Softy",
  "8398": " Megan",
  "8399": "Since",
  "8400": " sprout",
  "8401": " Louise",
  "8402": " unable",
  "8403": " Playing",
  "8404": " Another",
  "8405": "ugging",
  "8406": "rian",
  "8407": "ooks",
  "8408": " sadder",
  "8409": " freezing",
  "8410": " brightest",
  "8411": " bless",
  "8412": " Yawn",
  "8413": " respon",
  "8414": "reverse",
  "8415": " response",
  "8416": " cosy",
  "8417": " Oh",
  "8418": " diamonds",
  "8419": " bride",
  "8420": "stalk",
  "8421": " reapp",
  "8422": " opport",
  "8423": " honking",
  "8424": " garbage",
  "8425": " Man",
  "8426": " whispering",
  "8427": " stretches",
  "8428": " prevented",
  "8429": "erk",
  "8430": "antastic",
  "8431": " whoever",
  "8432": " odd",
  "8433": " awful",
  "8434": " Gray",
  "8435": "alth",
  "8436": " weighs",
  "8437": " journeys",
  "8438": " awoke",
  "8439": "Brrr",
  "8440": " traps",
  "8441": " spices",
  "8442": " dragonfly",
  "8443": "off",
  "8444": " born",
  "8445": " reassured",
  "8446": " clip",
  "8447": "ivia",
  "8448": " stall",
  "8449": " beanstalk",
  "8450": " argum",
  "8451": " examining",
  "8452": " definitely",
  "8453": " beetles",
  "8454": " automobiles",
  "8455": " Maisy",
  "8456": "mine",
  "8457": "ici",
  "8458": "Hop",
  "8459": " visitors",
  "8460": " stuffing",
  "8461": " playdate",
  "8462": " washes",
  "8463": "cie",
  "8464": "broken",
  "8465": " wiser",
  "8466": " customer",
  "8467": "uper",
  "8468": "emma",
  "8469": "Rachel",
  "8470": " travelling",
  "8471": " Sofia",
  "8472": " Jolly",
  "8473": " Flop",
  "8474": "ouquet",
  "8475": " hairdress",
  "8476": " bouquet",
  "8477": " Nurse",
  "8478": "orse",
  "8479": "bble",
  "8480": ",'",
  "8481": " tumbled",
  "8482": " decoration",
  "8483": " campfire",
  "8484": " Elle",
  "8485": " honesty",
  "8486": " bud",
  "8487": "vy",
  "8488": "ebecca",
  "8489": "Only",
  "8490": " bomb",
  "8491": " welcoming",
  "8492": " offering",
  "8493": " wealth",
  "8494": " troubles",
  "8495": " occas",
  "8496": " increasing",
  "8497": " Ot",
  "8498": " Jax",
  "8499": " Hello",
  "8500": " loudest",
  "8501": " inspired",
  "8502": " type",
  "8503": " parted",
  "8504": " groan",
  "8505": " Chick",
  "8506": " Nutty",
  "8507": "irac",
  "8508": " whales",
  "8509": " Thunder",
  "8510": " Ricky",
  "8511": " declared",
  "8512": " correctly",
  "8513": "yler",
  "8514": "ooky",
  "8515": "fus",
  "8516": " beaks",
  "8517": " Quacky",
  "8518": "athan",
  "8519": " cleared",
  "8520": " cowboys",
  "8521": " nuzzled",
  "8522": " Dotty",
  "8523": " prizes",
  "8524": " exch",
  "8525": "Finny",
  "8526": " warmly",
  "8527": " Missile",
  "8528": " rewards",
  "8529": " obeyed",
  "8530": " customers",
  "8531": "Should",
  "8532": " sirens",
  "8533": " comforting",
  "8534": " Fel",
  "8535": "shaped",
  "8536": " connect",
  "8537": " Flappy",
  "8538": "match",
  "8539": " towns",
  "8540": " Magic",
  "8541": " Bingo",
  "8542": "elieve",
  "8543": " rely",
  "8544": " Vicky",
  "8545": "Honey",
  "8546": " trigger",
  "8547": " owns",
  "8548": " insisting",
  "8549": " fantastic",
  "8550": " bends",
  "8551": " Fe",
  "8552": " spoiling",
  "8553": " hairdresser",
  "8554": " surrendered",
  "8555": " supporting",
  "8556": " shares",
  "8557": " poses",
  "8558": " pipes",
  "8559": " cleans",
  "8560": "rench",
  "8561": "Sun",
  "8562": "Outside",
  "8563": "Julie",
  "8564": " wrinkled",
  "8565": " Cook",
  "8566": " chopped",
  "8567": " recorder",
  "8568": " moons",
  "8569": " beaming",
  "8570": "unes",
  "8571": "ellow",
  "8572": "Beth",
  "8573": " thanking",
  "8574": " snowy",
  "8575": " Wolf",
  "8576": "enn",
  "8577": " scurry",
  "8578": " experien",
  "8579": " enjoyable",
  "8580": " active",
  "8581": " coral",
  "8582": " Piggy",
  "8583": " environ",
  "8584": " dollar",
  "8585": " Kevin",
  "8586": "worm",
  "8587": "elope",
  "8588": " loc",
  "8589": "Je",
  "8590": " streamers",
  "8591": " Bub",
  "8592": "udged",
  "8593": " Patty",
  "8594": " Mother",
  "8595": " Zack",
  "8596": "inger",
  "8597": "Suzy",
  "8598": " examp",
  "8599": " shorts",
  "8600": " shooed",
  "8601": " environment",
  "8602": "Tree",
  "8603": " ill",
  "8604": " scent",
  "8605": " bruises",
  "8606": "uster",
  "8607": " grat",
  "8608": " Luc",
  "8609": " hisses",
  "8610": " steering",
  "8611": " self",
  "8612": " plugged",
  "8613": " Elsa",
  "8614": " warrior",
  "8615": "yl",
  "8616": "Bo",
  "8617": " visits",
  "8618": " exercises",
  "8619": "screen",
  "8620": "irl",
  "8621": "aptain",
  "8622": " dangers",
  "8623": " cuddles",
  "8624": " Rel",
  "8625": " Min",
  "8626": " Ar",
  "8627": " unfortunately",
  "8628": " squished",
  "8629": " signing",
  "8630": " Light",
  "8631": "bee",
  "8632": "Ray",
  "8633": " pilots",
  "8634": " disappoint",
  "8635": "munk",
  "8636": " gratitude",
  "8637": " applauding",
  "8638": " providing",
  "8639": " Moppy",
  "8640": "alf",
  "8641": " tickles",
  "8642": " ting",
  "8643": " Rub",
  "8644": "Grow",
  "8645": " storms",
  "8646": " nights",
  "8647": " jud",
  "8648": " convinced",
  "8649": " badger",
  "8650": " Elsie",
  "8651": " youn",
  "8652": " responsib",
  "8653": " choosing",
  "8654": " Kelly",
  "8655": "Joy",
  "8656": " youngest",
  "8657": " nearest",
  "8658": " brains",
  "8659": " activity",
  "8660": "Abby",
  "8661": " exploded",
  "8662": " coughed",
  "8663": " arranged",
  "8664": "Claire",
  "8665": " rewarding",
  "8666": " Tre",
  "8667": " Fly",
  "8668": "pr",
  "8669": "good",
  "8670": "erpiece",
  "8671": " sunscreen",
  "8672": " peep",
  "8673": " bond",
  "8674": " Floppy",
  "8675": "asers",
  "8676": "Mon",
  "8677": " Tweety",
  "8678": " Sweet",
  "8679": " Katy",
  "8680": " Sal",
  "8681": "ilities",
  "8682": " annoying",
  "8683": "sn",
  "8684": "eow",
  "8685": " soapy",
  "8686": "meow",
  "8687": "Splash",
  "8688": " rails",
  "8689": " laces",
  "8690": " threads",
  "8691": " tapping",
  "8692": " offic",
  "8693": " appreciated",
  "8694": " Pine",
  "8695": " Phil",
  "8696": "boards",
  "8697": " weighing",
  "8698": " heartbroken",
  "8699": " emerged",
  "8700": " congratulated",
  "8701": " Pick",
  "8702": "Danger",
  "8703": " tin",
  "8704": " Sil",
  "8705": " crocodiles",
  "8706": " clerk",
  "8707": " scram",
  "8708": " attempt",
  "8709": " Nancy",
  "8710": "water",
  "8711": "Ahoy",
  "8712": " snug",
  "8713": " messed",
  "8714": " example",
  "8715": " dial",
  "8716": " Kay",
  "8717": " Any",
  "8718": "Momma",
  "8719": " hooks",
  "8720": " Jonny",
  "8721": " tops",
  "8722": " chipmunk",
  "8723": " soot",
  "8724": " guarding",
  "8725": " bathed",
  "8726": " manager",
  "8727": " Tippy",
  "8728": "ortunately",
  "8729": " Microscope",
  "8730": "Friends",
  "8731": " De",
  "8732": "etah",
  "8733": "Snowy",
  "8734": " masterpiece",
  "8735": " Baa",
  "8736": " erasers",
  "8737": " tips",
  "8738": " finishes",
  "8739": " fet",
  "8740": " common",
  "8741": " Tomorrow",
  "8742": "mbers",
  "8743": " trotted",
  "8744": " nibbled",
  "8745": " members",
  "8746": " digs",
  "8747": "People",
  "8748": " kinder",
  "8749": " cheetah",
  "8750": " particularly",
  "8751": " chews",
  "8752": " blond",
  "8753": "ircle",
  "8754": " rips",
  "8755": " beast",
  "8756": "Lizzy",
  "8757": " argument",
  "8758": "ative",
  "8759": " faith",
  "8760": " Helping",
  "8761": " earned",
  "8762": "Anne",
  "8763": " observing",
  "8764": " forgiveness",
  "8765": " Joke",
  "8766": " Cici",
  "8767": "chievous",
  "8768": " instantly",
  "8769": " fishes",
  "8770": " experienced",
  "8771": " curl",
  "8772": " cheaper",
  "8773": " Jumpy",
  "8774": "Rosie",
  "8775": " mischievous",
  "8776": " generosity",
  "8777": " cages",
  "8778": " Twist",
  "8779": "Gr",
  "8780": "Baa",
  "8781": " meowing",
  "8782": " foam",
  "8783": "mered",
  "8784": "Cindy",
  "8785": " stores",
  "8786": " grandd",
  "8787": " Ag",
  "8788": "etchup",
  "8789": " mattered",
  "8790": " teles",
  "8791": " passes",
  "8792": " limp",
  "8793": "Sque",
  "8794": " sleeps",
  "8795": "iolet",
  "8796": " breaths",
  "8797": "ordinary",
  "8798": "ettle",
  "8799": "ending",
  "8800": " trans",
  "8801": " rin",
  "8802": " gasps",
  "8803": " Freddie",
  "8804": "Got",
  "8805": " rumbling",
  "8806": " hatch",
  "8807": " Momma",
  "8808": "over",
  "8809": "abra",
  "8810": " grassho",
  "8811": " accomplished",
  "8812": " Hopper",
  "8813": "acing",
  "8814": " thump",
  "8815": " telescope",
  "8816": " strum",
  "8817": " smartest",
  "8818": " mats",
  "8819": " whined",
  "8820": " moat",
  "8821": "Gina",
  "8822": " scrambled",
  "8823": " jugg",
  "8824": " farmers",
  "8825": " Ice",
  "8826": " drip",
  "8827": "Robbie",
  "8828": " syrup",
  "8829": " gardens",
  "8830": " collapsed",
  "8831": " angrily",
  "8832": " More",
  "8833": "ouraged",
  "8834": "idey",
  "8835": " vegg",
  "8836": " styles",
  "8837": " forests",
  "8838": " experiences",
  "8839": " discoveries",
  "8840": "hole",
  "8841": " tor",
  "8842": " medals",
  "8843": " types",
  "8844": " otters",
  "8845": " meaning",
  "8846": " faint",
  "8847": " conqu",
  "8848": " Does",
  "8849": "pit",
  "8850": "adabra",
  "8851": "acock",
  "8852": " snapping",
  "8853": " hardest",
  "8854": " fif",
  "8855": "ering",
  "8856": " movements",
  "8857": " expression",
  "8858": " surv",
  "8859": " chilly",
  "8860": " bubbly",
  "8861": " affect",
  "8862": "Pinky",
  "8863": " vests",
  "8864": " unfair",
  "8865": " court",
  "8866": "Whenever",
  "8867": " toothbrush",
  "8868": " scores",
  "8869": " extraordinary",
  "8870": "Never",
  "8871": " attitude",
  "8872": " vibr",
  "8873": " horri",
  "8874": " bluebird",
  "8875": " Monkey",
  "8876": "mel",
  "8877": "lls",
  "8878": " spears",
  "8879": " ketchup",
  "8880": " Berry",
  "8881": "Mother",
  "8882": " sooner",
  "8883": " grasshopper",
  "8884": " behaviour",
  "8885": "Karen",
  "8886": " patches",
  "8887": " habit",
  "8888": "yd",
  "8889": "erts",
  "8890": " pokes",
  "8891": " momma",
  "8892": " afar",
  "8893": " Ashley",
  "8894": "ieves",
  "8895": "Jacob",
  "8896": " thicker",
  "8897": " scri",
  "8898": " Friend",
  "8899": "Jon",
  "8900": " squeezes",
  "8901": " slithered",
  "8902": " shrunk",
  "8903": " classmates",
  "8904": " Terry",
  "8905": " Fle",
  "8906": " icky",
  "8907": "lo",
  "8908": " prickly",
  "8909": " glittering",
  "8910": " expert",
  "8911": " topp",
  "8912": " kneeling",
  "8913": " announced",
  "8914": " Super",
  "8915": " Riri",
  "8916": "elling",
  "8917": " peacock",
  "8918": " marking",
  "8919": "ctric",
  "8920": " costs",
  "8921": " Cally",
  "8922": " Achoo",
  "8923": " zigzags",
  "8924": " watermel",
  "8925": " thieves",
  "8926": " skirts",
  "8927": " jumper",
  "8928": " hood",
  "8929": " acts",
  "8930": " Zog",
  "8931": " App",
  "8932": "Mo",
  "8933": " wolves",
  "8934": " Swim",
  "8935": " Cloud",
  "8936": "Papa",
  "8937": " thumbs",
  "8938": " squeaky",
  "8939": " concer",
  "8940": " cocoon",
  "8941": " woodcut",
  "8942": " boards",
  "8943": " Eliza",
  "8944": " Becky",
  "8945": " servant",
  "8946": "idence",
  "8947": "affle",
  "8948": " cheating",
  "8949": " Jason",
  "8950": "bu",
  "8951": " trading",
  "8952": " raking",
  "8953": "cat",
  "8954": "Jessie",
  "8955": " explaining",
  "8956": " Eric",
  "8957": "rick",
  "8958": " tidied",
  "8959": " biscuit",
  "8960": " lunchtime",
  "8961": " luckily",
  "8962": " Ac",
  "8963": "anced",
  "8964": "Frog",
  "8965": " Puffy",
  "8966": " spilling",
  "8967": " Day",
  "8968": "Fire",
  "8969": " transform",
  "8970": " desserts",
  "8971": " Use",
  "8972": " Maddy",
  "8973": " Daniel",
  "8974": " Animal",
  "8975": "…",
  "8976": "ror",
  "8977": " Pig",
  "8978": " Mine",
  "8979": " Still",
  "8980": " Gill",
  "8981": "rough",
  "8982": "amma",
  "8983": " messages",
  "8984": " mirac",
  "8985": " Captain",
  "8986": "idy",
  "8987": " windowsill",
  "8988": " chill",
  "8989": " beating",
  "8990": " Tammy",
  "8991": " Lung",
  "8992": " Gilly",
  "8993": "oot",
  "8994": " seeking",
  "8995": " actor",
  "8996": " Rainbow",
  "8997": " Lina",
  "8998": " William",
  "8999": "sess",
  "9000": "its",
  "9001": " Math",
  "9002": "pril",
  "9003": "Any",
  "9004": " foreshadow",
  "9005": "war",
  "9006": "acles",
  "9007": "Bluey",
  "9008": " leans",
  "9009": " Step",
  "9010": " Pinch",
  "9011": " Hi",
  "9012": "racadabra",
  "9013": "Freeze",
  "9014": "Bounce",
  "9015": " watermelon",
  "9016": " hissing",
  "9017": " flashing",
  "9018": " dev",
  "9019": " cloths",
  "9020": " Tiger",
  "9021": " Monster",
  "9022": " Frankie",
  "9023": " winding",
  "9024": " positive",
  "9025": " funn",
  "9026": " discouraged",
  "9027": " Wil",
  "9028": "pop",
  "9029": " woodcutter",
  "9030": " forts",
  "9031": " dripped",
  "9032": " compete",
  "9033": " teapot",
  "9034": " pressing",
  "9035": " disagreeing",
  "9036": "icking",
  "9037": " glimmering",
  "9038": " veggies",
  "9039": " trusts",
  "9040": " tidying",
  "9041": " kangaroos",
  "9042": " Peep",
  "9043": " tempted",
  "9044": " landing",
  "9045": " Flora",
  "9046": " dock",
  "9047": " shallow",
  "9048": " overw",
  "9049": " formed",
  "9050": "lers",
  "9051": "eling",
  "9052": " rack",
  "9053": " fade",
  "9054": " Tooth",
  "9055": "flowers",
  "9056": " worst",
  "9057": " electric",
  "9058": " cops",
  "9059": "Nothing",
  "9060": " apology",
  "9061": "iving",
  "9062": "creams",
  "9063": "ai",
  "9064": " sleds",
  "9065": " Silver",
  "9066": " Life",
  "9067": "upid",
  "9068": " comets",
  "9069": " ass",
  "9070": "Owl",
  "9071": " sav",
  "9072": " Shark",
  "9073": " Mag",
  "9074": " Jelly",
  "9075": "Bug",
  "9076": " situations",
  "9077": " papa",
  "9078": " officers",
  "9079": " conversation",
  "9080": " 4",
  "9081": "Rain",
  "9082": " Roger",
  "9083": " Charlotte",
  "9084": "storm",
  "9085": "aye",
  "9086": " suns",
  "9087": " ding",
  "9088": "”,",
  "9089": " zips",
  "9090": " structures",
  "9091": " scurrying",
  "9092": " pizzas",
  "9093": " overwhel",
  "9094": " miller",
  "9095": " Butter",
  "9096": " granddaughter",
  "9097": " foggy",
  "9098": " Olivia",
  "9099": " Hurry",
  "9100": " Amber",
  "9101": "Zoe",
  "9102": " Janey",
  "9103": " webs",
  "9104": " deserved",
  "9105": "Rabbit",
  "9106": " opportunity",
  "9107": " cubs",
  "9108": " Yummy",
  "9109": " Spidey",
  "9110": " Sasha",
  "9111": " Mixie",
  "9112": " Buster",
  "9113": " snorted",
  "9114": " rhino",
  "9115": " differences",
  "9116": " Gold",
  "9117": " quacking",
  "9118": " Tell",
  "9119": "ifully",
  "9120": "ended",
  "9121": "Fifi",
  "9122": " heaven",
  "9123": " Birds",
  "9124": " unlo",
  "9125": " levers",
  "9126": " inchworm",
  "9127": " inter",
  "9128": " approach",
  "9129": " Tyler",
  "9130": "ssess",
  "9131": " seagulls",
  "9132": " possess",
  "9133": " cooperate",
  "9134": " Rufus",
  "9135": " Felix",
  "9136": " Boom",
  "9137": "welcome",
  "9138": "sers",
  "9139": "ragon",
  "9140": "of",
  "9141": "?”.",
  "9142": "andra",
  "9143": " pose",
  "9144": " disappointment",
  "9145": " Smoke",
  "9146": "ocular",
  "9147": " speaks",
  "9148": " sneaks",
  "9149": "snap",
  "9150": " binocular",
  "9151": " artwork",
  "9152": " surfed",
  "9153": " scowl",
  "9154": " answering",
  "9155": " Snake",
  "9156": " shortcut",
  "9157": " Grand",
  "9158": " sipped",
  "9159": " robin",
  "9160": " dep",
  "9161": "Climb",
  "9162": " arrest",
  "9163": " Inky",
  "9164": "ssy",
  "9165": " unwrapped",
  "9166": " ribbit",
  "9167": " reun",
  "9168": " amused",
  "9169": " Amanda",
  "9170": "ugar",
  "9171": " repeats",
  "9172": " pepperoni",
  "9173": " applause",
  "9174": " keyhole",
  "9175": " checkout",
  "9176": " Mae",
  "9177": " Cars",
  "9178": "Lia",
  "9179": "Deal",
  "9180": " visitor",
  "9181": " striking",
  "9182": " puppets",
  "9183": " paddling",
  "9184": "Eat",
  "9185": " unz",
  "9186": " croaked",
  "9187": " attacked",
  "9188": " Circle",
  "9189": "orsie",
  "9190": " spooky",
  "9191": " Otto",
  "9192": " Gus",
  "9193": "Each",
  "9194": " groaned",
  "9195": " beautifully",
  "9196": " Brian",
  "9197": "gar",
  "9198": "cidents",
  "9199": " swimsuits",
  "9200": " consider",
  "9201": " checking",
  "9202": "uses",
  "9203": " Yellow",
  "9204": "jest",
  "9205": " waters",
  "9206": " groom",
  "9207": " Squeak",
  "9208": " Slinky",
  "9209": "yle",
  "9210": "Jenn",
  "9211": " invent",
  "9212": "Luke",
  "9213": " nets",
  "9214": " exams",
  "9215": "otion",
  "9216": "ets",
  "9217": " drying",
  "9218": " Rebecca",
  "9219": "udy",
  "9220": "artin",
  "9221": "agine",
  "9222": " shrugs",
  "9223": " lump",
  "9224": " Auntie",
  "9225": "sie",
  "9226": "lest",
  "9227": " sobbing",
  "9228": " shyly",
  "9229": " shoots",
  "9230": " honks",
  "9231": " heels",
  "9232": " cheerfully",
  "9233": " Since",
  "9234": "ili",
  "9235": "hny",
  "9236": "esses",
  "9237": " shh",
  "9238": " chin",
  "9239": "anish",
  "9240": " whimpered",
  "9241": " healthier",
  "9242": " hangs",
  "9243": "icious",
  "9244": "Milo",
  "9245": " Mus",
  "9246": " caterpillars",
  "9247": "izzes",
  "9248": "Slowly",
  "9249": " squinted",
  "9250": " magnifying",
  "9251": " fries",
  "9252": " Ratty",
  "9253": " fascinating",
  "9254": " blamed",
  "9255": " Find",
  "9256": "ulpture",
  "9257": "ching",
  "9258": " sculpture",
  "9259": " frustration",
  "9260": " Tip",
  "9261": "ouched",
  "9262": " shimmering",
  "9263": " Penelope",
  "9264": "eat",
  "9265": " poss",
  "9266": " Peace",
  "9267": "edic",
  "9268": "Sharing",
  "9269": " suck",
  "9270": " pleas",
  "9271": " numbered",
  "9272": " nibble",
  "9273": " Waffle",
  "9274": "othy",
  "9275": "ibbles",
  "9276": "ellie",
  "9277": "amil",
  "9278": " flowing",
  "9279": " baa",
  "9280": "hings",
  "9281": "Pepper",
  "9282": " raked",
  "9283": " grumbled",
  "9284": " Off",
  "9285": "that",
  "9286": "Bubbles",
  "9287": " builder",
  "9288": "racted",
  "9289": " swaying",
  "9290": " petting",
  "9291": " guards",
  "9292": " facing",
  "9293": " Woolly",
  "9294": " sprinkle",
  "9295": " mysteries",
  "9296": " details",
  "9297": " Har",
  "9298": "sey",
  "9299": " snort",
  "9300": " flock",
  "9301": " enemy",
  "9302": " Boat",
  "9303": " textures",
  "9304": " tablet",
  "9305": " goodies",
  "9306": " Curious",
  "9307": " Barry",
  "9308": "Yesterday",
  "9309": " wig",
  "9310": " popping",
  "9311": " wildflowers",
  "9312": " stacks",
  "9313": " marve",
  "9314": " fans",
  "9315": " crops",
  "9316": " countries",
  "9317": " Gracie",
  "9318": "how",
  "9319": " knobs",
  "9320": " Tessa",
  "9321": " Seeing",
  "9322": " local",
  "9323": " bushy",
  "9324": " stew",
  "9325": " peeped",
  "9326": " hunting",
  "9327": " drowned",
  "9328": " bowing",
  "9329": " binoculars",
  "9330": " angrier",
  "9331": " Bubu",
  "9332": " maps",
  "9333": " Match",
  "9334": " quizzes",
  "9335": " niece",
  "9336": " moonlight",
  "9337": " Glow",
  "9338": "Im",
  "9339": " outfits",
  "9340": " Johnson",
  "9341": " Deal",
  "9342": "OO",
  "9343": " whoosh",
  "9344": " weaker",
  "9345": " wrench",
  "9346": " mindful",
  "9347": " crowded",
  "9348": "cycles",
  "9349": "Squ",
  "9350": " endings",
  "9351": " Beef",
  "9352": "oll",
  "9353": "ded",
  "9354": " property",
  "9355": " hesitation",
  "9356": " flashes",
  "9357": "amiliar",
  "9358": " unless",
  "9359": " imaginations",
  "9360": " fond",
  "9361": " carts",
  "9362": " boil",
  "9363": " ability",
  "9364": " Oxy",
  "9365": " Andrew",
  "9366": "getic",
  "9367": " glared",
  "9368": " Right",
  "9369": " Accidents",
  "9370": "stand",
  "9371": " unfamiliar",
  "9372": " spaces",
  "9373": " microw",
  "9374": " knit",
  "9375": " haven",
  "9376": " folds",
  "9377": "ths",
  "9378": "saw",
  "9379": "Tuna",
  "9380": " responsibility",
  "9381": " dirtier",
  "9382": " Pet",
  "9383": "bank",
  "9384": " pouch",
  "9385": " microwave",
  "9386": " desks",
  "9387": "ibly",
  "9388": "Bless",
  "9389": " cracker",
  "9390": "rnie",
  "9391": " swapped",
  "9392": " member",
  "9393": " date",
  "9394": " aston",
  "9395": " Oxygen",
  "9396": " Ring",
  "9397": " Ravi",
  "9398": "lt",
  "9399": "free",
  "9400": "Want",
  "9401": "Cra",
  "9402": " whine",
  "9403": " softened",
  "9404": " rebu",
  "9405": " doorstep",
  "9406": " disappearing",
  "9407": " Peggy",
  "9408": " Helen",
  "9409": " Bun",
  "9410": " quacks",
  "9411": " natur",
  "9412": " Chip",
  "9413": "scar",
  "9414": " writer",
  "9415": " listener",
  "9416": " Too",
  "9417": " Fix",
  "9418": " priv",
  "9419": " blushed",
  "9420": " Spicy",
  "9421": "venir",
  "9422": " palms",
  "9423": " noticing",
  "9424": "upt",
  "9425": "repe",
  "9426": "poison",
  "9427": " souvenir",
  "9428": " Past",
  "9429": "repeat",
  "9430": "entr",
  "9431": " laws",
  "9432": " disaster",
  "9433": " Tra",
  "9434": " Res",
  "9435": " Jean",
  "9436": " Gabby",
  "9437": "str",
  "9438": "reg",
  "9439": "endant",
  "9440": "Robby",
  "9441": " phones",
  "9442": "ala",
  "9443": "Ava",
  "9444": " confidence",
  "9445": " Li",
  "9446": " Coal",
  "9447": " Cut",
  "9448": " Bert",
  "9449": " timid",
  "9450": " stirs",
  "9451": " overwhelmed",
  "9452": "ingly",
  "9453": "Being",
  "9454": " mayor",
  "9455": " flick",
  "9456": "guess",
  "9457": "asmine",
  "9458": "Che",
  "9459": " tugging",
  "9460": " Pretty",
  "9461": " Mole",
  "9462": "lor",
  "9463": " untangle",
  "9464": " satisfa",
  "9465": " owls",
  "9466": " mailing",
  "9467": " injured",
  "9468": "Whose",
  "9469": " satisfaction",
  "9470": " concentr",
  "9471": " White",
  "9472": " Immediately",
  "9473": " Books",
  "9474": "Fly",
  "9475": " March",
  "9476": " Animals",
  "9477": "mers",
  "9478": "Sc",
  "9479": "Mittens",
  "9480": " lim",
  "9481": " Eat",
  "9482": "this",
  "9483": "Mabel",
  "9484": " prank",
  "9485": " Wonder",
  "9486": " Nora",
  "9487": " Bonnie",
  "9488": "Wiggly",
  "9489": " hooves",
  "9490": " Triangle",
  "9491": " Run",
  "9492": " Pot",
  "9493": " Melissa",
  "9494": " Kn",
  "9495": "well",
  "9496": "Jeff",
  "9497": " fixer",
  "9498": " Startled",
  "9499": " Sir",
  "9500": " Clean",
  "9501": " Close",
  "9502": "icate",
  "9503": " snar",
  "9504": " clut",
  "9505": "lish",
  "9506": "bling",
  "9507": "Excited",
  "9508": " skies",
  "9509": " instrument",
  "9510": " Trucky",
  "9511": " capt",
  "9512": " Matilda",
  "9513": " Horsie",
  "9514": " Faye",
  "9515": "adually",
  "9516": " disagre",
  "9517": "iky",
  "9518": " wriggled",
  "9519": " stains",
  "9520": " rinse",
  "9521": " pecks",
  "9522": " creak",
  "9523": " Sleepy",
  "9524": "Susan",
  "9525": " shave",
  "9526": " bumping",
  "9527": " Sing",
  "9528": " Icy",
  "9529": " Heli",
  "9530": " Crabby",
  "9531": "ulf",
  "9532": "els",
  "9533": " swirl",
  "9534": " ruff",
  "9535": " bending",
  "9536": "cessary",
  "9537": "Playing",
  "9538": "Close",
  "9539": " sandpit",
  "9540": " exploration",
  "9541": " chatted",
  "9542": " Scissors",
  "9543": "Make",
  "9544": " rods",
  "9545": " lever",
  "9546": " facts",
  "9547": "Sm",
  "9548": " attaching",
  "9549": " Candy",
  "9550": " fooled",
  "9551": " burger",
  "9552": " Bro",
  "9553": " glows",
  "9554": " concerned",
  "9555": " clearly",
  "9556": "Maya",
  "9557": " salon",
  "9558": " reversing",
  "9559": " lava",
  "9560": " compan",
  "9561": " certainly",
  "9562": "Wally",
  "9563": " smelt",
  "9564": " motorcycles",
  "9565": " fetched",
  "9566": " circ",
  "9567": " troll",
  "9568": " tunes",
  "9569": " sometime",
  "9570": " prod",
  "9571": " oldest",
  "9572": " fireflies",
  "9573": "Ring",
  "9574": " kissing",
  "9575": " challenges",
  "9576": " blonde",
  "9577": "Kayla",
  "9578": " warmed",
  "9579": " Bobbie",
  "9580": " unlocking",
  "9581": " natural",
  "9582": " differently",
  "9583": " bound",
  "9584": " Lots",
  "9585": "urple",
  "9586": "sa",
  "9587": "erg",
  "9588": "Tara",
  "9589": "Dino",
  "9590": "Abracadabra",
  "9591": " rubb",
  "9592": " riverbank",
  "9593": " detect",
  "9594": " cutter",
  "9595": " cupcake",
  "9596": " conquered",
  "9597": " hates",
  "9598": " alley",
  "9599": " Flap",
  "9600": "sorry",
  "9601": " swirls",
  "9602": " sends",
  "9603": " realise",
  "9604": " Open",
  "9605": " Flopsy",
  "9606": "ani",
  "9607": "Julia",
  "9608": "Isn",
  "9609": " wiggling",
  "9610": " sensation",
  "9611": " munched",
  "9612": " banging",
  "9613": " Cammy",
  "9614": " toppings",
  "9615": " hippos",
  "9616": " fist",
  "9617": " clips",
  "9618": " Reliable",
  "9619": "Doctor",
  "9620": " swayed",
  "9621": " stings",
  "9622": " robe",
  "9623": " miracle",
  "9624": " halves",
  "9625": " brakes",
  "9626": " Greeny",
  "9627": "Hope",
  "9628": "Fish",
  "9629": " survive",
  "9630": " ostriches",
  "9631": " Pink",
  "9632": " Climb",
  "9633": "ula",
  "9634": "keepers",
  "9635": "bert",
  "9636": "Michael",
  "9637": " torto",
  "9638": " otherwise",
  "9639": " embra",
  "9640": " crushed",
  "9641": " bubbling",
  "9642": " tents",
  "9643": " Looking",
  "9644": " Rh",
  "9645": " repairing",
  "9646": " Of",
  "9647": " vinegar",
  "9648": " stretchy",
  "9649": " rubbish",
  "9650": " lizards",
  "9651": " Working",
  "9652": " Flicker",
  "9653": " passenger",
  "9654": " Ed",
  "9655": "aste",
  "9656": "Many",
  "9657": " vibrant",
  "9658": " tortoise",
  "9659": " pounced",
  "9660": " Which",
  "9661": "Suzie",
  "9662": " scene",
  "9663": " Grump",
  "9664": "gr",
  "9665": " mooed",
  "9666": " glided",
  "9667": " desperately",
  "9668": " bas",
  "9669": " snip",
  "9670": " poop",
  "9671": " majest",
  "9672": " intently",
  "9673": " copied",
  "9674": " calmer",
  "9675": " Sundays",
  "9676": " Lightning",
  "9677": "rap",
  "9678": " woken",
  "9679": " twel",
  "9680": " rags",
  "9681": " judges",
  "9682": " joyfully",
  "9683": " jing",
  "9684": " coolest",
  "9685": " Per",
  "9686": "smelling",
  "9687": " lectures",
  "9688": " glob",
  "9689": " Jody",
  "9690": "lyn",
  "9691": "isible",
  "9692": " hips",
  "9693": " cousins",
  "9694": " astonished",
  "9695": " capes",
  "9696": " Outside",
  "9697": "uno",
  "9698": "Eww",
  "9699": " successfully",
  "9700": " speaker",
  "9701": " reunited",
  "9702": " invisible",
  "9703": " guesses",
  "9704": " gooey",
  "9705": " arrives",
  "9706": "why",
  "9707": " twelve",
  "9708": " bats",
  "9709": "urity",
  "9710": "Mikey",
  "9711": " goodness",
  "9712": " computers",
  "9713": " chatting",
  "9714": " Carla",
  "9715": "nded",
  "9716": "mie",
  "9717": " stacking",
  "9718": " snowflake",
  "9719": "istory",
  "9720": " reappeared",
  "9721": " racer",
  "9722": " pounds",
  "9723": " parks",
  "9724": " desperate",
  "9725": " companion",
  "9726": " commun",
  "9727": "bed",
  "9728": "Zigzag",
  "9729": "Ol",
  "9730": " luckiest",
  "9731": " level",
  "9732": " dou",
  "9733": " ank",
  "9734": " tale",
  "9735": " stomachs",
  "9736": " sells",
  "9737": " gall",
  "9738": " dumb",
  "9739": " crickets",
  "9740": " Sugar",
  "9741": "iggles",
  "9742": "Nick",
  "9743": " winds",
  "9744": " sus",
  "9745": " gates",
  "9746": " disobeyed",
  "9747": " disagreement",
  "9748": " Steven",
  "9749": "hile",
  "9750": "More",
  "9751": " pearls",
  "9752": " hoses",
  "9753": " crisp",
  "9754": " awhile",
  "9755": " Whee",
  "9756": "ites",
  "9757": "Lou",
  "9758": " soda",
  "9759": " popsic",
  "9760": " loyalty",
  "9761": " Orange",
  "9762": "Linda",
  "9763": " tongues",
  "9764": " Rosa",
  "9765": "usion",
  "9766": "rent",
  "9767": " rider",
  "9768": " CD",
  "9769": "Ooh",
  "9770": " Black",
  "9771": "pan",
  "9772": " surely",
  "9773": " Law",
  "9774": " Annabelle",
  "9775": "colored",
  "9776": " occasion",
  "9777": " bund",
  "9778": "rum",
  "9779": "izza",
  "9780": "dog",
  "9781": "!’",
  "9782": " stun",
  "9783": " guitars",
  "9784": " chicks",
  "9785": "oard",
  "9786": "chief",
  "9787": " separating",
  "9788": " seashe",
  "9789": " rebuild",
  "9790": " intelligence",
  "9791": " alligators",
  "9792": " aboard",
  "9793": " Raven",
  "9794": " Iron",
  "9795": " April",
  "9796": "Found",
  "9797": " croak",
  "9798": " creep",
  "9799": " Winky",
  "9800": " Violet",
  "9801": "aids",
  "9802": "Something",
  "9803": "Catch",
  "9804": " learner",
  "9805": " caution",
  "9806": " cuc",
  "9807": " Old",
  "9808": " Care",
  "9809": "solut",
  "9810": " whines",
  "9811": " spiky",
  "9812": " revealing",
  "9813": " rins",
  "9814": " Uni",
  "9815": "working",
  "9816": " tickling",
  "9817": " escap",
  "9818": " Settle",
  "9819": " underwater",
  "9820": " globe",
  "9821": " crouched",
  "9822": " Roar",
  "9823": " Coby",
  "9824": " Ba",
  "9825": "udge",
  "9826": "everse",
  "9827": "anne",
  "9828": "!'.",
  "9829": " prog",
  "9830": " blooms",
  "9831": " appearance",
  "9832": " ''",
  "9833": "urricane",
  "9834": "stop",
  "9835": "seph",
  "9836": "ifer",
  "9837": "fived",
  "9838": " strokes",
  "9839": " leaking",
  "9840": " hatched",
  "9841": " guardian",
  "9842": " Socky",
  "9843": "ealing",
  "9844": "arning",
  "9845": " zookeepers",
  "9846": " tant",
  "9847": " routine",
  "9848": " persistence",
  "9849": " doves",
  "9850": "Snap",
  "9851": "Sleep",
  "9852": "Chicky",
  "9853": " taps",
  "9854": " squashes",
  "9855": " quilt",
  "9856": " painful",
  "9857": " lighting",
  "9858": " blame",
  "9859": " admit",
  "9860": " Lu",
  "9861": "net",
  "9862": "Toys",
  "9863": "Ahh",
  "9864": " tempting",
  "9865": " shattered",
  "9866": " ripp",
  "9867": " mold",
  "9868": " deeply",
  "9869": " Puff",
  "9870": "ggles",
  "9871": "Three",
  "9872": "Ralph",
  "9873": "Matt",
  "9874": "Jan",
  "9875": " throne",
  "9876": " squirted",
  "9877": " security",
  "9878": " peeks",
  "9879": " electricity",
  "9880": " centre",
  "9881": " burgers",
  "9882": " Spin",
  "9883": "emon",
  "9884": "con",
  "9885": " realizing",
  "9886": " cooks",
  "9887": " allowing",
  "9888": " Liam",
  "9889": "ushes",
  "9890": "orth",
  "9891": "oss",
  "9892": "cker",
  "9893": "Jessica",
  "9894": " lar",
  "9895": " exchange",
  "9896": " chopping",
  "9897": "Share",
  "9898": "Sophia",
  "9899": " sweetly",
  "9900": " Race",
  "9901": " Quickly",
  "9902": " Alf",
  "9903": "vering",
  "9904": " sweeter",
  "9905": " rinsed",
  "9906": " glittered",
  "9907": "isapp",
  "9908": "Zero",
  "9909": "Sw",
  "9910": " melts",
  "9911": " melody",
  "9912": " goggles",
  "9913": " furious",
  "9914": " energetic",
  "9915": " defeated",
  "9916": " builders",
  "9917": " Inch",
  "9918": "asy",
  "9919": " waded",
  "9920": " tantrum",
  "9921": " sniffled",
  "9922": " chooses",
  "9923": " Otherwise",
  "9924": " Cats",
  "9925": " Comet",
  "9926": " container",
  "9927": " competing",
  "9928": " Giant",
  "9929": "eremy",
  "9930": "bang",
  "9931": " Sharp",
  "9932": " Mila",
  "9933": "arted",
  "9934": " undone",
  "9935": " seriously",
  "9936": " protection",
  "9937": " larger",
  "9938": " lull",
  "9939": " hudd",
  "9940": " attempts",
  "9941": " Rara",
  "9942": " Park",
  "9943": " Duke",
  "9944": "Shoo",
  "9945": "Lizzie",
  "9946": " tossing",
  "9947": " helicopters",
  "9948": " cooed",
  "9949": " cluck",
  "9950": " buckles",
  "9951": " Whale",
  "9952": " Pinchy",
  "9953": " Cher",
  "9954": "Sweet",
  "9955": " Tears",
  "9956": " Smo",
  "9957": " Over",
  "9958": "solutely",
  "9959": "Still",
  "9960": "Squeaky",
  "9961": " hummed",
  "9962": " dedic",
  "9963": " courageous",
  "9964": " Ma",
  "9965": " Hor",
  "9966": " Din",
  "9967": "dest",
  "9968": "Maddy",
  "9969": "Everything",
  "9970": "Curious",
  "9971": " racers",
  "9972": " patients",
  "9973": " muster",
  "9974": " god",
  "9975": " deserves",
  "9976": " aloud",
  "9977": " Things",
  "9978": "aps",
  "9979": "Use",
  "9980": " Squee",
  "9981": " Dragon",
  "9982": " tours",
  "9983": " meets",
  "9984": " marvel",
  "9985": " Rusty",
  "9986": " Liza",
  "9987": " Jet",
  "9988": "Froggy",
  "9989": " wrapper",
  "9990": " Reddy",
  "9991": " Hops",
  "9992": " Crusty",
  "9993": " whiskers",
  "9994": " nicest",
  "9995": " improving",
  "9996": " booth",
  "9997": " Land",
  "9998": "Surrender",
  "9999": "Rocky"
}