{
  "0": "\u0000",
  "1": "\u0001",
  "2": "\u0002",
  "3": "\u0003",
  "4": "\u0004",
  "5": "\u0005",
  "6": "\u0006",
  "7": "\u0007",
  "8": "\b",
  "9": "\t",
  "10": "\n",
  "11": "\u000b",
  "12": "\f",
  "13": "\r",
  "14": "\u000e",
  "15": "\u000f",
  "16": "\u0010",
  "17": "\u0011",
  "18": "\u0012",
  "19": "\u0013",
  "20": "\u0014",
  "21": "\u0015",
  "22": "\u0016",
  "23": "\u0017",
  "24": "\u0018",
  "25": "\u0019",
  "26": "\u001a",
  "27": "\u001b",
  "28": "\u001c",
  "29": "\u001d",
  "30": "\u001e",
  "31": "\u001f",
  "32": " ",
  "33": "!",
  "34": "\"",
  "35": "#",
  "36": "$",
  "37": "%",
  "38": "&",
  "39": "'",
  "40": "(",
  "41": ")",
  "42": "*",
  "43": "+",
  "44": ",",
  "45": "-",
  "46": ".",
  "47": "/",
  "48": "0",
  "49": "1",
  "50": "2",
  "51": "3",
  "52": "4",
  "53": "5",
  "54": "6",
  "55": "7",
  "56": "8",
  "57": "9",
  "58": ":",
  "59": ";",
  "60": "<",
  "61": "=",
  "62": ">",
  "63": "?",
  "64": "@",
  "65": "A",
  "66": "B",
  "67": "C",
  "68": "D",
  "69": "E",
  "70": "F",
  "71": "G",
  "72": "H",
  "73": "I",
  "74": "J",
  "75": "K",
  "76": "L",
  "77": "M",
  "78": "N",
  "79": "O",
  "80": "P",
  "81": "Q",
  "82": "R",
  "83": "S",
  "84": "T",
  "85": "U",
  "86": "V",
  "87": "W",
  "88": "X",
  "89": "Y",
  "90": "Z",
  "91": "[",
  "92": "\\",
  "93": "]",
  "94": "^",
  "95": "_",
  "96": "`",
  "97": "a",
  "98": "b",
  "99": "c",
  "100": "d",
  "101": "e",
  "102": "f",
  "103": "g",
  "104": "h",
  "105": "i",
  "106": "j",
  "107": "k",
  "108": "l",
  "109": "m",
  "110": "n",
  "111": "o",
  "112": "p",
  "113": "q",
  "114": "r",
  "115": "s",
  "116": "t",
  "117": "u",
  "118": "v",
  "119": "w",
  "120": "x",
  "121": "y",
  "122": "z",
  "123": "{",
  "124": "|",
  "125": "}",
  "126": "~",
  "127": "",
  "128": "�",
  "129": "�",
  "130": "�",
  "131": "�",
  "132": "�",
  "133": "�",
  "134": "�",
  "135": "�",
  "136": "�",
  "137": "�",
  "138": "�",
  "139": "�",
  "140": "�",
  "141": "�",
  "142": "�",
  "143": "�",
  "144": "�",
  "145": "�",
  "146": "�",
  "147": "�",
  "148": "�",
  "149": "�",
  "150": "�",
  "151": "�",
  "152": "�",
  "153": "�",
  "154": "�",
  "155": "�",
  "156": "�",
  "157": "�",
  "158": "�",
  "159": "�",
  "160": "�",
  "161": "�",
  "162": "�",
  "163": "�",
  "164": "�",
  "165": "�",
  "166": "�",
  "167": "�",
  "168": "�",
  "169": "�",
  "170": "�",
  "171": "�",
  "172": "�",
  "173": "�",
  "174": "�",
  "175": "�",
  "176": "�",
  "177": "�",
  "178": "�",
  "179": "�",
  "180": "�",
  "181": "�",
  "182": "�",
  "183": "�",
  "184": "�",
  "185": "�",
  "186": "�",
  "187": "�",
  "188": "�",
  "189": "�",
  "190": "�",
  "191": "�",
  "192": "�",
  "193": "�",
  "194": "�",
  "195": "�",
  "196": "�",
  "197": "�",
  "198": "�",
  "199": "�",
  "200": "�",
  "201": "�",
  "202": "�",
  "203": "�",
  "204": "�",
  "205": "�",
  "206": "�",
  "207": "�",
  "208": "�",
  "209": "�",
  "210": "�",
  "211": "�",
  "212": "�",
  "213": "�",
  "214": "�",
  "215": "�",
  "216": "�",
  "217": "�",
  "218": "�",
  "219": "�",
  "220": "�",
  "221": "�",
  "222": "�",
  "223": "�",
  "224": "�",
  "225": "�",
  "226": "�",
  "227": "�",
  "228": "�",
  "229": "�",
  "230": "�",
  "231": "�",
  "232": "�",
  "233": "�",
  "234": "�",
  "235": "�",
  "236": "�",
  "237": "�",
  "238": "�",
  "239": "�",
  "240": "�",
  "241": "�",
  "242": "�",
  "243": "�",
  "244": "�",
  "245": "�",
  "246": "�",
  "247": "�",
  "248": "�",
  "249": "�",
  "250": "�",
  "251": "�",
  "252": "�",
  "253": "�",
  "254": "�",
  "255": "�",
  "256": "<|endoftext|>",
  "257": " t",
  "258": "he",
  "259": " a",
  "260": " s",
  "261": " w",
  "262": "nd",
  "263": " the",
  "264": "ed",
  "265": " b",
  "266": " to",
  "267": " and",
  "268": " h",
  "269": " f",
  "270": "in",
  "271": " T",
  "272": " wa",
  "273": "re",
  "274": "it",
  "275": "ou",
  "276": " l",
  "277": " d",
  "278": " c",
  "279": " p",
  "280": "ay",
  "281": " m",
  "282": "er",
  "283": " was",
  "284": "om",
  "285": " The",
  "286": " he",
  "287": "is",
  "288": "ar",
  "289": " n",
  "290": "im",
  "291": "on",
  "292": " sa",
  "293": "id",
  "294": "ll",
  "295": " ha",
  "296": " g",
  "297": "at",
  "298": " S",
  "299": "ing",
  "300": "ot",
  "301": "en",
  "302": "an",
  "303": "le",
  "304": "or",
  "305": "ir",
  "306": "am",
  "307": "et",
  "308": " H",
  "309": " it",
  "310": " th",
  "311": "ig",
  "312": " They",
  "313": " in",
  "314": "il",
  "315": " pl",
  "316": " He",
  "317": " \"",
  "318": "ow",
  "319": "ri",
  "320": "ver",
  "321": "ut",
  "322": " be",
  "323": " u",
  "324": " said",
  "325": " play",
  "326": "ith",
  "327": " day",
  "328": " with",
  "329": "pp",
  "330": "On",
  "331": " o",
  "332": " y",
  "333": " r",
  "334": "oo",
  "335": "ked",
  "336": " her",
  "337": "ce",
  "338": " I",
  "339": " She",
  "340": "ld",
  "341": " Tim",
  "342": " his",
  "343": " st",
  "344": "ke",
  "345": " e",
  "346": "nt",
  "347": " big",
  "348": "ck",
  "349": "ve",
  "350": " you",
  "351": "st",
  "352": "very",
  "353": "end",
  "354": " on",
  "355": "un",
  "356": " happ",
  "357": "riend",
  "358": " friend",
  "359": "all",
  "360": "ily",
  "361": " L",
  "362": " they",
  "363": " we",
  "364": " had",
  "365": " not",
  "366": " li",
  "367": " up",
  "368": "her",
  "369": " want",
  "370": " of",
  "371": "ad",
  "372": "itt",
  "373": "se",
  "374": " B",
  "375": " do",
  "376": " happy",
  "377": " very",
  "378": " M",
  "379": "ent",
  "380": "es",
  "381": " that",
  "382": " saw",
  "383": "One",
  "384": "'s",
  "385": "ould",
  "386": " mom",
  "387": " for",
  "388": " sh",
  "389": "ittle",
  "390": " little",
  "391": " so",
  "392": " she",
  "393": "ch",
  "394": "ime",
  "395": " ne",
  "396": " nam",
  "397": ".\"",
  "398": " time",
  "399": " k",
  "400": "ound",
  "401": " there",
  "402": " named",
  "403": " sm",
  "404": " bo",
  "405": " were",
  "406": " Lily",
  "407": " wanted",
  "408": " but",
  "409": "out",
  "410": "The",
  "411": " friends",
  "412": "ved",
  "413": "!\"",
  "414": "ht",
  "415": " Tom",
  "416": "ird",
  "417": "el",
  "418": " bird",
  "419": "al",
  "420": " an",
  "421": "ake",
  "422": " too",
  "423": "ome",
  "424": " It",
  "425": "ug",
  "426": "ide",
  "427": " went",
  "428": " wh",
  "429": " hel",
  "430": "Once",
  "431": "ry",
  "432": " is",
  "433": " all",
  "434": " help",
  "435": "ue",
  "436": " loo",
  "437": " lo",
  "438": "ter",
  "439": " A",
  "440": " upon",
  "441": "ore",
  "442": "ind",
  "443": " fun",
  "444": "get",
  "445": " toy",
  "446": "ill",
  "447": "ame",
  "448": " as",
  "449": " at",
  "450": "ra",
  "451": " j",
  "452": " did",
  "453": "gether",
  "454": "ur",
  "455": " se",
  "456": " together",
  "457": "ack",
  "458": " cat",
  "459": "ly",
  "460": " tre",
  "461": " re",
  "462": "ood",
  "463": "ic",
  "464": "ted",
  "465": " dog",
  "466": " could",
  "467": " can",
  "468": " their",
  "469": "ard",
  "470": "ec",
  "471": "ark",
  "472": " gir",
  "473": " played",
  "474": " him",
  "475": " ball",
  "476": "?\"",
  "477": " girl",
  "478": "way",
  "479": " ro",
  "480": " go",
  "481": "hed",
  "482": "my",
  "483": " are",
  "484": " out",
  "485": " le",
  "486": " fr",
  "487": "ain",
  "488": " kn",
  "489": "hen",
  "490": " them",
  "491": "um",
  "492": "'t",
  "493": "ax",
  "494": " sad",
  "495": "ul",
  "496": " boy",
  "497": " tree",
  "498": "other",
  "499": " have",
  "500": " man",
  "501": " cl",
  "502": " loved",
  "503": " looked",
  "504": "oug",
  "505": " found",
  "506": " sp",
  "507": " star",
  "508": " Sue",
  "509": "one",
  "510": "hing",
  "511": " sc",
  "512": " back",
  "513": "own",
  "514": " Max",
  "515": "are",
  "516": " like",
  "517": "ful",
  "518": "side",
  "519": " me",
  "520": " bec",
  "521": " park",
  "522": "ight",
  "523": "ong",
  "524": " car",
  "525": "op",
  "526": "elt",
  "527": " One",
  "528": " liked",
  "529": " would",
  "530": " make",
  "531": "round",
  "532": " la",
  "533": " fa",
  "534": " felt",
  "535": "You",
  "536": " W",
  "537": "ell",
  "538": " see",
  "539": " But",
  "540": "omet",
  "541": " asked",
  "542": "ag",
  "543": " new",
  "544": " no",
  "545": "ice",
  "546": " Sam",
  "547": "ouse",
  "548": " started",
  "549": "ared",
  "550": " came",
  "551": " Ben",
  "552": " al",
  "553": " other",
  "554": "ought",
  "555": "iled",
  "556": " somet",
  "557": " ag",
  "558": " good",
  "559": " small",
  "560": "ss",
  "561": " br",
  "562": " smiled",
  "563": " say",
  "564": "ried",
  "565": "ade",
  "566": "ings",
  "567": "ob",
  "568": "pot",
  "569": " wor",
  "570": " find",
  "571": " ex",
  "572": "ia",
  "573": " away",
  "574": "ty",
  "575": " put",
  "576": " what",
  "577": " something",
  "578": " co",
  "579": " from",
  "580": " made",
  "581": " thought",
  "582": "ened",
  "583": " home",
  "584": " playing",
  "585": "ook",
  "586": " wal",
  "587": " mu",
  "588": "uc",
  "589": "ach",
  "590": "arn",
  "591": " Spot",
  "592": " ran",
  "593": "ile",
  "594": " F",
  "595": "ie",
  "596": " J",
  "597": "ave",
  "598": " again",
  "599": " some",
  "600": " laug",
  "601": "dd",
  "602": " house",
  "603": " down",
  "604": " fl",
  "605": "king",
  "606": " pr",
  "607": " took",
  "608": " scared",
  "609": "ny",
  "610": "ure",
  "611": " toys",
  "612": " learn",
  "613": " You",
  "614": "if",
  "615": " will",
  "616": " box",
  "617": "ep",
  "618": "ick",
  "619": "ret",
  "620": "ab",
  "621": " every",
  "622": " my",
  "623": " around",
  "624": " things",
  "625": " your",
  "626": "oud",
  "627": " bl",
  "628": "uck",
  "629": " when",
  "630": "ish",
  "631": " lived",
  "632": " fe",
  "633": " then",
  "634": " sun",
  "635": "as",
  "636": " sw",
  "637": ",\"",
  "638": " ch",
  "639": "us",
  "640": "pped",
  "641": " ab",
  "642": " Mia",
  "643": "ank",
  "644": " get",
  "645": "ucy",
  "646": "Tim",
  "647": "ump",
  "648": "Th",
  "649": " lot",
  "650": "ist",
  "651": "oth",
  "652": " tried",
  "653": "ap",
  "654": " know",
  "655": " says",
  "656": " got",
  "657": "ited",
  "658": " who",
  "659": " kne",
  "660": "ust",
  "661": " many",
  "662": "nder",
  "663": " int",
  "664": " about",
  "665": "Lily",
  "666": " pret",
  "667": " dec",
  "668": " any",
  "669": " red",
  "670": " D",
  "671": "ive",
  "672": " knew",
  "673": "ace",
  "674": "ous",
  "675": " more",
  "676": "ise",
  "677": " care",
  "678": "ally",
  "679": " pic",
  "680": " v",
  "681": "au",
  "682": "qu",
  "683": " hug",
  "684": " Lucy",
  "685": " learned",
  "686": " po",
  "687": " water",
  "688": "fter",
  "689": " became",
  "690": " best",
  "691": "ause",
  "692": " op",
  "693": " gre",
  "694": " exc",
  "695": "urp",
  "696": "ways",
  "697": "�",
  "698": " outside",
  "699": " laughed",
  "700": " look",
  "701": " always",
  "702": " decid",
  "703": " show",
  "704": " un",
  "705": "ant",
  "706": " Bob",
  "707": " room",
  "708": "fe",
  "709": " decided",
  "710": " ho",
  "711": " because",
  "712": " So",
  "713": " into",
  "714": " eat",
  "715": "ite",
  "716": " jump",
  "717": " And",
  "718": " pe",
  "719": " both",
  "720": "ers",
  "721": " Mom",
  "722": " dad",
  "723": "They",
  "724": "udd",
  "725": " ke",
  "726": " one",
  "727": "nn",
  "728": " this",
  "729": " excited",
  "730": " fast",
  "731": " nice",
  "732": " E",
  "733": " feel",
  "734": "Tom",
  "735": "Yes",
  "736": " run",
  "737": " long",
  "738": " told",
  "739": " sk",
  "740": " am",
  "741": "urpr",
  "742": "our",
  "743": " inside",
  "744": "ull",
  "745": " tr",
  "746": " surpr",
  "747": " mo",
  "748": "ink",
  "749": " pretty",
  "750": "iny",
  "751": " sor",
  "752": "Wh",
  "753": " take",
  "754": "og",
  "755": " sl",
  "756": " each",
  "757": " gave",
  "758": " much",
  "759": " gra",
  "760": "lew",
  "761": "nna",
  "762": " rock",
  "763": " how",
  "764": " str",
  "765": "ara",
  "766": "imal",
  "767": " animal",
  "768": "ged",
  "769": " need",
  "770": " than",
  "771": "But",
  "772": "ven",
  "773": "etter",
  "774": " tow",
  "775": " or",
  "776": " C",
  "777": " under",
  "778": "ess",
  "779": " old",
  "780": " sorry",
  "781": "ge",
  "782": "ised",
  "783": "ro",
  "784": "urt",
  "785": " cle",
  "786": " fish",
  "787": " walked",
  "788": " clo",
  "789": "and",
  "790": " bear",
  "791": "ft",
  "792": "ase",
  "793": "ast",
  "794": " hand",
  "795": " We",
  "796": "em",
  "797": " kind",
  "798": " His",
  "799": "here",
  "800": " happened",
  "801": " just",
  "802": " flow",
  "803": " food",
  "804": " list",
  "805": " didn",
  "806": "urn",
  "807": " animals",
  "808": " hig",
  "809": "pl",
  "810": " near",
  "811": " wat",
  "812": " ide",
  "813": " try",
  "814": "ched",
  "815": " sky",
  "816": "ine",
  "817": " sn",
  "818": "ving",
  "819": " fi",
  "820": "rom",
  "821": " us",
  "822": " idea",
  "823": " better",
  "824": " Amy",
  "825": " te",
  "826": " bug",
  "827": " heard",
  "828": "gry",
  "829": " its",
  "830": " tw",
  "831": " let",
  "832": "pec",
  "833": "ate",
  "834": "ff",
  "835": "able",
  "836": " en",
  "837": " careful",
  "838": " share",
  "839": "ex",
  "840": " if",
  "841": "Thank",
  "842": "Mom",
  "843": " fly",
  "844": " stor",
  "845": "ial",
  "846": " flew",
  "847": "more",
  "848": " anymore",
  "849": " Th",
  "850": " spec",
  "851": " special",
  "852": " com",
  "853": "ion",
  "854": " lots",
  "855": " never",
  "856": " by",
  "857": "lf",
  "858": "ream",
  "859": " dan",
  "860": " bu",
  "861": " fo",
  "862": " wind",
  "863": " don",
  "864": " tal",
  "865": " clean",
  "866": "ort",
  "867": " gr",
  "868": " love",
  "869": "rm",
  "870": "ber",
  "871": " end",
  "872": "\n\n",
  "873": " Then",
  "874": "ople",
  "875": " even",
  "876": " mag",
  "877": " hard",
  "878": " shiny",
  "879": "udden",
  "880": " fore",
  "881": " over",
  "882": " cake",
  "883": "ak",
  "884": " book",
  "885": " col",
  "886": " turn",
  "887": " fam",
  "888": " bad",
  "889": " safe",
  "890": " after",
  "891": "ady",
  "892": " Anna",
  "893": "uddenly",
  "894": " people",
  "895": " proud",
  "896": " surprised",
  "897": "pected",
  "898": "Let",
  "899": " high",
  "900": " cu",
  "901": " hurt",
  "902": " come",
  "903": "imb",
  "904": "arden",
  "905": " door",
  "906": " garden",
  "907": "bb",
  "908": " ground",
  "909": " opened",
  "910": " picked",
  "911": " loud",
  "912": " climb",
  "913": "expected",
  "914": " unexpected",
  "915": " gl",
  "916": " che",
  "917": "ild",
  "918": " im",
  "919": "As",
  "920": " give",
  "921": " way",
  "922": "ail",
  "923": "'m",
  "924": " thanked",
  "925": " Every",
  "926": " color",
  "927": " blue",
  "928": " still",
  "929": " ever",
  "930": " hugged",
  "931": " From",
  "932": " call",
  "933": " far",
  "934": "ip",
  "935": " Her",
  "936": " Sara",
  "937": " When",
  "938": "No",
  "939": " off",
  "940": " magic",
  "941": "iz",
  "942": "ough",
  "943": "age",
  "944": "ummy",
  "945": " K",
  "946": " jumped",
  "947": " should",
  "948": " family",
  "949": " par",
  "950": "ool",
  "951": " kid",
  "952": " smile",
  "953": "hes",
  "954": "uff",
  "955": " place",
  "956": "kay",
  "957": " walk",
  "958": " now",
  "959": "ct",
  "960": " In",
  "961": " great",
  "962": "ture",
  "963": " qu",
  "964": "les",
  "965": " strong",
  "966": " stay",
  "967": " unt",
  "968": " sto",
  "969": "aut",
  "970": " forest",
  "971": "ane",
  "972": " bra",
  "973": "itty",
  "974": " P",
  "975": " frog",
  "976": " bro",
  "977": " until",
  "978": "oon",
  "979": " beaut",
  "980": "dy",
  "981": " squ",
  "982": " stick",
  "983": "xt",
  "984": " next",
  "985": " boat",
  "986": "lease",
  "987": "ning",
  "988": " happily",
  "989": " listen",
  "990": "aking",
  "991": " kids",
  "992": " tra",
  "993": "iful",
  "994": " beautiful",
  "995": "ies",
  "996": " app",
  "997": "th",
  "998": " helped",
  "999": " dra",
  "1000": " showed",
  "1001": " clos",
  "1002": "be",
  "1003": " imp",
  "1004": " story",
  "1005": "unny",
  "1006": "oy",
  "1007": " while",
  "1008": " town",
  "1009": "rel",
  "1010": "pt",
  "1011": " rain",
  "1012": "ress",
  "1013": " picture",
  "1014": " being",
  "1015": " everyone",
  "1016": "It",
  "1017": "ary",
  "1018": "ree",
  "1019": " mor",
  "1020": " hat",
  "1021": " called",
  "1022": " met",
  "1023": " stopped",
  "1024": " ad",
  "1025": " game",
  "1026": "Now",
  "1027": "He",
  "1028": "Can",
  "1029": " angry",
  "1030": "ger",
  "1031": "uffy",
  "1032": " open",
  "1033": " wo",
  "1034": " truck",
  "1035": " keep",
  "1036": " soft",
  "1037": "When",
  "1038": " cry",
  "1039": " yummy",
  "1040": " lost",
  "1041": " bed",
  "1042": " Let",
  "1043": " Sally",
  "1044": " warm",
  "1045": "by",
  "1046": "vent",
  "1047": " brave",
  "1048": " mouse",
  "1049": " Wh",
  "1050": " ate",
  "1051": " de",
  "1052": " Kitty",
  "1053": "ished",
  "1054": "fore",
  "1055": " doll",
  "1056": "so",
  "1057": " couldn",
  "1058": " watch",
  "1059": " leave",
  "1060": " also",
  "1061": "dded",
  "1062": " fell",
  "1063": " green",
  "1064": " face",
  "1065": " two",
  "1066": "gan",
  "1067": "iss",
  "1068": " flowers",
  "1069": "bit",
  "1070": "What",
  "1071": " R",
  "1072": "ble",
  "1073": " noise",
  "1074": "abbit",
  "1075": "irst",
  "1076": "ng",
  "1077": "owl",
  "1078": " where",
  "1079": "az",
  "1080": "ock",
  "1081": " soon",
  "1082": "self",
  "1083": " slide",
  "1084": " rabbit",
  "1085": " hole",
  "1086": "luffy",
  "1087": " before",
  "1088": "irrel",
  "1089": " pus",
  "1090": "ired",
  "1091": " sat",
  "1092": "illy",
  "1093": " hear",
  "1094": " use",
  "1095": "”",
  "1096": "Hi",
  "1097": " pa",
  "1098": " kept",
  "1099": "“",
  "1100": "That",
  "1101": " squirrel",
  "1102": "ear",
  "1103": "Then",
  "1104": "ma",
  "1105": " nodded",
  "1106": " expl",
  "1107": " store",
  "1108": " cook",
  "1109": " hands",
  "1110": "Look",
  "1111": " birds",
  "1112": " pain",
  "1113": " going",
  "1114": " funny",
  "1115": " having",
  "1116": "day",
  "1117": " sing",
  "1118": "aybe",
  "1119": "uch",
  "1120": " ey",
  "1121": "aug",
  "1122": " catch",
  "1123": "aught",
  "1124": " Can",
  "1125": " Fluffy",
  "1126": "uit",
  "1127": " yell",
  "1128": " think",
  "1129": "leep",
  "1130": " cra",
  "1131": " fin",
  "1132": "Ben",
  "1133": " bre",
  "1134": " fix",
  "1135": " tired",
  "1136": " bunny",
  "1137": " used",
  "1138": " looking",
  "1139": " bus",
  "1140": "ange",
  "1141": "air",
  "1142": " work",
  "1143": " wr",
  "1144": " our",
  "1145": " pull",
  "1146": "We",
  "1147": " thr",
  "1148": "thing",
  "1149": " Now",
  "1150": " wait",
  "1151": " kit",
  "1152": " sound",
  "1153": "ting",
  "1154": " jo",
  "1155": " has",
  "1156": " G",
  "1157": " mean",
  "1158": " pond",
  "1159": " beh",
  "1160": " dr",
  "1161": " sunny",
  "1162": "led",
  "1163": " others",
  "1164": " ask",
  "1165": "chen",
  "1166": " kitchen",
  "1167": " talk",
  "1168": " flo",
  "1169": " dif",
  "1170": "rew",
  "1171": " pie",
  "1172": " Jo",
  "1173": " head",
  "1174": " real",
  "1175": " first",
  "1176": " tri",
  "1177": " mommy",
  "1178": " eyes",
  "1179": "ello",
  "1180": " import",
  "1181": "Hello",
  "1182": " fav",
  "1183": "ath",
  "1184": "joy",
  "1185": " z",
  "1186": " right",
  "1187": " flower",
  "1188": " con",
  "1189": " mess",
  "1190": " party",
  "1191": " cold",
  "1192": " Do",
  "1193": " vo",
  "1194": " swe",
  "1195": "ious",
  "1196": " sand",
  "1197": " “",
  "1198": "ac",
  "1199": "orn",
  "1200": " race",
  "1201": " curi",
  "1202": "imes",
  "1203": " important",
  "1204": " duck",
  "1205": " moral",
  "1206": " shared",
  "1207": "zy",
  "1208": "ount",
  "1209": " Jack",
  "1210": " ice",
  "1211": " okay",
  "1212": " advent",
  "1213": " worked",
  "1214": "llow",
  "1215": "At",
  "1216": " enjoy",
  "1217": " dress",
  "1218": " bright",
  "1219": " making",
  "1220": " curious",
  "1221": " own",
  "1222": " tall",
  "1223": " dir",
  "1224": " hop",
  "1225": "reed",
  "1226": " hid",
  "1227": " favor",
  "1228": " ri",
  "1229": "hn",
  "1230": " sleep",
  "1231": " dis",
  "1232": "Wow",
  "1233": " favorite",
  "1234": " thing",
  "1235": " began",
  "1236": " mon",
  "1237": " bag",
  "1238": " hill",
  "1239": "Don",
  "1240": " cla",
  "1241": " draw",
  "1242": " here",
  "1243": " yard",
  "1244": " tell",
  "1245": " Fin",
  "1246": " rest",
  "1247": "ster",
  "1248": " watched",
  "1249": "que",
  "1250": " follow",
  "1251": " move",
  "1252": " bel",
  "1253": "ect",
  "1254": " cut",
  "1255": " night",
  "1256": " agreed",
  "1257": " pick",
  "1258": " block",
  "1259": "co",
  "1260": " hun",
  "1261": "aper",
  "1262": "lly",
  "1263": " stop",
  "1264": " behind",
  "1265": " This",
  "1266": " surprise",
  "1267": "ied",
  "1268": " sho",
  "1269": " hot",
  "1270": "After",
  "1271": " table",
  "1272": " grass",
  "1273": " worry",
  "1274": " dark",
  "1275": " trees",
  "1276": " voice",
  "1277": " walking",
  "1278": "fere",
  "1279": " floor",
  "1280": " farm",
  "1281": " lion",
  "1282": " top",
  "1283": " differe",
  "1284": " please",
  "1285": " ru",
  "1286": " song",
  "1287": " butter",
  "1288": " tail",
  "1289": " sweet",
  "1290": "Max",
  "1291": " shout",
  "1292": " colors",
  "1293": " read",
  "1294": " Dad",
  "1295": " lady",
  "1296": " forg",
  "1297": "isy",
  "1298": " leaves",
  "1299": " closer",
  "1300": "ign",
  "1301": " cars",
  "1302": " turned",
  "1303": " needed",
  "1304": " tast",
  "1305": "Why",
  "1306": "aring",
  "1307": " wood",
  "1308": " cried",
  "1309": " different",
  "1310": " laugh",
  "1311": " del",
  "1312": "ered",
  "1313": " piece",
  "1314": "’",
  "1315": " Mr",
  "1316": " roll",
  "1317": " adventure",
  "1318": " fire",
  "1319": " does",
  "1320": "ike",
  "1321": " cr",
  "1322": " hungry",
  "1323": " hair",
  "1324": " Suddenly",
  "1325": " paper",
  "1326": " feeling",
  "1327": " yellow",
  "1328": " full",
  "1329": " prin",
  "1330": "bo",
  "1331": "Sue",
  "1332": " touch",
  "1333": " As",
  "1334": "Anna",
  "1335": "Sam",
  "1336": " wet",
  "1337": " friendly",
  "1338": " per",
  "1339": "oom",
  "1340": "ken",
  "1341": "cked",
  "1342": "ached",
  "1343": " swing",
  "1344": " fruit",
  "1345": "ient",
  "1346": " broken",
  "1347": " ready",
  "1348": " rem",
  "1349": "bye",
  "1350": "ppy",
  "1351": " prom",
  "1352": " That",
  "1353": " another",
  "1354": " light",
  "1355": " pretend",
  "1356": " dance",
  "1357": "ater",
  "1358": " climbed",
  "1359": "where",
  "1360": " listened",
  "1361": " Bobo",
  "1362": " danc",
  "1363": " running",
  "1364": " only",
  "1365": " plan",
  "1366": " gone",
  "1367": " swim",
  "1368": "bbed",
  "1369": "Suddenly",
  "1370": "sh",
  "1371": " train",
  "1372": "ila",
  "1373": "ndma",
  "1374": "Sara",
  "1375": " Jane",
  "1376": " close",
  "1377": "av",
  "1378": "She",
  "1379": " smell",
  "1380": "So",
  "1381": "aby",
  "1382": " amaz",
  "1383": " hold",
  "1384": " wonder",
  "1385": " blocks",
  "1386": " Timmy",
  "1387": " repl",
  "1388": " All",
  "1389": " butterf",
  "1390": " sees",
  "1391": " reached",
  "1392": " wall",
  "1393": " pu",
  "1394": "oney",
  "1395": "red",
  "1396": " slow",
  "1397": " helping",
  "1398": " dri",
  "1399": " cream",
  "1400": " cool",
  "1401": " glad",
  "1402": "af",
  "1403": " ant",
  "1404": " less",
  "1405": " been",
  "1406": " goodbye",
  "1407": " ac",
  "1408": " fight",
  "1409": "ather",
  "1410": "Mia",
  "1411": " pushed",
  "1412": "iced",
  "1413": " fair",
  "1414": " must",
  "1415": " hide",
  "1416": " moment",
  "1417": " window",
  "1418": " O",
  "1419": " sit",
  "1420": " balloon",
  "1421": " snow",
  "1422": " child",
  "1423": " explore",
  "1424": " Everyone",
  "1425": " ar",
  "1426": " wished",
  "1427": " baby",
  "1428": " done",
  "1429": " wag",
  "1430": " ste",
  "1431": " buy",
  "1432": " stuck",
  "1433": " perf",
  "1434": " thank",
  "1435": " might",
  "1436": "icy",
  "1437": "pe",
  "1438": " name",
  "1439": "ized",
  "1440": " trying",
  "1441": " bit",
  "1442": " coming",
  "1443": " bar",
  "1444": " quick",
  "1445": " fall",
  "1446": " apple",
  "1447": "ash",
  "1448": " scary",
  "1449": " looks",
  "1450": " build",
  "1451": " doing",
  "1452": "ember",
  "1453": "emember",
  "1454": " win",
  "1455": " underst",
  "1456": "aisy",
  "1457": " din",
  "1458": " dream",
  "1459": " dirty",
  "1460": " held",
  "1461": "ames",
  "1462": " books",
  "1463": " mar",
  "1464": "In",
  "1465": " butterfly",
  "1466": " left",
  "1467": " shouted",
  "1468": " count",
  "1469": " replied",
  "1470": "avy",
  "1471": " reach",
  "1472": " tiny",
  "1473": " through",
  "1474": "ott",
  "1475": " dro",
  "1476": " why",
  "1477": "very",
  "1478": "verywhere",
  "1479": " air",
  "1480": " bran",
  "1481": " land",
  "1482": "key",
  "1483": " three",
  "1484": " pulled",
  "1485": " spl",
  "1486": " grow",
  "1487": " treat",
  "1488": " brother",
  "1489": " wise",
  "1490": " woods",
  "1491": " sure",
  "1492": "'re",
  "1493": " chair",
  "1494": "ix",
  "1495": " mat",
  "1496": "ins",
  "1497": " seen",
  "1498": " pink",
  "1499": " clapped",
  "1500": " plant",
  "1501": "ely",
  "1502": " owl",
  "1503": " cup",
  "1504": "ield",
  "1505": " sometimes",
  "1506": "andy",
  "1507": " fill",
  "1508": " cloud",
  "1509": "ask",
  "1510": " swam",
  "1511": "outh",
  "1512": " job",
  "1513": " colorful",
  "1514": "emembered",
  "1515": " remembered",
  "1516": " bigger",
  "1517": " nest",
  "1518": " mouth",
  "1519": "Okay",
  "1520": " lesson",
  "1521": " join",
  "1522": " cre",
  "1523": "ph",
  "1524": " There",
  "1525": "oup",
  "1526": "room",
  "1527": "art",
  "1528": " waved",
  "1529": "uddy",
  "1530": " grabbed",
  "1531": " stayed",
  "1532": "Oh",
  "1533": " paint",
  "1534": "This",
  "1535": " clot",
  "1536": " cont",
  "1537": " clothes",
  "1538": "ower",
  "1539": " After",
  "1540": " waited",
  "1541": " quickly",
  "1542": "cle",
  "1543": " word",
  "1544": " broke",
  "1545": "ucky",
  "1546": " games",
  "1547": " cast",
  "1548": " blew",
  "1549": " gent",
  "1550": " Mommy",
  "1551": " enjoyed",
  "1552": " noticed",
  "1553": "Jo",
  "1554": "ries",
  "1555": "ation",
  "1556": " set",
  "1557": " likes",
  "1558": " pictures",
  "1559": "ton",
  "1560": " sea",
  "1561": " heavy",
  "1562": " mus",
  "1563": " alone",
  "1564": " gif",
  "1565": "asure",
  "1566": " anything",
  "1567": " spot",
  "1568": " miss",
  "1569": " hopped",
  "1570": " world",
  "1571": " turns",
  "1572": "orm",
  "1573": " year",
  "1574": "der",
  "1575": " bott",
  "1576": " pat",
  "1577": " pot",
  "1578": " pen",
  "1579": "lc",
  "1580": "Her",
  "1581": " mix",
  "1582": " arm",
  "1583": " ve",
  "1584": " bike",
  "1585": " tight",
  "1586": " everywhere",
  "1587": " won",
  "1588": "Lucy",
  "1589": " tower",
  "1590": " threw",
  "1591": " himself",
  "1592": " followed",
  "1593": " Buddy",
  "1594": " ride",
  "1595": "man",
  "1596": "less",
  "1597": " ju",
  "1598": " je",
  "1599": "ape",
  "1600": "amp",
  "1601": "Bob",
  "1602": " comp",
  "1603": " key",
  "1604": "row",
  "1605": "\".",
  "1606": " white",
  "1607": "ctor",
  "1608": " wrong",
  "1609": " Daisy",
  "1610": " makes",
  "1611": " What",
  "1612": " break",
  "1613": " black",
  "1614": "arent",
  "1615": "ee",
  "1616": "ner",
  "1617": "Spot",
  "1618": "Do",
  "1619": " deep",
  "1620": "thy",
  "1621": " music",
  "1622": " pol",
  "1623": " delic",
  "1624": "cess",
  "1625": "ued",
  "1626": " forgot",
  "1627": " bee",
  "1628": " parent",
  "1629": " castle",
  "1630": "ves",
  "1631": "olly",
  "1632": " em",
  "1633": "iet",
  "1634": " wear",
  "1635": " hit",
  "1636": "ister",
  "1637": "oun",
  "1638": " quiet",
  "1639": " round",
  "1640": "ance",
  "1641": " stu",
  "1642": " danced",
  "1643": " vis",
  "1644": "ully",
  "1645": " wants",
  "1646": " leaf",
  "1647": " monster",
  "1648": " nap",
  "1649": " John",
  "1650": " understand",
  "1651": "ang",
  "1652": " bowl",
  "1653": "os",
  "1654": "rot",
  "1655": "ren",
  "1656": " bor",
  "1657": " talked",
  "1658": "itten",
  "1659": " dry",
  "1660": " faster",
  "1661": " cookies",
  "1662": " brought",
  "1663": "fully",
  "1664": " leg",
  "1665": "ross",
  "1666": " mum",
  "1667": "zz",
  "1668": " side",
  "1669": "ts",
  "1670": "From",
  "1671": " sign",
  "1672": " Inside",
  "1673": " smart",
  "1674": "cy",
  "1675": " rocks",
  "1676": " someone",
  "1677": "His",
  "1678": " poin",
  "1679": " sec",
  "1680": " sharing",
  "1681": " fox",
  "1682": " well",
  "1683": " res",
  "1684": " rel",
  "1685": " happen",
  "1686": " button",
  "1687": " branch",
  "1688": " Lila",
  "1689": " really",
  "1690": " finished",
  "1691": "ards",
  "1692": " dinner",
  "1693": " sister",
  "1694": "ence",
  "1695": " flying",
  "1696": "eddy",
  "1697": " contin",
  "1698": " worried",
  "1699": " ele",
  "1700": " To",
  "1701": " visit",
  "1702": " Maybe",
  "1703": " beach",
  "1704": " que",
  "1705": " secret",
  "1706": " el",
  "1707": " Sarah",
  "1708": " king",
  "1709": "John",
  "1710": "gy",
  "1711": " today",
  "1712": " perfect",
  "1713": " river",
  "1714": " everything",
  "1715": " silly",
  "1716": " shin",
  "1717": " Joe",
  "1718": " danger",
  "1719": "ipp",
  "1720": " children",
  "1721": " Soon",
  "1722": " field",
  "1723": " filled",
  "1724": " fur",
  "1725": " else",
  "1726": " smiles",
  "1727": " welc",
  "1728": " gu",
  "1729": " At",
  "1730": " wish",
  "1731": " Em",
  "1732": "While",
  "1733": " sang",
  "1734": " gi",
  "1735": "ze",
  "1736": " pudd",
  "1737": " snack",
  "1738": " eating",
  "1739": " realized",
  "1740": " pieces",
  "1741": " promised",
  "1742": "ord",
  "1743": " spr",
  "1744": " pig",
  "1745": " free",
  "1746": " continued",
  "1747": " bite",
  "1748": "ead",
  "1749": " parents",
  "1750": " carefully",
  "1751": "ated",
  "1752": "itting",
  "1753": " ear",
  "1754": "Just",
  "1755": " jar",
  "1756": "Maybe",
  "1757": " cow",
  "1758": "Amy",
  "1759": " blank",
  "1760": " drag",
  "1761": "stead",
  "1762": " orange",
  "1763": " mud",
  "1764": " crying",
  "1765": " blanket",
  "1766": " enough",
  "1767": " rolled",
  "1768": "cket",
  "1769": " reme",
  "1770": " remem",
  "1771": " soup",
  "1772": " sail",
  "1773": "ses",
  "1774": " purp",
  "1775": "imi",
  "1776": " yes",
  "1777": "ale",
  "1778": " drink",
  "1779": " snake",
  "1780": " boun",
  "1781": " pet",
  "1782": " crab",
  "1783": " throw",
  "1784": " laughing",
  "1785": " fairy",
  "1786": " words",
  "1787": " amazing",
  "1788": " bath",
  "1789": "ich",
  "1790": " purple",
  "1791": " Z",
  "1792": " without",
  "1793": "ire",
  "1794": " bottle",
  "1795": " Billy",
  "1796": " gift",
  "1797": " grandma",
  "1798": "Fin",
  "1799": "used",
  "1800": "ons",
  "1801": " past",
  "1802": " money",
  "1803": "iver",
  "1804": "fort",
  "1805": " mail",
  "1806": " Gra",
  "1807": " barked",
  "1808": " wagged",
  "1809": " att",
  "1810": "chool",
  "1811": " monkey",
  "1812": " doctor",
  "1813": "unch",
  "1814": " brown",
  "1815": " moved",
  "1816": "ises",
  "1817": " asks",
  "1818": " su",
  "1819": " getting",
  "1820": " closed",
  "1821": " whe",
  "1822": " welcome",
  "1823": " candy",
  "1824": " school",
  "1825": " morning",
  "1826": " owner",
  "1827": "gg",
  "1828": " lon",
  "1829": " mother",
  "1830": " higher",
  "1831": " sitting",
  "1832": " treasure",
  "1833": ".”",
  "1834": " smo",
  "1835": "!”",
  "1836": " dangerous",
  "1837": " lonely",
  "1838": " remember",
  "1839": " Ch",
  "1840": " living",
  "1841": " apples",
  "1842": "ush",
  "1843": " shop",
  "1844": "ased",
  "1845": "vel",
  "1846": " strange",
  "1847": " shining",
  "1848": " road",
  "1849": "ere",
  "1850": " Tommy",
  "1851": " creat",
  "1852": "una",
  "1853": " paw",
  "1854": " ra",
  "1855": "ey",
  "1856": " shoes",
  "1857": " -",
  "1858": "ible",
  "1859": " stre",
  "1860": " talking",
  "1861": "althy",
  "1862": " caught",
  "1863": " egg",
  "1864": "ol",
  "1865": " pass",
  "1866": " lake",
  "1867": " runs",
  "1868": " buck",
  "1869": " letter",
  "1870": " wings",
  "1871": " chee",
  "1872": "fish",
  "1873": " mad",
  "1874": "est",
  "1875": " fan",
  "1876": "asket",
  "1877": " basket",
  "1878": "ass",
  "1879": " dragon",
  "1880": "app",
  "1881": "Mommy",
  "1882": "set",
  "1883": "cks",
  "1884": " stone",
  "1885": " thinks",
  "1886": " stand",
  "1887": " delicious",
  "1888": " nose",
  "1889": " puddle",
  "1890": " tom",
  "1891": " Bl",
  "1892": " Mimi",
  "1893": " belie",
  "1894": " sam",
  "1895": " farmer",
  "1896": " same",
  "1897": " years",
  "1898": "board",
  "1899": " teddy",
  "1900": " bat",
  "1901": "isk",
  "1902": "itch",
  "1903": " mine",
  "1904": " sear",
  "1905": " coat",
  "1906": "ches",
  "1907": "igh",
  "1908": " days",
  "1909": " bring",
  "1910": " gentle",
  "1911": " fit",
  "1912": " start",
  "1913": " finally",
  "1914": " whist",
  "1915": " cray",
  "1916": "igg",
  "1917": " scream",
  "1918": " kite",
  "1919": " pill",
  "1920": "phant",
  "1921": "arm",
  "1922": " pre",
  "1923": " vill",
  "1924": " cho",
  "1925": " singing",
  "1926": "ella",
  "1927": "sw",
  "1928": "ined",
  "1929": " tasty",
  "1930": " ph",
  "1931": " ben",
  "1932": " trou",
  "1933": " shell",
  "1934": " herself",
  "1935": " hoped",
  "1936": " answ",
  "1937": " wore",
  "1938": " swings",
  "1939": "sy",
  "1940": " hor",
  "1941": " belong",
  "1942": "Please",
  "1943": " push",
  "1944": " bush",
  "1945": "iskers",
  "1946": " carrot",
  "1947": " arri",
  "1948": "aughty",
  "1949": " teach",
  "1950": "bow",
  "1951": "ract",
  "1952": " naughty",
  "1953": " elephant",
  "1954": " dropped",
  "1955": " shap",
  "1956": "sc",
  "1957": "ier",
  "1958": " coll",
  "1959": " teac",
  "1960": "emy",
  "1961": " woke",
  "1962": "ball",
  "1963": " pile",
  "1964": " hiding",
  "1965": " cour",
  "1966": "isa",
  "1967": "erry",
  "1968": " touc",
  "1969": " min",
  "1970": " puppy",
  "1971": "'ll",
  "1972": " seem",
  "1973": "llie",
  "1974": " twins",
  "1975": "ama",
  "1976": " lunch",
  "1977": " bow",
  "1978": " sack",
  "1979": " pers",
  "1980": " course",
  "1981": " cheered",
  "1982": " shapes",
  "1983": " Jen",
  "1984": " grew",
  "1985": "fused",
  "1986": " rope",
  "1987": " village",
  "1988": "irth",
  "1989": "irthday",
  "1990": " juice",
  "1991": "ipped",
  "1992": " rainbow",
  "1993": " spin",
  "1994": "OK",
  "1995": " shook",
  "1996": "Jack",
  "1997": " spoon",
  "1998": " bench",
  "1999": " street",
  "2000": " fence",
  "2001": " Fred",
  "2002": " rob",
  "2003": " nut",
  "2004": " cheese",
  "2005": " prob",
  "2006": " cute",
  "2007": " touched",
  "2008": "idge",
  "2009": "col",
  "2010": "rn",
  "2011": " joy",
  "2012": " Whiskers",
  "2013": " arrived",
  "2014": " seed",
  "2015": " teacher",
  "2016": " corn",
  "2017": "Good",
  "2018": " forever",
  "2019": " able",
  "2020": " bell",
  "2021": " few",
  "2022": " carry",
  "2023": " most",
  "2024": " plane",
  "2025": " Blue",
  "2026": "lem",
  "2027": " eas",
  "2028": " sounds",
  "2029": "lla",
  "2030": " spo",
  "2031": " problem",
  "2032": " birthday",
  "2033": " power",
  "2034": " inc",
  "2035": "umb",
  "2036": "br",
  "2037": "\n ",
  "2038": " bugs",
  "2039": "ilk",
  "2040": " wonderful",
  "2041": " des",
  "2042": " dolls",
  "2043": " busy",
  "2044": "ato",
  "2045": "irp",
  "2046": "eb",
  "2047": " wra",
  "2048": " promise",
  "2049": " Thank",
  "2050": " feels",
  "2051": "ian",
  "2052": " Emma",
  "2053": "eter",
  "2054": " bread",
  "2055": " neck",
  "2056": "Finally",
  "2057": " milk",
  "2058": " robot",
  "2059": " rec",
  "2060": " shy",
  "2061": "ountain",
  "2062": " kiss",
  "2063": "irt",
  "2064": " heart",
  "2065": " band",
  "2066": " cave",
  "2067": " pocket",
  "2068": "ub",
  "2069": " helpful",
  "2070": "gly",
  "2071": " slowly",
  "2072": " believe",
  "2073": " shake",
  "2074": "umpy",
  "2075": "eared",
  "2076": " patient",
  "2077": " pop",
  "2078": " ob",
  "2079": "arp",
  "2080": " live",
  "2081": " storm",
  "2082": " holding",
  "2083": " ugly",
  "2084": " towards",
  "2085": " upset",
  "2086": " turt",
  "2087": " shr",
  "2088": "adow",
  "2089": " cover",
  "2090": " kitten",
  "2091": "ost",
  "2092": " Remy",
  "2093": " sharp",
  "2094": " disapp",
  "2095": " stories",
  "2096": " suc",
  "2097": " honey",
  "2098": "ove",
  "2099": " Bella",
  "2100": "read",
  "2101": " noises",
  "2102": " Le",
  "2103": " cir",
  "2104": " balls",
  "2105": " spark",
  "2106": " gray",
  "2107": " dist",
  "2108": " dirt",
  "2109": "oggy",
  "2110": " late",
  "2111": "ens",
  "2112": " driver",
  "2113": " seat",
  "2114": " bucket",
  "2115": " meet",
  "2116": " young",
  "2117": " amazed",
  "2118": "alm",
  "2119": " turtle",
  "2120": " spid",
  "2121": " treats",
  "2122": " magical",
  "2123": "unt",
  "2124": "ator",
  "2125": " glow",
  "2126": " seek",
  "2127": " zoom",
  "2128": " lem",
  "2129": " sandw",
  "2130": "fortable",
  "2131": "umber",
  "2132": " trip",
  "2133": " mist",
  "2134": "ourn",
  "2135": " splas",
  "2136": " mark",
  "2137": " journ",
  "2138": " fold",
  "2139": " mach",
  "2140": " puzz",
  "2141": " part",
  "2142": " horse",
  "2143": "ling",
  "2144": " organ",
  "2145": " wild",
  "2146": " princess",
  "2147": "pping",
  "2148": "oose",
  "2149": " cookie",
  "2150": "Sure",
  "2151": " hugs",
  "2152": " Mark",
  "2153": " taking",
  "2154": "ung",
  "2155": " wheel",
  "2156": "epend",
  "2157": " cloth",
  "2158": " Lisa",
  "2159": " sug",
  "2160": " instead",
  "2161": " bubb",
  "2162": " string",
  "2163": " rud",
  "2164": " net",
  "2165": " drove",
  "2166": "iling",
  "2167": " rude",
  "2168": " huge",
  "2169": " Jim",
  "2170": " coin",
  "2171": " stars",
  "2172": "ors",
  "2173": " fighting",
  "2174": " spicy",
  "2175": " lucky",
  "2176": "Be",
  "2177": "Of",
  "2178": " craw",
  "2179": "Hey",
  "2180": " bone",
  "2181": " inv",
  "2182": " Grandma",
  "2183": "not",
  "2184": " ca",
  "2185": "pper",
  "2186": " forget",
  "2187": "up",
  "2188": " di",
  "2189": "aur",
  "2190": " sal",
  "2191": " Finally",
  "2192": " cannot",
  "2193": " whistle",
  "2194": " card",
  "2195": " sick",
  "2196": " path",
  "2197": " cou",
  "2198": " spider",
  "2199": " wide",
  "2200": "Lila",
  "2201": " foot",
  "2202": " snowman",
  "2203": " songs",
  "2204": " life",
  "2205": " pillow",
  "2206": "ize",
  "2207": "ular",
  "2208": " Just",
  "2209": "Later",
  "2210": " Ann",
  "2211": "ert",
  "2212": " fixed",
  "2213": " giant",
  "2214": "oph",
  "2215": "rill",
  "2216": " nod",
  "2217": " last",
  "2218": " comes",
  "2219": " boss",
  "2220": " joke",
  "2221": " moon",
  "2222": " taste",
  "2223": " machine",
  "2224": " grumpy",
  "2225": "den",
  "2226": " wave",
  "2227": " thin",
  "2228": " drive",
  "2229": " cart",
  "2230": " ash",
  "2231": " ser",
  "2232": " grab",
  "2233": " peace",
  "2234": "lower",
  "2235": " daddy",
  "2236": " On",
  "2237": " Leo",
  "2238": "ery",
  "2239": " sel",
  "2240": " shelf",
  "2241": " hidden",
  "2242": "erest",
  "2243": " suddenly",
  "2244": " wasn",
  "2245": " write",
  "2246": " landed",
  "2247": " confused",
  "2248": " ring",
  "2249": " change",
  "2250": " worm",
  "2251": " interest",
  "2252": " chased",
  "2253": "oop",
  "2254": " fruits",
  "2255": " sour",
  "2256": "ity",
  "2257": " myster",
  "2258": " bark",
  "2259": " rad",
  "2260": " smooth",
  "2261": " Come",
  "2262": " adventures",
  "2263": " val",
  "2264": " stepped",
  "2265": "ope",
  "2266": " fle",
  "2267": " oven",
  "2268": " takes",
  "2269": " missed",
  "2270": " selfish",
  "2271": "kin",
  "2272": " sheep",
  "2273": " messy",
  "2274": "To",
  "2275": " across",
  "2276": " ent",
  "2277": " exp",
  "2278": "to",
  "2279": " ce",
  "2280": " later",
  "2281": "elly",
  "2282": " N",
  "2283": "ife",
  "2284": " sticks",
  "2285": " tie",
  "2286": "St",
  "2287": "ever",
  "2288": " Luna",
  "2289": " step",
  "2290": " bought",
  "2291": " drew",
  "2292": " tea",
  "2293": "pect",
  "2294": " ban",
  "2295": "irpy",
  "2296": "box",
  "2297": "?”",
  "2298": " wash",
  "2299": " lay",
  "2300": " pour",
  "2301": " beak",
  "2302": "ose",
  "2303": " jog",
  "2304": " grate",
  "2305": " ducks",
  "2306": " spe",
  "2307": " legs",
  "2308": "ugg",
  "2309": " fil",
  "2310": " Bu",
  "2311": " emp",
  "2312": "mer",
  "2313": " hope",
  "2314": " empty",
  "2315": " slid",
  "2316": " feather",
  "2317": " sleepy",
  "2318": " drum",
  "2319": "amed",
  "2320": "ars",
  "2321": "eth",
  "2322": " pan",
  "2323": " zoo",
  "2324": " phone",
  "2325": " grateful",
  "2326": " fing",
  "2327": "ions",
  "2328": " lemon",
  "2329": "let",
  "2330": " Cat",
  "2331": " clever",
  "2332": " Molly",
  "2333": " smelly",
  "2334": " imag",
  "2335": " splash",
  "2336": " interesting",
  "2337": " Jill",
  "2338": " save",
  "2339": " chick",
  "2340": " calm",
  "2341": " med",
  "2342": " watching",
  "2343": "Soon",
  "2344": "izzy",
  "2345": "izz",
  "2346": " plate",
  "2347": " ign",
  "2348": "yard",
  "2349": " clouds",
  "2350": " banan",
  "2351": " line",
  "2352": " faces",
  "2353": " ba",
  "2354": " act",
  "2355": " lift",
  "2356": " though",
  "2357": " wolf",
  "2358": " backyard",
  "2359": "wel",
  "2360": " seemed",
  "2361": " dogs",
  "2362": " spray",
  "2363": "Come",
  "2364": " prot",
  "2365": " whole",
  "2366": " mot",
  "2367": " fancy",
  "2368": " Daddy",
  "2369": " quest",
  "2370": " arms",
  "2371": " puzzle",
  "2372": " healthy",
  "2373": " supp",
  "2374": "ward",
  "2375": " finish",
  "2376": "erly",
  "2377": " along",
  "2378": "llo",
  "2379": " rocket",
  "2380": " explain",
  "2381": " rod",
  "2382": "dge",
  "2383": " easy",
  "2384": " jewel",
  "2385": "ont",
  "2386": " pract",
  "2387": " jelly",
  "2388": " Chirpy",
  "2389": " tid",
  "2390": " fake",
  "2391": " crayons",
  "2392": " wondered",
  "2393": " maybe",
  "2394": " scar",
  "2395": " ship",
  "2396": " nothing",
  "2397": "onest",
  "2398": " Be",
  "2399": " emb",
  "2400": "iger",
  "2401": " pool",
  "2402": " longer",
  "2403": " anyone",
  "2404": " Jerry",
  "2405": "ually",
  "2406": " front",
  "2407": " working",
  "2408": " gives",
  "2409": "irr",
  "2410": " pack",
  "2411": " such",
  "2412": " Bunny",
  "2413": "ocked",
  "2414": " bossy",
  "2415": "ment",
  "2416": " Doggy",
  "2417": " trouble",
  "2418": " smelled",
  "2419": " saved",
  "2420": " pin",
  "2421": "rass",
  "2422": " neigh",
  "2423": "arrass",
  "2424": "iting",
  "2425": " honest",
  "2426": " av",
  "2427": "arge",
  "2428": " embarrass",
  "2429": " van",
  "2430": " forgive",
  "2431": " tidy",
  "2432": " weak",
  "2433": "urse",
  "2434": " puts",
  "2435": "unk",
  "2436": "sp",
  "2437": " kick",
  "2438": " shirt",
  "2439": " With",
  "2440": " mind",
  "2441": " Ollie",
  "2442": " neighb",
  "2443": " plants",
  "2444": " sol",
  "2445": " Momo",
  "2446": " gently",
  "2447": " cozy",
  "2448": "orrow",
  "2449": "ming",
  "2450": " explor",
  "2451": " mistake",
  "2452": " yog",
  "2453": "oc",
  "2454": "oomy",
  "2455": " pointed",
  "2456": " lad",
  "2457": " af",
  "2458": " stood",
  "2459": "ork",
  "2460": " onto",
  "2461": " waiting",
  "2462": " jumping",
  "2463": " prince",
  "2464": " cross",
  "2465": " lock",
  "2466": " cheer",
  "2467": " queen",
  "2468": " Why",
  "2469": " Mary",
  "2470": "ging",
  "2471": " wing",
  "2472": "we",
  "2473": "ones",
  "2474": " large",
  "2475": " lovely",
  "2476": "ult",
  "2477": " sur",
  "2478": " ret",
  "2479": "And",
  "2480": " deer",
  "2481": " chew",
  "2482": " couch",
  "2483": " bal",
  "2484": "aughter",
  "2485": " stret",
  "2486": "era",
  "2487": " Their",
  "2488": " places",
  "2489": " My",
  "2490": " ladder",
  "2491": "oof",
  "2492": " return",
  "2493": "raid",
  "2494": " ants",
  "2495": " dish",
  "2496": " afraid",
  "2497": " cleaned",
  "2498": " tomorrow",
  "2499": " building",
  "2500": " sandwich",
  "2501": " person",
  "2502": "Sally",
  "2503": " pretended",
  "2504": " bounce",
  "2505": " wip",
  "2506": "gest",
  "2507": " match",
  "2508": " rich",
  "2509": "uce",
  "2510": " pizz",
  "2511": " gather",
  "2512": " search",
  "2513": " boring",
  "2514": "oman",
  "2515": " Somet",
  "2516": " teeth",
  "2517": " hum",
  "2518": "Kitty",
  "2519": "My",
  "2520": "aced",
  "2521": " daughter",
  "2522": " woman",
  "2523": " scarf",
  "2524": " goes",
  "2525": " Together",
  "2526": " law",
  "2527": " stra",
  "2528": " swimming",
  "2529": " furry",
  "2530": " splashed",
  "2531": " loves",
  "2532": " true",
  "2533": " screamed",
  "2534": " pri",
  "2535": " lazy",
  "2536": " gen",
  "2537": " answer",
  "2538": " number",
  "2539": " eag",
  "2540": " ashamed",
  "2541": " pizza",
  "2542": "aw",
  "2543": " appeared",
  "2544": " fear",
  "2545": " nearby",
  "2546": " powerful",
  "2547": " flag",
  "2548": " St",
  "2549": "vous",
  "2550": " clown",
  "2551": "ek",
  "2552": " chase",
  "2553": " war",
  "2554": " motor",
  "2555": " wand",
  "2556": " TV",
  "2557": " rub",
  "2558": " success",
  "2559": " chocol",
  "2560": " If",
  "2561": " creative",
  "2562": " trust",
  "2563": " wearing",
  "2564": " noisy",
  "2565": " matter",
  "2566": " dig",
  "2567": " hello",
  "2568": " ner",
  "2569": " tool",
  "2570": " saf",
  "2571": " Bird",
  "2572": "ado",
  "2573": " nervous",
  "2574": "elp",
  "2575": " test",
  "2576": " smiling",
  "2577": " sold",
  "2578": "icked",
  "2579": "oppy",
  "2580": "osaur",
  "2581": " circle",
  "2582": "ndp",
  "2583": "mb",
  "2584": " map",
  "2585": " drank",
  "2586": " class",
  "2587": " tries",
  "2588": " chocolate",
  "2589": " Please",
  "2590": " impress",
  "2591": " knee",
  "2592": " gener",
  "2593": " dinosaur",
  "2594": " polite",
  "2595": " mirr",
  "2596": " Bobby",
  "2597": " Tiny",
  "2598": " balloons",
  "2599": " gold",
  "2600": " rare",
  "2601": " protect",
  "2602": " cand",
  "2603": "Stop",
  "2604": " carried",
  "2605": " Go",
  "2606": "ensive",
  "2607": " ap",
  "2608": " shadow",
  "2609": " mirror",
  "2610": " Don",
  "2611": " bald",
  "2612": " gun",
  "2613": "ina",
  "2614": " expensive",
  "2615": " reg",
  "2616": "iff",
  "2617": " mysterious",
  "2618": " Sp",
  "2619": " pump",
  "2620": " note",
  "2621": " hero",
  "2622": " march",
  "2623": " har",
  "2624": "arl",
  "2625": " icy",
  "2626": " respect",
  "2627": " weird",
  "2628": " snee",
  "2629": " cri",
  "2630": " gate",
  "2631": " soap",
  "2632": "ute",
  "2633": "issors",
  "2634": " these",
  "2635": " poor",
  "2636": " towel",
  "2637": " whale",
  "2638": " feet",
  "2639": " tape",
  "2640": " dizzy",
  "2641": "itter",
  "2642": " generous",
  "2643": "ndpa",
  "2644": " pres",
  "2645": " Benny",
  "2646": "nic",
  "2647": " disco",
  "2648": "Help",
  "2649": "ventually",
  "2650": " picnic",
  "2651": " mic",
  "2652": " lead",
  "2653": " sque",
  "2654": "scape",
  "2655": " embarrassed",
  "2656": " journey",
  "2657": " sugar",
  "2658": "isp",
  "2659": " boot",
  "2660": " tent",
  "2661": " peaceful",
  "2662": " fat",
  "2663": " Bear",
  "2664": " scissors",
  "2665": "ing",
  "2666": " tasted",
  "2667": " yelled",
  "2668": "Tommy",
  "2669": " tick",
  "2670": " mel",
  "2671": " brush",
  "2672": " dancing",
  "2673": " glue",
  "2674": " hur",
  "2675": " rough",
  "2676": " clap",
  "2677": " bridge",
  "2678": "ote",
  "2679": " decor",
  "2680": " closet",
  "2681": " crown",
  "2682": " stir",
  "2683": "ual",
  "2684": "imp",
  "2685": " print",
  "2686": "ness",
  "2687": " Sometimes",
  "2688": "owed",
  "2689": "airs",
  "2690": "ume",
  "2691": " How",
  "2692": " cap",
  "2693": " mod",
  "2694": " lamp",
  "2695": " vase",
  "2696": " scare",
  "2697": "lebr",
  "2698": " relie",
  "2699": "lves",
  "2700": "any",
  "2701": " eld",
  "2702": " tele",
  "2703": " celebr",
  "2704": " gigg",
  "2705": " whisp",
  "2706": " log",
  "2707": "ser",
  "2708": " sco",
  "2709": " blow",
  "2710": " painted",
  "2711": " Ducky",
  "2712": " pay",
  "2713": "erries",
  "2714": " wis",
  "2715": " berries",
  "2716": " mixed",
  "2717": " spread",
  "2718": " wouldn",
  "2719": " cage",
  "2720": " bake",
  "2721": "rob",
  "2722": "rag",
  "2723": "getable",
  "2724": " mountain",
  "2725": " adm",
  "2726": " drawing",
  "2727": " become",
  "2728": " famous",
  "2729": " knocked",
  "2730": " bean",
  "2731": " norm",
  "2732": " vegetable",
  "2733": "asp",
  "2734": " han",
  "2735": " kicked",
  "2736": "ustr",
  "2737": " shark",
  "2738": " incred",
  "2739": " lose",
  "2740": " normal",
  "2741": " wrap",
  "2742": "ced",
  "2743": " group",
  "2744": " thick",
  "2745": " 3",
  "2746": " fine",
  "2747": " fu",
  "2748": " glass",
  "2749": " ignor",
  "2750": " clock",
  "2751": " team",
  "2752": " elderly",
  "2753": " clear",
  "2754": " corner",
  "2755": " frustr",
  "2756": " mighty",
  "2757": "robe",
  "2758": " cone",
  "2759": " incredible",
  "2760": " Br",
  "2761": "ighed",
  "2762": "Dad",
  "2763": " moms",
  "2764": " balance",
  "2765": " sock",
  "2766": " space",
  "2767": " jam",
  "2768": "ragile",
  "2769": " fright",
  "2770": " organized",
  "2771": " branches",
  "2772": " roar",
  "2773": "port",
  "2774": " sword",
  "2775": "alous",
  "2776": " Mama",
  "2777": " guess",
  "2778": " fool",
  "2779": " sell",
  "2780": " feed",
  "2781": " Some",
  "2782": " which",
  "2783": " horn",
  "2784": " present",
  "2785": " jealous",
  "2786": " yarn",
  "2787": "ony",
  "2788": " fragile",
  "2789": " burn",
  "2790": " understood",
  "2791": " mis",
  "2792": " stubb",
  "2793": " ter",
  "2794": " frustrated",
  "2795": "Where",
  "2796": "ray",
  "2797": " hose",
  "2798": "cient",
  "2799": " spent",
  "2800": " shoe",
  "2801": " taught",
  "2802": " stubborn",
  "2803": " twist",
  "2804": " creature",
  "2805": " chest",
  "2806": " spoiled",
  "2807": " relieved",
  "2808": "ym",
  "2809": " ancient",
  "2810": "ique",
  "2811": " wake",
  "2812": " fier",
  "2813": " pray",
  "2814": " fierce",
  "2815": " eggs",
  "2816": " cab",
  "2817": " terri",
  "2818": " barn",
  "2819": " ord",
  "2820": " pumpkin",
  "2821": " comfortable",
  "2822": " frightened",
  "2823": "orry",
  "2824": " toug",
  "2825": " unique",
  "2826": " measure",
  "2827": " goat",
  "2828": " wagon",
  "2829": " unus",
  "2830": " breath",
  "2831": " foolish",
  "2832": " useful",
  "2833": " exploring",
  "2834": "dle",
  "2835": " finding",
  "2836": " straw",
  "2837": " unusual",
  "2838": " dug",
  "2839": " clay",
  "2840": " discover",
  "2841": " tomato",
  "2842": " Pe",
  "2843": " dead",
  "2844": " police",
  "2845": " wrote",
  "2846": " clum",
  "2847": " exam",
  "2848": "lace",
  "2849": " waves",
  "2850": " square",
  "2851": " hears",
  "2852": " cabin",
  "2853": " tells",
  "2854": " necklace",
  "2855": " dull",
  "2856": " clumsy",
  "2857": " tough",
  "2858": " bubbles",
  "2859": "unn",
  "2860": " nosy",
  "2861": "kn",
  "2862": " searched",
  "2863": "Together",
  "2864": " washed",
  "2865": " bathroom",
  "2866": " paws",
  "2867": "bby",
  "2868": "ond",
  "2869": "anged",
  "2870": " board",
  "2871": "fic",
  "2872": "known",
  "2873": " asking",
  "2874": " crazy",
  "2875": " thankful",
  "2876": " sunf",
  "2877": " bitter",
  "2878": "yal",
  "2879": " pir",
  "2880": "berry",
  "2881": "alk",
  "2882": " ind",
  "2883": " diffic",
  "2884": " rose",
  "2885": "cil",
  "2886": " swan",
  "2887": " bloom",
  "2888": " unknown",
  "2889": " Ella",
  "2890": " covered",
  "2891": " difficult",
  "2892": " add",
  "2893": " pencil",
  "2894": " finger",
  "2895": " ham",
  "2896": " hoop",
  "2897": " jet",
  "2898": " witch",
  "2899": " drop",
  "2900": "Me",
  "2901": " '",
  "2902": " chicken",
  "2903": " gloomy",
  "2904": "apped",
  "2905": " loyal",
  "2906": "als",
  "2907": "Here",
  "2908": " wealthy",
  "2909": "com",
  "2910": "light",
  "2911": " unl",
  "2912": " cats",
  "2913": " ending",
  "2914": " guit",
  "2915": "bled",
  "2916": "shine",
  "2917": " dove",
  "2918": " joined",
  "2919": " cher",
  "2920": "anut",
  "2921": " mov",
  "2922": " terrible",
  "2923": " yours",
  "2924": "iant",
  "2925": " U",
  "2926": " Rex",
  "2927": " salad",
  "2928": " Andy",
  "2929": " nuts",
  "2930": " rat",
  "2931": "ground",
  "2932": " tiger",
  "2933": " potato",
  "2934": " mask",
  "2935": "xible",
  "2936": "selves",
  "2937": " value",
  "2938": " changed",
  "2939": " moving",
  "2940": " exciting",
  "2941": "ormous",
  "2942": " Many",
  "2943": " body",
  "2944": " Tr",
  "2945": " toast",
  "2946": " record",
  "2947": "erp",
  "2948": " zip",
  "2949": " disg",
  "2950": " cheap",
  "2951": " guitar",
  "2952": " knowing",
  "2953": " adventur",
  "2954": "irsty",
  "2955": " yourself",
  "2956": " enormous",
  "2957": " hairy",
  "2958": " shoot",
  "2959": " Brown",
  "2960": " bored",
  "2961": " pepper",
  "2962": " remind",
  "2963": "ory",
  "2964": "land",
  "2965": " acorn",
  "2966": " adventurous",
  "2967": " sunshine",
  "2968": " smaller",
  "2969": " stuff",
  "2970": " hats",
  "2971": "Every",
  "2972": " solve",
  "2973": " Jimmy",
  "2974": " flexible",
  "2975": " cost",
  "2976": "rilliant",
  "2977": " knife",
  "2978": " perform",
  "2979": " snacks",
  "2980": " nods",
  "2981": " shore",
  "2982": " brilliant",
  "2983": " thirsty",
  "2984": " delicate",
  "2985": " frown",
  "2986": " disgust",
  "2987": " collect",
  "2988": " stri",
  "2989": " seeds",
  "2990": " counted",
  "2991": " asleep",
  "2992": " banana",
  "2993": "reen",
  "2994": " mailbox",
  "2995": "iness",
  "2996": " dough",
  "2997": " trick",
  "2998": " neighbor",
  "2999": "ungle",
  "3000": " heal",
  "3001": "live",
  "3002": "Who",
  "3003": " stage",
  "3004": "ident",
  "3005": " market",
  "3006": " stat",
  "3007": " cube",
  "3008": " jungle",
  "3009": " squee",
  "3010": "mbre",
  "3011": " explained",
  "3012": " umbre",
  "3013": " disgusting",
  "3014": "Jim",
  "3015": "fted",
  "3016": "ates",
  "3017": " lab",
  "3018": " jolly",
  "3019": " flash",
  "3020": "und",
  "3021": "pid",
  "3022": " fridge",
  "3023": "inal",
  "3024": "ilt",
  "3025": " crane",
  "3026": "corn",
  "3027": " suit",
  "3028": " rh",
  "3029": "iddle",
  "3030": " sunflower",
  "3031": " times",
  "3032": " Al",
  "3033": "erpill",
  "3034": " caterpill",
  "3035": " relax",
  "3036": " shiver",
  "3037": " four",
  "3038": " island",
  "3039": "iginal",
  "3040": " harm",
  "3041": "ict",
  "3042": " While",
  "3043": " stupid",
  "3044": "ying",
  "3045": " medic",
  "3046": " Instead",
  "3047": " comb",
  "3048": " goose",
  "3049": " cro",
  "3050": "edient",
  "3051": "epende",
  "3052": " Will",
  "3053": " stove",
  "3054": "If",
  "3055": "Are",
  "3056": " independe",
  "3057": "Mum",
  "3058": "most",
  "3059": " spring",
  "3060": " gem",
  "3061": " batter",
  "3062": " sighed",
  "3063": " vegetables",
  "3064": " stones",
  "3065": "pes",
  "3066": " shine",
  "3067": "How",
  "3068": " medicine",
  "3069": " rug",
  "3070": " Your",
  "3071": " careless",
  "3072": " original",
  "3073": " stamp",
  "3074": " depend",
  "3075": " gar",
  "3076": " cries",
  "3077": "Inside",
  "3078": "gu",
  "3079": " carrots",
  "3080": " scr",
  "3081": " successful",
  "3082": " sauce",
  "3083": " jeep",
  "3084": " popcorn",
  "3085": " meal",
  "3086": " obedient",
  "3087": " almost",
  "3088": " middle",
  "3089": " magn",
  "3090": " study",
  "3091": " independent",
  "3092": " escape",
  "3093": " fearful",
  "3094": " jack",
  "3095": "io",
  "3096": "met",
  "3097": "inky",
  "3098": "Sorry",
  "3099": " Sammy",
  "3100": " caterpillar",
  "3101": " serious",
  "3102": " peanut",
  "3103": " bedroom",
  "3104": " eager",
  "3105": "aken",
  "3106": " gets",
  "3107": " parrot",
  "3108": " statue",
  "3109": " helmet",
  "3110": " pebb",
  "3111": " No",
  "3112": " fountain",
  "3113": "ned",
  "3114": " pasta",
  "3115": " raven",
  "3116": " ang",
  "3117": " umbrella",
  "3118": " compet",
  "3119": "There",
  "3120": " jacket",
  "3121": " belonged",
  "3122": " dest",
  "3123": " filthy",
  "3124": " design",
  "3125": " borrow",
  "3126": " cam",
  "3127": "erable",
  "3128": " houses",
  "3129": " prize",
  "3130": " hay",
  "3131": " brace",
  "3132": " standing",
  "3133": " miserable",
  "3134": " raced",
  "3135": " taken",
  "3136": "ages",
  "3137": " fork",
  "3138": " crayon",
  "3139": " painting",
  "3140": " triang",
  "3141": " impressive",
  "3142": "ud",
  "3143": " choose",
  "3144": " fig",
  "3145": " tied",
  "3146": "iable",
  "3147": " spotted",
  "3148": " lifted",
  "3149": " slipped",
  "3150": "ours",
  "3151": " tank",
  "3152": " thoughtful",
  "3153": " dependable",
  "3154": " steal",
  "3155": " garage",
  "3156": "enny",
  "3157": " built",
  "3158": " mush",
  "3159": " er",
  "3160": "ipe",
  "3161": " mole",
  "3162": " crawled",
  "3163": " scale",
  "3164": " boats",
  "3165": " pian",
  "3166": " pant",
  "3167": " hammer",
  "3168": " bottom",
  "3169": "lph",
  "3170": " cheerful",
  "3171": " using",
  "3172": " smoke",
  "3173": " picks",
  "3174": " moder",
  "3175": "berries",
  "3176": " shows",
  "3177": " piano",
  "3178": " magnet",
  "3179": "dile",
  "3180": "codile",
  "3181": " hurts",
  "3182": "inary",
  "3183": " crack",
  "3184": " eng",
  "3185": " ref",
  "3186": " aunt",
  "3187": " melon",
  "3188": " waff",
  "3189": " modern",
  "3190": " dolph",
  "3191": "unnel",
  "3192": "cream",
  "3193": "pack",
  "3194": " tunnel",
  "3195": "oin",
  "3196": " arrow",
  "3197": " reliable",
  "3198": " hopping",
  "3199": " mushroom",
  "3200": " jug",
  "3201": "Timmy",
  "3202": " squash",
  "3203": " gum",
  "3204": " sink",
  "3205": " movie",
  "3206": " tax",
  "3207": " flute",
  "3208": " beet",
  "3209": " lean",
  "3210": "iv",
  "3211": "Their",
  "3212": " popular",
  "3213": "opter",
  "3214": "icopter",
  "3215": " cryst",
  "3216": " ones",
  "3217": " sil",
  "3218": " competit",
  "3219": " helicopter",
  "3220": "aser",
  "3221": " needs",
  "3222": "ipop",
  "3223": "llipop",
  "3224": " crocodile",
  "3225": " liz",
  "3226": "Molly",
  "3227": " press",
  "3228": " troubled",
  "3229": " pige",
  "3230": " locked",
  "3231": " tricks",
  "3232": " lollipop",
  "3233": " playful",
  "3234": " humble",
  "3235": " taxi",
  "3236": " kissed",
  "3237": " low",
  "3238": "appy",
  "3239": "comfortable",
  "3240": "amond",
  "3241": " uncomfortable",
  "3242": " rid",
  "3243": "host",
  "3244": " wander",
  "3245": "atch",
  "3246": " angel",
  "3247": "edy",
  "3248": "cles",
  "3249": " torn",
  "3250": " grace",
  "3251": " anx",
  "3252": " wrapped",
  "3253": " muff",
  "3254": " twig",
  "3255": " pants",
  "3256": " disappoin",
  "3257": " Sn",
  "3258": " helps",
  "3259": " diamond",
  "3260": " camera",
  "3261": " coc",
  "3262": "atter",
  "3263": "oto",
  "3264": " anxious",
  "3265": " ghost",
  "3266": " tears",
  "3267": " ruined",
  "3268": "cident",
  "3269": " Jenny",
  "3270": "ilty",
  "3271": " quar",
  "3272": "aff",
  "3273": " Even",
  "3274": " fis",
  "3275": "opl",
  "3276": " warn",
  "3277": " belt",
  "3278": "eropl",
  "3279": " env",
  "3280": " guilty",
  "3281": " bull",
  "3282": " aeropl",
  "3283": " helpless",
  "3284": " happiness",
  "3285": " lizard",
  "3286": " boys",
  "3287": "cut",
  "3288": "ext",
  "3289": " cere",
  "3290": " walks",
  "3291": "cean",
  "3292": " passed",
  "3293": " meant",
  "3294": " ocean",
  "3295": " fluffy",
  "3296": " wire",
  "3297": " nail",
  "3298": " bracelet",
  "3299": " deaf",
  "3300": "zed",
  "3301": " stretch",
  "3302": " candle",
  "3303": " cact",
  "3304": "tt",
  "3305": " beetle",
  "3306": " mop",
  "3307": " harmless",
  "3308": "umpet",
  "3309": " ordinary",
  "3310": " answered",
  "3311": " collar",
  "3312": " cop",
  "3313": " bees",
  "3314": " tire",
  "3315": " shape",
  "3316": " quarrel",
  "3317": " radio",
  "3318": " flashlight",
  "3319": " crystal",
  "3320": " harder",
  "3321": " poured",
  "3322": " trumpet",
  "3323": " engine",
  "3324": "Mama",
  "3325": " persist",
  "3326": " hunt",
  "3327": " tooth",
  "3328": " cereal",
  "3329": " invited",
  "3330": " comput",
  "3331": " tag",
  "3332": " office",
  "3333": " melt",
  "3334": " spill",
  "3335": " charm",
  "3336": " lit",
  "3337": " scoot",
  "3338": " rep",
  "3339": " comet",
  "3340": " triangle",
  "3341": "ief",
  "3342": " mug",
  "3343": "ube",
  "3344": " yogurt",
  "3345": " spend",
  "3346": " compass",
  "3347": " accident",
  "3348": " shade",
  "3349": "hett",
  "3350": "aghett",
  "3351": "aghetti",
  "3352": " disappointed",
  "3353": " licked",
  "3354": " cactus",
  "3355": " pale",
  "3356": " cush",
  "3357": " figure",
  "3358": " regular",
  "3359": " giving",
  "3360": " avoc",
  "3361": " pro",
  "3362": " sheet",
  "3363": " whispered",
  "3364": "aze",
  "3365": "uth",
  "3366": "ellig",
  "3367": " create",
  "3368": " barber",
  "3369": " intellig",
  "3370": " pipe",
  "3371": " rode",
  "3372": " roof",
  "3373": "Jane",
  "3374": " thread",
  "3375": "ither",
  "3376": "oa",
  "3377": " vi",
  "3378": " load",
  "3379": " libr",
  "3380": " gifted",
  "3381": "ccol",
  "3382": " practiced",
  "3383": " delight",
  "3384": "ccoli",
  "3385": " harsh",
  "3386": "asses",
  "3387": " pow",
  "3388": " dust",
  "3389": " True",
  "3390": " bicy",
  "3391": "azz",
  "3392": " spaghetti",
  "3393": " compassion",
  "3394": " sailed",
  "3395": "urkey",
  "3396": "ubby",
  "3397": " forward",
  "3398": " persistent",
  "3399": " speed",
  "3400": " mitten",
  "3401": " cocoa",
  "3402": " envel",
  "3403": " questions",
  "3404": " computer",
  "3405": " coo",
  "3406": " feathers",
  "3407": "hip",
  "3408": " glove",
  "3409": "Bobo",
  "3410": " rice",
  "3411": " shrimp",
  "3412": " desk",
  "3413": " stream",
  "3414": " inse",
  "3415": " pigeon",
  "3416": " charming",
  "3417": " ears",
  "3418": " carp",
  "3419": "lcan",
  "3420": " raft",
  "3421": " envious",
  "3422": " knot",
  "3423": " turkey",
  "3424": " stronger",
  "3425": "omes",
  "3426": " coins",
  "3427": " tap",
  "3428": "lcano",
  "3429": "weet",
  "3430": " trap",
  "3431": "umbers",
  "3432": " aeroplane",
  "3433": " trunk",
  "3434": " wheat",
  "3435": " boxes",
  "3436": " chubby",
  "3437": " carpet",
  "3438": " restless",
  "3439": " intelligent",
  "3440": " tube",
  "3441": " spun",
  "3442": " dreams",
  "3443": " friendship",
  "3444": "ulif",
  "3445": "olin",
  "3446": " half",
  "3447": " loop",
  "3448": " crawl",
  "3449": " broccoli",
  "3450": " onion",
  "3451": " deliver",
  "3452": "anger",
  "3453": " acce",
  "3454": " vide",
  "3455": " volcano",
  "3456": " Jake",
  "3457": " sle",
  "3458": " track",
  "3459": " bri",
  "3460": " caulif",
  "3461": " vine",
  "3462": "ye",
  "3463": " ticket",
  "3464": " thief",
  "3465": "essie",
  "3466": "cycle",
  "3467": " louder",
  "3468": " insect",
  "3469": " numbers",
  "3470": "asing",
  "3471": " yaw",
  "3472": " haircut",
  "3473": "ital",
  "3474": " sleeping",
  "3475": " mill",
  "3476": " eventually",
  "3477": " alert",
  "3478": " excite",
  "3479": " hang",
  "3480": " pebble",
  "3481": " hosp",
  "3482": " attract",
  "3483": " planet",
  "3484": " Today",
  "3485": " univer",
  "3486": "isted",
  "3487": "ulu",
  "3488": " hospital",
  "3489": " eraser",
  "3490": " returned",
  "3491": " destro",
  "3492": " graceful",
  "3493": " happening",
  "3494": "ache",
  "3495": " OK",
  "3496": " Emily",
  "3497": " decide",
  "3498": " learning",
  "3499": " screen",
  "3500": "rework",
  "3501": " nicely",
  "3502": " leop",
  "3503": " cauliflower",
  "3504": " competitive",
  "3505": " poem",
  "3506": " celebrate",
  "3507": " curt",
  "3508": " peach",
  "3509": " soldier",
  "3510": " saus",
  "3511": " parade",
  "3512": "atient",
  "3513": " attractive",
  "3514": " curtain",
  "3515": " dolphin",
  "3516": " base",
  "3517": " violin",
  "3518": " ways",
  "3519": "Go",
  "3520": "ats",
  "3521": " travel",
  "3522": "ten",
  "3523": " ignorant",
  "3524": "ulb",
  "3525": " wheels",
  "3526": " yach",
  "3527": " scatter",
  "3528": " deter",
  "3529": " compassionate",
  "3530": " barrel",
  "3531": " envelope",
  "3532": " bubble",
  "3533": " lying",
  "3534": " firework",
  "3535": " sort",
  "3536": " question",
  "3537": "zzy",
  "3538": " Pipp",
  "3539": " scooter",
  "3540": " determ",
  "3541": " rag",
  "3542": " bicycle",
  "3543": "elery",
  "3544": " needle",
  "3545": " Fr",
  "3546": " judge",
  "3547": " bulb",
  "3548": " leopard",
  "3549": " tem",
  "3550": " yacht",
  "3551": " pony",
  "3552": " cricket",
  "3553": " order",
  "3554": " homes",
  "3555": " ador",
  "3556": "tern",
  "3557": " truth",
  "3558": " hook",
  "3559": "dom",
  "3560": " rubbed",
  "3561": "ete",
  "3562": "igator",
  "3563": " bushes",
  "3564": "Sarah",
  "3565": " uncle",
  "3566": " cushion",
  "3567": " spell",
  "3568": " grown",
  "3569": " cooked",
  "3570": " adorable",
  "3571": " chalk",
  "3572": " soar",
  "3573": " purse",
  "3574": " skin",
  "3575": " themselves",
  "3576": " impatient",
  "3577": " celery",
  "3578": " tray",
  "3579": " shells",
  "3580": " pengu",
  "3581": " sniff",
  "3582": " prun",
  "3583": " walls",
  "3584": " seal",
  "3585": " lively",
  "3586": " case",
  "3587": " alligator",
  "3588": " distant",
  "3589": " radish",
  "3590": " saying",
  "3591": " speak",
  "3592": " motorcycle",
  "3593": " meat",
  "3594": " send",
  "3595": "illa",
  "3596": " spinning",
  "3597": " forth",
  "3598": " counting",
  "3599": " enth",
  "3600": " bounced",
  "3601": " chain",
  "3602": " ed",
  "3603": " cleaning",
  "3604": "ebra",
  "3605": " film",
  "3606": " slept",
  "3607": " pit",
  "3608": " surf",
  "3609": " marry",
  "3610": "usia",
  "3611": " wallet",
  "3612": " enthusia",
  "3613": " metal",
  "3614": "urb",
  "3615": "ebook",
  "3616": " bin",
  "3617": " week",
  "3618": " notebook",
  "3619": " wiped",
  "3620": " skip",
  "3621": "ision",
  "3622": "chair",
  "3623": " biggest",
  "3624": " impro",
  "3625": " avocado",
  "3626": " behave",
  "3627": " destroy",
  "3628": "vator",
  "3629": " bandage",
  "3630": " laughs",
  "3631": " steak",
  "3632": " pattern",
  "3633": " Sh",
  "3634": " post",
  "3635": " elevator",
  "3636": " Buzz",
  "3637": "usie",
  "3638": " dive",
  "3639": " shut",
  "3640": " skipped",
  "3641": " unlock",
  "3642": " diary",
  "3643": "ject",
  "3644": " zebra",
  "3645": " bags",
  "3646": "ating",
  "3647": " armchair",
  "3648": "rage",
  "3649": "aged",
  "3650": "under",
  "3651": " disturb",
  "3652": " oy",
  "3653": " pole",
  "3654": " showing",
  "3655": " gathered",
  "3656": " club",
  "3657": " nurse",
  "3658": "bul",
  "3659": " earth",
  "3660": " enc",
  "3661": " stranger",
  "3662": " sweater",
  "3663": " jellyfish",
  "3664": " screw",
  "3665": " temp",
  "3666": " Poppy",
  "3667": " compl",
  "3668": " mixer",
  "3669": "Give",
  "3670": " skull",
  "3671": " lime",
  "3672": " bump",
  "3673": "ito",
  "3674": "bulance",
  "3675": " ambulance",
  "3676": "nam",
  "3677": " father",
  "3678": " journal",
  "3679": "Gra",
  "3680": " loudly",
  "3681": " folder",
  "3682": " shield",
  "3683": " Bet",
  "3684": " Lulu",
  "3685": " library",
  "3686": " Peter",
  "3687": " buttons",
  "3688": " playground",
  "3689": " trucks",
  "3690": " ink",
  "3691": "quito",
  "3692": " lights",
  "3693": " tummy",
  "3694": " pointing",
  "3695": " city",
  "3696": " decorate",
  "3697": " station",
  "3698": "irit",
  "3699": " falls",
  "3700": " Polly",
  "3701": "Billy",
  "3702": " Fo",
  "3703": "ention",
  "3704": " Birdy",
  "3705": "lies",
  "3706": " herb",
  "3707": "nament",
  "3708": " ornament",
  "3709": " modest",
  "3710": " guard",
  "3711": " mos",
  "3712": " knows",
  "3713": " mosquito",
  "3714": " cord",
  "3715": " polish",
  "3716": " marble",
  "3717": "oby",
  "3718": "umbled",
  "3719": " salt",
  "3720": " attic",
  "3721": " whenever",
  "3722": " vest",
  "3723": "ctop",
  "3724": " resc",
  "3725": " yet",
  "3726": " ple",
  "3727": " disappeared",
  "3728": "ceed",
  "3729": " strawberry",
  "3730": " once",
  "3731": " Mum",
  "3732": " kay",
  "3733": " brothers",
  "3734": " itch",
  "3735": " pirate",
  "3736": " football",
  "3737": " split",
  "3738": "kele",
  "3739": "keleton",
  "3740": " hipp",
  "3741": " aut",
  "3742": " led",
  "3743": "uring",
  "3744": "ctopus",
  "3745": " driving",
  "3746": " cable",
  "3747": " support",
  "3748": " calling",
  "3749": " cupboard",
  "3750": "aky",
  "3751": "par",
  "3752": "ushed",
  "3753": " wishes",
  "3754": " complet",
  "3755": " tripped",
  "3756": " root",
  "3757": " kayak",
  "3758": " octopus",
  "3759": "obile",
  "3760": " added",
  "3761": " edge",
  "3762": " mild",
  "3763": "stic",
  "3764": " determined",
  "3765": " succeed",
  "3766": "?\".",
  "3767": " reading",
  "3768": "omobile",
  "3769": " coal",
  "3770": "Well",
  "3771": "gl",
  "3772": "utes",
  "3773": " suggest",
  "3774": " stack",
  "3775": " thunder",
  "3776": " kindness",
  "3777": " automobile",
  "3778": " complain",
  "3779": " enthusiastic",
  "3780": " sneeze",
  "3781": " cartoon",
  "3782": " yoga",
  "3783": " Little",
  "3784": " growl",
  "3785": "htub",
  "3786": " flea",
  "3787": "la",
  "3788": " meadow",
  "3789": " drawer",
  "3790": " bathtub",
  "3791": " ribb",
  "3792": "ophone",
  "3793": " means",
  "3794": " hall",
  "3795": " golf",
  "3796": " skeleton",
  "3797": " math",
  "3798": " veil",
  "3799": " hunter",
  "3800": " gor",
  "3801": " flame",
  "3802": " poke",
  "3803": " video",
  "3804": " chess",
  "3805": " troph",
  "3806": " cups",
  "3807": " glowing",
  "3808": " matt",
  "3809": " oyster",
  "3810": "work",
  "3811": " penny",
  "3812": " spear",
  "3813": " itself",
  "3814": " drawings",
  "3815": " hippo",
  "3816": " repair",
  "3817": " switch",
  "3818": "glasses",
  "3819": " sunglasses",
  "3820": " teleph",
  "3821": " costume",
  "3822": " dess",
  "3823": " zipp",
  "3824": ",”",
  "3825": " repe",
  "3826": " muffin",
  "3827": " arg",
  "3828": " pastry",
  "3829": " pun",
  "3830": " rolling",
  "3831": " minutes",
  "3832": " packed",
  "3833": " makeup",
  "3834": "iron",
  "3835": "ric",
  "3836": " People",
  "3837": " waffle",
  "3838": "case",
  "3839": " handle",
  "3840": " pear",
  "3841": " maze",
  "3842": " telephone",
  "3843": " pine",
  "3844": "ait",
  "3845": " gear",
  "3846": " hedge",
  "3847": " mattress",
  "3848": " package",
  "3849": "aving",
  "3850": " Miss",
  "3851": " shocked",
  "3852": " trophy",
  "3853": "ines",
  "3854": " powder",
  "3855": " knight",
  "3856": " cob",
  "3857": " missile",
  "3858": " managed",
  "3859": " frame",
  "3860": " encou",
  "3861": " wife",
  "3862": " ok",
  "3863": " separ",
  "3864": "web",
  "3865": " stairs",
  "3866": " rot",
  "3867": " camp",
  "3868": "rophone",
  "3869": " magaz",
  "3870": " strugg",
  "3871": " colour",
  "3872": " grapes",
  "3873": "time",
  "3874": " file",
  "3875": "head",
  "3876": " Tina",
  "3877": " basketball",
  "3878": "Bye",
  "3879": "old",
  "3880": " cobweb",
  "3881": "Re",
  "3882": "Jimmy",
  "3883": " Tweet",
  "3884": "See",
  "3885": " perm",
  "3886": " wool",
  "3887": " Dan",
  "3888": " microphone",
  "3889": "esday",
  "3890": " eye",
  "3891": " leash",
  "3892": " gasp",
  "3893": "iew",
  "3894": "keep",
  "3895": " weep",
  "3896": " barking",
  "3897": "ature",
  "3898": " safely",
  "3899": " tear",
  "3900": " view",
  "3901": "ffe",
  "3902": " slides",
  "3903": " steps",
  "3904": "istol",
  "3905": "ffee",
  "3906": " bananas",
  "3907": " staff",
  "3908": " spirit",
  "3909": " task",
  "3910": " giggled",
  "3911": " hoc",
  "3912": " hockey",
  "3913": " vend",
  "3914": " those",
  "3915": " gorilla",
  "3916": "Jill",
  "3917": " cooler",
  "3918": " Rose",
  "3919": "was",
  "3920": "cing",
  "3921": " early",
  "3922": " marched",
  "3923": "rosc",
  "3924": " mint",
  "3925": " Look",
  "3926": "washer",
  "3927": " flour",
  "3928": "hic",
  "3929": " hotel",
  "3930": " sailor",
  "3931": " dessert",
  "3932": " photo",
  "3933": " chur",
  "3934": "roscope",
  "3935": " vehic",
  "3936": "ilot",
  "3937": " often",
  "3938": " churc",
  "3939": " church",
  "3940": " Pete",
  "3941": " cooking",
  "3942": " remain",
  "3943": " five",
  "3944": " sausage",
  "3945": "otter",
  "3946": " ten",
  "3947": "chor",
  "3948": " tools",
  "3949": " medal",
  "3950": " either",
  "3951": " fireman",
  "3952": " grandpa",
  "3953": " otter",
  "3954": " baseball",
  "3955": " pretending",
  "3956": " pistol",
  "3957": " dishwasher",
  "3958": " rever",
  "3959": " organize",
  "3960": " pee",
  "3961": " vendor",
  "3962": " knock",
  "3963": " sight",
  "3964": " grill",
  "3965": " temple",
  "3966": " battery",
  "3967": " thinking",
  "3968": " opens",
  "3969": " ow",
  "3970": " realised",
  "3971": " iron",
  "3972": " laser",
  "3973": " sne",
  "3974": " sandbox",
  "3975": " oil",
  "3976": " patch",
  "3977": " hours",
  "3978": " rise",
  "3979": " whip",
  "3980": "'d",
  "3981": "ctory",
  "3982": " Give",
  "3983": " anchor",
  "3984": " trash",
  "3985": " short",
  "3986": "ney",
  "3987": " Betty",
  "3988": " rhin",
  "3989": " factory",
  "3990": "seum",
  "3991": " may",
  "3992": " ward",
  "3993": "ately",
  "3994": " cardboard",
  "3995": "ugged",
  "3996": " lotion",
  "3997": "Al",
  "3998": " message",
  "3999": " valu",
  "4000": " wardrobe",
  "4001": " cell",
  "4002": " museum",
  "4003": "apers",
  "4004": " ur",
  "4005": "ination",
  "4006": " hanging",
  "4007": "ucet",
  "4008": "ailable",
  "4009": " Sunny",
  "4010": "eer",
  "4011": " Zoom",
  "4012": " hive",
  "4013": " towers",
  "4014": "keeper",
  "4015": " blackboard",
  "4016": " mem",
  "4017": " excitement",
  "4018": " coffee",
  "4019": " pilot",
  "4020": "ready",
  "4021": "Fluffy",
  "4022": " napkin",
  "4023": " penguin",
  "4024": "ron",
  "4025": " check",
  "4026": " reward",
  "4027": "loo",
  "4028": " quit",
  "4029": " Pippin",
  "4030": " cane",
  "4031": " picking",
  "4032": "place",
  "4033": " Snow",
  "4034": "azor",
  "4035": " faucet",
  "4036": " ig",
  "4037": " passport",
  "4038": " Rob",
  "4039": " stumbled",
  "4040": " dreamed",
  "4041": " igloo",
  "4042": " Bessie",
  "4043": "aroo",
  "4044": "angaroo",
  "4045": " freez",
  "4046": " juicy",
  "4047": " allowed",
  "4048": "play",
  "4049": " holds",
  "4050": " already",
  "4051": " available",
  "4052": " sett",
  "4053": " bathe",
  "4054": " tornado",
  "4055": "imney",
  "4056": " fingers",
  "4057": "htray",
  "4058": " hanger",
  "4059": " newsp",
  "4060": " size",
  "4061": " laund",
  "4062": " lend",
  "4063": " chimney",
  "4064": " laundry",
  "4065": " oak",
  "4066": " fisher",
  "4067": " kangaroo",
  "4068": " men",
  "4069": " Everywhere",
  "4070": " telling",
  "4071": "Em",
  "4072": " novel",
  "4073": "body",
  "4074": " mummy",
  "4075": " pal",
  "4076": " mule",
  "4077": " cherries",
  "4078": " notice",
  "4079": " practice",
  "4080": " spilled",
  "4081": " reind",
  "4082": " complete",
  "4083": " enjoying",
  "4084": " microscope",
  "4085": "arian",
  "4086": "ampoo",
  "4087": " gain",
  "4088": " sub",
  "4089": " fireplace",
  "4090": " imagine",
  "4091": "anda",
  "4092": " display",
  "4093": "ocer",
  "4094": " Zip",
  "4095": " fastest",
  "4096": " magazine",
  "4097": " hurry",
  "4098": " cabinet",
  "4099": " shrink",
  "4100": " ashtray",
  "4101": "Wait",
  "4102": " cows",
  "4103": " Spike",
  "4104": "Joe",
  "4105": "gen",
  "4106": " palace",
  "4107": " improve",
  "4108": "sses",
  "4109": "aches",
  "4110": " rake",
  "4111": " reindeer",
  "4112": " falling",
  "4113": "oceros",
  "4114": " skirt",
  "4115": "ured",
  "4116": "aid",
  "4117": " discovered",
  "4118": " stared",
  "4119": " roared",
  "4120": " silver",
  "4121": " tub",
  "4122": " trail",
  "4123": "Is",
  "4124": " miner",
  "4125": "come",
  "4126": " bill",
  "4127": "iction",
  "4128": " fog",
  "4129": " ax",
  "4130": "stairs",
  "4131": "ilet",
  "4132": " hut",
  "4133": " happier",
  "4134": " taller",
  "4135": "ictionary",
  "4136": " oats",
  "4137": " fisherman",
  "4138": " object",
  "4139": " por",
  "4140": "vision",
  "4141": " valuable",
  "4142": " shampoo",
  "4143": " holes",
  "4144": " offered",
  "4145": " boots",
  "4146": " rhinoceros",
  "4147": " names",
  "4148": " toilet",
  "4149": " climbing",
  "4150": " blin",
  "4151": "vice",
  "4152": "Ow",
  "4153": " stretched",
  "4154": " zipper",
  "4155": " listening",
  "4156": " sym",
  "4157": " bathrobe",
  "4158": "alend",
  "4159": " jewelry",
  "4160": "iest",
  "4161": " Here",
  "4162": " jokes",
  "4163": " television",
  "4164": " prov",
  "4165": " calend",
  "4166": " stops",
  "4167": " axe",
  "4168": " jumps",
  "4169": " fuel",
  "4170": " sparkly",
  "4171": "cu",
  "4172": " perfume",
  "4173": " Susie",
  "4174": " bury",
  "4175": "bol",
  "4176": "Mummy",
  "4177": " pressed",
  "4178": " Kim",
  "4179": "reek",
  "4180": "fa",
  "4181": " rece",
  "4182": " Toby",
  "4183": " neat",
  "4184": " creek",
  "4185": " popped",
  "4186": " opera",
  "4187": " calendar",
  "4188": " snap",
  "4189": " gasped",
  "4190": " attach",
  "4191": " symbol",
  "4192": " tuna",
  "4193": " papers",
  "4194": "Mr",
  "4195": " unpack",
  "4196": " resist",
  "4197": "arry",
  "4198": "lud",
  "4199": " dictionary",
  "4200": " subway",
  "4201": " letters",
  "4202": " freezer",
  "4203": " chose",
  "4204": " pinch",
  "4205": "zag",
  "4206": " spoke",
  "4207": " anyway",
  "4208": " porch",
  "4209": " helper",
  "4210": "affe",
  "4211": " bikes",
  "4212": " lie",
  "4213": "iches",
  "4214": " tightly",
  "4215": " comfort",
  "4216": " shaking",
  "4217": " bookcase",
  "4218": " son",
  "4219": " razor",
  "4220": "aurant",
  "4221": " sandwiches",
  "4222": " Are",
  "4223": "igzag",
  "4224": " weigh",
  "4225": " against",
  "4226": " stickers",
  "4227": " restaurant",
  "4228": " newspaper",
  "4229": " blouse",
  "4230": " vehicle",
  "4231": " swinging",
  "4232": " ped",
  "4233": " disag",
  "4234": " nature",
  "4235": " squirrels",
  "4236": "ival",
  "4237": " belongs",
  "4238": " swamp",
  "4239": " butterflies",
  "4240": "ef",
  "4241": " gym",
  "4242": " includ",
  "4243": " growing",
  "4244": " buckle",
  "4245": "omed",
  "4246": " stirred",
  "4247": " mustache",
  "4248": " billboard",
  "4249": "xy",
  "4250": " beep",
  "4251": "te",
  "4252": " alarm",
  "4253": " lightning",
  "4254": " lip",
  "4255": " fest",
  "4256": " hung",
  "4257": "utor",
  "4258": " distance",
  "4259": "ogn",
  "4260": " cards",
  "4261": " obser",
  "4262": " agree",
  "4263": "Little",
  "4264": " ext",
  "4265": " tease",
  "4266": " Mar",
  "4267": " recogn",
  "4268": " rubber",
  "4269": "ik",
  "4270": " hate",
  "4271": "fast",
  "4272": "Ouch",
  "4273": " doesn",
  "4274": " musician",
  "4275": " advice",
  "4276": " beef",
  "4277": " serve",
  "4278": "aspoon",
  "4279": " sweetie",
  "4280": " model",
  "4281": "lter",
  "4282": " crib",
  "4283": " blueberries",
  "4284": " sofa",
  "4285": " circles",
  "4286": " breakfast",
  "4287": " tutor",
  "4288": "asis",
  "4289": " bookshe",
  "4290": "stri",
  "4291": " giraffe",
  "4292": " festival",
  "4293": " separate",
  "4294": " shelter",
  "4295": " gas",
  "4296": " airport",
  "4297": " olive",
  "4298": " rail",
  "4299": " bookshelf",
  "4300": " frogs",
  "4301": " teaspoon",
  "4302": " reverse",
  "4303": " junk",
  "4304": " riding",
  "4305": " pleased",
  "4306": " drain",
  "4307": " Mrs",
  "4308": " rescue",
  "4309": " wipe",
  "4310": " oasis",
  "4311": " soil",
  "4312": "ense",
  "4313": " ahead",
  "4314": " prep",
  "4315": " leaving",
  "4316": "ummer",
  "4317": " painter",
  "4318": " squeeze",
  "4319": " chance",
  "4320": " poked",
  "4321": " knob",
  "4322": " Teddy",
  "4323": " peeked",
  "4324": " lumber",
  "4325": " trains",
  "4326": " extra",
  "4327": " slipp",
  "4328": " quiz",
  "4329": " refused",
  "4330": "omete",
  "4331": "ometer",
  "4332": "rmometer",
  "4333": " page",
  "4334": " rules",
  "4335": " happens",
  "4336": " sounded",
  "4337": " ins",
  "4338": " point",
  "4339": " winter",
  "4340": " dancer",
  "4341": " Grandpa",
  "4342": " birdc",
  "4343": " disappear",
  "4344": " Dolly",
  "4345": " weather",
  "4346": " waste",
  "4347": " lic",
  "4348": " birdcage",
  "4349": " theater",
  "4350": " reef",
  "4351": " carrying",
  "4352": "Daisy",
  "4353": " invite",
  "4354": "iform",
  "4355": " goal",
  "4356": " ostri",
  "4357": " uniform",
  "4358": " swung",
  "4359": " trade",
  "4360": " cliff",
  "4361": "ience",
  "4362": " lawn",
  "4363": "ola",
  "4364": " leaned",
  "4365": " Pandy",
  "4366": "angu",
  "4367": " accept",
  "4368": " admire",
  "4369": " fort",
  "4370": " accidentally",
  "4371": " pastel",
  "4372": "bbles",
  "4373": " stom",
  "4374": " langu",
  "4375": " twir",
  "4376": " suff",
  "4377": " panda",
  "4378": "riger",
  "4379": " bet",
  "4380": "rigerator",
  "4381": " peek",
  "4382": " blinked",
  "4383": " starts",
  "4384": " refrigerator",
  "4385": " anywhere",
  "4386": "!\".",
  "4387": " imagined",
  "4388": " dreaming",
  "4389": " remove",
  "4390": "night",
  "4391": " shower",
  "4392": " Lee",
  "4393": " Co",
  "4394": " classroom",
  "4395": " ceiling",
  "4396": " thermometer",
  "4397": " caring",
  "4398": "ium",
  "4399": " missing",
  "4400": "aked",
  "4401": " license",
  "4402": " stable",
  "4403": " monkeys",
  "4404": "astic",
  "4405": " warned",
  "4406": " summer",
  "4407": " Where",
  "4408": " above",
  "4409": " brick",
  "4410": "ected",
  "4411": " cudd",
  "4412": " problems",
  "4413": "amber",
  "4414": " chasing",
  "4415": " label",
  "4416": " apron",
  "4417": " sent",
  "4418": "rnit",
  "4419": "rniture",
  "4420": " lawy",
  "4421": " lid",
  "4422": "uggage",
  "4423": "med",
  "4424": " respectful",
  "4425": " furniture",
  "4426": " frowned",
  "4427": " zoomed",
  "4428": " pages",
  "4429": " prevent",
  "4430": " bent",
  "4431": " luggage",
  "4432": " mistakes",
  "4433": " sunset",
  "4434": " ostrich",
  "4435": "ison",
  "4436": " suggested",
  "4437": " windows",
  "4438": "ations",
  "4439": " jail",
  "4440": "low",
  "4441": " wine",
  "4442": " ribbon",
  "4443": " older",
  "4444": " shouts",
  "4445": " grape",
  "4446": " Cl",
  "4447": " wigg",
  "4448": "ucture",
  "4449": " structure",
  "4450": " spoil",
  "4451": "eor",
  "4452": " fixing",
  "4453": " chamber",
  "4454": " lions",
  "4455": " delay",
  "4456": " finds",
  "4457": " handed",
  "4458": " searching",
  "4459": " unite",
  "4460": "Did",
  "4461": " fought",
  "4462": " lawyer",
  "4463": " brightly",
  "4464": " pair",
  "4465": " meeting",
  "4466": " choice",
  "4467": " surprises",
  "4468": " Un",
  "4469": "elv",
  "4470": " Ellie",
  "4471": " art",
  "4472": "Ch",
  "4473": " favour",
  "4474": "eterin",
  "4475": "eterinarian",
  "4476": "adium",
  "4477": " stadium",
  "4478": " proudly",
  "4479": "iki",
  "4480": " veterinarian",
  "4481": "rod",
  "4482": " chairs",
  "4483": " slip",
  "4484": " Spe",
  "4485": " sadly",
  "4486": "elvet",
  "4487": " Bow",
  "4488": " incre",
  "4489": " Carl",
  "4490": " puddles",
  "4491": " berry",
  "4492": " introd",
  "4493": " ranch",
  "4494": "veal",
  "4495": " Boun",
  "4496": " argue",
  "4497": " V",
  "4498": " admired",
  "4499": " cur",
  "4500": " favourite",
  "4501": "Your",
  "4502": " inf",
  "4503": "render",
  "4504": " excitedly",
  "4505": " grabs",
  "4506": "mend",
  "4507": " steam",
  "4508": "thank",
  "4509": " rac",
  "4510": " human",
  "4511": "eorge",
  "4512": "sity",
  "4513": " Hel",
  "4514": " pushing",
  "4515": " saving",
  "4516": " Red",
  "4517": " reveal",
  "4518": "ommend",
  "4519": "alley",
  "4520": " yield",
  "4521": "olog",
  "4522": " mall",
  "4523": " reminded",
  "4524": " recommend",
  "4525": " leak",
  "4526": " harb",
  "4527": " appl",
  "4528": "cuss",
  "4529": "aul",
  "4530": " weap",
  "4531": " regret",
  "4532": " putting",
  "4533": " valley",
  "4534": " mineral",
  "4535": " fre",
  "4536": " evening",
  "4537": "elcome",
  "4538": " matches",
  "4539": " forgave",
  "4540": " sneezed",
  "4541": " pup",
  "4542": " aw",
  "4543": " rushed",
  "4544": "ecause",
  "4545": " spade",
  "4546": " apolog",
  "4547": " plates",
  "4548": " discuss",
  "4549": " prepare",
  "4550": " harbor",
  "4551": " ignore",
  "4552": " Big",
  "4553": " country",
  "4554": " language",
  "4555": " Buzzy",
  "4556": " pulls",
  "4557": " plastic",
  "4558": " supply",
  "4559": " float",
  "4560": " sniffed",
  "4561": " Jazz",
  "4562": " replace",
  "4563": " meas",
  "4564": " shovel",
  "4565": " Bill",
  "4566": " raise",
  "4567": " Next",
  "4568": " cared",
  "4569": " socks",
  "4570": " strip",
  "4571": " doors",
  "4572": " mystery",
  "4573": " lives",
  "4574": " restore",
  "4575": " sticker",
  "4576": " sudden",
  "4577": "ari",
  "4578": " kinds",
  "4579": " slippery",
  "4580": "ero",
  "4581": " Ow",
  "4582": " player",
  "4583": " panic",
  "4584": "ricane",
  "4585": " hoping",
  "4586": "iday",
  "4587": " shone",
  "4588": "lex",
  "4589": "hero",
  "4590": "per",
  "4591": "perhero",
  "4592": " beg",
  "4593": "aud",
  "4594": " Mike",
  "4595": " Binky",
  "4596": " superhero",
  "4597": " delighted",
  "4598": " gro",
  "4599": "Yay",
  "4600": " grand",
  "4601": "chan",
  "4602": " chickens",
  "4603": " shoulder",
  "4604": " rained",
  "4605": " colourful",
  "4606": " breat",
  "4607": " Alice",
  "4608": " claw",
  "4609": " Bubbles",
  "4610": "Yuck",
  "4611": " softly",
  "4612": "rise",
  "4613": " port",
  "4614": "Grandma",
  "4615": " hol",
  "4616": "icer",
  "4617": " holiday",
  "4618": " �",
  "4619": " barks",
  "4620": "ason",
  "4621": " throwing",
  "4622": " planes",
  "4623": "Mary",
  "4624": " bend",
  "4625": " Freddy",
  "4626": " shakes",
  "4627": " infant",
  "4628": " ended",
  "4629": " shivering",
  "4630": " kneel",
  "4631": " sunrise",
  "4632": " pushes",
  "4633": " Olive",
  "4634": " thanks",
  "4635": " fresh",
  "4636": " suffer",
  "4637": " points",
  "4638": "imed",
  "4639": "wards",
  "4640": " Pat",
  "4641": " tip",
  "4642": " Speedy",
  "4643": " freeze",
  "4644": " keeping",
  "4645": " Would",
  "4646": " giggle",
  "4647": " copper",
  "4648": " smells",
  "4649": " dear",
  "4650": " enter",
  "4651": " provide",
  "4652": "cast",
  "4653": "chanic",
  "4654": " dishes",
  "4655": " surrender",
  "4656": " End",
  "4657": "cond",
  "4658": " applaud",
  "4659": " unh",
  "4660": "Next",
  "4661": " heads",
  "4662": " hurricane",
  "4663": " cherry",
  "4664": " thumb",
  "4665": " menu",
  "4666": " meowed",
  "4667": " mass",
  "4668": " second",
  "4669": " brighter",
  "4670": "ince",
  "4671": " sandcast",
  "4672": " mechanic",
  "4673": " wre",
  "4674": " sprayed",
  "4675": " letting",
  "4676": " event",
  "4677": " weapon",
  "4678": " laught",
  "4679": " x",
  "4680": "ah",
  "4681": " laughter",
  "4682": " clapping",
  "4683": " feelings",
  "4684": "Will",
  "4685": "ement",
  "4686": "icky",
  "4687": " splashing",
  "4688": " Or",
  "4689": "acked",
  "4690": " castles",
  "4691": " Fl",
  "4692": "cer",
  "4693": " score",
  "4694": "apping",
  "4695": " universe",
  "4696": " navy",
  "4697": " dem",
  "4698": " sticky",
  "4699": "ophie",
  "4700": " rooms",
  "4701": " row",
  "4702": " flies",
  "4703": "igi",
  "4704": " Dave",
  "4705": " unhappy",
  "4706": " greedy",
  "4707": " dare",
  "4708": " alive",
  "4709": " breaks",
  "4710": " ener",
  "4711": " courage",
  "4712": " invit",
  "4713": "Ready",
  "4714": " repeat",
  "4715": " demand",
  "4716": " Help",
  "4717": " trusted",
  "4718": "Lisa",
  "4719": " somewhere",
  "4720": "arlie",
  "4721": " prune",
  "4722": " wreck",
  "4723": "bles",
  "4724": " Y",
  "4725": " skill",
  "4726": " examine",
  "4727": " parts",
  "4728": "year",
  "4729": "oe",
  "4730": " eaten",
  "4731": "All",
  "4732": "erc",
  "4733": "enry",
  "4734": " mention",
  "4735": " raining",
  "4736": "Buddy",
  "4737": " throws",
  "4738": " jogged",
  "4739": "quest",
  "4740": " starting",
  "4741": " rush",
  "4742": " poison",
  "4743": " pirates",
  "4744": "heart",
  "4745": " vac",
  "4746": " content",
  "4747": "Emma",
  "4748": " Kiki",
  "4749": " sigh",
  "4750": " flapped",
  "4751": " drops",
  "4752": " chirp",
  "4753": " sport",
  "4754": "Qu",
  "4755": " sparkled",
  "4756": " Zoomy",
  "4757": " given",
  "4758": " streng",
  "4759": " steel",
  "4760": "Ann",
  "4761": " bumped",
  "4762": " yawned",
  "4763": " stud",
  "4764": " request",
  "4765": " scold",
  "4766": " myself",
  "4767": " strength",
  "4768": " shrugged",
  "4769": "Mark",
  "4770": " coats",
  "4771": " punish",
  "4772": " equ",
  "4773": " snugg",
  "4774": " university",
  "4775": " paid",
  "4776": " Johnny",
  "4777": " pigs",
  "4778": " scratch",
  "4779": " toe",
  "4780": " exerc",
  "4781": " tracks",
  "4782": " upstairs",
  "4783": " prayed",
  "4784": " crossed",
  "4785": " squeezed",
  "4786": " impressed",
  "4787": " flood",
  "4788": " bouncing",
  "4789": "Alice",
  "4790": " rabbits",
  "4791": "ges",
  "4792": " badly",
  "4793": "..",
  "4794": " leather",
  "4795": " expect",
  "4796": " news",
  "4797": " tide",
  "4798": " Ted",
  "4799": " minute",
  "4800": " bears",
  "4801": " claws",
  "4802": " buzz",
  "4803": " sweetheart",
  "4804": " Sm",
  "4805": "yth",
  "4806": " nation",
  "4807": "Sh",
  "4808": "ythm",
  "4809": " vacation",
  "4810": " hist",
  "4811": " heat",
  "4812": " strawberries",
  "4813": " observe",
  "4814": " explored",
  "4815": " settle",
  "4816": " sandcastle",
  "4817": " yawn",
  "4818": " history",
  "4819": " Lilly",
  "4820": " Lola",
  "4821": "mare",
  "4822": " Mummy",
  "4823": " Sque",
  "4824": "ially",
  "4825": "inking",
  "4826": " believed",
  "4827": " horses",
  "4828": "Daddy",
  "4829": " Hoppy",
  "4830": " checked",
  "4831": " Mandy",
  "4832": " tour",
  "4833": " network",
  "4834": " cheek",
  "4835": " Under",
  "4836": " offer",
  "4837": " easily",
  "4838": " placed",
  "4839": "spec",
  "4840": " spots",
  "4841": " snowball",
  "4842": "ween",
  "4843": " energy",
  "4844": "men",
  "4845": " imagination",
  "4846": " blueberry",
  "4847": "otten",
  "4848": " between",
  "4849": "specially",
  "4850": " Gigi",
  "4851": "izes",
  "4852": " daisy",
  "4853": " waving",
  "4854": "reeze",
  "4855": "reat",
  "4856": " vroom",
  "4857": " soak",
  "4858": " safari",
  "4859": " rhythm",
  "4860": " massage",
  "4861": " baking",
  "4862": "quake",
  "4863": " nightmare",
  "4864": " insisted",
  "4865": " blowing",
  "4866": " entered",
  "4867": "Before",
  "4868": " stair",
  "4869": " Bee",
  "4870": " palm",
  "4871": " beauty",
  "4872": " stomach",
  "4873": " twisted",
  "4874": " bother",
  "4875": " writing",
  "4876": " scoop",
  "4877": " prunes",
  "4878": " brain",
  "4879": " ing",
  "4880": " pur",
  "4881": "ipment",
  "4882": " poppy",
  "4883": " hills",
  "4884": "noon",
  "4885": " afternoon",
  "4886": " equipment",
  "4887": " especially",
  "4888": " Ru",
  "4889": "hest",
  "4890": " sir",
  "4891": " pad",
  "4892": " See",
  "4893": " ingred",
  "4894": " calls",
  "4895": " ingredient",
  "4896": " Fox",
  "4897": " earthquake",
  "4898": " ignored",
  "4899": " Snowy",
  "4900": " burned",
  "4901": " nobody",
  "4902": "mble",
  "4903": " sty",
  "4904": "apa",
  "4905": " sew",
  "4906": " tug",
  "4907": "isty",
  "4908": "xygen",
  "4909": " hearts",
  "4910": " lear",
  "4911": " learnt",
  "4912": " lemonade",
  "4913": " increase",
  "4914": "anges",
  "4915": "illie",
  "4916": "Jenny",
  "4917": " gaz",
  "4918": " backpack",
  "4919": " mailman",
  "4920": " whistled",
  "4921": " pedal",
  "4922": " Sk",
  "4923": "Fred",
  "4924": " shopkeeper",
  "4925": "ffic",
  "4926": " permit",
  "4927": " tremble",
  "4928": " yucky",
  "4929": " moves",
  "4930": " introduce",
  "4931": " lemons",
  "4932": " crash",
  "4933": " beans",
  "4934": " floated",
  "4935": "edn",
  "4936": "ednesday",
  "4937": "ittens",
  "4938": "Welcome",
  "4939": " planned",
  "4940": " strike",
  "4941": " traffic",
  "4942": " include",
  "4943": "eration",
  "4944": " slap",
  "4945": " racing",
  "4946": " Lucky",
  "4947": "resses",
  "4948": " wisdom",
  "4949": " wags",
  "4950": " Finny",
  "4951": "laimed",
  "4952": " George",
  "4953": " luck",
  "4954": " following",
  "4955": " price",
  "4956": "ecting",
  "4957": " mama",
  "4958": " pitch",
  "4959": " below",
  "4960": " Elly",
  "4961": " Have",
  "4962": "Le",
  "4963": " weight",
  "4964": " exclaimed",
  "4965": "house",
  "4966": " buried",
  "4967": " follows",
  "4968": " comf",
  "4969": " recognize",
  "4970": " ingredients",
  "4971": "tain",
  "4972": " \n",
  "4973": " furt",
  "4974": " candles",
  "4975": "Mimi",
  "4976": " marbles",
  "4977": "riage",
  "4978": "unday",
  "4979": " Alex",
  "4980": " apart",
  "4981": " Wednesday",
  "4982": " growled",
  "4983": "uct",
  "4984": " Su",
  "4985": "ores",
  "4986": " teaching",
  "4987": " hopes",
  "4988": " folded",
  "4989": " conf",
  "4990": " closely",
  "4991": " Finn",
  "4992": " Who",
  "4993": " heel",
  "4994": " Sunday",
  "4995": " encourage",
  "4996": " Paul",
  "4997": " Owl",
  "4998": " zigzag",
  "4999": " pulling",
  "5000": " digg",
  "5001": " bouncy",
  "5002": " further",
  "5003": " chewed",
  "5004": " digging",
  "5005": " winning",
  "5006": "Woof",
  "5007": "With",
  "5008": " dresses",
  "5009": " image",
  "5010": "rec",
  "5011": " Coco",
  "5012": "cery",
  "5013": " encoura",
  "5014": " shouting",
  "5015": " grocery",
  "5016": " twisty",
  "5017": " peanuts",
  "5018": " puzzles",
  "5019": "bbing",
  "5020": " Dog",
  "5021": "look",
  "5022": " scrat",
  "5023": " chores",
  "5024": " whisper",
  "5025": " Is",
  "5026": " spike",
  "5027": " Froggy",
  "5028": " cape",
  "5029": " snail",
  "5030": " acorns",
  "5031": " worms",
  "5032": "hood",
  "5033": " deeper",
  "5034": " urge",
  "5035": "ifi",
  "5036": " exper",
  "5037": " Whenever",
  "5038": " Tilly",
  "5039": " Squeaky",
  "5040": " Grace",
  "5041": " planted",
  "5042": " attention",
  "5043": "ecture",
  "5044": " exercise",
  "5045": " Danny",
  "5046": " cub",
  "5047": " operation",
  "5048": " underground",
  "5049": " hon",
  "5050": " agre",
  "5051": " quite",
  "5052": " creatures",
  "5053": " simp",
  "5054": "Everyone",
  "5055": " struggle",
  "5056": "oral",
  "5057": " Mittens",
  "5058": "ddy",
  "5059": " blood",
  "5060": " lecture",
  "5061": " washing",
  "5062": " hurting",
  "5063": " vanished",
  "5064": " gifts",
  "5065": " dressed",
  "5066": " invitation",
  "5067": " solved",
  "5068": " licks",
  "5069": " snuggled",
  "5070": " Sharing",
  "5071": "ippy",
  "5072": " ble",
  "5073": " marriage",
  "5074": " quietly",
  "5075": "gie",
  "5076": " warning",
  "5077": " jazz",
  "5078": " breathe",
  "5079": "reci",
  "5080": " elephants",
  "5081": " sizes",
  "5082": " dried",
  "5083": " fallen",
  "5084": " landscape",
  "5085": " sprink",
  "5086": " neighbour",
  "5087": " mice",
  "5088": "uesday",
  "5089": " appreci",
  "5090": " Sophie",
  "5091": " Joey",
  "5092": " –",
  "5093": " eagerly",
  "5094": " sailing",
  "5095": " paused",
  "5096": "ips",
  "5097": " counter",
  "5098": " Good",
  "5099": " Bounce",
  "5100": " Penny",
  "5101": " worth",
  "5102": "looking",
  "5103": " Rock",
  "5104": " oxygen",
  "5105": "Because",
  "5106": " release",
  "5107": " shined",
  "5108": "Not",
  "5109": "pted",
  "5110": " reaches",
  "5111": " balan",
  "5112": " Zara",
  "5113": "nce",
  "5114": "isses",
  "5115": " oh",
  "5116": " kisses",
  "5117": " style",
  "5118": " bricks",
  "5119": " glo",
  "5120": " plays",
  "5121": " Tuesday",
  "5122": " ideas",
  "5123": "sed",
  "5124": " inst",
  "5125": " wob",
  "5126": " fireworks",
  "5127": "Bella",
  "5128": "iggly",
  "5129": "ucked",
  "5130": " seeing",
  "5131": " flap",
  "5132": "ops",
  "5133": "shed",
  "5134": " accepted",
  "5135": "right",
  "5136": " Pip",
  "5137": "Today",
  "5138": " blink",
  "5139": "ories",
  "5140": "mm",
  "5141": " Ros",
  "5142": " tremb",
  "5143": "These",
  "5144": " muddy",
  "5145": " memory",
  "5146": " married",
  "5147": " tomatoes",
  "5148": " exit",
  "5149": " Annie",
  "5150": " wagging",
  "5151": " fash",
  "5152": "Remy",
  "5153": " Charlie",
  "5154": " wandered",
  "5155": "ipping",
  "5156": " gloves",
  "5157": " captain",
  "5158": " pillows",
  "5159": " receive",
  "5160": " resp",
  "5161": " Pinky",
  "5162": " during",
  "5163": " Everything",
  "5164": "etch",
  "5165": " web",
  "5166": " petals",
  "5167": " watered",
  "5168": " Eventually",
  "5169": " si",
  "5170": "ived",
  "5171": " manage",
  "5172": " pinched",
  "5173": " brings",
  "5174": "ux",
  "5175": " vanish",
  "5176": " cakes",
  "5177": " fashion",
  "5178": " Bluey",
  "5179": " printer",
  "5180": " destroyed",
  "5181": " treasures",
  "5182": " allow",
  "5183": "ups",
  "5184": " hadn",
  "5185": " worse",
  "5186": " Fifi",
  "5187": "Surpr",
  "5188": " hits",
  "5189": " bur",
  "5190": "uxu",
  "5191": " velvet",
  "5192": " appear",
  "5193": " disagree",
  "5194": "do",
  "5195": " catching",
  "5196": " scattered",
  "5197": " Ro",
  "5198": " memories",
  "5199": " sorts",
  "5200": " Papa",
  "5201": " hers",
  "5202": " scolded",
  "5203": " signs",
  "5204": " pears",
  "5205": " oranges",
  "5206": " bones",
  "5207": " rang",
  "5208": " snapped",
  "5209": " sits",
  "5210": " seats",
  "5211": "Bl",
  "5212": " gazed",
  "5213": " raised",
  "5214": " Maria",
  "5215": " zipped",
  "5216": " pies",
  "5217": " prints",
  "5218": " shot",
  "5219": " sliding",
  "5220": " God",
  "5221": " fro",
  "5222": " easier",
  "5223": "ssible",
  "5224": " skills",
  "5225": " climbs",
  "5226": " twirled",
  "5227": "ccer",
  "5228": " blankets",
  "5229": "ester",
  "5230": " forgotten",
  "5231": " baked",
  "5232": "Yum",
  "5233": "esterday",
  "5234": " difference",
  "5235": "orted",
  "5236": " luxu",
  "5237": " golden",
  "5238": "ising",
  "5239": " kitty",
  "5240": " Tw",
  "5241": " cutting",
  "5242": " season",
  "5243": "aggie",
  "5244": " nowhere",
  "5245": " crow",
  "5246": " soccer",
  "5247": " dared",
  "5248": " bites",
  "5249": " Henry",
  "5250": " Harry",
  "5251": "anny",
  "5252": " lung",
  "5253": " celebrated",
  "5254": "choo",
  "5255": "chie",
  "5256": " straight",
  "5257": " unlocked",
  "5258": "sters",
  "5259": " sorting",
  "5260": " collected",
  "5261": " bleed",
  "5262": "aped",
  "5263": " welcomed",
  "5264": " visited",
  "5265": " spoons",
  "5266": " ours",
  "5267": " stitch",
  "5268": " jogging",
  "5269": "Surprise",
  "5270": "medi",
  "5271": " emer",
  "5272": " Spark",
  "5273": "mediately",
  "5274": " isn",
  "5275": " tong",
  "5276": " trave",
  "5277": " winner",
  "5278": "umble",
  "5279": " since",
  "5280": " ruin",
  "5281": " prett",
  "5282": "Ok",
  "5283": "Moral",
  "5284": " Tony",
  "5285": " attached",
  "5286": " weeping",
  "5287": " marching",
  "5288": " luxury",
  "5289": " simple",
  "5290": " Each",
  "5291": " shouldn",
  "5292": " guessed",
  "5293": " zero",
  "5294": " created",
  "5295": " stuffed",
  "5296": " pets",
  "5297": "ction",
  "5298": " waist",
  "5299": " famil",
  "5300": " urged",
  "5301": " bowed",
  "5302": " selling",
  "5303": " floating",
  "5304": "rr",
  "5305": " Smith",
  "5306": " bye",
  "5307": " King",
  "5308": " vict",
  "5309": " kingdom",
  "5310": " olives",
  "5311": " kicking",
  "5312": " Wiggly",
  "5313": " punished",
  "5314": " Liz",
  "5315": " An",
  "5316": " Baby",
  "5317": "ann",
  "5318": "sit",
  "5319": " toes",
  "5320": " grant",
  "5321": " muscles",
  "5322": " jewels",
  "5323": " Rosie",
  "5324": " beds",
  "5325": " melted",
  "5326": "Goodbye",
  "5327": " slice",
  "5328": " grin",
  "5329": " understanding",
  "5330": " collection",
  "5331": " tore",
  "5332": " measured",
  "5333": "aker",
  "5334": "omeday",
  "5335": "iers",
  "5336": " trapped",
  "5337": " lined",
  "5338": "'ve",
  "5339": " acted",
  "5340": " encouraged",
  "5341": "unately",
  "5342": "va",
  "5343": " Sandy",
  "5344": " received",
  "5345": " waffles",
  "5346": " Before",
  "5347": " Wally",
  "5348": " west",
  "5349": " meow",
  "5350": "ents",
  "5351": " patterns",
  "5352": "rin",
  "5353": "ino",
  "5354": "eath",
  "5355": " brus",
  "5356": " mouths",
  "5357": "kins",
  "5358": " bang",
  "5359": "ring",
  "5360": " Kate",
  "5361": "Meow",
  "5362": " peaches",
  "5363": " breeze",
  "5364": "aded",
  "5365": "une",
  "5366": " printed",
  "5367": " soldiers",
  "5368": " someday",
  "5369": " potatoes",
  "5370": " pupil",
  "5371": "umes",
  "5372": " Millie",
  "5373": " drinks",
  "5374": " shed",
  "5375": " experience",
  "5376": " Tuna",
  "5377": "eep",
  "5378": " presents",
  "5379": " firef",
  "5380": " Ruby",
  "5381": " surround",
  "5382": " none",
  "5383": "osed",
  "5384": " voices",
  "5385": " drinking",
  "5386": " Uncle",
  "5387": "ishing",
  "5388": " relaxed",
  "5389": " victory",
  "5390": "cus",
  "5391": " paints",
  "5392": " breaking",
  "5393": "eve",
  "5394": " hurried",
  "5395": "ission",
  "5396": " twink",
  "5397": " tongue",
  "5398": " costumes",
  "5399": " flat",
  "5400": " mentioned",
  "5401": " begged",
  "5402": " teasing",
  "5403": " whistling",
  "5404": " fetch",
  "5405": " permission",
  "5406": " sip",
  "5407": " disagreed",
  "5408": " pearl",
  "5409": "akes",
  "5410": " stro",
  "5411": "vest",
  "5412": " These",
  "5413": " appro",
  "5414": " skipping",
  "5415": " fishing",
  "5416": " May",
  "5417": "Leo",
  "5418": " highest",
  "5419": " pra",
  "5420": " watches",
  "5421": " sorted",
  "5422": " ringing",
  "5423": "ship",
  "5424": " tonight",
  "5425": " Bo",
  "5426": " opin",
  "5427": " lets",
  "5428": "icing",
  "5429": " Qu",
  "5430": " perfectly",
  "5431": " shadows",
  "5432": " immediately",
  "5433": " herbs",
  "5434": " warmth",
  "5435": " spit",
  "5436": " remained",
  "5437": "ther",
  "5438": " Its",
  "5439": "walk",
  "5440": "Bobby",
  "5441": " esc",
  "5442": "irring",
  "5443": "Jen",
  "5444": " sneak",
  "5445": " six",
  "5446": " lips",
  "5447": " kneeled",
  "5448": "Blue",
  "5449": " contest",
  "5450": " Che",
  "5451": "utter",
  "5452": " cartoons",
  "5453": " sidewalk",
  "5454": " colours",
  "5455": " stamps",
  "5456": " ago",
  "5457": "Ha",
  "5458": " Toto",
  "5459": " Boo",
  "5460": " Follow",
  "5461": " east",
  "5462": " headed",
  "5463": "oved",
  "5464": "\",",
  "5465": " strang",
  "5466": " ladyb",
  "5467": " fed",
  "5468": " supposed",
  "5469": " roots",
  "5470": " lick",
  "5471": " crunch",
  "5472": " mixing",
  "5473": " works",
  "5474": " decorations",
  "5475": " melting",
  "5476": " known",
  "5477": " emergen",
  "5478": "Mandy",
  "5479": " rested",
  "5480": " Ab",
  "5481": " lines",
  "5482": " Suzy",
  "5483": " lily",
  "5484": " Jul",
  "5485": " instr",
  "5486": " laid",
  "5487": " Gr",
  "5488": " succeeded",
  "5489": " cones",
  "5490": " wiggle",
  "5491": "ety",
  "5492": "sing",
  "5493": " shock",
  "5494": " setting",
  "5495": " Slow",
  "5496": " studied",
  "5497": " strangers",
  "5498": " Rocky",
  "5499": "Really",
  "5500": " twigs",
  "5501": " brid",
  "5502": " theirs",
  "5503": " Dr",
  "5504": " girls",
  "5505": "boo",
  "5506": "!\",",
  "5507": " screams",
  "5508": " lands",
  "5509": " ordered",
  "5510": " stirring",
  "5511": " moments",
  "5512": " fields",
  "5513": " alright",
  "5514": " stealing",
  "5515": "Andy",
  "5516": " rul",
  "5517": " bravely",
  "5518": "avid",
  "5519": " Both",
  "5520": " mister",
  "5521": "!'",
  "5522": " invest",
  "5523": " scratched",
  "5524": " playtime",
  "5525": " ripped",
  "5526": " investig",
  "5527": " tucked",
  "5528": " resting",
  "5529": " burning",
  "5530": "ishes",
  "5531": " Clara",
  "5532": " Chicky",
  "5533": " bridges",
  "5534": " officer",
  "5535": "please",
  "5536": "Sammy",
  "5537": "Bird",
  "5538": "abies",
  "5539": " settled",
  "5540": " matched",
  "5541": " achie",
  "5542": " tex",
  "5543": " texture",
  "5544": "Happy",
  "5545": " waits",
  "5546": " turning",
  "5547": "fortunately",
  "5548": " Sky",
  "5549": "Peter",
  "5550": "ored",
  "5551": " trembling",
  "5552": "isten",
  "5553": " nails",
  "5554": "atie",
  "5555": " muffins",
  "5556": " Someone",
  "5557": "ids",
  "5558": " escaped",
  "5559": " James",
  "5560": " investigate",
  "5561": " piles",
  "5562": "osity",
  "5563": " broom",
  "5564": " sore",
  "5565": " ladybug",
  "5566": " Pepper",
  "5567": " appreciate",
  "5568": " admir",
  "5569": " threat",
  "5570": " babies",
  "5571": " silence",
  "5572": " sisters",
  "5573": " emergency",
  "5574": " area",
  "5575": " dads",
  "5576": " answers",
  "5577": " pupp",
  "5578": " keys",
  "5579": " chewing",
  "5580": " slapped",
  "5581": " wiz",
  "5582": " importance",
  "5583": " served",
  "5584": " Hop",
  "5585": "Boo",
  "5586": " safety",
  "5587": "izing",
  "5588": "Would",
  "5589": "Bu",
  "5590": " sparkle",
  "5591": " touching",
  "5592": " Later",
  "5593": " soared",
  "5594": "igail",
  "5595": " sings",
  "5596": " hen",
  "5597": "ides",
  "5598": "allen",
  "5599": "Ella",
  "5600": "bers",
  "5601": "antly",
  "5602": "Momo",
  "5603": " Dino",
  "5604": " keeps",
  "5605": " amazement",
  "5606": " challen",
  "5607": " twin",
  "5608": " hesit",
  "5609": " revealed",
  "5610": "achel",
  "5611": " item",
  "5612": " dire",
  "5613": " soaked",
  "5614": "zing",
  "5615": " writ",
  "5616": " foods",
  "5617": " rides",
  "5618": " dinosaurs",
  "5619": " recorded",
  "5620": " tickle",
  "5621": " inch",
  "5622": " Zigzag",
  "5623": " Me",
  "5624": " wizard",
  "5625": " vet",
  "5626": " trips",
  "5627": " glowed",
  "5628": " Frog",
  "5629": "Mmm",
  "5630": " hi",
  "5631": " beamed",
  "5632": " quack",
  "5633": " curled",
  "5634": " hated",
  "5635": " wink",
  "5636": " shopping",
  "5637": " eats",
  "5638": "Eventually",
  "5639": " Bug",
  "5640": " praised",
  "5641": " wooden",
  "5642": " bringing",
  "5643": " mittens",
  "5644": " studying",
  "5645": " guy",
  "5646": " brushes",
  "5647": " spaceship",
  "5648": " gust",
  "5649": " crawling",
  "5650": " Something",
  "5651": "Cat",
  "5652": " ruler",
  "5653": " flav",
  "5654": " downstairs",
  "5655": "per",
  "5656": " shooting",
  "5657": " tastes",
  "5658": " napping",
  "5659": " sprinkles",
  "5660": " marks",
  "5661": " cuddled",
  "5662": " dot",
  "5663": "hello",
  "5664": "plash",
  "5665": " fut",
  "5666": "ales",
  "5667": "aved",
  "5668": " future",
  "5669": " monsters",
  "5670": " collecting",
  "5671": " measuring",
  "5672": " Happy",
  "5673": "'.",
  "5674": " families",
  "5675": " Out",
  "5676": " First",
  "5677": " Mo",
  "5678": " thrill",
  "5679": " oat",
  "5680": " result",
  "5681": "Jake",
  "5682": " approached",
  "5683": " Rabbit",
  "5684": "irts",
  "5685": " crunchy",
  "5686": "act",
  "5687": "Un",
  "5688": " bleeding",
  "5689": " remembers",
  "5690": " nicer",
  "5691": " beat",
  "5692": "ding",
  "5693": " sneaky",
  "5694": " disturbed",
  "5695": " leader",
  "5696": " scaring",
  "5697": "Or",
  "5698": "hind",
  "5699": " peel",
  "5700": " Hope",
  "5701": " firemen",
  "5702": " neighborhood",
  "5703": " Star",
  "5704": " grey",
  "5705": " Not",
  "5706": " motion",
  "5707": " noon",
  "5708": " possible",
  "5709": "Emily",
  "5710": "Somet",
  "5711": " apologized",
  "5712": " weighed",
  "5713": "Cl",
  "5714": " Did",
  "5715": " tickets",
  "5716": " naps",
  "5717": " loose",
  "5718": " pride",
  "5719": "ues",
  "5720": " youth",
  "5721": " swims",
  "5722": "ped",
  "5723": " strings",
  "5724": " recognized",
  "5725": " siren",
  "5726": " poking",
  "5727": "fied",
  "5728": " Ho",
  "5729": " tricked",
  "5730": " wonders",
  "5731": " gained",
  "5732": "ha",
  "5733": " wanting",
  "5734": " crashed",
  "5735": " obe",
  "5736": " seesaw",
  "5737": " worker",
  "5738": "unnies",
  "5739": "ls",
  "5740": "epared",
  "5741": "oming",
  "5742": " draws",
  "5743": " prec",
  "5744": " scooped",
  "5745": ".'",
  "5746": " zooming",
  "5747": " opinion",
  "5748": " yelling",
  "5749": " prepared",
  "5750": " grinned",
  "5751": " Slowly",
  "5752": " awe",
  "5753": " poems",
  "5754": " doggy",
  "5755": " acting",
  "5756": " Beep",
  "5757": " happiest",
  "5758": " chef",
  "5759": " sneaked",
  "5760": " respons",
  "5761": " eff",
  "5762": " Always",
  "5763": " Lizzy",
  "5764": " owned",
  "5765": " bunnies",
  "5766": " anytime",
  "5767": " struck",
  "5768": " pedals",
  "5769": "oys",
  "5770": " knelt",
  "5771": "Ollie",
  "5772": "ena",
  "5773": " secrets",
  "5774": " pause",
  "5775": " decorated",
  "5776": " horns",
  "5777": " agreement",
  "5778": " Squ",
  "5779": "ided",
  "5780": " frost",
  "5781": " tallest",
  "5782": " obey",
  "5783": "Remember",
  "5784": "riends",
  "5785": "ogo",
  "5786": " Stop",
  "5787": "Have",
  "5788": " decides",
  "5789": " Once",
  "5790": " behaved",
  "5791": " tugged",
  "5792": " sides",
  "5793": " woof",
  "5794": " slim",
  "5795": "zen",
  "5796": " goodnight",
  "5797": " keeper",
  "5798": " sparkling",
  "5799": " chirped",
  "5800": " precious",
  "5801": "mother",
  "5802": "lier",
  "5803": "ien",
  "5804": "Tr",
  "5805": " repeated",
  "5806": " claps",
  "5807": "indy",
  "5808": "affes",
  "5809": " snowballs",
  "5810": " contain",
  "5811": "rs",
  "5812": " Ray",
  "5813": " ourselves",
  "5814": "allow",
  "5815": " giraffes",
  "5816": " balancing",
  "5817": " kindly",
  "5818": " spending",
  "5819": " writes",
  "5820": "ays",
  "5821": "ppers",
  "5822": " Like",
  "5823": "omas",
  "5824": " prop",
  "5825": " hissed",
  "5826": "First",
  "5827": " frozen",
  "5828": "oh",
  "5829": " frosting",
  "5830": " effort",
  "5831": " beside",
  "5832": " buzzing",
  "5833": " struggled",
  "5834": " Steve",
  "5835": " admiring",
  "5836": " rele",
  "5837": "iggy",
  "5838": " sweeties",
  "5839": " Velvet",
  "5840": " slimy",
  "5841": " brushed",
  "5842": " Am",
  "5843": " bloomed",
  "5844": "Susie",
  "5845": " polished",
  "5846": " Zoe",
  "5847": "arth",
  "5848": "anted",
  "5849": " comfy",
  "5850": " boo",
  "5851": " staying",
  "5852": " rubbing",
  "5853": "Ducky",
  "5854": " rocking",
  "5855": " pockets",
  "5856": " thrilled",
  "5857": " comple",
  "5858": " Aunt",
  "5859": " Maggie",
  "5860": "Ah",
  "5861": " eight",
  "5862": "urry",
  "5863": "isdom",
  "5864": " machines",
  "5865": " earlier",
  "5866": " yesterday",
  "5867": " seems",
  "5868": " rust",
  "5869": "Sp",
  "5870": " Keep",
  "5871": " traveled",
  "5872": " folding",
  "5873": " boom",
  "5874": " cracked",
  "5875": " hugging",
  "5876": " radishes",
  "5877": " Stitch",
  "5878": " opening",
  "5879": " loving",
  "5880": " circus",
  "5881": " surrounded",
  "5882": " curiosity",
  "5883": " Rachel",
  "5884": " spraying",
  "5885": " demanded",
  "5886": " paintings",
  "5887": "amie",
  "5888": " Green",
  "5889": " removed",
  "5890": " gaze",
  "5891": " honk",
  "5892": " pebbles",
  "5893": " zookeeper",
  "5894": " hardly",
  "5895": " catches",
  "5896": "edding",
  "5897": " sting",
  "5898": " stripes",
  "5899": " powers",
  "5900": " loaded",
  "5901": " Pippa",
  "5902": "Sometimes",
  "5903": " splashes",
  "5904": " pots",
  "5905": " petted",
  "5906": " matching",
  "5907": " David",
  "5908": "Thanks",
  "5909": " toss",
  "5910": " stare",
  "5911": " belly",
  "5912": "Yummy",
  "5913": " whatever",
  "5914": " apologize",
  "5915": " rocked",
  "5916": " comforted",
  "5917": "ibb",
  "5918": " Bree",
  "5919": " decision",
  "5920": " ribbons",
  "5921": " Joy",
  "5922": " Birdie",
  "5923": "ern",
  "5924": " struggling",
  "5925": " expected",
  "5926": " steep",
  "5927": "wh",
  "5928": " protected",
  "5929": " neighbors",
  "5930": " smiley",
  "5931": " chases",
  "5932": "During",
  "5933": " granted",
  "5934": " crumb",
  "5935": " Mat",
  "5936": " purred",
  "5937": " diving",
  "5938": "ver",
  "5939": " sadness",
  "5940": "Whiskers",
  "5941": " organizing",
  "5942": "ities",
  "5943": "lowers",
  "5944": " eagle",
  "5945": " heroes",
  "5946": " dipped",
  "5947": " sunlight",
  "5948": " lied",
  "5949": " pastels",
  "5950": " Frank",
  "5951": "Ex",
  "5952": " safer",
  "5953": " roads",
  "5954": " scru",
  "5955": " argued",
  "5956": " Milly",
  "5957": " goals",
  "5958": " Water",
  "5959": " discovery",
  "5960": " Abigail",
  "5961": " villag",
  "5962": " peered",
  "5963": "Ro",
  "5964": " Bouncy",
  "5965": "use",
  "5966": "loe",
  "5967": " tim",
  "5968": " dragons",
  "5969": " buildings",
  "5970": " buckets",
  "5971": " parties",
  "5972": " beard",
  "5973": " wedding",
  "5974": "Rex",
  "5975": " padd",
  "5976": " flutter",
  "5977": " planets",
  "5978": " ann",
  "5979": " Robby",
  "5980": " polishing",
  "5981": " fasc",
  "5982": "ira",
  "5983": " released",
  "5984": " Chr",
  "5985": " crabs",
  "5986": " Gogo",
  "5987": " tails",
  "5988": " Watch",
  "5989": " gue",
  "5990": " sausages",
  "5991": " argu",
  "5992": " contro",
  "5993": " bottles",
  "5994": " wiggled",
  "5995": " teased",
  "5996": "uke",
  "5997": " arguing",
  "5998": " sled",
  "5999": " dragged",
  "6000": " Car",
  "6001": " roaring",
  "6002": " clearing",
  "6003": " shirts",
  "6004": " movies",
  "6005": " gathering",
  "6006": " airpl",
  "6007": " wid",
  "6008": "joyed",
  "6009": " teaches",
  "6010": " spiders",
  "6011": " limes",
  "6012": " refre",
  "6013": " Remember",
  "6014": " Dare",
  "6015": " overjoyed",
  "6016": " actually",
  "6017": " sighs",
  "6018": "ana",
  "6019": " continue",
  "6020": " cuddle",
  "6021": " soaring",
  "6022": " smallest",
  "6023": " Jess",
  "6024": " drives",
  "6025": " Ju",
  "6026": " sparkles",
  "6027": " rip",
  "6028": " situ",
  "6029": " cubes",
  "6030": " talent",
  "6031": " challenge",
  "6032": " Olly",
  "6033": " grandmother",
  "6034": " Splash",
  "6035": "umm",
  "6036": " pouring",
  "6037": " pretends",
  "6038": " fascin",
  "6039": " cuts",
  "6040": " quarreling",
  "6041": " peppers",
  "6042": " bank",
  "6043": "ib",
  "6044": " shivered",
  "6045": " mane",
  "6046": " dusty",
  "6047": " Jenn",
  "6048": "ley",
  "6049": " wondering",
  "6050": " villagers",
  "6051": " stretching",
  "6052": "njoy",
  "6053": " weeks",
  "6054": " wherever",
  "6055": " darker",
  "6056": " youn",
  "6057": "jam",
  "6058": "Tiny",
  "6059": " X",
  "6060": " rings",
  "6061": " onwards",
  "6062": " Katie",
  "6063": " united",
  "6064": "Achoo",
  "6065": " bead",
  "6066": " Everyday",
  "6067": " Being",
  "6068": " prettiest",
  "6069": "Johnny",
  "6070": " caut",
  "6071": " realize",
  "6072": " company",
  "6073": " penguins",
  "6074": "annah",
  "6075": "Luna",
  "6076": "Fr",
  "6077": " Spring",
  "6078": " bedtime",
  "6079": " completed",
  "6080": " Wisdom",
  "6081": " Leave",
  "6082": "”.",
  "6083": " knights",
  "6084": " flags",
  "6085": " Je",
  "6086": " Because",
  "6087": " playroom",
  "6088": " Prin",
  "6089": "hee",
  "6090": " actions",
  "6091": " Zero",
  "6092": " learns",
  "6093": " gotten",
  "6094": " patience",
  "6095": "inda",
  "6096": "dam",
  "6097": " shrug",
  "6098": " kites",
  "6099": " responsible",
  "6100": " fears",
  "6101": " destination",
  "6102": " wires",
  "6103": " reply",
  "6104": " wrist",
  "6105": " dam",
  "6106": "aws",
  "6107": " packing",
  "6108": " mountains",
  "6109": " fault",
  "6110": " applauded",
  "6111": " scrubbed",
  "6112": " ma",
  "6113": " crept",
  "6114": " Ava",
  "6115": "Uh",
  "6116": " Earth",
  "6117": " satis",
  "6118": " third",
  "6119": " phot",
  "6120": " pencils",
  "6121": " wins",
  "6122": " sticking",
  "6123": " baker",
  "6124": " visiting",
  "6125": " wound",
  "6126": " uses",
  "6127": " peas",
  "6128": " reminder",
  "6129": " sens",
  "6130": " control",
  "6131": "ashed",
  "6132": "Grandpa",
  "6133": " joking",
  "6134": " awake",
  "6135": " instruct",
  "6136": " staring",
  "6137": " healed",
  "6138": " Put",
  "6139": "An",
  "6140": " hitting",
  "6141": " Fish",
  "6142": " screaming",
  "6143": " begin",
  "6144": "Rob",
  "6145": "uckily",
  "6146": " Friends",
  "6147": " Moo",
  "6148": "icorn",
  "6149": " helmets",
  "6150": " crowd",
  "6151": "enty",
  "6152": "ler",
  "6153": " unicorn",
  "6154": "seek",
  "6155": "ica",
  "6156": " towels",
  "6157": " deser",
  "6158": "Silly",
  "6159": " Lou",
  "6160": " chips",
  "6161": " creation",
  "6162": " wasted",
  "6163": "bie",
  "6164": " Behind",
  "6165": "laire",
  "6166": " masks",
  "6167": " items",
  "6168": " forgi",
  "6169": " firefight",
  "6170": " outdo",
  "6171": " lollipops",
  "6172": "Watch",
  "6173": " heav",
  "6174": " guns",
  "6175": " died",
  "6176": " Hippy",
  "6177": " seas",
  "6178": " glitter",
  "6179": "uddles",
  "6180": " arrive",
  "6181": " weren",
  "6182": " stole",
  "6183": " scales",
  "6184": " perched",
  "6185": " accom",
  "6186": " logs",
  "6187": " achieve",
  "6188": "die",
  "6189": " practicing",
  "6190": "ining",
  "6191": " whose",
  "6192": "Stay",
  "6193": " pumpkins",
  "6194": " instructions",
  "6195": " swoop",
  "6196": " batteries",
  "6197": " candies",
  "6198": " agrees",
  "6199": " project",
  "6200": " snakes",
  "6201": " chirping",
  "6202": "Mar",
  "6203": "Benny",
  "6204": " shelves",
  "6205": " protecting",
  "6206": " parked",
  "6207": " exact",
  "6208": " Cra",
  "6209": " patiently",
  "6210": " activ",
  "6211": " videos",
  "6212": " shoulders",
  "6213": " blows",
  "6214": "Fo",
  "6215": " promises",
  "6216": "go",
  "6217": " dent",
  "6218": "usan",
  "6219": "jamas",
  "6220": " examined",
  "6221": " airplane",
  "6222": "Doggy",
  "6223": " roses",
  "6224": "ners",
  "6225": " accompl",
  "6226": " tasks",
  "6227": "Dave",
  "6228": " Hoot",
  "6229": "Poppy",
  "6230": " Bop",
  "6231": "Bunny",
  "6232": " beads",
  "6233": " bowls",
  "6234": " crumbs",
  "6235": "zes",
  "6236": " listens",
  "6237": " Love",
  "6238": " Catty",
  "6239": " Brownie",
  "6240": "Pete",
  "6241": " Ol",
  "6242": " dolphins",
  "6243": " cough",
  "6244": " bunch",
  "6245": " guest",
  "6246": "cakes",
  "6247": " requested",
  "6248": " remote",
  "6249": " improved",
  "6250": "anta",
  "6251": " reaching",
  "6252": " brand",
  "6253": "ayla",
  "6254": " alien",
  "6255": " Bye",
  "6256": "irm",
  "6257": " copy",
  "6258": " Sun",
  "6259": " cheering",
  "6260": " photos",
  "6261": " Julie",
  "6262": " Chew",
  "6263": "Bad",
  "6264": " Jan",
  "6265": " Blink",
  "6266": "Time",
  "6267": " cans",
  "6268": " Cuddles",
  "6269": " timer",
  "6270": " By",
  "6271": " replaced",
  "6272": "athy",
  "6273": " workers",
  "6274": " stern",
  "6275": " Enjoy",
  "6276": " neither",
  "6277": "Mike",
  "6278": " passing",
  "6279": " misses",
  "6280": " curtains",
  "6281": " confl",
  "6282": "Chirpy",
  "6283": " rainbows",
  "6284": " rubs",
  "6285": "George",
  "6286": "uctantly",
  "6287": " rolls",
  "6288": " patted",
  "6289": "ilo",
  "6290": "dies",
  "6291": " pajamas",
  "6292": " outdoors",
  "6293": "esome",
  "6294": " complaining",
  "6295": " Squirrel",
  "6296": "Lola",
  "6297": "Run",
  "6298": " puppet",
  "6299": " Princess",
  "6300": " closes",
  "6301": " beneath",
  "6302": "aster",
  "6303": " lap",
  "6304": " drums",
  "6305": " tune",
  "6306": " Beth",
  "6307": " Mouse",
  "6308": " filling",
  "6309": "Miss",
  "6310": "angled",
  "6311": " refuse",
  "6312": " Sorry",
  "6313": " sweat",
  "6314": " faced",
  "6315": " seven",
  "6316": " balanced",
  "6317": "eal",
  "6318": " rescued",
  "6319": "neath",
  "6320": "bl",
  "6321": " quacked",
  "6322": " Abby",
  "6323": "...",
  "6324": "Paul",
  "6325": "istle",
  "6326": " awesome",
  "6327": " 1",
  "6328": " mission",
  "6329": " However",
  "6330": " guys",
  "6331": " conflict",
  "6332": " cautious",
  "6333": " vent",
  "6334": " observed",
  "6335": " cause",
  "6336": " introduc",
  "6337": " Thomas",
  "6338": " pastries",
  "6339": "  ",
  "6340": " Our",
  "6341": " exactly",
  "6342": " doctors",
  "6343": " rule",
  "6344": " becoming",
  "6345": " policeman",
  "6346": "uly",
  "6347": " rockets",
  "6348": "you",
  "6349": " Yes",
  "6350": " Dot",
  "6351": " fairies",
  "6352": "lay",
  "6353": " pout",
  "6354": " insist",
  "6355": " blooming",
  "6356": " tractor",
  "6357": " farther",
  "6358": " Sad",
  "6359": "avi",
  "6360": "Oops",
  "6361": "Great",
  "6362": " remembering",
  "6363": " included",
  "6364": " curly",
  "6365": "Zoom",
  "6366": "Fine",
  "6367": " teamwork",
  "6368": "zie",
  "6369": " fascinated",
  "6370": " wobbled",
  "6371": " slam",
  "6372": " truly",
  "6373": " helpers",
  "6374": " sights",
  "6375": " paddle",
  "6376": " stumble",
  "6377": " firm",
  "6378": "onn",
  "6379": "Henry",
  "6380": " Jilly",
  "6381": "acob",
  "6382": " caused",
  "6383": " prayer",
  "6384": " spong",
  "6385": " recording",
  "6386": "kelly",
  "6387": "ais",
  "6388": " traded",
  "6389": " super",
  "6390": " starfish",
  "6391": " supplies",
  "6392": " thro",
  "6393": " pointy",
  "6394": " situation",
  "6395": " inviting",
  "6396": "eah",
  "6397": "gers",
  "6398": " neighbourhood",
  "6399": " everyday",
  "6400": " ornaments",
  "6401": " Ally",
  "6402": "inkle",
  "6403": " valued",
  "6404": " adding",
  "6405": "Some",
  "6406": " reluctantly",
  "6407": " dots",
  "6408": " stays",
  "6409": " tables",
  "6410": " prettier",
  "6411": " bare",
  "6412": " desert",
  "6413": " snowmen",
  "6414": " steady",
  "6415": " minerals",
  "6416": "araway",
  "6417": " thorn",
  "6418": "ody",
  "6419": " ast",
  "6420": " glasses",
  "6421": " faraway",
  "6422": "sm",
  "6423": " Get",
  "6424": " Foxy",
  "6425": " swooped",
  "6426": " Welcome",
  "6427": " Two",
  "6428": " Sure",
  "6429": " unf",
  "6430": " forks",
  "6431": " usually",
  "6432": " usual",
  "6433": "Polly",
  "6434": " dar",
  "6435": " Jamie",
  "6436": " winked",
  "6437": " sneezing",
  "6438": " solut",
  "6439": " loading",
  "6440": " sponge",
  "6441": " Quick",
  "6442": " insects",
  "6443": " pans",
  "6444": "Dog",
  "6445": " sobbed",
  "6446": " Santa",
  "6447": "James",
  "6448": " growling",
  "6449": "arter",
  "6450": " throat",
  "6451": " Chloe",
  "6452": " noses",
  "6453": " Josh",
  "6454": " Dizzy",
  "6455": " scarves",
  "6456": " confident",
  "6457": " yourselves",
  "6458": " Want",
  "6459": "agull",
  "6460": " homework",
  "6461": " superheroes",
  "6462": " Stay",
  "6463": "Joey",
  "6464": " smarter",
  "6465": " windy",
  "6466": " librarian",
  "6467": "Tina",
  "6468": " Kids",
  "6469": " gems",
  "6470": "..\"",
  "6471": "Days",
  "6472": "ora",
  "6473": " underneath",
  "6474": " kicks",
  "6475": " knowled",
  "6476": " itchy",
  "6477": " knowledge",
  "6478": " jackets",
  "6479": "...\"",
  "6480": " Skelly",
  "6481": " For",
  "6482": " surface",
  "6483": " untie",
  "6484": " comm",
  "6485": "eed",
  "6486": " Duck",
  "6487": " princesses",
  "6488": "Those",
  "6489": "ido",
  "6490": "Hold",
  "6491": "Yeah",
  "6492": " squares",
  "6493": " Henny",
  "6494": " warnings",
  "6495": " giggling",
  "6496": "iar",
  "6497": " reads",
  "6498": "shing",
  "6499": "Our",
  "6500": " choo",
  "6501": "son",
  "6502": " younger",
  "6503": " clowns",
  "6504": " Mix",
  "6505": "Toby",
  "6506": " ropes",
  "6507": " biting",
  "6508": " Unfortunately",
  "6509": "pite",
  "6510": "Danny",
  "6511": "True",
  "6512": " seagull",
  "6513": " paddled",
  "6514": " wears",
  "6515": " delivered",
  "6516": " Mon",
  "6517": " twirl",
  "6518": " onions",
  "6519": " buzzed",
  "6520": " complained",
  "6521": " bumpy",
  "6522": " stem",
  "6523": "Ew",
  "6524": " piggy",
  "6525": "Mrs",
  "6526": " Anne",
  "6527": " direction",
  "6528": "ouch",
  "6529": " dived",
  "6530": "Roar",
  "6531": " tangled",
  "6532": " startled",
  "6533": "ults",
  "6534": " leaning",
  "6535": "bbie",
  "6536": " Ant",
  "6537": " Jones",
  "6538": " unp",
  "6539": " badge",
  "6540": " Po",
  "6541": "Grace",
  "6542": " deal",
  "6543": "though",
  "6544": "Annie",
  "6545": " vowed",
  "6546": " napkins",
  "6547": "anes",
  "6548": " tickled",
  "6549": " risk",
  "6550": " covers",
  "6551": " pec",
  "6552": "Shh",
  "6553": "int",
  "6554": " yells",
  "6555": " satisfied",
  "6556": " knocks",
  "6557": " refreshed",
  "6558": "tuce",
  "6559": " Sc",
  "6560": "cuse",
  "6561": " cous",
  "6562": " arrows",
  "6563": "vin",
  "6564": "Maggie",
  "6565": " Whistle",
  "6566": "Pe",
  "6567": " wipes",
  "6568": " speaking",
  "6569": " lettuce",
  "6570": " guessing",
  "6571": "Unfortunately",
  "6572": " Quack",
  "6573": " ripe",
  "6574": " Susan",
  "6575": " hides",
  "6576": " choices",
  "6577": " Dodo",
  "6578": " Rover",
  "6579": "Buzz",
  "6580": " signed",
  "6581": " slower",
  "6582": " seeker",
  "6583": " introduced",
  "6584": " singer",
  "6585": " creating",
  "6586": " Matt",
  "6587": " froze",
  "6588": " cent",
  "6589": "uggles",
  "6590": " joked",
  "6591": " squeal",
  "6592": " toaster",
  "6593": " explorers",
  "6594": "fit",
  "6595": " avo",
  "6596": "anging",
  "6597": "Sophie",
  "6598": " praying",
  "6599": " written",
  "6600": " discovering",
  "6601": " provided",
  "6602": " Dara",
  "6603": " refle",
  "6604": " Lion",
  "6605": "Excuse",
  "6606": " mushrooms",
  "6607": " Jeff",
  "6608": " Paws",
  "6609": " paying",
  "6610": " knees",
  "6611": " hider",
  "6612": "ences",
  "6613": " wandering",
  "6614": " Ash",
  "6615": " images",
  "6616": "Charlie",
  "6617": " stung",
  "6618": " Wink",
  "6619": " magnets",
  "6620": " barely",
  "6621": " behaving",
  "6622": " tipto",
  "6623": "?\",",
  "6624": " marked",
  "6625": "brush",
  "6626": "estored",
  "6627": " restored",
  "6628": " Dee",
  "6629": " leading",
  "6630": "lled",
  "6631": " chuck",
  "6632": "ados",
  "6633": " nine",
  "6634": " greet",
  "6635": "Teddy",
  "6636": " gears",
  "6637": " bravery",
  "6638": " Snuggles",
  "6639": "ky",
  "6640": " competition",
  "6641": " Fu",
  "6642": " outfit",
  "6643": "oline",
  "6644": " wishing",
  "6645": " properly",
  "6646": "tle",
  "6647": " ventured",
  "6648": " muscle",
  "6649": " dances",
  "6650": " chat",
  "6651": " salty",
  "6652": " pens",
  "6653": "amb",
  "6654": "aa",
  "6655": " Betsy",
  "6656": " ranger",
  "6657": " Ziggy",
  "6658": " deserve",
  "6659": " however",
  "6660": "sequ",
  "6661": " matters",
  "6662": " darkness",
  "6663": " burst",
  "6664": " rainy",
  "6665": " cobwebs",
  "6666": " ruining",
  "6667": " chefs",
  "6668": " consequ",
  "6669": " blocking",
  "6670": " bak",
  "6671": "usted",
  "6672": "itely",
  "6673": "sty",
  "6674": "rrr",
  "6675": " scur",
  "6676": " vines",
  "6677": " fab",
  "6678": "abel",
  "6679": " fabric",
  "6680": " entire",
  "6681": " basement",
  "6682": " performed",
  "6683": " least",
  "6684": " Buggy",
  "6685": "Sn",
  "6686": " scratches",
  "6687": " heavier",
  "6688": " Claire",
  "6689": " mints",
  "6690": " twirling",
  "6691": " avocados",
  "6692": "However",
  "6693": " Linda",
  "6694": "rink",
  "6695": "Whee",
  "6696": "fl",
  "6697": " scurried",
  "6698": " losing",
  "6699": " sunflowers",
  "6700": " Jenna",
  "6701": " rainco",
  "6702": " swords",
  "6703": "Tweet",
  "6704": " click",
  "6705": "agic",
  "6706": " Laser",
  "6707": " silent",
  "6708": " jobs",
  "6709": " necklaces",
  "6710": " flames",
  "6711": " Luke",
  "6712": " relief",
  "6713": " Grumpy",
  "6714": " snat",
  "6715": " sewed",
  "6716": " rotting",
  "6717": "len",
  "6718": "Listen",
  "6719": "Follow",
  "6720": " tricky",
  "6721": "Jerry",
  "6722": " lighter",
  "6723": "ophia",
  "6724": " bows",
  "6725": " Skip",
  "6726": " exha",
  "6727": " solution",
  "6728": " consequences",
  "6729": "Alex",
  "6730": " Lena",
  "6731": " tires",
  "6732": " stain",
  "6733": "Beep",
  "6734": " unpacked",
  "6735": "Ab",
  "6736": " partic",
  "6737": "rance",
  "6738": " races",
  "6739": " pins",
  "6740": " bumps",
  "6741": " wraps",
  "6742": "aisies",
  "6743": " wow",
  "6744": " decorating",
  "6745": " backed",
  "6746": "cher",
  "6747": " purr",
  "6748": " dentist",
  "6749": " needles",
  "6750": " cautiously",
  "6751": " lifting",
  "6752": "izzie",
  "6753": " Pr",
  "6754": " accomplish",
  "6755": "ude",
  "6756": " triangles",
  "6757": " daisies",
  "6758": "ept",
  "6759": " hesitated",
  "6760": " annoy",
  "6761": " Those",
  "6762": " growls",
  "6763": " crackers",
  "6764": "oke",
  "6765": " stomped",
  "6766": " grabbing",
  "6767": " cott",
  "6768": " figured",
  "6769": " bodies",
  "6770": " mater",
  "6771": " buying",
  "6772": " Tree",
  "6773": " material",
  "6774": " Rolly",
  "6775": " Fido",
  "6776": " Adam",
  "6777": " swans",
  "6778": " ties",
  "6779": " gri",
  "6780": "vers",
  "6781": " grows",
  "6782": " sweets",
  "6783": " \n ",
  "6784": " Goodbye",
  "6785": " El",
  "6786": " owners",
  "6787": " flavor",
  "6788": " cheeks",
  "6789": " Cathy",
  "6790": "Big",
  "6791": " suffering",
  "6792": " Jessie",
  "6793": "vroom",
  "6794": " fact",
  "6795": " groups",
  "6796": "bly",
  "6797": " forehead",
  "6798": " lungs",
  "6799": "Harry",
  "6800": " interested",
  "6801": " bakery",
  "6802": " Milo",
  "6803": " freed",
  "6804": "Lilly",
  "6805": "itches",
  "6806": " Nothing",
  "6807": " chuckled",
  "6808": "For",
  "6809": " swept",
  "6810": " conn",
  "6811": "?'",
  "6812": " thud",
  "6813": " exhausted",
  "6814": " twinkling",
  "6815": " tapped",
  "6816": "Tw",
  "6817": " nect",
  "6818": "rosty",
  "6819": " nectar",
  "6820": "elle",
  "6821": " feast",
  "6822": "aired",
  "6823": " darling",
  "6824": "indr",
  "6825": " Mad",
  "6826": "epaired",
  "6827": " worries",
  "6828": " uns",
  "6829": " tunnels",
  "6830": " fuzzy",
  "6831": " reason",
  "6832": " repaired",
  "6833": " Trust",
  "6834": " Copper",
  "6835": " Ball",
  "6836": " activities",
  "6837": " pecked",
  "6838": " Hannah",
  "6839": "lets",
  "6840": " entrance",
  "6841": " Try",
  "6842": " raindr",
  "6843": " meals",
  "6844": " Listen",
  "6845": " particular",
  "6846": " completely",
  "6847": "Que",
  "6848": " mailed",
  "6849": "ctions",
  "6850": " nests",
  "6851": " waiter",
  "6852": " cuddly",
  "6853": " sense",
  "6854": "Ru",
  "6855": " Nana",
  "6856": " colored",
  "6857": "arky",
  "6858": " leap",
  "6859": "step",
  "6860": "band",
  "6861": " plenty",
  "6862": " peeking",
  "6863": "no",
  "6864": " slammed",
  "6865": " Cara",
  "6866": " players",
  "6867": " month",
  "6868": " budge",
  "6869": " Birthday",
  "6870": " scra",
  "6871": " forgets",
  "6872": " den",
  "6873": " handful",
  "6874": " Oliver",
  "6875": " mer",
  "6876": "ossible",
  "6877": " genie",
  "6878": " Christ",
  "6879": " stool",
  "6880": "iggie",
  "6881": " talks",
  "6882": " Pup",
  "6883": " Suzie",
  "6884": " passports",
  "6885": " feeding",
  "6886": " films",
  "6887": " baths",
  "6888": " impossible",
  "6889": " determination",
  "6890": "May",
  "6891": " printing",
  "6892": "boat",
  "6893": " designed",
  "6894": " buses",
  "6895": " opp",
  "6896": "lephant",
  "6897": "Queen",
  "6898": " suitcase",
  "6899": " bars",
  "6900": " counts",
  "6901": " stolen",
  "6902": " spreading",
  "6903": " spikes",
  "6904": " Snap",
  "6905": " wiping",
  "6906": " steer",
  "6907": " lamb",
  "6908": " Rain",
  "6909": "mas",
  "6910": "lee",
  "6911": " honked",
  "6912": "etty",
  "6913": " cowb",
  "6914": " separated",
  "6915": "blings",
  "6916": " siblings",
  "6917": " hops",
  "6918": "od",
  "6919": " chop",
  "6920": " sewing",
  "6921": " fires",
  "6922": " Twinkle",
  "6923": " fever",
  "6924": " twinkle",
  "6925": " ty",
  "6926": " camping",
  "6927": " Mira",
  "6928": " lower",
  "6929": " changing",
  "6930": "yes",
  "6931": "retch",
  "6932": " behavi",
  "6933": " Bloom",
  "6934": " liqu",
  "6935": " celebration",
  "6936": "but",
  "6937": " squealed",
  "6938": " dollhouse",
  "6939": "Sunny",
  "6940": " backward",
  "6941": " age",
  "6942": " snatched",
  "6943": " cash",
  "6944": " twice",
  "6945": " sway",
  "6946": "itched",
  "6947": " celebrating",
  "6948": " Peanut",
  "6949": " shrinking",
  "6950": " ache",
  "6951": "weed",
  "6952": "cope",
  "6953": " kings",
  "6954": "rious",
  "6955": " shops",
  "6956": " kittens",
  "6957": "Rose",
  "6958": " Jessica",
  "6959": " Jacob",
  "6960": " Gina",
  "6961": "aura",
  "6962": " hus",
  "6963": " touches",
  "6964": "airy",
  "6965": " pancakes",
  "6966": "nies",
  "6967": " avoid",
  "6968": " spat",
  "6969": " Frosty",
  "6970": "rig",
  "6971": "hog",
  "6972": " Nina",
  "6973": " paths",
  "6974": "ives",
  "6975": "cky",
  "6976": " Hold",
  "6977": " rotten",
  "6978": " calmed",
  "6979": "Sandy",
  "6980": " seaweed",
  "6981": " dropping",
  "6982": "iles",
  "6983": "Pipp",
  "6984": " twisting",
  "6985": " stroked",
  "6986": " Jon",
  "6987": " untied",
  "6988": "llen",
  "6989": " playhouse",
  "6990": "hi",
  "6991": "Millie",
  "6992": "ho",
  "6993": " students",
  "6994": " puppies",
  "6995": "cl",
  "6996": " Sof",
  "6997": " screws",
  "6998": " astron",
  "6999": " Re",
  "7000": " somebody",
  "7001": "igning",
  "7002": " liquid",
  "7003": "aren",
  "7004": "ammy",
  "7005": " wakes",
  "7006": " squish",
  "7007": " Woof",
  "7008": " bracelets",
  "7009": " astronaut",
  "7010": "immer",
  "7011": " thrown",
  "7012": " loops",
  "7013": " Other",
  "7014": "Luckily",
  "7015": " wrapping",
  "7016": " plain",
  "7017": " tramp",
  "7018": " planning",
  "7019": " skunk",
  "7020": " aimed",
  "7021": " pennies",
  "7022": " shoo",
  "7023": " lifts",
  "7024": " dancers",
  "7025": " sparks",
  "7026": " firefly",
  "7027": "pen",
  "7028": " poster",
  "7029": "yan",
  "7030": "endy",
  "7031": " cust",
  "7032": " Christmas",
  "7033": "Dan",
  "7034": " rewarded",
  "7035": " objects",
  "7036": " directions",
  "7037": "using",
  "7038": "ingo",
  "7039": " reflection",
  "7040": " husband",
  "7041": " Mel",
  "7042": "—",
  "7043": "Take",
  "7044": "river",
  "7045": " clues",
  "7046": "uppy",
  "7047": " leads",
  "7048": " increased",
  "7049": " dod",
  "7050": " blocked",
  "7051": " rising",
  "7052": " cousin",
  "7053": " Yesterday",
  "7054": " Without",
  "7055": " forgetting",
  "7056": "rigued",
  "7057": " custom",
  "7058": "Kate",
  "7059": " trampoline",
  "7060": " beginning",
  "7061": "esmer",
  "7062": " storekeeper",
  "7063": " pouted",
  "7064": " zebras",
  "7065": " hedgehog",
  "7066": " aff",
  "7067": " ‘",
  "7068": " borrowed",
  "7069": " Rollie",
  "7070": " snowfl",
  "7071": " countryside",
  "7072": "Jump",
  "7073": " mesmer",
  "7074": " Jay",
  "7075": " vehicles",
  "7076": " instrum",
  "7077": " Mic",
  "7078": " Kayla",
  "7079": " Up",
  "7080": " frowning",
  "7081": "ivity",
  "7082": "Pat",
  "7083": "Under",
  "7084": " marker",
  "7085": "yond",
  "7086": " presses",
  "7087": " beyond",
  "7088": " Queen",
  "7089": " damage",
  "7090": " Only",
  "7091": "ivery",
  "7092": " fart",
  "7093": " Tara",
  "7094": " Biggie",
  "7095": "jo",
  "7096": " health",
  "7097": " whispers",
  "7098": " swimsuit",
  "7099": " slips",
  "7100": " nibb",
  "7101": " Julia",
  "7102": "armer",
  "7103": " warmer",
  "7104": " flapping",
  "7105": " tiptoed",
  "7106": " regretted",
  "7107": "itted",
  "7108": "Zip",
  "7109": " laying",
  "7110": " Robo",
  "7111": " yelp",
  "7112": " Fire",
  "7113": " rains",
  "7114": " glued",
  "7115": " everybody",
  "7116": "ades",
  "7117": " creations",
  "7118": " hearing",
  "7119": " swir",
  "7120": " colder",
  "7121": "iversity",
  "7122": "iece",
  "7123": "ael",
  "7124": " shaped",
  "7125": " Elephant",
  "7126": "est",
  "7127": " streets",
  "7128": " fins",
  "7129": " rusty",
  "7130": " cushions",
  "7131": "Out",
  "7132": " san",
  "7133": " farthest",
  "7134": " creativity",
  "7135": " Mikey",
  "7136": "ans",
  "7137": " sale",
  "7138": "Always",
  "7139": " strongest",
  "7140": "ibbit",
  "7141": "Co",
  "7142": " fits",
  "7143": " Sparky",
  "7144": "coon",
  "7145": " bells",
  "7146": " dollars",
  "7147": " Larry",
  "7148": " earn",
  "7149": "iam",
  "7150": "angle",
  "7151": " lending",
  "7152": " Moon",
  "7153": " Chirp",
  "7154": " wee",
  "7155": " cashier",
  "7156": "Milly",
  "7157": " including",
  "7158": "eese",
  "7159": " sniffs",
  "7160": " sank",
  "7161": " raincoat",
  "7162": " Rich",
  "7163": " trembled",
  "7164": " stopping",
  "7165": " source",
  "7166": "iti",
  "7167": "imon",
  "7168": "ae",
  "7169": " Missy",
  "7170": " wobbly",
  "7171": " indeed",
  "7172": "ters",
  "7173": " guests",
  "7174": " single",
  "7175": " recommended",
  "7176": " spells",
  "7177": " accomplishment",
  "7178": " belts",
  "7179": " surprising",
  "7180": " ends",
  "7181": "eet",
  "7182": " hopeful",
  "7183": " seasons",
  "7184": " Take",
  "7185": " Snowman",
  "7186": " Els",
  "7187": "Bear",
  "7188": " plans",
  "7189": "ichael",
  "7190": " supported",
  "7191": "stick",
  "7192": "illed",
  "7193": " suffered",
  "7194": " artist",
  "7195": " performance",
  "7196": "cho",
  "7197": "Nina",
  "7198": " slowed",
  "7199": " gross",
  "7200": " flavors",
  "7201": "iding",
  "7202": "ertain",
  "7203": " spins",
  "7204": "Quack",
  "7205": " labels",
  "7206": "uing",
  "7207": " raindrops",
  "7208": " delivery",
  "7209": "arac",
  "7210": " stands",
  "7211": " raccoon",
  "7212": " forgiving",
  "7213": " Woo",
  "7214": "obody",
  "7215": " pours",
  "7216": "the",
  "7217": "ility",
  "7218": " vanilla",
  "7219": " turtles",
  "7220": "Bill",
  "7221": "uess",
  "7222": " recipe",
  "7223": " beam",
  "7224": " tying",
  "7225": " Sw",
  "7226": " geese",
  "7227": " willing",
  "7228": " robber",
  "7229": " drawn",
  "7230": "Vroom",
  "7231": " wept",
  "7232": " Bones",
  "7233": " charac",
  "7234": " pops",
  "7235": " corners",
  "7236": " Sophia",
  "7237": "ne",
  "7238": "elia",
  "7239": " queens",
  "7240": " sailboat",
  "7241": " grip",
  "7242": " die",
  "7243": " drivers",
  "7244": "itude",
  "7245": " hallway",
  "7246": " imagining",
  "7247": " seconds",
  "7248": " moo",
  "7249": " Fuzzy",
  "7250": "Mine",
  "7251": " preparing",
  "7252": " widened",
  "7253": " adult",
  "7254": " Spirit",
  "7255": " grocer",
  "7256": " coop",
  "7257": " talented",
  "7258": " Pam",
  "7259": " Beaky",
  "7260": " Izzy",
  "7261": "ummies",
  "7262": " sailors",
  "7263": "lling",
  "7264": " softer",
  "7265": " aside",
  "7266": " watering",
  "7267": " sending",
  "7268": " knots",
  "7269": " unsure",
  "7270": " tipped",
  "7271": "Lulu",
  "7272": " treehouse",
  "7273": " horiz",
  "7274": " Lizzie",
  "7275": " notes",
  "7276": " echo",
  "7277": "igers",
  "7278": " achieved",
  "7279": " horizon",
  "7280": " squeak",
  "7281": " delivering",
  "7282": " pleasure",
  "7283": " hotter",
  "7284": " Stella",
  "7285": "Clara",
  "7286": " pupils",
  "7287": " burrow",
  "7288": " angels",
  "7289": " curiously",
  "7290": "Ellie",
  "7291": " yum",
  "7292": " blinking",
  "7293": " June",
  "7294": " tweet",
  "7295": " symbols",
  "7296": " det",
  "7297": " Stretch",
  "7298": "wk",
  "7299": " passen",
  "7300": " Rudy",
  "7301": " Cindy",
  "7302": " tummies",
  "7303": " tiss",
  "7304": " pigeons",
  "7305": " figures",
  "7306": "umbling",
  "7307": "oey",
  "7308": " bandages",
  "7309": " Robert",
  "7310": " coup",
  "7311": " Doctor",
  "7312": " robots",
  "7313": "alph",
  "7314": " tossed",
  "7315": " hour",
  "7316": " backwards",
  "7317": " roars",
  "7318": "Baby",
  "7319": " merma",
  "7320": "uzz",
  "7321": " rather",
  "7322": "atur",
  "7323": "Maria",
  "7324": "cited",
  "7325": " Play",
  "7326": " Crab",
  "7327": "ighting",
  "7328": "Moo",
  "7329": "Dolly",
  "7330": " groceries",
  "7331": " zipping",
  "7332": "Put",
  "7333": "Very",
  "7334": " unw",
  "7335": "prin",
  "7336": " among",
  "7337": " blown",
  "7338": " icing",
  "7339": "!”.",
  "7340": " rumble",
  "7341": " afterwards",
  "7342": "ipper",
  "7343": " screwd",
  "7344": "ushing",
  "7345": " sped",
  "7346": " prove",
  "7347": " glee",
  "7348": " Titi",
  "7349": " Tia",
  "7350": " dip",
  "7351": " overcome",
  "7352": "Ruby",
  "7353": "Quick",
  "7354": " surfboard",
  "7355": " shovels",
  "7356": " slices",
  "7357": " merry",
  "7358": " Toot",
  "7359": "Su",
  "7360": " wobble",
  "7361": " mate",
  "7362": " Turt",
  "7363": " Abbie",
  "7364": " heading",
  "7365": " disturbing",
  "7366": " swall",
  "7367": " reversed",
  "7368": " firefighters",
  "7369": "Jul",
  "7370": " swallowed",
  "7371": " chip",
  "7372": " scored",
  "7373": " flipped",
  "7374": "eds",
  "7375": "awn",
  "7376": " Jump",
  "7377": " squeezing",
  "7378": "usty",
  "7379": "Frank",
  "7380": "aty",
  "7381": " waking",
  "7382": " intrigued",
  "7383": "Sad",
  "7384": "Like",
  "7385": " maker",
  "7386": " Barky",
  "7387": "Betty",
  "7388": " puff",
  "7389": " hawk",
  "7390": " re",
  "7391": " encouraging",
  "7392": " aud",
  "7393": " Ex",
  "7394": "osen",
  "7395": "onies",
  "7396": " chosen",
  "7397": "hew",
  "7398": " Farmer",
  "7399": " Ang",
  "7400": " couple",
  "7401": " designs",
  "7402": " slipping",
  "7403": " screwdriver",
  "7404": " squishy",
  "7405": " Emmy",
  "7406": " gardener",
  "7407": " center",
  "7408": " rivers",
  "7409": " respond",
  "7410": " markers",
  "7411": "iley",
  "7412": " tigers",
  "7413": " jars",
  "7414": " frowns",
  "7415": " fluttered",
  "7416": " Sadly",
  "7417": " Kit",
  "7418": "Ribbit",
  "7419": " firefighter",
  "7420": " Sl",
  "7421": " Ryan",
  "7422": " suits",
  "7423": " secure",
  "7424": " sprinkled",
  "7425": " creamy",
  "7426": "ashes",
  "7427": " sharks",
  "7428": " ignoring",
  "7429": " bru",
  "7430": "pecting",
  "7431": " giggles",
  "7432": " tissue",
  "7433": " tighter",
  "7434": " firmly",
  "7435": "ounce",
  "7436": " Laura",
  "7437": "fly",
  "7438": " shown",
  "7439": " familiar",
  "7440": " thorns",
  "7441": "Spike",
  "7442": "bird",
  "7443": " Wo",
  "7444": " drawers",
  "7445": "child",
  "7446": " express",
  "7447": "Car",
  "7448": " def",
  "7449": " daring",
  "7450": " crossing",
  "7451": " audience",
  "7452": "ments",
  "7453": " performing",
  "7454": " coloured",
  "7455": " cloudy",
  "7456": " Zee",
  "7457": " cor",
  "7458": " ais",
  "7459": " Nick",
  "7460": "rat",
  "7461": " pedaled",
  "7462": "Get",
  "7463": " mixture",
  "7464": " til",
  "7465": " gracefully",
  "7466": "ggy",
  "7467": " haircuts",
  "7468": " yielded",
  "7469": " ponies",
  "7470": " disob",
  "7471": " crowns",
  "7472": " bits",
  "7473": " todd",
  "7474": " Sleep",
  "7475": " nervously",
  "7476": " hangers",
  "7477": "bbled",
  "7478": " Patch",
  "7479": "Zoomy",
  "7480": " pays",
  "7481": " 2",
  "7482": " peck",
  "7483": " stroke",
  "7484": " ev",
  "7485": "fall",
  "7486": "Bang",
  "7487": "een",
  "7488": " respected",
  "7489": " napped",
  "7490": " Ron",
  "7491": "aven",
  "7492": " minded",
  "7493": "ddie",
  "7494": "Bessie",
  "7495": "ably",
  "7496": "Boys",
  "7497": " tested",
  "7498": "ading",
  "7499": " Chris",
  "7500": "Kim",
  "7501": " University",
  "7502": " Near",
  "7503": " beeh",
  "7504": " Turtle",
  "7505": " surfing",
  "7506": " neighbours",
  "7507": "ndparent",
  "7508": "arrow",
  "7509": "vered",
  "7510": " shady",
  "7511": "iona",
  "7512": "arlings",
  "7513": " magician",
  "7514": " enthusiasm",
  "7515": " darlings",
  "7516": " wisely",
  "7517": " stitches",
  "7518": " sails",
  "7519": "kend",
  "7520": "Dear",
  "7521": " weekend",
  "7522": " thoughts",
  "7523": "Freddy",
  "7524": " Tweetie",
  "7525": " reminds",
  "7526": " temper",
  "7527": "oring",
  "7528": "tha",
  "7529": "antha",
  "7530": " surroundings",
  "7531": " spits",
  "7532": " fleas",
  "7533": " teams",
  "7534": " lessons",
  "7535": " fills",
  "7536": " flip",
  "7537": " Along",
  "7538": " paintbrush",
  "7539": " melons",
  "7540": " mermaid",
  "7541": "oni",
  "7542": "Katie",
  "7543": "rac",
  "7544": " grandchild",
  "7545": " hoops",
  "7546": " elbow",
  "7547": " sports",
  "7548": "Guess",
  "7549": " lies",
  "7550": " Fighting",
  "7551": " panicked",
  "7552": " cleaner",
  "7553": " amount",
  "7554": "cused",
  "7555": " longest",
  "7556": " scooters",
  "7557": " lent",
  "7558": "ita",
  "7559": "immering",
  "7560": " sill",
  "7561": " beloved",
  "7562": " arr",
  "7563": "Pippin",
  "7564": " beehive",
  "7565": "Alright",
  "7566": "ongrat",
  "7567": "oga",
  "7568": "lle",
  "7569": "ongratul",
  "7570": " oysters",
  "7571": " grandparent",
  "7572": " forgiven",
  "7573": " magazines",
  "7574": " Wise",
  "7575": " explod",
  "7576": " elf",
  "7577": " repeating",
  "7578": " discussed",
  "7579": " sweetest",
  "7580": " Thanks",
  "7581": "Keep",
  "7582": " wadd",
  "7583": " Maya",
  "7584": " reass",
  "7585": " lace",
  "7586": " Granny",
  "7587": " nightmares",
  "7588": " tubes",
  "7589": " Willy",
  "7590": "Am",
  "7591": " understands",
  "7592": " spoonful",
  "7593": " nood",
  "7594": " bathing",
  "7595": " Zoey",
  "7596": "asty",
  "7597": " sweep",
  "7598": " manners",
  "7599": "onna",
  "7600": "crow",
  "7601": "Uncle",
  "7602": " wrink",
  "7603": " sprang",
  "7604": " nur",
  "7605": " bully",
  "7606": " Holly",
  "7607": " guide",
  "7608": " Yet",
  "7609": "ancy",
  "7610": " crew",
  "7611": "romise",
  "7612": "Jazz",
  "7613": " breathed",
  "7614": "while",
  "7615": "steps",
  "7616": "ilda",
  "7617": "ently",
  "7618": " Bally",
  "7619": " bulbs",
  "7620": " neare",
  "7621": " grassy",
  "7622": " wiggly",
  "7623": " testing",
  "7624": " spies",
  "7625": " coug",
  "7626": " solving",
  "7627": " sheets",
  "7628": " Roo",
  "7629": " footsteps",
  "7630": "ntil",
  "7631": "Afterwards",
  "7632": " speeding",
  "7633": " focused",
  "7634": "ounced",
  "7635": "cept",
  "7636": "?!\"",
  "7637": " mesmerized",
  "7638": " camel",
  "7639": " braver",
  "7640": " hesitant",
  "7641": " Sparkle",
  "7642": " licking",
  "7643": " rushing",
  "7644": " Well",
  "7645": " joining",
  "7646": " Puppy",
  "7647": " polar",
  "7648": " greeted",
  "7649": " Martha",
  "7650": "espite",
  "7651": "--",
  "7652": " Bubb",
  "7653": "anna",
  "7654": "Which",
  "7655": "Kiki",
  "7656": " worn",
  "7657": " materials",
  "7658": " changes",
  "7659": " aren",
  "7660": " Nobody",
  "7661": "undred",
  "7662": " stored",
  "7663": " bicycles",
  "7664": " mast",
  "7665": " anger",
  "7666": "Leave",
  "7667": " peacefully",
  "7668": " ships",
  "7669": " spice",
  "7670": " terrified",
  "7671": " nuzz",
  "7672": " gonna",
  "7673": " Show",
  "7674": " politely",
  "7675": "Snow",
  "7676": " spills",
  "7677": " scarecrow",
  "7678": " knives",
  "7679": " evil",
  "7680": " Mixy",
  "7681": "ppies",
  "7682": " burying",
  "7683": "ca",
  "7684": " healing",
  "7685": " donkey",
  "7686": " aeroplanes",
  "7687": "freeze",
  "7688": "Even",
  "7689": " seals",
  "7690": " scattering",
  "7691": " miles",
  "7692": " Chewy",
  "7693": "amboo",
  "7694": " dump",
  "7695": " worrying",
  "7696": "zoom",
  "7697": "beep",
  "7698": "David",
  "7699": " Lenny",
  "7700": " puzzled",
  "7701": " stacked",
  "7702": " Kip",
  "7703": "Penny",
  "7704": " Nice",
  "7705": " loses",
  "7706": "dding",
  "7707": " travelled",
  "7708": " baskets",
  "7709": " Win",
  "7710": " Okay",
  "7711": " gazing",
  "7712": " blast",
  "7713": "ipes",
  "7714": " Tess",
  "7715": "Hurry",
  "7716": " temperature",
  "7717": " und",
  "7718": " tasting",
  "7719": " dripping",
  "7720": " clue",
  "7721": " believing",
  "7722": " pinching",
  "7723": "erm",
  "7724": " soaking",
  "7725": " rats",
  "7726": " 10",
  "7727": "isc",
  "7728": "Bee",
  "7729": " sandy",
  "7730": "rect",
  "7731": " Isn",
  "7732": " Simon",
  "7733": "rey",
  "7734": "anwhile",
  "7735": " Abi",
  "7736": "Binky",
  "7737": " punishment",
  "7738": " banged",
  "7739": " humans",
  "7740": " crashing",
  "7741": " force",
  "7742": " Ana",
  "7743": " hundred",
  "7744": " gest",
  "7745": " Lia",
  "7746": " swimmer",
  "7747": " Chess",
  "7748": " snowflakes",
  "7749": " relaxing",
  "7750": " resisted",
  "7751": " beeped",
  "7752": " Fairy",
  "7753": " quarreled",
  "7754": "form",
  "7755": "elie",
  "7756": " ramp",
  "7757": " Wendy",
  "7758": " joins",
  "7759": "abby",
  "7760": " backpacks",
  "7761": " Ph",
  "7762": "years",
  "7763": " dressing",
  "7764": " delayed",
  "7765": " toddler",
  "7766": "By",
  "7767": " Luckily",
  "7768": " flight",
  "7769": " covering",
  "7770": " Te",
  "7771": "orter",
  "7772": "Two",
  "7773": "Open",
  "7774": " encouragement",
  "7775": " benches",
  "7776": " toward",
  "7777": " scraped",
  "7778": " purpose",
  "7779": " focus",
  "7780": " Judy",
  "7781": "Bow",
  "7782": " correct",
  "7783": "'.\"",
  "7784": " lipstick",
  "7785": " bamboo",
  "7786": "Spe",
  "7787": " twinkled",
  "7788": " potion",
  "7789": " permitted",
  "7790": " months",
  "7791": " Cow",
  "7792": " languages",
  "7793": " orders",
  "7794": " freedom",
  "7795": "Tony",
  "7796": " risks",
  "7797": " poppies",
  "7798": " master",
  "7799": "shm",
  "7800": " noodles",
  "7801": " faded",
  "7802": " wounds",
  "7803": "shmallow",
  "7804": "rier",
  "7805": "Kids",
  "7806": "isions",
  "7807": " Jojo",
  "7808": " creams",
  "7809": " birdhouse",
  "7810": " cells",
  "7811": " annoyed",
  "7812": " Herb",
  "7813": " sniffing",
  "7814": " cheers",
  "7815": " adults",
  "7816": "Birdy",
  "7817": " unwra",
  "7818": "ecca",
  "7819": "Buzzy",
  "7820": " puck",
  "7821": " opinions",
  "7822": " floats",
  "7823": "andas",
  "7824": "Instead",
  "7825": " flown",
  "7826": "opes",
  "7827": " sneezes",
  "7828": " scen",
  "7829": " handsome",
  "7830": " nodding",
  "7831": " Mint",
  "7832": " smelling",
  "7833": " burnt",
  "7834": " 5",
  "7835": " drifted",
  "7836": "ider",
  "7837": "bage",
  "7838": " within",
  "7839": " scient",
  "7840": " height",
  "7841": " damaged",
  "7842": " bothering",
  "7843": " tearing",
  "7844": " slither",
  "7845": " pleaded",
  "7846": " instruments",
  "7847": " ease",
  "7848": " Ali",
  "7849": "Back",
  "7850": " scientist",
  "7851": " Marie",
  "7852": "Mira",
  "7853": "Goodnight",
  "7854": " pound",
  "7855": " seller",
  "7856": " handing",
  "7857": " germ",
  "7858": " Say",
  "7859": " wasting",
  "7860": " files",
  "7861": " results",
  "7862": " dreamt",
  "7863": " Mabel",
  "7864": "bell",
  "7865": " hiss",
  "7866": " explains",
  "7867": " destroying",
  "7868": " brushing",
  "7869": "ousy",
  "7870": " characters",
  "7871": " Razor",
  "7872": " Cr",
  "7873": "Carl",
  "7874": " certain",
  "7875": " Ste",
  "7876": "Pandy",
  "7877": "Behind",
  "7878": " sweaty",
  "7879": " Hug",
  "7880": "unched",
  "7881": " business",
  "7882": " Robbie",
  "7883": " talents",
  "7884": " onward",
  "7885": "Try",
  "7886": " manag",
  "7887": " engines",
  "7888": " bravest",
  "7889": " sternly",
  "7890": " Pen",
  "7891": " Janie",
  "7892": "prints",
  "7893": " postman",
  "7894": " mosquitoes",
  "7895": " minds",
  "7896": "cake",
  "7897": " tuck",
  "7898": " scares",
  "7899": "urious",
  "7900": " stomp",
  "7901": " apologised",
  "7902": "uel",
  "7903": " snuck",
  "7904": " bitten",
  "7905": "attered",
  "7906": " tilted",
  "7907": " switched",
  "7908": " reminding",
  "7909": " decisions",
  "7910": " singers",
  "7911": " behavior",
  "7912": " Poor",
  "7913": "ashing",
  "7914": " Judge",
  "7915": "bbers",
  "7916": "inny",
  "7917": "da",
  "7918": " squeaked",
  "7919": " peeled",
  "7920": " Everybody",
  "7921": " yumm",
  "7922": " purrs",
  "7923": " Bra",
  "7924": " treated",
  "7925": " smashed",
  "7926": " rustling",
  "7927": " displayed",
  "7928": " Until",
  "7929": " neatly",
  "7930": " matey",
  "7931": " planting",
  "7932": " Bess",
  "7933": " marshmallow",
  "7934": " insp",
  "7935": " yelped",
  "7936": " sy",
  "7937": " grandparents",
  "7938": " cracks",
  "7939": " bellies",
  "7940": "aver",
  "7941": " shines",
  "7942": " scamp",
  "7943": " Navy",
  "7944": " hoo",
  "7945": " failed",
  "7946": " coloring",
  "7947": " Yoga",
  "7948": "line",
  "7949": " zooms",
  "7950": " Make",
  "7951": "rup",
  "7952": " nasty",
  "7953": " breathing",
  "7954": " combed",
  "7955": " pandas",
  "7956": " despite",
  "7957": " address",
  "7958": "ighing",
  "7959": " waterfall",
  "7960": "uffin",
  "7961": "omp",
  "7962": "cc",
  "7963": " Loop",
  "7964": " Angel",
  "7965": "Tilly",
  "7966": " wider",
  "7967": " robbers",
  "7968": " antic",
  "7969": "Play",
  "7970": "Abigail",
  "7971": " sweaters",
  "7972": " echoed",
  "7973": " doorway",
  "7974": " Todd",
  "7975": "evin",
  "7976": " edges",
  "7977": " inj",
  "7978": " Shadow",
  "7979": "Aunt",
  "7980": " gap",
  "7981": " disobey",
  "7982": " Blinky",
  "7983": "wise",
  "7984": "Liz",
  "7985": " Michael",
  "7986": " tar",
  "7987": " Flick",
  "7988": "oscope",
  "7989": "orking",
  "7990": "Wake",
  "7991": " taped",
  "7992": " magnif",
  "7993": "ulp",
  "7994": "father",
  "7995": " scolds",
  "7996": " flaps",
  "7997": " action",
  "7998": " crawls",
  "7999": " Mindy",
  "8000": "Ros",
  "8001": " swap",
  "8002": " gobbled",
  "8003": " backs",
  "8004": " Gary",
  "8005": " warri",
  "8006": " desper",
  "8007": " Fishy",
  "8008": " Eddie",
  "8009": "Slow",
  "8010": " steth",
  "8011": " sever",
  "8012": " shinier",
  "8013": " probably",
  "8014": " newspapers",
  "8015": " several",
  "8016": " occ",
  "8017": "Rock",
  "8018": "Lena",
  "8019": " encount",
  "8020": " Meg",
  "8021": " serving",
  "8022": " quieter",
  "8023": " plucked",
  "8024": " connected",
  "8025": "tock",
  "8026": " Share",
  "8027": " ouch",
  "8028": "igger",
  "8029": "Ted",
  "8030": "Adam",
  "8031": " gesture",
  "8032": "Too",
  "8033": "Fl",
  "8034": " student",
  "8035": " plot",
  "8036": " doorbell",
  "8037": " squaw",
  "8038": " cares",
  "8039": "fire",
  "8040": " rescuing",
  "8041": " grandson",
  "8042": " Se",
  "8043": " spy",
  "8044": " simply",
  "8045": " rows",
  "8046": " goo",
  "8047": "iel",
  "8048": " whistles",
  "8049": "mies",
  "8050": "vant",
  "8051": "Shrink",
  "8052": "Magic",
  "8053": " snaps",
  "8054": " shorter",
  "8055": " astronauts",
  "8056": " unpacking",
  "8057": " cottage",
  "8058": " Time",
  "8059": " swo",
  "8060": " accidents",
  "8061": "ibi",
  "8062": " swollen",
  "8063": " mood",
  "8064": " Nut",
  "8065": "Steve",
  "8066": "abelle",
  "8067": " Zippy",
  "8068": " Mousy",
  "8069": "anie",
  "8070": "Zara",
  "8071": " bothered",
  "8072": "Hannah",
  "8073": " stethoscope",
  "8074": "found",
  "8075": "Coco",
  "8076": " trusting",
  "8077": " causing",
  "8078": "Mat",
  "8079": "Mad",
  "8080": " leapt",
  "8081": " dresser",
  "8082": "aint",
  "8083": " sou",
  "8084": " proper",
  "8085": " pills",
  "8086": "retty",
  "8087": " throughout",
  "8088": "Olive",
  "8089": " runner",
  "8090": " prayers",
  "8091": " Dina",
  "8092": " joyful",
  "8093": "Thomas",
  "8094": " Karen",
  "8095": " locks",
  "8096": " Prince",
  "8097": "Jamie",
  "8098": " goats",
  "8099": "what",
  "8100": "ssss",
  "8101": "mates",
  "8102": " target",
  "8103": "rest",
  "8104": " Wait",
  "8105": " dears",
  "8106": " Bang",
  "8107": "artled",
  "8108": "Red",
  "8109": " waddled",
  "8110": " munch",
  "8111": " flips",
  "8112": " Cro",
  "8113": "onnie",
  "8114": " lowered",
  "8115": " stepping",
  "8116": " cons",
  "8117": " Jackie",
  "8118": " teachers",
  "8119": " cowboy",
  "8120": " Toys",
  "8121": " inches",
  "8122": " envelopes",
  "8123": "ears",
  "8124": " char",
  "8125": " Vroom",
  "8126": " explorer",
  "8127": " anticip",
  "8128": " playd",
  "8129": " Ready",
  "8130": " Ruff",
  "8131": " Ralph",
  "8132": "unity",
  "8133": "Nice",
  "8134": "Finn",
  "8135": " Bad",
  "8136": "ening",
  "8137": " Pl",
  "8138": " knocking",
  "8139": " floors",
  "8140": " efforts",
  "8141": " uniforms",
  "8142": "lied",
  "8143": " Tri",
  "8144": " aware",
  "8145": " footprints",
  "8146": "Someone",
  "8147": " nearly",
  "8148": " Fiona",
  "8149": "llas",
  "8150": " disc",
  "8151": " Ria",
  "8152": "ivi",
  "8153": " whimp",
  "8154": " trot",
  "8155": " glitt",
  "8156": " appreciation",
  "8157": "oosh",
  "8158": " necks",
  "8159": " collap",
  "8160": " checks",
  "8161": " lapt",
  "8162": " except",
  "8163": " plug",
  "8164": " charge",
  "8165": " Jacky",
  "8166": " fluttering",
  "8167": " umbrellas",
  "8168": " stamped",
  "8169": "acy",
  "8170": " sandcastles",
  "8171": " Davey",
  "8172": " statues",
  "8173": " Honey",
  "8174": "omb",
  "8175": "iscuit",
  "8176": "ails",
  "8177": "Hoppy",
  "8178": " shrank",
  "8179": " Amelia",
  "8180": "rily",
  "8181": " prick",
  "8182": " finishing",
  "8183": " adds",
  "8184": "rons",
  "8185": " stroll",
  "8186": " hunters",
  "8187": " dodged",
  "8188": " chocolates",
  "8189": " passengers",
  "8190": " germs",
  "8191": "oger",
  "8192": "nie",
  "8193": " wrigg",
  "8194": " aprons",
  "8195": " aisle",
  "8196": " sets",
  "8197": ".'\"",
  "8198": " Gerry",
  "8199": " weeds",
  "8200": " novels",
  "8201": "order",
  "8202": " demanding",
  "8203": " Taking",
  "8204": " scratching",
  "8205": " meows",
  "8206": "issa",
  "8207": "Dr",
  "8208": " nurses",
  "8209": "Lucky",
  "8210": " minding",
  "8211": " discussing",
  "8212": "urrender",
  "8213": " killed",
  "8214": " driveway",
  "8215": " Cari",
  "8216": " conc",
  "8217": " becomes",
  "8218": " toolbox",
  "8219": " laptop",
  "8220": " haird",
  "8221": " Eliz",
  "8222": " posit",
  "8223": " attack",
  "8224": " Sadie",
  "8225": " Gl",
  "8226": " Despite",
  "8227": "Speedy",
  "8228": "sol",
  "8229": " scampered",
  "8230": " bounces",
  "8231": " supplied",
  "8232": " sprays",
  "8233": " deed",
  "8234": " tempt",
  "8235": " suggestion",
  "8236": " friendships",
  "8237": " burns",
  "8238": " slapping",
  "8239": " closing",
  "8240": "Arrr",
  "8241": " invites",
  "8242": " belongings",
  "8243": " anticipation",
  "8244": " springing",
  "8245": " form",
  "8246": " erase",
  "8247": " cotton",
  "8248": " Stan",
  "8249": " twists",
  "8250": " rays",
  "8251": " snuggle",
  "8252": " forgives",
  "8253": " models",
  "8254": " shall",
  "8255": " massages",
  "8256": " humming",
  "8257": " responded",
  "8258": " newfound",
  "8259": " ghosts",
  "8260": " expecting",
  "8261": " Shelly",
  "8262": " cheated",
  "8263": "Does",
  "8264": " Wooly",
  "8265": "Gigi",
  "8266": "otte",
  "8267": " traveling",
  "8268": " Ne",
  "8269": " cond",
  "8270": " battle",
  "8271": " although",
  "8272": "alloween",
  "8273": " mommies",
  "8274": " invitations",
  "8275": " carries",
  "8276": " aim",
  "8277": " refreshing",
  "8278": " presented",
  "8279": "hel",
  "8280": " twenty",
  "8281": " rowed",
  "8282": " Bumpy",
  "8283": "ots",
  "8284": " squir",
  "8285": "rie",
  "8286": "arlotte",
  "8287": " foxes",
  "8288": " cooper",
  "8289": " final",
  "8290": " duckling",
  "8291": " cafe",
  "8292": " Bibi",
  "8293": "Pip",
  "8294": " marshmallows",
  "8295": " clicked",
  "8296": " Zipper",
  "8297": "oor",
  "8298": " jets",
  "8299": " designing",
  "8300": " beaver",
  "8301": "five",
  "8302": " Muffin",
  "8303": " Halloween",
  "8304": " mugs",
  "8305": " Whoever",
  "8306": " drown",
  "8307": " Although",
  "8308": " tricycle",
  "8309": " picnics",
  "8310": " oppos",
  "8311": " convin",
  "8312": " Ruth",
  "8313": " Excited",
  "8314": "iens",
  "8315": " Cle",
  "8316": " scoops",
  "8317": " congratul",
  "8318": " Pop",
  "8319": " Maddie",
  "8320": "Sadly",
  "8321": " —",
  "8322": " travels",
  "8323": " aliens",
  "8324": " tests",
  "8325": " questioned",
  "8326": " Speed",
  "8327": "inted",
  "8328": " strips",
  "8329": " craft",
  "8330": " Im",
  "8331": "Near",
  "8332": "atty",
  "8333": "Mouse",
  "8334": " defe",
  "8335": " Flutter",
  "8336": " Bubba",
  "8337": "iri",
  "8338": "Br",
  "8339": " fights",
  "8340": "roken",
  "8341": "Ball",
  "8342": " opposite",
  "8343": " Biggy",
  "8344": "Hmm",
  "8345": "Find",
  "8346": "Elly",
  "8347": "Chloe",
  "8348": " rout",
  "8349": " grandfather",
  "8350": " encountered",
  "8351": " afford",
  "8352": " Never",
  "8353": " decl",
  "8354": " raising",
  "8355": "iment",
  "8356": " upside",
  "8357": " Vivi",
  "8358": "fortu",
  "8359": "Meanwhile",
  "8360": "Jess",
  "8361": " flashed",
  "8362": " calmly",
  "8363": " Rita",
  "8364": "po",
  "8365": " yawning",
  "8366": " sincere",
  "8367": " realizes",
  "8368": "fortun",
  "8369": "aturday",
  "8370": "Trust",
  "8371": "Choo",
  "8372": " unfortun",
  "8373": " crystals",
  "8374": " buddy",
  "8375": " Samantha",
  "8376": " cupcakes",
  "8377": " buckled",
  "8378": "byes",
  "8379": "Both",
  "8380": " winners",
  "8381": " defin",
  "8382": "verse",
  "8383": "ris",
  "8384": "',",
  "8385": " weapons",
  "8386": " caw",
  "8387": "shadow",
  "8388": "Josh",
  "8389": " packages",
  "8390": " cheat",
  "8391": " Saturday",
  "8392": "inch",
  "8393": " sacks",
  "8394": " messes",
  "8395": " goodbyes",
  "8396": " coach",
  "8397": " attem",
  "8398": "quet",
  "8399": " convers",
  "8400": " Truck",
  "8401": " Flo",
  "8402": "val",
  "8403": " drift",
  "8404": " caps",
  "8405": " Mina",
  "8406": " Eva",
  "8407": "emies",
  "8408": " enemies",
  "8409": "asha",
  "8410": " yummiest",
  "8411": " scrub",
  "8412": " swallow",
  "8413": " returning",
  "8414": " admiration",
  "8415": " Softy",
  "8416": " Megan",
  "8417": "Since",
  "8418": " sprout",
  "8419": " Louise",
  "8420": " unable",
  "8421": " Playing",
  "8422": " Another",
  "8423": "ugging",
  "8424": "ooks",
  "8425": " sadder",
  "8426": " freezing",
  "8427": " brightest",
  "8428": " bless",
  "8429": " Yawn",
  "8430": "rian",
  "8431": " respon",
  "8432": "reverse",
  "8433": " response",
  "8434": " cosy",
  "8435": " Oh",
  "8436": " diamonds",
  "8437": " bride",
  "8438": "stalk",
  "8439": " reapp",
  "8440": " opport",
  "8441": " honking",
  "8442": " garbage",
  "8443": " Man",
  "8444": " whispering",
  "8445": " stretches",
  "8446": " prevented",
  "8447": "erk",
  "8448": "antastic",
  "8449": " whoever",
  "8450": " odd",
  "8451": " awful",
  "8452": " Gray",
  "8453": "alth",
  "8454": " weighs",
  "8455": " journeys",
  "8456": " awoke",
  "8457": "Brrr",
  "8458": " traps",
  "8459": " spices",
  "8460": " dragonfly",
  "8461": "off",
  "8462": " born",
  "8463": " reassured",
  "8464": " clip",
  "8465": "ivia",
  "8466": " stall",
  "8467": " beanstalk",
  "8468": " argum",
  "8469": " examining",
  "8470": " definitely",
  "8471": " beetles",
  "8472": " automobiles",
  "8473": " Maisy",
  "8474": "mine",
  "8475": "ici",
  "8476": "Hop",
  "8477": " visitors",
  "8478": " stuffing",
  "8479": " playdate",
  "8480": " washes",
  "8481": "cie",
  "8482": "broken",
  "8483": " wiser",
  "8484": " customer",
  "8485": "emma",
  "8486": "Rachel",
  "8487": " travelling",
  "8488": " Sofia",
  "8489": " Jolly",
  "8490": " Flop",
  "8491": "ouquet",
  "8492": " hairdress",
  "8493": " bouquet",
  "8494": " Nurse",
  "8495": "bble",
  "8496": ",'",
  "8497": " tumbled",
  "8498": " decoration",
  "8499": " campfire",
  "8500": " Elle",
  "8501": " honesty",
  "8502": " bud",
  "8503": "ebecca",
  "8504": "Only",
  "8505": " bomb",
  "8506": " welcoming",
  "8507": " offering",
  "8508": " wealth",
  "8509": " troubles",
  "8510": " occas",
  "8511": " increasing",
  "8512": " Ot",
  "8513": " Jax",
  "8514": " Hello",
  "8515": " loudest",
  "8516": " inspired",
  "8517": " type",
  "8518": " parted",
  "8519": " groan",
  "8520": " Chick",
  "8521": " Nutty",
  "8522": "irac",
  "8523": " whales",
  "8524": " Thunder",
  "8525": " Ricky",
  "8526": " declared",
  "8527": " correctly",
  "8528": "yler",
  "8529": "vy",
  "8530": "ooky",
  "8531": "fus",
  "8532": " beaks",
  "8533": " Quacky",
  "8534": "athan",
  "8535": " cleared",
  "8536": " cowboys",
  "8537": " nuzzled",
  "8538": " Dotty",
  "8539": " prizes",
  "8540": " exch",
  "8541": "Finny",
  "8542": " warmly",
  "8543": " Missile",
  "8544": " rewards",
  "8545": " obeyed",
  "8546": " customers",
  "8547": " Fe",
  "8548": "Should",
  "8549": " sirens",
  "8550": " comforting",
  "8551": " Fel",
  "8552": "shaped",
  "8553": " connect",
  "8554": " Flappy",
  "8555": "match",
  "8556": " towns",
  "8557": " Magic",
  "8558": " Bingo",
  "8559": "elieve",
  "8560": " rely",
  "8561": " Vicky",
  "8562": "Honey",
  "8563": " trigger",
  "8564": " owns",
  "8565": " insisting",
  "8566": " fantastic",
  "8567": " bends",
  "8568": " spoiling",
  "8569": " hairdresser",
  "8570": "rend",
  "8571": "rendered",
  "8572": " surrendered",
  "8573": " supporting",
  "8574": " shares",
  "8575": " poses",
  "8576": " pipes",
  "8577": " cleans",
  "8578": "rench",
  "8579": "Sun",
  "8580": "Outside",
  "8581": "Julie",
  "8582": " wrinkled",
  "8583": " Ma",
  "8584": " Cook",
  "8585": " chopped",
  "8586": " recorder",
  "8587": " moons",
  "8588": " beaming",
  "8589": "unes",
  "8590": "ellow",
  "8591": "Beth",
  "8592": " thanking",
  "8593": " snowy",
  "8594": " Wolf",
  "8595": "enn",
  "8596": " scurry",
  "8597": " experien",
  "8598": " enjoyable",
  "8599": " active",
  "8600": " coral",
  "8601": " Piggy",
  "8602": " environ",
  "8603": " dollar",
  "8604": " Kevin",
  "8605": "worm",
  "8606": "elope",
  "8607": " loc",
  "8608": "Je",
  "8609": " streamers",
  "8610": " Bub",
  "8611": "udged",
  "8612": " Patty",
  "8613": " Mother",
  "8614": " Zack",
  "8615": "uper",
  "8616": "inger",
  "8617": "Suzy",
  "8618": " examp",
  "8619": " shorts",
  "8620": " shooed",
  "8621": " environment",
  "8622": "Tree",
  "8623": " ill",
  "8624": " scent",
  "8625": " bruises",
  "8626": "uster",
  "8627": " grat",
  "8628": " Luc",
  "8629": " hisses",
  "8630": "Bo",
  "8631": " steering",
  "8632": " self",
  "8633": " plugged",
  "8634": " Elsa",
  "8635": " warrior",
  "8636": "yl",
  "8637": " visits",
  "8638": " exercises",
  "8639": "screen",
  "8640": "aptain",
  "8641": " dangers",
  "8642": " cuddles",
  "8643": " Rel",
  "8644": " Min",
  "8645": " Ar",
  "8646": " unfortunately",
  "8647": " squished",
  "8648": " signing",
  "8649": "irl",
  "8650": " Light",
  "8651": "bee",
  "8652": "Ray",
  "8653": " pilots",
  "8654": " disappoint",
  "8655": "munk",
  "8656": " gratitude",
  "8657": " applauding",
  "8658": " providing",
  "8659": " Moppy",
  "8660": "alf",
  "8661": " tickles",
  "8662": " ting",
  "8663": " Rub",
  "8664": "pr",
  "8665": "Grow",
  "8666": " storms",
  "8667": " nights",
  "8668": " jud",
  "8669": " convinced",
  "8670": " badger",
  "8671": " Elsie",
  "8672": " responsib",
  "8673": " choosing",
  "8674": " Kelly",
  "8675": "Joy",
  "8676": " youngest",
  "8677": " nearest",
  "8678": " brains",
  "8679": " activity",
  "8680": "Abby",
  "8681": " exploded",
  "8682": " coughed",
  "8683": " arranged",
  "8684": "Claire",
  "8685": " rewarding",
  "8686": " Tre",
  "8687": " Fly",
  "8688": "good",
  "8689": " sunscreen",
  "8690": " peep",
  "8691": " bond",
  "8692": " Floppy",
  "8693": "asers",
  "8694": "Mon",
  "8695": " Tweety",
  "8696": " Sweet",
  "8697": " Katy",
  "8698": " Sal",
  "8699": "sn",
  "8700": " annoying",
  "8701": "eow",
  "8702": " soapy",
  "8703": "meow",
  "8704": "Splash",
  "8705": " rails",
  "8706": " laces",
  "8707": " threads",
  "8708": " tapping",
  "8709": " offic",
  "8710": " appreciated",
  "8711": " Pine",
  "8712": " Phil",
  "8713": "boards",
  "8714": " weighing",
  "8715": " heartbroken",
  "8716": " emerged",
  "8717": " congratulated",
  "8718": " Pick",
  "8719": "Danger",
  "8720": " tin",
  "8721": " Sil",
  "8722": " crocodiles",
  "8723": " clerk",
  "8724": " scram",
  "8725": " attempt",
  "8726": " Nancy",
  "8727": "water",
  "8728": "Ahoy",
  "8729": " snug",
  "8730": " messed",
  "8731": " example",
  "8732": " dial",
  "8733": " Kay",
  "8734": " Any",
  "8735": "Momma",
  "8736": " hooks",
  "8737": " Jonny",
  "8738": " tops",
  "8739": " chipmunk",
  "8740": " soot",
  "8741": " guarding",
  "8742": " bathed",
  "8743": "raged",
  "8744": " manager",
  "8745": " Tippy",
  "8746": "ortunately",
  "8747": "erpiece",
  "8748": " Microscope",
  "8749": "Friends",
  "8750": " De",
  "8751": "etah",
  "8752": "Snowy",
  "8753": " masterpiece",
  "8754": " erasers",
  "8755": " tips",
  "8756": " finishes",
  "8757": " fet",
  "8758": " common",
  "8759": " Tomorrow",
  "8760": "mbers",
  "8761": " trotted",
  "8762": " nibbled",
  "8763": " members",
  "8764": " digs",
  "8765": "People",
  "8766": " kinder",
  "8767": " cheetah",
  "8768": " Hor",
  "8769": " particularly",
  "8770": " chews",
  "8771": " blond",
  "8772": "ircle",
  "8773": " rips",
  "8774": " beast",
  "8775": " Baa",
  "8776": "Lizzy",
  "8777": " argument",
  "8778": " faith",
  "8779": " Helping",
  "8780": "ative",
  "8781": " earned",
  "8782": "Anne",
  "8783": " observing",
  "8784": " forgiveness",
  "8785": " Joke",
  "8786": " Cici",
  "8787": "chievous",
  "8788": " instantly",
  "8789": " fishes",
  "8790": " experienced",
  "8791": " curl",
  "8792": " cheaper",
  "8793": " Jumpy",
  "8794": "Rosie",
  "8795": " mischievous",
  "8796": " generosity",
  "8797": " cages",
  "8798": " Twist",
  "8799": "Gr",
  "8800": " meowing",
  "8801": " foam",
  "8802": "mered",
  "8803": "Cindy",
  "8804": " stores",
  "8805": " grandd",
  "8806": " Ag",
  "8807": "etchup",
  "8808": " mattered",
  "8809": " teles",
  "8810": " passes",
  "8811": " limp",
  "8812": "Sque",
  "8813": " telescope",
  "8814": " sleeps",
  "8815": "iolet",
  "8816": " breaths",
  "8817": "ordinary",
  "8818": "ettle",
  "8819": "ending",
  "8820": "Baa",
  "8821": " trans",
  "8822": " rin",
  "8823": " gasps",
  "8824": " Freddie",
  "8825": "Got",
  "8826": " rumbling",
  "8827": " hatch",
  "8828": " Momma",
  "8829": "over",
  "8830": " grassho",
  "8831": " accomplished",
  "8832": " Hopper",
  "8833": "acing",
  "8834": " thump",
  "8835": " strum",
  "8836": " smartest",
  "8837": " mats",
  "8838": " whined",
  "8839": " moat",
  "8840": "Gina",
  "8841": " scrambled",
  "8842": " jugg",
  "8843": " farmers",
  "8844": " Ice",
  "8845": " drip",
  "8846": "Robbie",
  "8847": " syrup",
  "8848": " gardens",
  "8849": " collapsed",
  "8850": " angrily",
  "8851": " More",
  "8852": "ouraged",
  "8853": "idey",
  "8854": " vegg",
  "8855": " styles",
  "8856": " forests",
  "8857": " experiences",
  "8858": " discoveries",
  "8859": "hole",
  "8860": " tor",
  "8861": " medals",
  "8862": " types",
  "8863": " otters",
  "8864": " meaning",
  "8865": " faint",
  "8866": " conqu",
  "8867": " Does",
  "8868": "pit",
  "8869": "acock",
  "8870": " snapping",
  "8871": " hardest",
  "8872": " fif",
  "8873": "ering",
  "8874": " movements",
  "8875": " expression",
  "8876": " surv",
  "8877": " chilly",
  "8878": " bubbly",
  "8879": " affect",
  "8880": "Pinky",
  "8881": " vests",
  "8882": " unfair",
  "8883": " court",
  "8884": "Whenever",
  "8885": " toothbrush",
  "8886": " scores",
  "8887": " extraordinary",
  "8888": "Never",
  "8889": " attitude",
  "8890": " vibr",
  "8891": " horri",
  "8892": " bluebird",
  "8893": " Monkey",
  "8894": "mel",
  "8895": "lls",
  "8896": " spears",
  "8897": " ketchup",
  "8898": " Berry",
  "8899": " sooner",
  "8900": " grasshopper",
  "8901": " behaviour",
  "8902": "Mother",
  "8903": "Karen",
  "8904": " patches",
  "8905": " habit",
  "8906": "yd",
  "8907": "erts",
  "8908": " pokes",
  "8909": " momma",
  "8910": " afar",
  "8911": " Ashley",
  "8912": "ieves",
  "8913": "Jacob",
  "8914": " thicker",
  "8915": " scri",
  "8916": " Friend",
  "8917": "Jon",
  "8918": " squeezes",
  "8919": " slithered",
  "8920": " shrunk",
  "8921": " classmates",
  "8922": " Terry",
  "8923": " Fle",
  "8924": " icky",
  "8925": "lo",
  "8926": " prickly",
  "8927": " glittering",
  "8928": " expert",
  "8929": " topp",
  "8930": " kneeling",
  "8931": " announced",
  "8932": " Riri",
  "8933": "elling",
  "8934": " peacock",
  "8935": " marking",
  "8936": "ctric",
  "8937": " costs",
  "8938": " Cally",
  "8939": " Achoo",
  "8940": "bu",
  "8941": " zigzags",
  "8942": " watermel",
  "8943": " thieves",
  "8944": "eas",
  "8945": "Mo",
  "8946": " skirts",
  "8947": " jumper",
  "8948": " hood",
  "8949": " acts",
  "8950": " Zog",
  "8951": " App",
  "8952": "abra",
  "8953": " wolves",
  "8954": " Swim",
  "8955": " Cloud",
  "8956": "Papa",
  "8957": " thumbs",
  "8958": " squeaky",
  "8959": " concer",
  "8960": " cocoon",
  "8961": " woodcut",
  "8962": " boards",
  "8963": " Eliza",
  "8964": " Becky",
  "8965": " servant",
  "8966": "idence",
  "8967": "affle",
  "8968": " cheating",
  "8969": " Jason",
  "8970": " trading",
  "8971": " raking",
  "8972": "cat",
  "8973": "Jessie",
  "8974": " explaining",
  "8975": " Eric",
  "8976": "rick",
  "8977": " tidied",
  "8978": " biscuit",
  "8979": " lunchtime",
  "8980": " luckily",
  "8981": " Ac",
  "8982": "anced",
  "8983": "Frog",
  "8984": " Puffy",
  "8985": " spilling",
  "8986": " Day",
  "8987": "Fire",
  "8988": " transform",
  "8989": " desserts",
  "8990": " Use",
  "8991": " Maddy",
  "8992": " Daniel",
  "8993": " Animal",
  "8994": "…",
  "8995": "ror",
  "8996": " Pig",
  "8997": " Mine",
  "8998": " Still",
  "8999": " Gill",
  "9000": "rough",
  "9001": "ilities",
  "9002": " messages",
  "9003": " mirac",
  "9004": " Captain",
  "9005": "idy",
  "9006": " windowsill",
  "9007": " chill",
  "9008": " beating",
  "9009": " Tammy",
  "9010": " Lung",
  "9011": " Gilly",
  "9012": "oot",
  "9013": " seeking",
  "9014": " actor",
  "9015": " Rainbow",
  "9016": " Lina",
  "9017": " William",
  "9018": "its",
  "9019": " Super",
  "9020": " Math",
  "9021": "pril",
  "9022": "Any",
  "9023": " foreshadow",
  "9024": "war",
  "9025": "acles",
  "9026": "Bluey",
  "9027": " leans",
  "9028": " Step",
  "9029": " Pinch",
  "9030": " Hi",
  "9031": "racad",
  "9032": "Freeze",
  "9033": "Bounce",
  "9034": " watermelon",
  "9035": " hissing",
  "9036": " flashing",
  "9037": " dev",
  "9038": " cloths",
  "9039": " Tiger",
  "9040": " Monster",
  "9041": " Frankie",
  "9042": " winding",
  "9043": " positive",
  "9044": " funn",
  "9045": " discouraged",
  "9046": " Wil",
  "9047": "pop",
  "9048": " woodcutter",
  "9049": " forts",
  "9050": " dripped",
  "9051": " compete",
  "9052": " teapot",
  "9053": " pressing",
  "9054": " disagreeing",
  "9055": "icking",
  "9056": " glimmering",
  "9057": " veggies",
  "9058": " trusts",
  "9059": " tidying",
  "9060": " kangaroos",
  "9061": " Peep",
  "9062": " tempted",
  "9063": " landing",
  "9064": " Flora",
  "9065": " dock",
  "9066": " shallow",
  "9067": " overw",
  "9068": " formed",
  "9069": "lers",
  "9070": "eling",
  "9071": " rack",
  "9072": " fade",
  "9073": " Tooth",
  "9074": "flowers",
  "9075": " worst",
  "9076": " electric",
  "9077": " cops",
  "9078": "Nothing",
  "9079": " unco",
  "9080": " ass",
  "9081": " apology",
  "9082": "iving",
  "9083": "creams",
  "9084": " sleds",
  "9085": " Silver",
  "9086": " Life",
  "9087": "upid",
  "9088": " comets",
  "9089": "Owl",
  "9090": " sav",
  "9091": " Shark",
  "9092": " Mag",
  "9093": " Jelly",
  "9094": "Bug",
  "9095": " situations",
  "9096": " papa",
  "9097": " officers",
  "9098": " conversation",
  "9099": " 4",
  "9100": "Rain",
  "9101": " Roger",
  "9102": " Charlotte",
  "9103": "storm",
  "9104": "aye",
  "9105": " suns",
  "9106": " ding",
  "9107": "”,",
  "9108": " zips",
  "9109": " structures",
  "9110": " scurrying",
  "9111": " pizzas",
  "9112": " overwhel",
  "9113": " miller",
  "9114": " Butter",
  "9115": " granddaughter",
  "9116": " foggy",
  "9117": " Olivia",
  "9118": " Hurry",
  "9119": " Amber",
  "9120": "Zoe",
  "9121": " Janey",
  "9122": " webs",
  "9123": " deserved",
  "9124": "Rabbit",
  "9125": " opportunity",
  "9126": " cubs",
  "9127": " Yummy",
  "9128": " Spidey",
  "9129": " Sasha",
  "9130": " Mixie",
  "9131": " Buster",
  "9132": " snorted",
  "9133": " rhino",
  "9134": " differences",
  "9135": " Gold",
  "9136": " quacking",
  "9137": " Tell",
  "9138": "ifully",
  "9139": "ended",
  "9140": "Fifi",
  "9141": " heaven",
  "9142": " Birds",
  "9143": "rap",
  "9144": " unlo",
  "9145": " levers",
  "9146": " inchworm",
  "9147": " approach",
  "9148": " Tyler",
  "9149": "sey",
  "9150": " seagulls",
  "9151": " cooperate",
  "9152": " Rufus",
  "9153": " Felix",
  "9154": " Boom",
  "9155": "welcome",
  "9156": "ragon",
  "9157": "of",
  "9158": "?”.",
  "9159": "andra",
  "9160": " pose",
  "9161": " disappointment",
  "9162": " Smoke",
  "9163": "ocular",
  "9164": " speaks",
  "9165": " sneaks",
  "9166": "snap",
  "9167": "sers",
  "9168": " binocular",
  "9169": " artwork",
  "9170": " surfed",
  "9171": " scowl",
  "9172": " answering",
  "9173": " Snake",
  "9174": " shortcut",
  "9175": " sipped",
  "9176": " robin",
  "9177": " dep",
  "9178": "Climb",
  "9179": " arrest",
  "9180": " Inky",
  "9181": "ssy",
  "9182": " unwrapped",
  "9183": " ribbit",
  "9184": " reun",
  "9185": " amused",
  "9186": " Amanda",
  "9187": "ugar",
  "9188": " repeats",
  "9189": " pepperoni",
  "9190": " applause",
  "9191": " keyhole",
  "9192": " checkout",
  "9193": " chin",
  "9194": " Mae",
  "9195": " Cars",
  "9196": "Lia",
  "9197": "Deal",
  "9198": " visitor",
  "9199": " striking",
  "9200": " puppets",
  "9201": " posses",
  "9202": " paddling",
  "9203": "Eat",
  "9204": " unz",
  "9205": " croaked",
  "9206": " attacked",
  "9207": " Circle",
  "9208": "orsie",
  "9209": " spooky",
  "9210": " Otto",
  "9211": " Gus",
  "9212": "ition",
  "9213": "Each",
  "9214": " possess",
  "9215": " groaned",
  "9216": " beautifully",
  "9217": " Brian",
  "9218": "gar",
  "9219": "cidents",
  "9220": " swimsuits",
  "9221": " consider",
  "9222": " checking",
  "9223": "uses",
  "9224": "oise",
  "9225": " Yellow",
  "9226": "jest",
  "9227": "amma",
  "9228": " waters",
  "9229": " groom",
  "9230": " Squeak",
  "9231": " Slinky",
  "9232": "yle",
  "9233": "ets",
  "9234": "ai",
  "9235": "Jenn",
  "9236": " invent",
  "9237": "Luke",
  "9238": " nets",
  "9239": " exams",
  "9240": "otion",
  "9241": " inter",
  "9242": " drying",
  "9243": " Rebecca",
  "9244": "udy",
  "9245": "artin",
  "9246": "agine",
  "9247": " shrugs",
  "9248": " lump",
  "9249": " Auntie",
  "9250": "sie",
  "9251": "lest",
  "9252": " sobbing",
  "9253": " shyly",
  "9254": " shoots",
  "9255": " honks",
  "9256": " heels",
  "9257": " cheerfully",
  "9258": " Since",
  "9259": "ili",
  "9260": "hny",
  "9261": " shh",
  "9262": "anish",
  "9263": " whimpered",
  "9264": " healthier",
  "9265": " hangs",
  "9266": "icious",
  "9267": "Milo",
  "9268": " Mus",
  "9269": " caterpillars",
  "9270": "izzes",
  "9271": "Slowly",
  "9272": " squinted",
  "9273": " magnifying",
  "9274": " fries",
  "9275": " Ratty",
  "9276": " fascinating",
  "9277": " blamed",
  "9278": " Find",
  "9279": "ching",
  "9280": "ulpture",
  "9281": " sculpture",
  "9282": " frustration",
  "9283": " Tip",
  "9284": "ouched",
  "9285": " shimmering",
  "9286": " Penelope",
  "9287": "eat",
  "9288": " poss",
  "9289": " pleas",
  "9290": " Peace",
  "9291": "edic",
  "9292": "Sharing",
  "9293": " suck",
  "9294": " numbered",
  "9295": " baa",
  "9296": " nibble",
  "9297": " Waffle",
  "9298": "othy",
  "9299": "ibbles",
  "9300": "ellie",
  "9301": "amil",
  "9302": " flowing",
  "9303": "that",
  "9304": "hings",
  "9305": "Pepper",
  "9306": " raked",
  "9307": " grumbled",
  "9308": " Off",
  "9309": "Bubbles",
  "9310": " builder",
  "9311": " Grand",
  "9312": "racted",
  "9313": " swaying",
  "9314": " petting",
  "9315": " guards",
  "9316": " facing",
  "9317": " Woolly",
  "9318": " sprinkle",
  "9319": " mysteries",
  "9320": " details",
  "9321": " Har",
  "9322": " snort",
  "9323": " flock",
  "9324": " enemy",
  "9325": " Boat",
  "9326": " textures",
  "9327": " tablet",
  "9328": " goodies",
  "9329": " Curious",
  "9330": " Barry",
  "9331": "Yesterday",
  "9332": " wig",
  "9333": " popping",
  "9334": " wildflowers",
  "9335": " stacks",
  "9336": " marve",
  "9337": " fans",
  "9338": " crops",
  "9339": " countries",
  "9340": " Gracie",
  "9341": "how",
  "9342": " knobs",
  "9343": " Tessa",
  "9344": " Seeing",
  "9345": " local",
  "9346": " bushy",
  "9347": " stew",
  "9348": " peeped",
  "9349": " hunting",
  "9350": " drowned",
  "9351": " bowing",
  "9352": " binoculars",
  "9353": " angrier",
  "9354": " Bubu",
  "9355": " maps",
  "9356": " Match",
  "9357": " quizzes",
  "9358": " niece",
  "9359": " moonlight",
  "9360": " Glow",
  "9361": "Im",
  "9362": " outfits",
  "9363": " Johnson",
  "9364": " Deal",
  "9365": "OO",
  "9366": " whoosh",
  "9367": " weaker",
  "9368": " wrench",
  "9369": " mindful",
  "9370": " crowded",
  "9371": "cycles",
  "9372": "Squ",
  "9373": " endings",
  "9374": " Beef",
  "9375": "oll",
  "9376": "ded",
  "9377": " property",
  "9378": " hesitation",
  "9379": " flashes",
  "9380": "amiliar",
  "9381": " unless",
  "9382": " imaginations",
  "9383": " fond",
  "9384": " carts",
  "9385": " boil",
  "9386": " ability",
  "9387": " Oxy",
  "9388": " Andrew",
  "9389": "getic",
  "9390": " glared",
  "9391": " Right",
  "9392": " Accidents",
  "9393": " unfamiliar",
  "9394": " spaces",
  "9395": " microw",
  "9396": " knit",
  "9397": " haven",
  "9398": " folds",
  "9399": "ths",
  "9400": "saw",
  "9401": "Tuna",
  "9402": " responsibility",
  "9403": " dirtier",
  "9404": " Pet",
  "9405": "racadabra",
  "9406": " pouch",
  "9407": " microwave",
  "9408": " desks",
  "9409": "ibly",
  "9410": "Bless",
  "9411": " cracker",
  "9412": "rnie",
  "9413": " swapped",
  "9414": " member",
  "9415": " date",
  "9416": " aston",
  "9417": " Oxygen",
  "9418": " Ring",
  "9419": " Ravi",
  "9420": "lt",
  "9421": "free",
  "9422": "bank",
  "9423": "Want",
  "9424": " whine",
  "9425": " softened",
  "9426": " rebu",
  "9427": " doorstep",
  "9428": " disappearing",
  "9429": " Peggy",
  "9430": " Helen",
  "9431": " Bun",
  "9432": " quacks",
  "9433": " natur",
  "9434": " Chip",
  "9435": "scar",
  "9436": "Cra",
  "9437": " writer",
  "9438": " listener",
  "9439": " Too",
  "9440": " Fix",
  "9441": " priv",
  "9442": " blushed",
  "9443": " Spicy",
  "9444": "venir",
  "9445": " palms",
  "9446": " noticing",
  "9447": "upt",
  "9448": "repe",
  "9449": "poison",
  "9450": " souvenir",
  "9451": " Past",
  "9452": "repeat",
  "9453": "entr",
  "9454": " laws",
  "9455": " disaster",
  "9456": " Res",
  "9457": " Jean",
  "9458": " Gabby",
  "9459": "reg",
  "9460": "endant",
  "9461": "Robby",
  "9462": " phones",
  "9463": "str",
  "9464": "ala",
  "9465": "Ava",
  "9466": " confidence",
  "9467": " Li",
  "9468": " Coal",
  "9469": " Cut",
  "9470": " Bert",
  "9471": " timid",
  "9472": " stirs",
  "9473": " overwhelmed",
  "9474": "ingly",
  "9475": "Being",
  "9476": " mayor",
  "9477": " flick",
  "9478": "guess",
  "9479": "asmine",
  "9480": " tugging",
  "9481": " Pretty",
  "9482": " Mole",
  "9483": "lor",
  "9484": " untangle",
  "9485": " satisfa",
  "9486": " owls",
  "9487": " mailing",
  "9488": " injured",
  "9489": "Whose",
  "9490": " satisfaction",
  "9491": " concentr",
  "9492": " White",
  "9493": " Immediately",
  "9494": " Books",
  "9495": "Fly",
  "9496": "Che",
  "9497": " March",
  "9498": " Animals",
  "9499": "mers",
  "9500": "Sc",
  "9501": "Mittens",
  "9502": " lim",
  "9503": " Eat",
  "9504": "this",
  "9505": "Mabel",
  "9506": " prank",
  "9507": " Wonder",
  "9508": " Nora",
  "9509": " Bonnie",
  "9510": "Wiggly",
  "9511": " hooves",
  "9512": " Triangle",
  "9513": " Run",
  "9514": " Pot",
  "9515": " Melissa",
  "9516": " Kn",
  "9517": "well",
  "9518": "Jeff",
  "9519": " fixer",
  "9520": " Startled",
  "9521": " Sir",
  "9522": " Close",
  "9523": "icate",
  "9524": " snar",
  "9525": " clut",
  "9526": "lish",
  "9527": "bling",
  "9528": "Excited",
  "9529": " tort",
  "9530": " skies",
  "9531": " instrument",
  "9532": " Trucky",
  "9533": " capt",
  "9534": " Matilda",
  "9535": " Horsie",
  "9536": " Faye",
  "9537": " Clean",
  "9538": "adually",
  "9539": " disagre",
  "9540": "iky",
  "9541": " wriggled",
  "9542": " stains",
  "9543": " rinse",
  "9544": " pecks",
  "9545": " creak",
  "9546": " Sleepy",
  "9547": "Susan",
  "9548": " shave",
  "9549": " bumping",
  "9550": " Sing",
  "9551": " Icy",
  "9552": " Heli",
  "9553": " Crabby",
  "9554": "ulf",
  "9555": "els",
  "9556": " swirl",
  "9557": " ruff",
  "9558": " bending",
  "9559": "cessary",
  "9560": "Playing",
  "9561": "Close",
  "9562": " sandpit",
  "9563": " exploration",
  "9564": " chatted",
  "9565": " Scissors",
  "9566": "Make",
  "9567": " rods",
  "9568": " lever",
  "9569": " facts",
  "9570": "Sm",
  "9571": " attaching",
  "9572": " Candy",
  "9573": " fooled",
  "9574": " burger",
  "9575": " Bro",
  "9576": " glows",
  "9577": " concerned",
  "9578": " clearly",
  "9579": "Maya",
  "9580": " salon",
  "9581": " reversing",
  "9582": " lava",
  "9583": " compan",
  "9584": " certainly",
  "9585": "Wally",
  "9586": " smelt",
  "9587": " motorcycles",
  "9588": " fetched",
  "9589": " circ",
  "9590": "stand",
  "9591": " troll",
  "9592": " tunes",
  "9593": " sometime",
  "9594": " prod",
  "9595": " oldest",
  "9596": " fireflies",
  "9597": "Ring",
  "9598": " kissing",
  "9599": " challenges",
  "9600": " blonde",
  "9601": "Kayla",
  "9602": " warmed",
  "9603": " Bobbie",
  "9604": "sa",
  "9605": " unlocking",
  "9606": " natural",
  "9607": " differently",
  "9608": " bound",
  "9609": " Lots",
  "9610": "urple",
  "9611": "erg",
  "9612": "Tara",
  "9613": "Dino",
  "9614": "Abracadabra",
  "9615": " rubb",
  "9616": " riverbank",
  "9617": " detect",
  "9618": " cutter",
  "9619": " cupcake",
  "9620": " conquered",
  "9621": " hates",
  "9622": " alley",
  "9623": " Flap",
  "9624": "sorry",
  "9625": " swirls",
  "9626": " sends",
  "9627": " realise",
  "9628": " Open",
  "9629": " Flopsy",
  "9630": "ani",
  "9631": "Julia",
  "9632": "Isn",
  "9633": " wiggling",
  "9634": " sensation",
  "9635": " munched",
  "9636": " banging",
  "9637": " Tra",
  "9638": " Cammy",
  "9639": " toppings",
  "9640": " hippos",
  "9641": " fist",
  "9642": " clips",
  "9643": " Reliable",
  "9644": "Doctor",
  "9645": " swayed",
  "9646": " stings",
  "9647": " robe",
  "9648": " miracle",
  "9649": " halves",
  "9650": " brakes",
  "9651": " Greeny",
  "9652": "Hope",
  "9653": "Fish",
  "9654": " survive",
  "9655": " ostriches",
  "9656": " Pink",
  "9657": " Climb",
  "9658": "ula",
  "9659": "keepers",
  "9660": "bert",
  "9661": "Michael",
  "9662": " otherwise",
  "9663": " embra",
  "9664": " crushed",
  "9665": " bubbling",
  "9666": " tents",
  "9667": " Looking",
  "9668": " Rh",
  "9669": " repairing",
  "9670": " Of",
  "9671": " vinegar",
  "9672": " stretchy",
  "9673": " rubbish",
  "9674": " lizards",
  "9675": " Working",
  "9676": " Flicker",
  "9677": " passenger",
  "9678": " Ed",
  "9679": "Many",
  "9680": " vibrant",
  "9681": " tortoise",
  "9682": " pounced",
  "9683": " Which",
  "9684": "aste",
  "9685": "Suzie",
  "9686": " scene",
  "9687": " Grump",
  "9688": "gr",
  "9689": " mooed",
  "9690": " glided",
  "9691": " desperately",
  "9692": " bas",
  "9693": " snip",
  "9694": " poop",
  "9695": " majest",
  "9696": " intently",
  "9697": " copied",
  "9698": " calmer",
  "9699": " Whee",
  "9700": " Sundays",
  "9701": " Lightning",
  "9702": " woken",
  "9703": " twel",
  "9704": " rags",
  "9705": " judges",
  "9706": " joyfully",
  "9707": " jing",
  "9708": " coolest",
  "9709": "smelling",
  "9710": " lectures",
  "9711": " glob",
  "9712": " Jody",
  "9713": "lyn",
  "9714": "isible",
  "9715": " hips",
  "9716": " cousins",
  "9717": " astonished",
  "9718": " Per",
  "9719": " capes",
  "9720": " Outside",
  "9721": "uno",
  "9722": "Eww",
  "9723": " successfully",
  "9724": " speaker",
  "9725": " reunited",
  "9726": " invisible",
  "9727": " guesses",
  "9728": " gooey",
  "9729": " arrives",
  "9730": "why",
  "9731": " twelve",
  "9732": " bats",
  "9733": "urity",
  "9734": "Mikey",
  "9735": " goodness",
  "9736": " computers",
  "9737": " chatting",
  "9738": " Carla",
  "9739": "nded",
  "9740": "mie",
  "9741": " stacking",
  "9742": " snowflake",
  "9743": "istory",
  "9744": " reappeared",
  "9745": " racer",
  "9746": " pounds",
  "9747": " parks",
  "9748": " desperate",
  "9749": " companion",
  "9750": " commun",
  "9751": "bed",
  "9752": "Zigzag",
  "9753": "Ol",
  "9754": " luckiest",
  "9755": " level",
  "9756": " dou",
  "9757": " ank",
  "9758": " tale",
  "9759": " stomachs",
  "9760": " sells",
  "9761": " gall",
  "9762": " dumb",
  "9763": " crickets",
  "9764": " Sugar",
  "9765": "iggles",
  "9766": "Nick",
  "9767": " winds",
  "9768": " gates",
  "9769": " disobeyed",
  "9770": " disagreement",
  "9771": " Steven",
  "9772": "hile",
  "9773": "More",
  "9774": " pearls",
  "9775": " hoses",
  "9776": " crisp",
  "9777": " awhile",
  "9778": "ites",
  "9779": "Lou",
  "9780": " soda",
  "9781": " popsic",
  "9782": " loyalty",
  "9783": " Orange",
  "9784": "Linda",
  "9785": " tongues",
  "9786": " Rosa",
  "9787": "usion",
  "9788": "rent",
  "9789": " rider",
  "9790": " CD",
  "9791": "Ooh",
  "9792": " Black",
  "9793": "pan",
  "9794": " surely",
  "9795": " cin",
  "9796": " Law",
  "9797": " Annabelle",
  "9798": "oard",
  "9799": "colored",
  "9800": " occasion",
  "9801": " bund",
  "9802": "rum",
  "9803": "izza",
  "9804": "dog",
  "9805": "!’",
  "9806": " guitars",
  "9807": " chicks",
  "9808": " Ba",
  "9809": "chief",
  "9810": " separating",
  "9811": " seashe",
  "9812": " rebuild",
  "9813": " intelligence",
  "9814": " alligators",
  "9815": " aboard",
  "9816": " Raven",
  "9817": " Iron",
  "9818": " April",
  "9819": "Found",
  "9820": " croak",
  "9821": " creep",
  "9822": " Winky",
  "9823": " Violet",
  "9824": "aids",
  "9825": "Something",
  "9826": "Catch",
  "9827": " learner",
  "9828": " caution",
  "9829": " cuc",
  "9830": " Old",
  "9831": " Care",
  "9832": "solut",
  "9833": "itio",
  "9834": " whines",
  "9835": " spiky",
  "9836": " revealing",
  "9837": " rins",
  "9838": " Uni",
  "9839": "working",
  "9840": " tickling",
  "9841": " Settle",
  "9842": " underwater",
  "9843": " globe",
  "9844": " crouched",
  "9845": " Roar",
  "9846": " Coby",
  "9847": "udge",
  "9848": "everse",
  "9849": "anne",
  "9850": "!'.",
  "9851": " prog",
  "9852": " blooms",
  "9853": " appearance",
  "9854": " ''",
  "9855": "urricane",
  "9856": "stop",
  "9857": "seph",
  "9858": "ifer",
  "9859": "fived",
  "9860": " strokes",
  "9861": " leaking",
  "9862": " hatched",
  "9863": " guardian",
  "9864": " Socky",
  "9865": "ealing",
  "9866": "arning",
  "9867": " zookeepers",
  "9868": " tant",
  "9869": " routine",
  "9870": " persistence",
  "9871": " doves",
  "9872": "Snap",
  "9873": "Sleep",
  "9874": "Chicky",
  "9875": " taps",
  "9876": " squashes",
  "9877": " quilt",
  "9878": " painful",
  "9879": " lighting",
  "9880": " blame",
  "9881": " admit",
  "9882": " Lu",
  "9883": "net",
  "9884": "Toys",
  "9885": "Ahh",
  "9886": " tempting",
  "9887": " shattered",
  "9888": " ripp",
  "9889": " mold",
  "9890": " deeply",
  "9891": " centre",
  "9892": " Puff",
  "9893": "ggles",
  "9894": "Three",
  "9895": "Ralph",
  "9896": "Matt",
  "9897": "Jan",
  "9898": " throne",
  "9899": " squirted",
  "9900": " security",
  "9901": " peeks",
  "9902": " electricity",
  "9903": " burgers",
  "9904": " Spin",
  "9905": "emon",
  "9906": " realizing",
  "9907": " cooks",
  "9908": " allowing",
  "9909": " Liam",
  "9910": "ushes",
  "9911": "orth",
  "9912": "oss",
  "9913": "cker",
  "9914": "Jessica",
  "9915": " lar",
  "9916": " exchange",
  "9917": " chopping",
  "9918": "Share",
  "9919": "Sophia",
  "9920": " sweetly",
  "9921": " Race",
  "9922": " Quickly",
  "9923": " Alf",
  "9924": "vering",
  "9925": " sweeter",
  "9926": " rinsed",
  "9927": " glittered",
  "9928": "isapp",
  "9929": "Zero",
  "9930": "Sw",
  "9931": " melts",
  "9932": " melody",
  "9933": " goggles",
  "9934": " furious",
  "9935": " energetic",
  "9936": " defeated",
  "9937": " builders",
  "9938": " Inch",
  "9939": " waded",
  "9940": " tantrum",
  "9941": " sniffled",
  "9942": " chooses",
  "9943": " Otherwise",
  "9944": " Cats",
  "9945": " Comet",
  "9946": " container",
  "9947": " competing",
  "9948": " Giant",
  "9949": "eremy",
  "9950": "bang",
  "9951": " Sharp",
  "9952": " Mila",
  "9953": " undone",
  "9954": " seriously",
  "9955": " protection",
  "9956": " larger",
  "9957": " lull",
  "9958": " hudd",
  "9959": " attempts",
  "9960": " Rara",
  "9961": " Park",
  "9962": " Duke",
  "9963": "arted",
  "9964": "Shoo",
  "9965": "Lizzie",
  "9966": " tossing",
  "9967": " helicopters",
  "9968": " cooed",
  "9969": " cluck",
  "9970": " buckles",
  "9971": " Whale",
  "9972": " Pinchy",
  "9973": " Cher",
  "9974": "Sweet",
  "9975": " Tears",
  "9976": " Smo",
  "9977": " Over",
  "9978": "solutely",
  "9979": "dest",
  "9980": "Still",
  "9981": "Squeaky",
  "9982": " hummed",
  "9983": " dedic",
  "9984": " courageous",
  "9985": " Din",
  "9986": "serves",
  "9987": "Maddy",
  "9988": "Everything",
  "9989": "Curious",
  "9990": " racers",
  "9991": " patients",
  "9992": " muster",
  "9993": " god",
  "9994": " deserves",
  "9995": " conditio",
  "9996": " aloud",
  "9997": " Things",
  "9998": "aps",
  "9999": "Use"
}