{
  "0": "\u0000",
  "1": "\u0001",
  "2": "\u0002",
  "3": "\u0003",
  "4": "\u0004",
  "5": "\u0005",
  "6": "\u0006",
  "7": "\u0007",
  "8": "\b",
  "9": "\t",
  "10": "\n",
  "11": "\u000b",
  "12": "\f",
  "13": "\r",
  "14": "\u000e",
  "15": "\u000f",
  "16": "\u0010",
  "17": "\u0011",
  "18": "\u0012",
  "19": "\u0013",
  "20": "\u0014",
  "21": "\u0015",
  "22": "\u0016",
  "23": "\u0017",
  "24": "\u0018",
  "25": "\u0019",
  "26": "\u001a",
  "27": "\u001b",
  "28": "\u001c",
  "29": "\u001d",
  "30": "\u001e",
  "31": "\u001f",
  "32": " ",
  "33": "!",
  "34": "\"",
  "35": "#",
  "36": "$",
  "37": "%",
  "38": "&",
  "39": "'",
  "40": "(",
  "41": ")",
  "42": "*",
  "43": "+",
  "44": ",",
  "45": "-",
  "46": ".",
  "47": "/",
  "48": "0",
  "49": "1",
  "50": "2",
  "51": "3",
  "52": "4",
  "53": "5",
  "54": "6",
  "55": "7",
  "56": "8",
  "57": "9",
  "58": ":",
  "59": ";",
  "60": "<",
  "61": "=",
  "62": ">",
  "63": "?",
  "64": "@",
  "65": "A",
  "66": "B",
  "67": "C",
  "68": "D",
  "69": "E",
  "70": "F",
  "71": "G",
  "72": "H",
  "73": "I",
  "74": "J",
  "75": "K",
  "76": "L",
  "77": "M",
  "78": "N",
  "79": "O",
  "80": "P",
  "81": "Q",
  "82": "R",
  "83": "S",
  "84": "T",
  "85": "U",
  "86": "V",
  "87": "W",
  "88": "X",
  "89": "Y",
  "90": "Z",
  "91": "[",
  "92": "\\",
  "93": "]",
  "94": "^",
  "95": "_",
  "96": "`",
  "97": "a",
  "98": "b",
  "99": "c",
  "100": "d",
  "101": "e",
  "102": "f",
  "103": "g",
  "104": "h",
  "105": "i",
  "106": "j",
  "107": "k",
  "108": "l",
  "109": "m",
  "110": "n",
  "111": "o",
  "112": "p",
  "113": "q",
  "114": "r",
  "115": "s",
  "116": "t",
  "117": "u",
  "118": "v",
  "119": "w",
  "120": "x",
  "121": "y",
  "122": "z",
  "123": "{",
  "124": "|",
  "125": "}",
  "126": "~",
  "127": "",
  "128": "�",
  "129": "�",
  "130": "�",
  "131": "�",
  "132": "�",
  "133": "�",
  "134": "�",
  "135": "�",
  "136": "�",
  "137": "�",
  "138": "�",
  "139": "�",
  "140": "�",
  "141": "�",
  "142": "�",
  "143": "�",
  "144": "�",
  "145": "�",
  "146": "�",
  "147": "�",
  "148": "�",
  "149": "�",
  "150": "�",
  "151": "�",
  "152": "�",
  "153": "�",
  "154": "�",
  "155": "�",
  "156": "�",
  "157": "�",
  "158": "�",
  "159": "�",
  "160": "�",
  "161": "�",
  "162": "�",
  "163": "�",
  "164": "�",
  "165": "�",
  "166": "�",
  "167": "�",
  "168": "�",
  "169": "�",
  "170": "�",
  "171": "�",
  "172": "�",
  "173": "�",
  "174": "�",
  "175": "�",
  "176": "�",
  "177": "�",
  "178": "�",
  "179": "�",
  "180": "�",
  "181": "�",
  "182": "�",
  "183": "�",
  "184": "�",
  "185": "�",
  "186": "�",
  "187": "�",
  "188": "�",
  "189": "�",
  "190": "�",
  "191": "�",
  "192": "�",
  "193": "�",
  "194": "�",
  "195": "�",
  "196": "�",
  "197": "�",
  "198": "�",
  "199": "�",
  "200": "�",
  "201": "�",
  "202": "�",
  "203": "�",
  "204": "�",
  "205": "�",
  "206": "�",
  "207": "�",
  "208": "�",
  "209": "�",
  "210": "�",
  "211": "�",
  "212": "�",
  "213": "�",
  "214": "�",
  "215": "�",
  "216": "�",
  "217": "�",
  "218": "�",
  "219": "�",
  "220": "�",
  "221": "�",
  "222": "�",
  "223": "�",
  "224": "�",
  "225": "�",
  "226": "�",
  "227": "�",
  "228": "�",
  "229": "�",
  "230": "�",
  "231": "�",
  "232": "�",
  "233": "�",
  "234": "�",
  "235": "�",
  "236": "�",
  "237": "�",
  "238": "�",
  "239": "�",
  "240": "�",
  "241": "�",
  "242": "�",
  "243": "�",
  "244": "�",
  "245": "�",
  "246": "�",
  "247": "�",
  "248": "�",
  "249": "�",
  "250": "�",
  "251": "�",
  "252": "�",
  "253": "�",
  "254": "�",
  "255": "�",
  "256": "<|endoftext|>",
  "257": " t",
  "258": " a",
  "259": "he",
  "260": "in",
  "261": "re",
  "262": " the",
  "263": "on",
  "264": "er",
  "265": " s",
  "266": " w",
  "267": "at",
  "268": " o",
  "269": "en",
  "270": " c",
  "271": "it",
  "272": "is",
  "273": "an",
  "274": "or",
  "275": " b",
  "276": "es",
  "277": "ed",
  "278": " f",
  "279": "ing",
  "280": " p",
  "281": "ou",
  "282": " an",
  "283": "al",
  "284": " to",
  "285": "ar",
  "286": " m",
  "287": " in",
  "288": " of",
  "289": " h",
  "290": " d",
  "291": "�",
  "292": "as",
  "293": "ic",
  "294": " and",
  "295": " th",
  "296": "le",
  "297": "om",
  "298": "ion",
  "299": "ll",
  "300": "ent",
  "301": " n",
  "302": " l",
  "303": " re",
  "304": "st",
  "305": "ve",
  "306": " e",
  "307": "ly",
  "308": "ro",
  "309": " be",
  "310": " g",
  "311": "id",
  "312": "ut",
  "313": "ac",
  "314": "ot",
  "315": " T",
  "316": " I",
  "317": " that",
  "318": " on",
  "319": "ay",
  "320": " S",
  "321": " is",
  "322": "et",
  "323": "im",
  "324": "am",
  "325": "ad",
  "326": "ow",
  "327": "se",
  "328": "ig",
  "329": " for",
  "330": "’",
  "331": " A",
  "332": "ver",
  "333": "ur",
  "334": "ct",
  "335": "ld",
  "336": " C",
  "337": " u",
  "338": " st",
  "339": " y",
  "340": " it",
  "341": " he",
  "342": "ir",
  "343": "ation",
  "344": "ith",
  "345": " wh",
  "346": " M",
  "347": "ce",
  "348": "ter",
  "349": "ol",
  "350": " we",
  "351": "il",
  "352": " with",
  "353": " as",
  "354": " B",
  "355": "ch",
  "356": "ill",
  "357": "nd",
  "358": " P",
  "359": " was",
  "360": "ers",
  "361": " you",
  "362": "ke",
  "363": " �",
  "364": " con",
  "365": " de",
  "366": " r",
  "367": "her",
  "368": "if",
  "369": "ate",
  "370": "ag",
  "371": " at",
  "372": " ha",
  "373": " W",
  "374": " se",
  "375": " H",
  "376": "ore",
  "377": " pro",
  "378": "ul",
  "379": "pp",
  "380": "ment",
  "381": "ri",
  "382": " are",
  "383": " D",
  "384": " 1",
  "385": "us",
  "386": "est",
  "387": "ist",
  "388": " com",
  "389": "and",
  "390": " R",
  "391": "op",
  "392": "ain",
  "393": " The",
  "394": " 2",
  "395": "igh",
  "396": "rom",
  "397": " (",
  "398": "ort",
  "399": "od",
  "400": " ne",
  "401": " F",
  "402": "um",
  "403": "un",
  "404": " ex",
  "405": "res",
  "406": "ab",
  "407": "”",
  "408": " not",
  "409": " N",
  "410": " v",
  "411": "ess",
  "412": " have",
  "413": "ity",
  "414": "em",
  "415": "ould",
  "416": " or",
  "417": "th",
  "418": " by",
  "419": "os",
  "420": "ant",
  "421": " G",
  "422": "ive",
  "423": " from",
  "424": " al",
  "425": "el",
  "426": "'s",
  "427": "oc",
  "428": "art",
  "429": " su",
  "430": " L",
  "431": " sh",
  "432": " this",
  "433": "nt",
  "434": "qu",
  "435": "ight",
  "436": "pe",
  "437": "ust",
  "438": " le",
  "439": "ies",
  "440": " E",
  "441": "end",
  "442": " ch",
  "443": " sa",
  "444": "out",
  "445": " ab",
  "446": "The",
  "447": "all",
  "448": "ie",
  "449": "ack",
  "450": "red",
  "451": "00",
  "452": " “",
  "453": " has",
  "454": "ally",
  "455": " J",
  "456": " pl",
  "457": " go",
  "458": "ard",
  "459": "iv",
  "460": " his",
  "461": "ome",
  "462": "ap",
  "463": "ost",
  "464": "gh",
  "465": "ear",
  "466": " O",
  "467": " tr",
  "468": "our",
  "469": "ast",
  "470": " j",
  "471": "ak",
  "472": "ud",
  "473": " do",
  "474": " they",
  "475": " but",
  "476": " wor",
  "477": "rou",
  "478": " can",
  "479": "ge",
  "480": " will",
  "481": " said",
  "482": " whe",
  "483": " U",
  "484": " k",
  "485": "ich",
  "486": " all",
  "487": "ok",
  "488": " \"",
  "489": "ide",
  "490": " who",
  "491": " int",
  "492": "ame",
  "493": "ans",
  "494": "ther",
  "495": "ial",
  "496": " out",
  "497": "ff",
  "498": " their",
  "499": "ong",
  "500": "ect",
  "501": "pl",
  "502": "ice",
  "503": "ure",
  "504": "pt",
  "505": "one",
  "506": " more",
  "507": "age",
  "508": "ions",
  "509": "act",
  "510": "ike",
  "511": " me",
  "512": " up",
  "513": "ous",
  "514": "ine",
  "515": " ad",
  "516": " about",
  "517": "ated",
  "518": "ra",
  "519": "ber",
  "520": " one",
  "521": " were",
  "522": " so",
  "523": " us",
  "524": "ime",
  "525": "og",
  "526": " K",
  "527": "ep",
  "528": "ia",
  "529": " had",
  "530": "are",
  "531": "ub",
  "532": "cc",
  "533": " would",
  "534": " cl",
  "535": " 20",
  "536": " im",
  "537": " which",
  "538": "ind",
  "539": "ue",
  "540": "ake",
  "541": " cont",
  "542": "iz",
  "543": "very",
  "544": " ag",
  "545": " te",
  "546": " off",
  "547": " comp",
  "548": " un",
  "549": " been",
  "550": " St",
  "551": "so",
  "552": " en",
  "553": "per",
  "554": "ign",
  "555": "au",
  "556": " Th",
  "557": "ary",
  "558": "ace",
  "559": " year",
  "560": "ip",
  "561": "ew",
  "562": " like",
  "563": "ere",
  "564": "ven",
  "565": "ook",
  "566": " inc",
  "567": "ays",
  "568": " man",
  "569": " pe",
  "570": "ry",
  "571": "ose",
  "572": " res",
  "573": "able",
  "574": "ite",
  "575": " per",
  "576": "ass",
  "577": "ord",
  "578": " sp",
  "579": "ire",
  "580": " In",
  "581": " other",
  "582": "mer",
  "583": " some",
  "584": "ile",
  "585": "ib",
  "586": "ence",
  "587": "ople",
  "588": " 201",
  "589": "ks",
  "590": "ations",
  "591": " over",
  "592": "ical",
  "593": " there",
  "594": "ress",
  "595": " dis",
  "596": "ult",
  "597": "int",
  "598": " new",
  "599": "own",
  "600": " also",
  "601": " than",
  "602": " ar",
  "603": " bec",
  "604": "ru",
  "605": " them",
  "606": "ance",
  "607": "ount",
  "608": "ough",
  "609": " app",
  "610": "port",
  "611": "ail",
  "612": " part",
  "613": " your",
  "614": " when",
  "615": "ree",
  "616": " what",
  "617": "orm",
  "618": "ond",
  "619": " people",
  "620": "fter",
  "621": " sc",
  "622": " Ch",
  "623": "av",
  "624": "ase",
  "625": " qu",
  "626": " any",
  "627": " just",
  "628": " its",
  "629": " Y",
  "630": "ach",
  "631": " time",
  "632": " It",
  "633": " kn",
  "634": " her",
  "635": " 3",
  "636": "ens",
  "637": "lic",
  "638": " rec",
  "639": "reat",
  "640": " my",
  "641": " get",
  "642": " if",
  "643": " V",
  "644": "ian",
  "645": ".”",
  "646": " into",
  "647": "ound",
  "648": " work",
  "649": " tw",
  "650": "irst",
  "651": "vel",
  "652": "ction",
  "653": " no",
  "654": "du",
  "655": "ings",
  "656": "ory",
  "657": "ick",
  "658": "ors",
  "659": " our",
  "660": "ition",
  "661": "ident",
  "662": "ob",
  "663": " -",
  "664": " pre",
  "665": "ove",
  "666": " play",
  "667": "ang",
  "668": "ink",
  "669": "ause",
  "670": "wn",
  "671": "amp",
  "672": "te",
  "673": "ade",
  "674": "hing",
  "675": "ates",
  "676": "ark",
  "677": " ro",
  "678": " pol",
  "679": " she",
  "680": "vers",
  "681": " co",
  "682": ",”",
  "683": " after",
  "684": " first",
  "685": " could",
  "686": " how",
  "687": " He",
  "688": "ne",
  "689": " 19",
  "690": "ious",
  "691": "nder",
  "692": "ild",
  "693": " acc",
  "694": " him",
  "695": "aw",
  "696": "'t",
  "697": "ons",
  "698": " po",
  "699": " only",
  "700": " fe",
  "701": " att",
  "702": "ict",
  "703": "hed",
  "704": " pr",
  "705": " two",
  "706": "rit",
  "707": "ov",
  "708": "ish",
  "709": " comm",
  "710": "“",
  "711": "form",
  "712": " spe",
  "713": " act",
  "714": "we",
  "715": "erv",
  "716": " bl",
  "717": "ft",
  "718": " bet",
  "719": " dec",
  "720": ".\"",
  "721": "ning",
  "722": " back",
  "723": " most",
  "724": "ces",
  "725": "ood",
  "726": "ck",
  "727": " –",
  "728": " am",
  "729": "oy",
  "730": " did",
  "731": "rough",
  "732": "iff",
  "733": "ater",
  "734": "round",
  "735": " again",
  "736": " 4",
  "737": "ual",
  "738": "day",
  "739": "ise",
  "740": " under",
  "741": " des",
  "742": " want",
  "743": "ull",
  "744": "sel",
  "745": " cons",
  "746": " —",
  "747": "..",
  "748": " because",
  "749": " now",
  "750": "lud",
  "751": "ents",
  "752": " years",
  "753": "man",
  "754": "tern",
  "755": "ublic",
  "756": "ec",
  "757": " need",
  "758": " even",
  "759": " $",
  "760": "iss",
  "761": " inv",
  "762": " know",
  "763": " We",
  "764": " see",
  "765": "ments",
  "766": "ced",
  "767": " add",
  "768": ",\"",
  "769": "ting",
  "770": "old",
  "771": " ind",
  "772": " sec",
  "773": "fore",
  "774": "uch",
  "775": " every",
  "776": "urn",
  "777": " 5",
  "778": " supp",
  "779": " make",
  "780": "pect",
  "781": " Un",
  "782": " em",
  "783": " these",
  "784": "ock",
  "785": "oll",
  "786": " where",
  "787": "ject",
  "788": "In",
  "789": "ational",
  "790": "vern",
  "791": "xt",
  "792": " bu",
  "793": " look",
  "794": "Th",
  "795": " And",
  "796": "oss",
  "797": " don",
  "798": " ev",
  "799": "ump",
  "800": "ating",
  "801": " way",
  "802": " being",
  "803": " rem",
  "804": " right",
  "805": "ily",
  "806": " may",
  "807": "ng",
  "808": "row",
  "809": "lect",
  "810": "iew",
  "811": " then",
  "812": " many",
  "813": " [",
  "814": " diff",
  "815": " def",
  "816": "ason",
  "817": " rel",
  "818": " call",
  "819": " But",
  "820": " Tr",
  "821": "ont",
  "822": "ied",
  "823": "les",
  "824": "ased",
  "825": " includ",
  "826": " think",
  "827": "aking",
  "828": " reg",
  "829": ").",
  "830": "meric",
  "831": " imp",
  "832": " through",
  "833": "ath",
  "834": "ited",
  "835": "rib",
  "836": " sy",
  "837": " should",
  "838": " pres",
  "839": " say",
  "840": "ell",
  "841": " fl",
  "842": "uring",
  "843": " last",
  "844": " those",
  "845": "ower",
  "846": " very",
  "847": "ty",
  "848": "other",
  "849": " much",
  "850": "ities",
  "851": "ific",
  "852": " state",
  "853": " This",
  "854": "ative",
  "855": " show",
  "856": "tle",
  "857": "hen",
  "858": " br",
  "859": "ss",
  "860": "arg",
  "861": " well",
  "862": "oth",
  "863": " ph",
  "864": " Wh",
  "865": " count",
  "866": "als",
  "867": "und",
  "868": " 200",
  "869": " does",
  "870": " down",
  "871": " own",
  "872": "arly",
  "873": " end",
  "874": " ass",
  "875": " bel",
  "876": " use",
  "877": "ics",
  "878": "ange",
  "879": "--",
  "880": "ts",
  "881": " long",
  "882": " Americ",
  "883": "ters",
  "884": "ince",
  "885": " before",
  "886": "omet",
  "887": "gr",
  "888": " mon",
  "889": "ward",
  "890": " govern",
  "891": " start",
  "892": " report",
  "893": "ible",
  "894": " ke",
  "895": "up",
  "896": "ues",
  "897": " New",
  "898": " fin",
  "899": " team",
  "900": "ble",
  "901": " made",
  "902": "ife",
  "903": "olog",
  "904": "ener",
  "905": "),",
  "906": " such",
  "907": "ren",
  "908": "com",
  "909": "oun",
  "910": "erson",
  "911": "ek",
  "912": "ix",
  "913": " sm",
  "914": "—",
  "915": "lp",
  "916": "ility",
  "917": " going",
  "918": "ism",
  "919": "ful",
  "920": " world",
  "921": "ually",
  "922": " stud",
  "923": "ists",
  "924": " good",
  "925": " ac",
  "926": "tain",
  "927": "It",
  "928": " sub",
  "929": " eff",
  "930": " sur",
  "931": " against",
  "932": "its",
  "933": " game",
  "934": " set",
  "935": "ork",
  "936": " 6",
  "937": " gu",
  "938": " point",
  "939": " ent",
  "940": "ys",
  "941": "000",
  "942": "gan",
  "943": "ars",
  "944": "li",
  "945": "stem",
  "946": " prov",
  "947": " still",
  "948": "roup",
  "949": " while",
  "950": "illion",
  "951": " help",
  "952": " lead",
  "953": " min",
  "954": "ween",
  "955": "ef",
  "956": "ax",
  "957": "ank",
  "958": "alk",
  "959": "imes",
  "960": " says",
  "961": " ob",
  "962": "ms",
  "963": "cy",
  "964": " produ",
  "965": " gr",
  "966": " inter",
  "967": " inst",
  "968": " str",
  "969": "cess",
  "970": " sim",
  "971": "io",
  "972": "self",
  "973": " conf",
  "974": " col",
  "975": " take",
  "976": "ures",
  "977": "arch",
  "978": " same",
  "979": " though",
  "980": " between",
  "981": "ollow",
  "982": " offic",
  "983": "ever",
  "984": " cr",
  "985": " differe",
  "986": "ool",
  "987": "uss",
  "988": "ution",
  "989": "land",
  "990": " disc",
  "991": "air",
  "992": " op",
  "993": "ah",
  "994": " ed",
  "995": " high",
  "996": "read",
  "997": " num",
  "998": " law",
  "999": " sign",
  "1000": "way",
  "1001": " government",
  "1002": "gg",
  "1003": " Re",
  "1004": "led",
  "1005": "ner",
  "1006": "hip",
  "1007": "atch",
  "1008": "hes",
  "1009": "ames",
  "1010": "any",
  "1011": " ter",
  "1012": " somet",
  "1013": "cent",
  "1014": "velop",
  "1015": "ted",
  "1016": "We",
  "1017": " ref",
  "1018": " trans",
  "1019": "ten",
  "1020": " ins",
  "1021": " run",
  "1022": " ser",
  "1023": " found",
  "1024": " three",
  "1025": "ives",
  "1026": "ave",
  "1027": " mem",
  "1028": " around",
  "1029": " here",
  "1030": "ather",
  "1031": " med",
  "1032": " real",
  "1033": " used",
  "1034": "ouse",
  "1035": " 10",
  "1036": "ved",
  "1037": " exp",
  "1038": "az",
  "1039": " Ar",
  "1040": "cept",
  "1041": "oot",
  "1042": " system",
  "1043": " You",
  "1044": "ci",
  "1045": " really",
  "1046": " mod",
  "1047": "ving",
  "1048": "con",
  "1049": "cer",
  "1050": " group",
  "1051": " support",
  "1052": " 7",
  "1053": " cour",
  "1054": "ets",
  "1055": "ale",
  "1056": "ins",
  "1057": " ret",
  "1058": " hand",
  "1059": " public",
  "1060": " spec",
  "1061": "pr",
  "1062": " Le",
  "1063": "ying",
  "1064": " great",
  "1065": " car",
  "1066": "ense",
  "1067": " ext",
  "1068": ".[",
  "1069": "ton",
  "1070": "irect",
  "1071": " cur",
  "1072": " fam",
  "1073": " Com",
  "1074": "alth",
  "1075": " happ",
  "1076": " fact",
  "1077": "ph",
  "1078": " exper",
  "1079": " They",
  "1080": " Trump",
  "1081": " fr",
  "1082": " wom",
  "1083": " Is",
  "1084": " cap",
  "1085": " both",
  "1086": " day",
  "1087": " find",
  "1088": " Al",
  "1089": "ular",
  "1090": " read",
  "1091": "ines",
  "1092": "oh",
  "1093": "ices",
  "1094": " det",
  "1095": " lit",
  "1096": " sl",
  "1097": " rep",
  "1098": "uth",
  "1099": "ered",
  "1100": " during",
  "1101": " Sh",
  "1102": " As",
  "1103": " 0",
  "1104": " serv",
  "1105": " month",
  "1106": "min",
  "1107": "the",
  "1108": "ision",
  "1109": " cre",
  "1110": " develop",
  "1111": " big",
  "1112": " 8",
  "1113": " person",
  "1114": "akes",
  "1115": " follow",
  "1116": " Cl",
  "1117": " iss",
  "1118": "ex",
  "1119": " told",
  "1120": " since",
  "1121": "ared",
  "1122": "med",
  "1123": "ically",
  "1124": " week",
  "1125": "ages",
  "1126": "ivers",
  "1127": " war",
  "1128": " few",
  "1129": "orth",
  "1130": "ording",
  "1131": " cent",
  "1132": " leg",
  "1133": "aj",
  "1134": "get",
  "1135": " polit",
  "1136": "ves",
  "1137": "ash",
  "1138": " expl",
  "1139": " lot",
  "1140": "ric",
  "1141": " Se",
  "1142": " belie",
  "1143": " gener",
  "1144": " too",
  "1145": " 9",
  "1146": "der",
  "1147": "ata",
  "1148": "rent",
  "1149": " opp",
  "1150": "Wh",
  "1151": " requ",
  "1152": " contin",
  "1153": " prot",
  "1154": "iet",
  "1155": "bers",
  "1156": "anc",
  "1157": " fil",
  "1158": "ention",
  "1159": "ness",
  "1160": " cle",
  "1161": " resp",
  "1162": " put",
  "1163": "ized",
  "1164": " If",
  "1165": " another",
  "1166": "20",
  "1167": "chool",
  "1168": " inf",
  "1169": " something",
  "1170": " De",
  "1171": " different",
  "1172": " cor",
  "1173": " loc",
  "1174": "ute",
  "1175": " invest",
  "1176": " soc",
  "1177": " power",
  "1178": " che",
  "1179": "uc",
  "1180": " '",
  "1181": " pass",
  "1182": " commun",
  "1183": " life",
  "1184": " Fr",
  "1185": " plan",
  "1186": "ody",
  "1187": " rele",
  "1188": "ience",
  "1189": " head",
  "1190": " things",
  "1191": "ned",
  "1192": " far",
  "1193": " art",
  "1194": " poss",
  "1195": " met",
  "1196": "thing",
  "1197": "ox",
  "1198": "erest",
  "1199": " camp",
  "1200": "ross",
  "1201": "arge",
  "1202": " vot",
  "1203": "ier",
  "1204": "This",
  "1205": "view",
  "1206": " child",
  "1207": "ants",
  "1208": " ask",
  "1209": " .",
  "1210": " might",
  "1211": " each",
  "1212": "ize",
  "1213": "iness",
  "1214": " dep",
  "1215": " never",
  "1216": " next",
  "1217": "ik",
  "1218": "ield",
  "1219": " second",
  "1220": " mark",
  "1221": "tt",
  "1222": " quest",
  "1223": " bus",
  "1224": " adv",
  "1225": " An",
  "1226": " dem",
  "1227": " For",
  "1228": " come",
  "1229": " got",
  "1230": " ‘",
  "1231": " open",
  "1232": " best",
  "1233": "ient",
  "1234": "ital",
  "1235": " allow",
  "1236": " That",
  "1237": "rat",
  "1238": " seem",
  "1239": " post",
  "1240": "ple",
  "1241": "nce",
  "1242": " feel",
  "1243": " Pro",
  "1244": " US",
  "1245": "ug",
  "1246": " pri",
  "1247": "gram",
  "1248": " percent",
  "1249": "cl",
  "1250": " home",
  "1251": " dist",
  "1252": " direct",
  "1253": "ired",
  "1254": " incre",
  "1255": " contro",
  "1256": " Rep",
  "1257": "son",
  "1258": "orn",
  "1259": "less",
  "1260": "osed",
  "1261": " result",
  "1262": " hard",
  "1263": " care",
  "1264": "ately",
  "1265": " million",
  "1266": "chn",
  "1267": " comple",
  "1268": " place",
  "1269": " without",
  "1270": " inform",
  "1271": " including",
  "1272": " import",
  "1273": " av",
  "1274": "conom",
  "1275": " hum",
  "1276": " ide",
  "1277": " proble",
  "1278": " build",
  "1279": " top",
  "1280": "ama",
  "1281": " number",
  "1282": " country",
  "1283": "gy",
  "1284": "oney",
  "1285": "aim",
  "1286": " Bl",
  "1287": "ret",
  "1288": "ral",
  "1289": "ably",
  "1290": "uro",
  "1291": " stand",
  "1292": " gl",
  "1293": " el",
  "1294": "riend",
  "1295": " four",
  "1296": "ished",
  "1297": "ways",
  "1298": " partic",
  "1299": " better",
  "1300": " tri",
  "1301": "But",
  "1302": " recent",
  "1303": " interest",
  "1304": " mov",
  "1305": " let",
  "1306": "co",
  "1307": "ration",
  "1308": " season",
  "1309": " less",
  "1310": "ead",
  "1311": " turn",
  "1312": " little",
  "1313": " beh",
  "1314": " mil",
  "1315": " appro",
  "1316": "ract",
  "1317": "line",
  "1318": " bro",
  "1319": "ling",
  "1320": "ised",
  "1321": " called",
  "1322": "app",
  "1323": "10",
  "1324": " case",
  "1325": " dr",
  "1326": " Ind",
  "1327": " rest",
  "1328": " left",
  "1329": " pop",
  "1330": " ann",
  "1331": " Z",
  "1332": "ency",
  "1333": "ode",
  "1334": " move",
  "1335": " attack",
  "1336": "ina",
  "1337": " There",
  "1338": " keep",
  "1339": " full",
  "1340": "ering",
  "1341": " didn",
  "1342": "be",
  "1343": " fun",
  "1344": " main",
  "1345": "ajor",
  "1346": "__",
  "1347": " effect",
  "1348": "inal",
  "1349": "leg",
  "1350": " prev",
  "1351": " program",
  "1352": " using",
  "1353": " test",
  "1354": "rem",
  "1355": " pay",
  "1356": "ature",
  "1357": " ear",
  "1358": "to",
  "1359": " val",
  "1360": " police",
  "1361": " writ",
  "1362": " form",
  "1363": " econom",
  "1364": " data",
  "1365": " news",
  "1366": " pos",
  "1367": " win",
  "1368": " American",
  "1369": " level",
  "1370": " sit",
  "1371": " char",
  "1372": "ains",
  "1373": "iving",
  "1374": "uck",
  "1375": " small",
  "1376": "ined",
  "1377": "ready",
  "1378": "He",
  "1379": " school",
  "1380": " list",
  "1381": "ology",
  "1382": "rap",
  "1383": "ided",
  "1384": "mit",
  "1385": "ploy",
  "1386": "'re",
  "1387": "ger",
  "1388": " eas",
  "1389": " process",
  "1390": "ird",
  "1391": " change",
  "1392": " women",
  "1393": " current",
  "1394": " rece",
  "1395": " prom",
  "1396": " hist",
  "1397": " dri",
  "1398": " =",
  "1399": "ians",
  "1400": "reen",
  "1401": " president",
  "1402": " company",
  "1403": " So",
  "1404": "used",
  "1405": " mat",
  "1406": "ruct",
  "1407": " already",
  "1408": "ohn",
  "1409": " United",
  "1410": "wit",
  "1411": " ty",
  "1412": " why",
  "1413": " bre",
  "1414": " unt",
  "1415": " money",
  "1416": " sol",
  "1417": " always",
  "1418": " later",
  "1419": " expect",
  "1420": " techn",
  "1421": " business",
  "1422": " How",
  "1423": " official",
  "1424": "ron",
  "1425": " Q",
  "1426": " Ob",
  "1427": "stand",
  "1428": "iversity",
  "1429": " bo",
  "1430": " book",
  "1431": " Ph",
  "1432": "aign",
  "1433": " thing",
  "1434": " class",
  "1435": " project",
  "1436": "ases",
  "1437": " claim",
  "1438": " job",
  "1439": " information",
  "1440": " organ",
  "1441": "aff",
  "1442": " She",
  "1443": "ards",
  "1444": " talk",
  "1445": " Be",
  "1446": " design",
  "1447": " story",
  "1448": " chang",
  "1449": " major",
  "1450": " able",
  "1451": " prof",
  "1452": " --",
  "1453": "...",
  "1454": "lection",
  "1455": "iven",
  "1456": "ertain",
  "1457": " rese",
  "1458": " health",
  "1459": " vis",
  "1460": " past",
  "1461": "urs",
  "1462": " free",
  "1463": "outh",
  "1464": "here",
  "1465": " Ad",
  "1466": " oper",
  "1467": "ption",
  "1468": " away",
  "1469": "ior",
  "1470": " Can",
  "1471": " must",
  "1472": " city",
  "1473": "ample",
  "1474": "rist",
  "1475": "sc",
  "1476": "ural",
  "1477": " happen",
  "1478": "uthor",
  "1479": " 18",
  "1480": " important",
  "1481": "acy",
  "1482": "urity",
  "1483": " kill",
  "1484": " sk",
  "1485": " est",
  "1486": "ured",
  "1487": " old",
  "1488": " pat",
  "1489": "ury",
  "1490": "ending",
  "1491": " doesn",
  "1492": "ission",
  "1493": " least",
  "1494": " grow",
  "1495": " edit",
  "1496": " var",
  "1497": "ained",
  "1498": "St",
  "1499": " cost",
  "1500": " Go",
  "1501": "ney",
  "1502": "ider",
  "1503": "ides",
  "1504": "els",
  "1505": " days",
  "1506": " tell",
  "1507": " hop",
  "1508": " stre",
  "1509": " campaign",
  "1510": "side",
  "1511": " 12",
  "1512": " men",
  "1513": " came",
  "1514": " aff",
  "1515": " const",
  "1516": "resident",
  "1517": " enough",
  "1518": " view",
  "1519": "ccess",
  "1520": " kind",
  "1521": " Mar",
  "1522": "oad",
  "1523": " Sp",
  "1524": "ern",
  "1525": " making",
  "1526": " large",
  "1527": " record",
  "1528": "50",
  "1529": "ush",
  "1530": " friend",
  "1531": " mar",
  "1532": " family",
  "1533": "…",
  "1534": "ley",
  "1535": " elect",
  "1536": "eral",
  "1537": " polic",
  "1538": " tax",
  "1539": "ising",
  "1540": "by",
  "1541": "pped",
  "1542": "ality",
  "1543": "ator",
  "1544": "ified",
  "1545": "As",
  "1546": "ived",
  "1547": "arent",
  "1548": "ror",
  "1549": " until",
  "1550": "ee",
  "1551": "ional",
  "1552": " political",
  "1553": " vide",
  "1554": " deal",
  "1555": "ries",
  "1556": "alf",
  "1557": "augh",
  "1558": " ve",
  "1559": " working",
  "1560": "ued",
  "1561": " Republic",
  "1562": " took",
  "1563": " deb",
  "1564": "bs",
  "1565": "If",
  "1566": "ister",
  "1567": " line",
  "1568": " John",
  "1569": "aining",
  "1570": " air",
  "1571": "----",
  "1572": " es",
  "1573": " intern",
  "1574": " fore",
  "1575": "iol",
  "1576": "ane",
  "1577": "ocrat",
  "1578": " become",
  "1579": " actually",
  "1580": "aps",
  "1581": "ony",
  "1582": " mean",
  "1583": "work",
  "1584": " fund",
  "1585": " Sc",
  "1586": "ware",
  "1587": "19",
  "1588": "ember",
  "1589": " Pl",
  "1590": " former",
  "1591": " often",
  "1592": " Euro",
  "1593": "ott",
  "1594": "ann",
  "1595": " won",
  "1596": " give",
  "1597": "oint",
  "1598": " according",
  "1599": " ever",
  "1600": "most",
  "1601": "eng",
  "1602": "year",
  "1603": "wh",
  "1604": "aring",
  "1605": " games",
  "1606": "ison",
  "1607": " human",
  "1608": " bas",
  "1609": " word",
  "1610": "ization",
  "1611": " return",
  "1612": " times",
  "1613": " order",
  "1614": " Russ",
  "1615": " bit",
  "1616": " Dem",
  "1617": " name",
  "1618": "11",
  "1619": " sever",
  "1620": " All",
  "1621": " dev",
  "1622": "icle",
  "1623": "uture",
  "1624": "for",
  "1625": "ither",
  "1626": "iqu",
  "1627": " par",
  "1628": " 199",
  "1629": " Mc",
  "1630": " wr",
  "1631": " Con",
  "1632": "raft",
  "1633": " sing",
  "1634": " perform",
  "1635": " Sy",
  "1636": "idd",
  "1637": " market",
  "1638": " fac",
  "1639": " charac",
  "1640": "There",
  "1641": " Or",
  "1642": " At",
  "1643": " May",
  "1644": " ra",
  "1645": " doing",
  "1646": " appear",
  "1647": "ER",
  "1648": "ched",
  "1649": " players",
  "1650": " la",
  "1651": " night",
  "1652": " lear",
  "1653": "aken",
  "1654": "rop",
  "1655": "ats",
  "1656": "mber",
  "1657": " today",
  "1658": " early",
  "1659": " 15",
  "1660": " seen",
  "1661": "//",
  "1662": " having",
  "1663": " ,",
  "1664": " pot",
  "1665": " children",
  "1666": " event",
  "1667": " media",
  "1668": " social",
  "1669": " crit",
  "1670": " President",
  "1671": " whether",
  "1672": " several",
  "1673": " control",
  "1674": "idence",
  "1675": " meet",
  "1676": "sh",
  "1677": " milit",
  "1678": " press",
  "1679": " went",
  "1680": "artment",
  "1681": "ene",
  "1682": " five",
  "1683": " young",
  "1684": "ories",
  "1685": " sure",
  "1686": " prop",
  "1687": "iously",
  "1688": " equ",
  "1689": " beg",
  "1690": " question",
  "1691": " occ",
  "1692": " likely",
  "1693": "vert",
  "1694": "une",
  "1695": " members",
  "1696": "br",
  "1697": "ands",
  "1698": " certain",
  "1699": "ium",
  "1700": " eng",
  "1701": " water",
  "1702": " York",
  "1703": " example",
  "1704": "ots",
  "1705": " Col",
  "1706": " arg",
  "1707": " side",
  "1708": " ant",
  "1709": " done",
  "1710": "enn",
  "1711": " vers",
  "1712": " invol",
  "1713": " Mr",
  "1714": " States",
  "1715": " Europe",
  "1716": "ended",
  "1717": "let",
  "1718": " along",
  "1719": " short",
  "1720": " success",
  "1721": "ential",
  "1722": " months",
  "1723": "ball",
  "1724": " hour",
  "1725": " 11",
  "1726": " sex",
  "1727": "iver",
  "1728": "ially",
  "1729": "And",
  "1730": "lf",
  "1731": "empt",
  "1732": " within",
  "1733": " desc",
  "1734": "imate",
  "1735": " course",
  "1736": " fight",
  "1737": "ster",
  "1738": "urch",
  "1739": "ubl",
  "1740": " among",
  "1741": " activ",
  "1742": "uff",
  "1743": "–",
  "1744": "ague",
  "1745": " once",
  "1746": " future",
  "1747": " investig",
  "1748": "ulation",
  "1749": "rew",
  "1750": " possible",
  "1751": " Obama",
  "1752": " cho",
  "1753": "nect",
  "1754": " understand",
  "1755": "iting",
  "1756": " concer",
  "1757": " On",
  "1758": " ]",
  "1759": "ones",
  "1760": "ortun",
  "1761": " problem",
  "1762": " Br",
  "1763": " priv",
  "1764": " means",
  "1765": " viol",
  "1766": " Car",
  "1767": " author",
  "1768": "itive",
  "1769": " No",
  "1770": "ggest",
  "1771": " avail",
  "1772": "oci",
  "1773": "ourn",
  "1774": "my",
  "1775": " known",
  "1776": " product",
  "1777": " non",
  "1778": "ivid",
  "1779": " thought",
  "1780": " yet",
  "1781": "gress",
  "1782": " across",
  "1783": " protect",
  "1784": " local",
  "1785": "ald",
  "1786": "ler",
  "1787": " hold",
  "1788": " Te",
  "1789": " fail",
  "1790": "inc",
  "1791": " When",
  "1792": " State",
  "1793": " community",
  "1794": " reason",
  "1795": " orig",
  "1796": " suggest",
  "1797": " &",
  "1798": "12",
  "1799": " makes",
  "1800": "verage",
  "1801": "not",
  "1802": "por",
  "1803": "back",
  "1804": " 2016",
  "1805": " i",
  "1806": "book",
  "1807": " asked",
  "1808": "ederal",
  "1809": "orld",
  "1810": " reported",
  "1811": "You",
  "1812": "aged",
  "1813": "ensive",
  "1814": " given",
  "1815": " strong",
  "1816": " prob",
  "1817": " mus",
  "1818": " others",
  "1819": " believe",
  "1820": " video",
  "1821": "iber",
  "1822": " ben",
  "1823": " getting",
  "1824": " House",
  "1825": "ances",
  "1826": " announ",
  "1827": " light",
  "1828": "ored",
  "1829": "ober",
  "1830": " University",
  "1831": " 30",
  "1832": " Co",
  "1833": "itions",
  "1834": " ident",
  "1835": "iron",
  "1836": " sent",
  "1837": " cut",
  "1838": " lim",
  "1839": " ca",
  "1840": " Christ",
  "1841": "iety",
  "1842": "30",
  "1843": "urther",
  "1844": " sour",
  "1845": " creat",
  "1846": " cond",
  "1847": " X",
  "1848": "rest",
  "1849": "ams",
  "1850": "'ve",
  "1851": " net",
  "1852": "ashing",
  "1853": " bat",
  "1854": "ament",
  "1855": " national",
  "1856": ".,",
  "1857": " close",
  "1858": "arm",
  "1859": " started",
  "1860": " saf",
  "1861": " death",
  "1862": "aster",
  "1863": " available",
  "1864": " hig",
  "1865": "For",
  "1866": " based",
  "1867": " issue",
  "1868": "of",
  "1869": " indust",
  "1870": " Democrat",
  "1871": " Min",
  "1872": " low",
  "1873": " following",
  "1874": "resent",
  "1875": " account",
  "1876": " land",
  "1877": "use",
  "1878": " Cent",
  "1879": " employ",
  "1880": " love",
  "1881": " 2015",
  "1882": " #",
  "1883": " history",
  "1884": " ago",
  "1885": "orts",
  "1886": "selves",
  "1887": " mom",
  "1888": " party",
  "1889": " Am",
  "1890": "ability",
  "1891": "eb",
  "1892": " series",
  "1893": " comes",
  "1894": " trying",
  "1895": "uly",
  "1896": "utes",
  "1897": " almost",
  "1898": "gether",
  "1899": "ument",
  "1900": " together",
  "1901": "ination",
  "1902": "AT",
  "1903": " America",
  "1904": " idea",
  "1905": "pro",
  "1906": "ief",
  "1907": " access",
  "1908": " foc",
  "1909": "hers",
  "1910": "ilar",
  "1911": " Fl",
  "1912": "reed",
  "1913": "ails",
  "1914": " commit",
  "1915": "itional",
  "1916": " isn",
  "1917": " Sen",
  "1918": " clear",
  "1919": " 16",
  "1920": " One",
  "1921": " trad",
  "1922": "though",
  "1923": "ring",
  "1924": " What",
  "1925": " pract",
  "1926": " added",
  "1927": " impro",
  "1928": " experience",
  "1929": "erence",
  "1930": " film",
  "1931": "15",
  "1932": " half",
  "1933": "ustom",
  "1934": "ged",
  "1935": " hit",
  "1936": "af",
  "1937": " Bro",
  "1938": "witter",
  "1939": "rict",
  "1940": " anal",
  "1941": "inton",
  "1942": "ograp",
  "1943": "unch",
  "1944": " 2014",
  "1945": " rul",
  "1946": "ividual",
  "1947": " looking",
  "1948": " six",
  "1949": " live",
  "1950": " anything",
  "1951": " area",
  "1952": " complete",
  "1953": "erman",
  "1954": "minist",
  "1955": " miss",
  "1956": "rael",
  "1957": " Comm",
  "1958": " Ex",
  "1959": " fav",
  "1960": " ris",
  "1961": "nes",
  "1962": "ai",
  "1963": " present",
  "1964": "ote",
  "1965": "rug",
  "1966": " saying",
  "1967": "raw",
  "1968": "aid",
  "1969": " Canad",
  "1970": " vict",
  "1971": "IN",
  "1972": "cially",
  "1973": " bad",
  "1974": "ows",
  "1975": "uge",
  "1976": " taken",
  "1977": " entire",
  "1978": "oto",
  "1979": " Pr",
  "1980": "ators",
  "1981": "ev",
  "1982": " bill",
  "1983": " compet",
  "1984": " Eng",
  "1985": " mor",
  "1986": " behind",
  "1987": "ien",
  "1988": " aut",
  "1989": " To",
  "1990": "'m",
  "1991": " court",
  "1992": "play",
  "1993": " try",
  "1994": " military",
  "1995": " z",
  "1996": " near",
  "1997": "osp",
  "1998": " mult",
  "1999": "What",
  "2000": " face",
  "2001": "wards",
  "2002": " er",
  "2003": " 14",
  "2004": " security",
  "2005": " Pol",
  "2006": "sy",
  "2007": " proper",
  "2008": " discuss",
  "2009": " threat",
  "2010": " tot",
  "2011": " study",
  "2012": "ert",
  "2013": " single",
  "2014": " rather",
  "2015": " individual",
  "2016": " Af",
  "2017": " Brit",
  "2018": " War",
  "2019": " �",
  "2020": "ttp",
  "2021": " quick",
  "2022": " Don",
  "2023": " mind",
  "2024": " Sec",
  "2025": "lement",
  "2026": "ales",
  "2027": "amed",
  "2028": "atic",
  "2029": "An",
  "2030": " North",
  "2031": "aper",
  "2032": " publ",
  "2033": " policy",
  "2034": " mess",
  "2035": "ris",
  "2036": "par",
  "2037": " black",
  "2038": " wanted",
  "2039": " fall",
  "2040": "irc",
  "2041": "**",
  "2042": "off",
  "2043": " food",
  "2044": " sum",
  "2045": " someone",
  "2046": "lling",
  "2047": "ids",
  "2048": "On",
  "2049": " |",
  "2050": " /",
  "2051": " cult",
  "2052": " special",
  "2053": " comb",
  "2054": " key",
  "2055": " Man",
  "2056": " player",
  "2057": " redu",
  "2058": " Gr",
  "2059": " bring",
  "2060": " 13",
  "2061": " compan",
  "2062": " 17",
  "2063": "ply",
  "2064": " Dep",
  "2065": " attempt",
  "2066": " National",
  "2067": " taking",
  "2068": " Bar",
  "2069": "When",
  "2070": "ON",
  "2071": "ify",
  "2072": "olution",
  "2073": " :",
  "2074": "viron",
  "2075": " foot",
  "2076": " Cal",
  "2077": "://",
  "2078": " else",
  "2079": " pret",
  "2080": " body",
  "2081": " space",
  "2082": "elt",
  "2083": "rote",
  "2084": "over",
  "2085": "dd",
  "2086": " probably",
  "2087": "16",
  "2088": "icult",
  "2089": ".)",
  "2090": " front",
  "2091": " cou",
  "2092": " nothing",
  "2093": " Im",
  "2094": " sw",
  "2095": "ashington",
  "2096": " connect",
  "2097": "ches",
  "2098": " World",
  "2099": " research",
  "2100": "14",
  "2101": " Clinton",
  "2102": " City",
  "2103": "ming",
  "2104": " coming",
  "2105": " points",
  "2106": " Israel",
  "2107": " however",
  "2108": "RE",
  "2109": " describ",
  "2110": " jo",
  "2111": "go",
  "2112": " signific",
  "2113": " similar",
  "2114": "yn",
  "2115": "reme",
  "2116": "cing",
  "2117": " benef",
  "2118": "lier",
  "2119": " Aust",
  "2120": " imm",
  "2121": " decision",
  "2122": " either",
  "2123": "aces",
  "2124": " coun",
  "2125": "ault",
  "2126": "So",
  "2127": " mass",
  "2128": " Har",
  "2129": " sus",
  "2130": " targ",
  "2131": "ully",
  "2132": "ana",
  "2133": " feat",
  "2134": "That",
  "2135": " conv",
  "2136": " exist",
  "2137": "irl",
  "2138": " enc",
  "2139": " 2013",
  "2140": " rights",
  "2141": " service",
  "2142": "ung",
  "2143": " Su",
  "2144": "asing",
  "2145": "sw",
  "2146": "IS",
  "2147": " fire",
  "2148": " doc",
  "2149": " wrote",
  "2150": " further",
  "2151": " house",
  "2152": "rodu",
  "2153": " fig",
  "2154": " chall",
  "2155": "ww",
  "2156": " ban",
  "2157": " third",
  "2158": "mb",
  "2159": " wa",
  "2160": " create",
  "2161": " stop",
  "2162": " field",
  "2163": "now",
  "2164": " pick",
  "2165": "AN",
  "2166": "ape",
  "2167": "ively",
  "2168": " meas",
  "2169": " repl",
  "2170": " compl",
  "2171": " With",
  "2172": " issues",
  "2173": "pping",
  "2174": " begin",
  "2175": " super",
  "2176": "amer",
  "2177": " step",
  "2178": "ried",
  "2179": "eal",
  "2180": "ently",
  "2181": " whole",
  "2182": " relations",
  "2183": " seems",
  "2184": " )",
  "2185": " companies",
  "2186": "pecially",
  "2187": " due",
  "2188": " exec",
  "2189": " cand",
  "2190": " everything",
  "2191": " federal",
  "2192": " Gu",
  "2193": " states",
  "2194": " ey",
  "2195": " room",
  "2196": "aul",
  "2197": " tra",
  "2198": " watch",
  "2199": "oon",
  "2200": " Ge",
  "2201": " custom",
  "2202": " leaders",
  "2203": "13",
  "2204": "uation",
  "2205": " However",
  "2206": "pite",
  "2207": " Jan",
  "2208": " Washington",
  "2209": "Ch",
  "2210": "lam",
  "2211": " self",
  "2212": " role",
  "2213": "ran",
  "2214": "ilt",
  "2215": " sound",
  "2216": " lab",
  "2217": "att",
  "2218": "head",
  "2219": " dam",
  "2220": "ivil",
  "2221": " officials",
  "2222": " stri",
  "2223": " 2012",
  "2224": " tre",
  "2225": "iday",
  "2226": "ibility",
  "2227": " released",
  "2228": "lu",
  "2229": " Inst",
  "2230": " began",
  "2231": " Dav",
  "2232": " App",
  "2233": " South",
  "2234": " opt",
  "2235": "obal",
  "2236": " students",
  "2237": " treat",
  "2238": " final",
  "2239": " character",
  "2240": " position",
  "2241": " matter",
  "2242": "é",
  "2243": "ender",
  "2244": " ener",
  "2245": "lim",
  "2246": " outside",
  "2247": "ery",
  "2248": "sec",
  "2249": "ades",
  "2250": " dou",
  "2251": "vironment",
  "2252": " development",
  "2253": " statement",
  "2254": " himself",
  "2255": " 2017",
  "2256": " above",
  "2257": "like",
  "2258": " stat",
  "2259": " init",
  "2260": " break",
  "2261": " 100",
  "2262": " amount",
  "2263": " provide",
  "2264": " hours",
  "2265": " itself",
  "2266": " themselves",
  "2267": " office",
  "2268": " represent",
  "2269": " action",
  "2270": " Part",
  "2271": " di",
  "2272": " became",
  "2273": " 198",
  "2274": " general",
  "2275": " continue",
  "2276": " countries",
  "2277": " Intern",
  "2278": " neg",
  "2279": "iod",
  "2280": " address",
  "2281": " 25",
  "2282": " gun",
  "2283": "aced",
  "2284": "ask",
  "2285": " true",
  "2286": " specific",
  "2287": "ograph",
  "2288": "umb",
  "2289": "arter",
  "2290": "reg",
  "2291": " larg",
  "2292": " significant",
  "2293": "lish",
  "2294": " simply",
  "2295": " Ass",
  "2296": " Res",
  "2297": " wasn",
  "2298": "'ll",
  "2299": " interview",
  "2300": "acebook",
  "2301": "ili",
  "2302": " ground",
  "2303": " rad",
  "2304": "oid",
  "2305": "ogn",
  "2306": " difficult",
  "2307": " running",
  "2308": " Just",
  "2309": " evidence",
  "2310": " administ",
  "2311": "BC",
  "2312": " cop",
  "2313": "17",
  "2314": "ream",
  "2315": " drug",
  "2316": " version",
  "2317": "ogle",
  "2318": " bar",
  "2319": " Ed",
  "2320": " agree",
  "2321": "eks",
  "2322": "iddle",
  "2323": " building",
  "2324": " China",
  "2325": " needs",
  "2326": " profess",
  "2327": "angu",
  "2328": " groups",
  "2329": "right",
  "2330": " typ",
  "2331": " respons",
  "2332": " common",
  "2333": " shows",
  "2334": " everyone",
  "2335": " dom",
  "2336": " dest",
  "2337": " needed",
  "2338": " ball",
  "2339": " woman",
  "2340": " German",
  "2341": " lat",
  "2342": " below",
  "2343": " tem",
  "2344": "light",
  "2345": "ournal",
  "2346": " music",
  "2347": " exc",
  "2348": " release",
  "2349": "ift",
  "2350": " inj",
  "2351": " pretty",
  "2352": " Med",
  "2353": " Ab",
  "2354": "AR",
  "2355": "ribut",
  "2356": " include",
  "2357": " saw",
  "2358": " deep",
  "2359": " ap",
  "2360": "body",
  "2361": "18",
  "2362": " played",
  "2363": " quite",
  "2364": " industry",
  "2365": " charg",
  "2366": " mag",
  "2367": " energy",
  "2368": " playing",
  "2369": " mot",
  "2370": " 50",
  "2371": " candid",
  "2372": "eg",
  "2373": " sense",
  "2374": " phys",
  "2375": " late",
  "2376": " alleg",
  "2377": " white",
  "2378": " His",
  "2379": "ival",
  "2380": " friends",
  "2381": " gen",
  "2382": " legal",
  "2383": "atur",
  "2384": "bo",
  "2385": " anim",
  "2386": "isc",
  "2387": "yle",
  "2388": " After",
  "2389": "omm",
  "2390": "How",
  "2391": "AS",
  "2392": "where",
  "2393": " abs",
  "2394": "lev",
  "2395": " instead",
  "2396": " red",
  "2397": " billion",
  "2398": " lost",
  "2399": " especially",
  "2400": " value",
  "2401": " Mus",
  "2402": " West",
  "2403": " host",
  "2404": "osing",
  "2405": "oring",
  "2406": " hom",
  "2407": " News",
  "2408": "time",
  "2409": "ager",
  "2410": " ple",
  "2411": "istic",
  "2412": " weeks",
  "2413": "epend",
  "2414": " Not",
  "2415": "ccording",
  "2416": " forward",
  "2417": "ique",
  "2418": " deter",
  "2419": " election",
  "2420": " recently",
  "2421": " jud",
  "2422": " track",
  "2423": " suff",
  "2424": " vote",
  "2425": " Twitter",
  "2426": " object",
  "2427": "irt",
  "2428": "lt",
  "2429": "medi",
  "2430": " period",
  "2431": " changes",
  "2432": " opportun",
  "2433": " White",
  "2434": " Oct",
  "2435": " lo",
  "2436": " longer",
  "2437": "eed",
  "2438": "arc",
  "2439": "oke",
  "2440": " ep",
  "2441": " pain",
  "2442": " soon",
  "2443": " site",
  "2444": " {",
  "2445": "hod",
  "2446": "ript",
  "2447": "ached",
  "2448": " accept",
  "2449": " Cong",
  "2450": "____",
  "2451": "irm",
  "2452": " shoot",
  "2453": " economic",
  "2454": " hope",
  "2455": " moment",
  "2456": " decl",
  "2457": "lege",
  "2458": " consum",
  "2459": " Will",
  "2460": " pie",
  "2461": " tit",
  "2462": " check",
  "2463": "oph",
  "2464": "oe",
  "2465": " potential",
  "2466": "ij",
  "2467": " block",
  "2468": " March",
  "2469": "ole",
  "2470": " wrong",
  "2471": "duct",
  "2472": "ners",
  "2473": " Sept",
  "2474": " Department",
  "2475": " higher",
  "2476": "onse",
  "2477": " cred",
  "2478": " online",
  "2479": " focus",
  "2480": " 24",
  "2481": " consider",
  "2482": "key",
  "2483": " educ",
  "2484": "ancial",
  "2485": " My",
  "2486": "ns",
  "2487": "iding",
  "2488": " circ",
  "2489": " works",
  "2490": " relig",
  "2491": " share",
  "2492": " parent",
  "2493": "cial",
  "2494": " held",
  "2495": "25",
  "2496": " pred",
  "2497": " Dr",
  "2498": " walk",
  "2499": " webs",
  "2500": " led",
  "2501": "ularly",
  "2502": "==",
  "2503": " reve",
  "2504": "lear",
  "2505": " stay",
  "2506": " These",
  "2507": "overed",
  "2508": " stru",
  "2509": "alt",
  "2510": " Republican",
  "2511": " risk",
  "2512": " words",
  "2513": " Aug",
  "2514": " rev",
  "2515": " sold",
  "2516": " review",
  "2517": "icro",
  "2518": " contract",
  "2519": " results",
  "2520": " services",
  "2521": " laws",
  "2522": "They",
  "2523": " code",
  "2524": "cil",
  "2525": " Mich",
  "2526": " wind",
  "2527": " function",
  "2528": " aud",
  "2529": " ce",
  "2530": " Syri",
  "2531": "put",
  "2532": "aut",
  "2533": " total",
  "2534": "fect",
  "2535": " article",
  "2536": " age",
  "2537": " applic",
  "2538": " minutes",
  "2539": "urd",
  "2540": " personal",
  "2541": "ilities",
  "2542": " anyone",
  "2543": "uary",
  "2544": "ients",
  "2545": "itution",
  "2546": "asons",
  "2547": " June",
  "2548": "Ad",
  "2549": "ateg",
  "2550": " prim",
  "2551": "anger",
  "2552": " target",
  "2553": "fer",
  "2554": " den",
  "2555": " earlier",
  "2556": "ule",
  "2557": " favor",
  "2558": " express",
  "2559": "haps",
  "2560": " dead",
  "2561": " answ",
  "2562": " upd",
  "2563": "ech",
  "2564": " popular",
  "2565": "che",
  "2566": " comput",
  "2567": " Ste",
  "2568": " vol",
  "2569": "pril",
  "2570": " necess",
  "2571": "ham",
  "2572": " hy",
  "2573": " rate",
  "2574": "ES",
  "2575": "aging",
  "2576": " technology",
  "2577": "apan",
  "2578": " respect",
  "2579": "val",
  "2580": " environment",
  "2581": " 2011",
  "2582": "Ph",
  "2583": " received",
  "2584": " expected",
  "2585": " Sm",
  "2586": "ends",
  "2587": "ude",
  "2588": " goal",
  "2589": " created",
  "2590": " base",
  "2591": " surpr",
  "2592": " anti",
  "2593": " Par",
  "2594": " July",
  "2595": "eter",
  "2596": "tee",
  "2597": " problems",
  "2598": "uel",
  "2599": " ways",
  "2600": " port",
  "2601": "iple",
  "2602": "action",
  "2603": " private",
  "2604": " Do",
  "2605": " scient",
  "2606": " increase",
  "2607": "ray",
  "2608": "reet",
  "2609": " announced",
  "2610": " comment",
  "2611": "isl",
  "2612": " cannot",
  "2613": " easy",
  "2614": "Al",
  "2615": " shot",
  "2616": " Congress",
  "2617": " questions",
  "2618": "bit",
  "2619": " force",
  "2620": " Pe",
  "2621": "aterial",
  "2622": "hern",
  "2623": " impact",
  "2624": " et",
  "2625": " Mond",
  "2626": "ples",
  "2627": " pack",
  "2628": " +",
  "2629": " Facebook",
  "2630": " pur",
  "2631": " langu",
  "2632": "atives",
  "2633": " God",
  "2634": " En",
  "2635": " involved",
  "2636": "omb",
  "2637": "aving",
  "2638": "ills",
  "2639": "60",
  "2640": "lex",
  "2641": "hood",
  "2642": "onst",
  "2643": " Austral",
  "2644": " div",
  "2645": "uesday",
  "2646": " execut",
  "2647": "ctor",
  "2648": " model",
  "2649": "itiz",
  "2650": " sen",
  "2651": " speak",
  "2652": " staff",
  "2653": " exact",
  "2654": " civil",
  "2655": "ees",
  "2656": "ires",
  "2657": " nearly",
  "2658": " type",
  "2659": "ourt",
  "2660": "okes",
  "2661": " original",
  "2662": " cases",
  "2663": " content",
  "2664": " 197",
  "2665": " relationship",
  "2666": " terror",
  "2667": " Google",
  "2668": "To",
  "2669": " leave",
  "2670": " Friday",
  "2671": " response",
  "2672": " capt",
  "2673": " inside",
  "2674": " <",
  "2675": " phot",
  "2676": "lled",
  "2677": " fans",
  "2678": " April",
  "2679": " Red",
  "2680": " international",
  "2681": " coll",
  "2682": "cast",
  "2683": " heart",
  "2684": " average",
  "2685": " broad",
  "2686": " arrest",
  "2687": " users",
  "2688": " Count",
  "2689": " cal",
  "2690": "At",
  "2691": "rel",
  "2692": " cell",
  "2693": " worth",
  "2694": " Em",
  "2695": " soft",
  "2696": " ur",
  "2697": " living",
  "2698": "bor",
  "2699": " nation",
  "2700": "ips",
  "2701": "ky",
  "2702": " killed",
  "2703": " reports",
  "2704": " 2010",
  "2705": "�",
  "2706": " becom",
  "2707": "ging",
  "2708": " source",
  "2709": " Monday",
  "2710": " Tuesday",
  "2711": " subject",
  "2712": " worked",
  "2713": "atural",
  "2714": "ests",
  "2715": " estab",
  "2716": " immedi",
  "2717": "EN",
  "2718": " respond",
  "2719": " global",
  "2720": " associ",
  "2721": "joy",
  "2722": "ellig",
  "2723": " club",
  "2724": "ops",
  "2725": " Americans",
  "2726": "ael",
  "2727": " obs",
  "2728": "ites",
  "2729": " Per",
  "2730": " Pal",
  "2731": " chance",
  "2732": " oil",
  "2733": " Act",
  "2734": " ability",
  "2735": " takes",
  "2736": "rought",
  "2737": " weap",
  "2738": "hel",
  "2739": " price",
  "2740": " Japan",
  "2741": "ological",
  "2742": " director",
  "2743": "izing",
  "2744": " workers",
  "2745": " terms",
  "2746": " road",
  "2747": "mon",
  "2748": " published",
  "2749": " del",
  "2750": "ext",
  "2751": " While",
  "2752": " tou",
  "2753": " phone",
  "2754": "rain",
  "2755": " collect",
  "2756": " financial",
  "2757": " mid",
  "2758": "osition",
  "2759": " decided",
  "2760": "ises",
  "2761": "OR",
  "2762": " Russia",
  "2763": " Some",
  "2764": " Wed",
  "2765": " mother",
  "2766": " squ",
  "2767": " lack",
  "2768": " defin",
  "2769": "ovember",
  "2770": " 40",
  "2771": " girl",
  "2772": " store",
  "2773": " gave",
  "2774": " buy",
  "2775": " influ",
  "2776": " Calif",
  "2777": " log",
  "2778": " happened",
  "2779": "ino",
  "2780": " require",
  "2781": " Now",
  "2782": " emer",
  "2783": " fem",
  "2784": "\".",
  "2785": " capital",
  "2786": "clus",
  "2787": " foreign",
  "2788": " currently",
  "2789": " Off",
  "2790": "based",
  "2791": " San",
  "2792": " goes",
  "2793": " By",
  "2794": "oved",
  "2795": " Geor",
  "2796": "vertise",
  "2797": " situation",
  "2798": " indic",
  "2799": " offer",
  "2800": " whose",
  "2801": " @",
  "2802": " tal",
  "2803": " material",
  "2804": " lives",
  "2805": "unt",
  "2806": " affect",
  "2807": "rown",
  "2808": "ought",
  "2809": "hem",
  "2810": " plans",
  "2811": "nesday",
  "2812": " arri",
  "2813": " member",
  "2814": " pict",
  "2815": "ursday",
  "2816": " Feb",
  "2817": " particip",
  "2818": "ruction",
  "2819": " recogn",
  "2820": " turned",
  "2821": " method",
  "2822": " events",
  "2823": " January",
  "2824": " Hill",
  "2825": " network",
  "2826": "One",
  "2827": " teams",
  "2828": " Sund",
  "2829": " bank",
  "2830": " meeting",
  "2831": "40",
  "2832": "rect",
  "2833": " norm",
  "2834": " introdu",
  "2835": " simple",
  "2836": "fully",
  "2837": " Ag",
  "2838": " Islam",
  "2839": " ill",
  "2840": " huge",
  "2841": " September",
  "2842": "oud",
  "2843": " regard",
  "2844": " areas",
  "2845": " cy",
  "2846": "order",
  "2847": " Cor",
  "2848": " TV",
  "2849": " Me",
  "2850": "bl",
  "2851": "ese",
  "2852": " couple",
  "2853": " approach",
  "2854": " career",
  "2855": "aur",
  "2856": " Afric",
  "2857": " Gl",
  "2858": "load",
  "2859": "\",",
  "2860": " deli",
  "2861": " race",
  "2862": " performance",
  "2863": " page",
  "2864": "ety",
  "2865": "apt",
  "2866": " November",
  "2867": " tool",
  "2868": " David",
  "2869": " felt",
  "2870": " quickly",
  "2871": " mis",
  "2872": " numbers",
  "2873": "oor",
  "2874": " email",
  "2875": " El",
  "2876": " 21",
  "2877": "aily",
  "2878": " ord",
  "2879": "istan",
  "2880": " administration",
  "2881": " hon",
  "2882": " Wednesday",
  "2883": " victim",
  "2884": " Paul",
  "2885": " via",
  "2886": " improve",
  "2887": " engine",
  "2888": "chie",
  "2889": "--------",
  "2890": " fre",
  "2891": " pull",
  "2892": " Ang",
  "2893": " round",
  "2894": " built",
  "2895": " 22",
  "2896": " pers",
  "2897": " European",
  "2898": "lin",
  "2899": " dig",
  "2900": "ened",
  "2901": " Thursday",
  "2902": " father",
  "2903": "ornia",
  "2904": " loss",
  "2905": "avy",
  "2906": " thous",
  "2907": "­",
  "2908": " http",
  "2909": "ructure",
  "2910": " production",
  "2911": " boy",
  "2912": "ume",
  "2913": " heard",
  "2914": "down",
  "2915": "Sh",
  "2916": " economy",
  "2917": "”.",
  "2918": " enjoy",
  "2919": " August",
  "2920": " trade",
  "2921": " Sch",
  "2922": "face",
  "2923": " website",
  "2924": "iment",
  "2925": " secret",
  "2926": " cover",
  "2927": " reveal",
  "2928": " wide",
  "2929": " board",
  "2930": " match",
  "2931": " Court",
  "2932": "AL",
  "2933": " allowed",
  "2934": " hands",
  "2935": " spent",
  "2936": " travel",
  "2937": " lower",
  "2938": " repe",
  "2939": "atory",
  "2940": " poll",
  "2941": " included",
  "2942": "cember",
  "2943": " ste",
  "2944": " October",
  "2945": " neigh",
  "2946": " legisl",
  "2947": "orters",
  "2948": "uses",
  "2949": " behav",
  "2950": "iction",
  "2951": " knew",
  "2952": " text",
  "2953": " wants",
  "2954": " town",
  "2955": "ights",
  "2956": " British",
  "2957": " separ",
  "2958": "ences",
  "2959": "estern",
  "2960": " visit",
  "2961": " Canada",
  "2962": "anks",
  "2963": "ctions",
  "2964": "With",
  "2965": " perfect",
  "2966": " gets",
  "2967": "ession",
  "2968": " movement",
  "2969": " aren",
  "2970": "ishing",
  "2971": "raz",
  "2972": "ground",
  "2973": "agement",
  "2974": " tried",
  "2975": " cause",
  "2976": "?”",
  "2977": "gest",
  "2978": " }",
  "2979": " forces",
  "2980": " Sunday",
  "2981": " ens",
  "2982": "After",
  "2983": "force",
  "2984": "ceed",
  "2985": " attention",
  "2986": " particular",
  "2987": " bi",
  "2988": "][",
  "2989": "ening",
  "2990": " veh",
  "2991": " bud",
  "2992": " fear",
  "2993": " population",
  "2994": " various",
  "2995": " UK",
  "2996": " reach",
  "2997": " looks",
  "2998": " 23",
  "2999": " California",
  "3000": " brought",
  "3001": " vo",
  "3002": " Kore",
  "3003": " link",
  "3004": "ibly",
  "3005": ");",
  "3006": "urning",
  "3007": "arily",
  "3008": " IS",
  "3009": "200",
  "3010": " previous",
  "3011": "ED",
  "3012": " mention",
  "3013": " Russian",
  "3014": " morning",
  "3015": " Qu",
  "3016": "cle",
  "3017": "idered",
  "3018": "'d",
  "3019": " fair",
  "3020": " growth",
  "3021": "aker",
  "3022": " Sw",
  "3023": "undred",
  "3024": "99",
  "3025": "sequ",
  "3026": "yond",
  "3027": " progress",
  "3028": " fell",
  "3029": "alled",
  "3030": " song",
  "3031": "iam",
  "3032": " Cont",
  "3033": "AC",
  "3034": " training",
  "3035": "field",
  "3036": "hold",
  "3037": "uk",
  "3038": " size",
  "3039": " Black",
  "3040": "cies",
  "3041": " December",
  "3042": "idents",
  "3043": " contact",
  "3044": "ledge",
  "3045": " Her",
  "3046": " demand",
  "3047": "While",
  "3048": " image",
  "3049": " hor",
  "3050": " rac",
  "3051": " hot",
  "3052": "ification",
  "3053": "OS",
  "3054": " leader",
  "3055": "set",
  "3056": "ecause",
  "3057": " rules",
  "3058": " prep",
  "3059": " liber",
  "3060": "ze",
  "3061": " search",
  "3062": " ess",
  "3063": " Post",
  "3064": " citiz",
  "3065": " upon",
  "3066": " strugg",
  "3067": " Street",
  "3068": " latest",
  "3069": "come",
  "3070": " independ",
  "3071": "US",
  "3072": "uments",
  "3073": "inks",
  "3074": "arth",
  "3075": " features",
  "3076": " coach",
  "3077": "ondon",
  "3078": " Park",
  "3079": "iant",
  "3080": " fast",
  "3081": "Tr",
  "3082": "oo",
  "3083": "sych",
  "3084": " talking",
  "3085": " Jew",
  "3086": "omp",
  "3087": " addition",
  "3088": "ges",
  "3089": " star",
  "3090": " wond",
  "3091": " Senate",
  "3092": "IT",
  "3093": " Pat",
  "3094": " speed",
  "3095": " exam",
  "3096": " considered",
  "3097": "raq",
  "3098": "icles",
  "3099": "aries",
  "3100": " reb",
  "3101": "bed",
  "3102": " levels",
  "3103": "eth",
  "3104": " Times",
  "3105": " County",
  "3106": "elligence",
  "3107": " slow",
  "3108": " investigation",
  "3109": "ps",
  "3110": "ille",
  "3111": " conduct",
  "3112": "aph",
  "3113": " Party",
  "3114": "22",
  "3115": " King",
  "3116": " medical",
  "3117": " mach",
  "3118": " sn",
  "3119": "imately",
  "3120": "vent",
  "3121": " achie",
  "3122": " language",
  "3123": "aturday",
  "3124": " card",
  "3125": "unk",
  "3126": " sort",
  "3127": " critic",
  "3128": "ope",
  "3129": " Tex",
  "3130": " Center",
  "3131": " pen",
  "3132": " und",
  "3133": " India",
  "3134": " paper",
  "3135": "wo",
  "3136": "ysis",
  "3137": "IC",
  "3138": " 2008",
  "3139": "pir",
  "3140": " conserv",
  "3141": " parents",
  "3142": "imin",
  "3143": " sexual",
  "3144": "ma",
  "3145": " systems",
  "3146": " prior",
  "3147": "uit",
  "3148": "asc",
  "3149": " doll",
  "3150": " written",
  "3151": "uf",
  "3152": " box",
  "3153": " spokes",
  "3154": "igr",
  "3155": " seek",
  "3156": " sens",
  "3157": "eared",
  "3158": "het",
  "3159": " document",
  "3160": "idge",
  "3161": " increasing",
  "3162": " hear",
  "3163": "ani",
  "3164": "atform",
  "3165": " draw",
  "3166": " seven",
  "3167": " son",
  "3168": " Muslim",
  "3169": " effort",
  "3170": "ruary",
  "3171": " jobs",
  "3172": " Iran",
  "3173": " extreme",
  "3174": " prevent",
  "3175": " learn",
  "3176": "ining",
  "3177": " serious",
  "3178": " regul",
  "3179": "rast",
  "3180": " inn",
  "3181": " range",
  "3182": " ...",
  "3183": "room",
  "3184": " violence",
  "3185": " eight",
  "3186": " Mark",
  "3187": "80",
  "3188": "ources",
  "3189": " Iraq",
  "3190": "itch",
  "3191": "OP",
  "3192": " surve",
  "3193": " completely",
  "3194": " conc",
  "3195": " 2009",
  "3196": "eff",
  "3197": " message",
  "3198": "ico",
  "3199": "tr",
  "3200": "ha",
  "3201": " �",
  "3202": " obv",
  "3203": " interesting",
  "3204": "reedom",
  "3205": "She",
  "3206": " screen",
  "3207": "abor",
  "3208": " opportunity",
  "3209": " climate",
  "3210": "24",
  "3211": " majority",
  "3212": " Ke",
  "3213": "anced",
  "3214": " particularly",
  "3215": " doub",
  "3216": " journal",
  "3217": " despite",
  "3218": " Rom",
  "3219": " claims",
  "3220": " answer",
  "3221": " Char",
  "3222": " society",
  "3223": " London",
  "3224": " defense",
  "3225": " carry",
  "3226": "entially",
  "3227": "aming",
  "3228": " guy",
  "3229": " extra",
  "3230": "ension",
  "3231": " Donald",
  "3232": "isions",
  "3233": " attacks",
  "3234": " required",
  "3235": "erve",
  "3236": "rench",
  "3237": "illed",
  "3238": " biggest",
  "3239": "vertisement",
  "3240": " East",
  "3241": " exactly",
  "3242": "iers",
  "3243": " paid",
  "3244": "mp",
  "3245": " More",
  "3246": "ibr",
  "3247": " experien",
  "3248": "lying",
  "3249": "uclear",
  "3250": "inese",
  "3251": " modern",
  "3252": " remain",
  "3253": " quarter",
  "3254": " officers",
  "3255": "ett",
  "3256": " hundred",
  "3257": " cross",
  "3258": " except",
  "3259": "utions",
  "3260": "ari",
  "3261": " table",
  "3262": " practice",
  "3263": "inally",
  "3264": " natural",
  "3265": " middle",
  "3266": "erc",
  "3267": " 27",
  "3268": " certainly",
  "3269": "na",
  "3270": " dro",
  "3271": "add",
  "3272": "oses",
  "3273": " Saturday",
  "3274": " stories",
  "3275": " Net",
  "3276": " histor",
  "3277": " gas",
  "3278": " products",
  "3279": " surv",
  "3280": " looked",
  "3281": " sometimes",
  "3282": "nces",
  "3283": " stuff",
  "3284": " rout",
  "3285": " science",
  "3286": " finally",
  "3287": " user",
  "3288": "AM",
  "3289": " summer",
  "3290": " movie",
  "3291": " blood",
  "3292": "ospital",
  "3293": "aves",
  "3294": " communic",
  "3295": " aw",
  "3296": "ously",
  "3297": " lay",
  "3298": " changed",
  "3299": " ones",
  "3300": " leading",
  "3301": " described",
  "3302": " term",
  "3303": " Sand",
  "3304": " imag",
  "3305": " February",
  "3306": "fl",
  "3307": " prison",
  "3308": " convers",
  "3309": "ny",
  "3310": " details",
  "3311": "icks",
  "3312": " starting",
  "3313": " Spe",
  "3314": " quality",
  "3315": " occur",
  "3316": " pan",
  "3317": "hib",
  "3318": " showed",
  "3319": " named",
  "3320": " giving",
  "3321": " ult",
  "3322": " remains",
  "3323": " McC",
  "3324": "uing",
  "3325": " region",
  "3326": "pper",
  "3327": " provided",
  "3328": " costs",
  "3329": "akers",
  "3330": " Soc",
  "3331": "arr",
  "3332": " damage",
  "3333": " mob",
  "3334": " danger",
  "3335": " fit",
  "3336": "aught",
  "3337": " TH",
  "3338": " Tur",
  "3339": " chief",
  "3340": " poor",
  "3341": " path",
  "3342": " Mor",
  "3343": "ida",
  "3344": " education",
  "3345": " multiple",
  "3346": " continued",
  "3347": "enge",
  "3348": " Int",
  "3349": " growing",
  "3350": "No",
  "3351": " demonst",
  "3352": " *",
  "3353": " parts",
  "3354": " 26",
  "3355": " writing",
  "3356": " comments",
  "3357": " 28",
  "3358": " ment",
  "3359": "yl",
  "3360": " maintain",
  "3361": " safe",
  "3362": " assist",
  "3363": " thinking",
  "3364": " Des",
  "3365": "inary",
  "3366": " Republicans",
  "3367": " Even",
  "3368": " purp",
  "3369": " request",
  "3370": " write",
  "3371": " fix",
  "3372": " item",
  "3373": " purch",
  "3374": "ables",
  "3375": " died",
  "3376": " Democratic",
  "3377": " Coun",
  "3378": "FL",
  "3379": "ago",
  "3380": " ready",
  "3381": "coin",
  "3382": " wouldn",
  "3383": " implement",
  "3384": "23",
  "3385": " increased",
  "3386": " culture",
  "3387": "fort",
  "3388": " efforts",
  "3389": " voters",
  "3390": "ux",
  "3391": "pre",
  "3392": " camer",
  "3393": " mill",
  "3394": "aly",
  "3395": "....",
  "3396": "oper",
  "3397": " reading",
  "3398": "mitted",
  "3399": "iminal",
  "3400": " file",
  "3401": " usually",
  "3402": " calls",
  "3403": " spot",
  "3404": "Im",
  "3405": " effects",
  "3406": " Gener",
  "3407": "zz",
  "3408": " perhaps",
  "3409": "ban",
  "3410": " alone",
  "3411": "arian",
  "3412": "iles",
  "3413": " First",
  "3414": " although",
  "3415": " towards",
  "3416": "hest",
  "3417": " League",
  "3418": " consist",
  "3419": " Bill",
  "3420": " Texas",
  "3421": " select",
  "3422": " guys",
  "3423": " standard",
  "3424": " Michael",
  "3425": " subst",
  "3426": " cele",
  "3427": " beyond",
  "3428": " directly",
  "3429": " platform",
  "3430": " Chinese",
  "3431": " (@",
  "3432": " hous",
  "3433": "using",
  "3434": "itute",
  "3435": " speech",
  "3436": " reality",
  "3437": "egr",
  "3438": "icated",
  "3439": " kids",
  "3440": " James",
  "3441": " avoid",
  "3442": " throughout",
  "3443": " football",
  "3444": " student",
  "3445": "ara",
  "3446": " couldn",
  "3447": "rowd",
  "3448": "BI",
  "3449": " unf",
  "3450": "ford",
  "3451": " immediately",
  "3452": "oul",
  "3453": " rob",
  "3454": " Ne",
  "3455": " includes",
  "3456": " cat",
  "3457": " concept",
  "3458": " center",
  "3459": " choice",
  "3460": " scene",
  "3461": " complex",
  "3462": "anch",
  "3463": " additional",
  "3464": "sp",
  "3465": " Mon",
  "3466": " challeng",
  "3467": " Cons",
  "3468": " wife",
  "3469": " clos",
  "3470": "urt",
  "3471": " tro",
  "3472": " recomm",
  "3473": " researc",
  "3474": "Re",
  "3475": " epis",
  "3476": "itor",
  "3477": "All",
  "3478": " ver",
  "3479": " Minister",
  "3480": "urg",
  "3481": " sle",
  "3482": " corpor",
  "3483": " …",
  "3484": " designed",
  "3485": " Ser",
  "3486": "agon",
  "3487": " remember",
  "3488": " software",
  "3489": " safety",
  "3490": " Indian",
  "3491": "wise",
  "3492": " gone",
  "3493": " il",
  "3494": "astic",
  "3495": "ports",
  "3496": " cast",
  "3497": " sell",
  "3498": " toward",
  "3499": " agency",
  "3500": " ten",
  "3501": " officer",
  "3502": "aches",
  "3503": " figure",
  "3504": " piece",
  "3505": " brain",
  "3506": "omen",
  "3507": " battle",
  "3508": " Jack",
  "3509": " counter",
  "3510": "men",
  "3511": " debate",
  "3512": "airs",
  "3513": "ression",
  "3514": "ston",
  "3515": " thousands",
  "3516": "adem",
  "3517": " swe",
  "3518": "rupt",
  "3519": " opin",
  "3520": " ahead",
  "3521": "icient",
  "3522": "Now",
  "3523": "imum",
  "3524": " relative",
  "3525": "irth",
  "3526": " letter",
  "3527": " receive",
  "3528": " pressure",
  "3529": " Bo",
  "3530": " �",
  "3531": " blog",
  "3532": "ilies",
  "3533": "ampions",
  "3534": " >",
  "3535": " sil",
  "3536": " moved",
  "3537": " launch",
  "3538": " appears",
  "3539": " option",
  "3540": " Play",
  "3541": " passed",
  "3542": " ut",
  "3543": " prec",
  "3544": " stage",
  "3545": "roy",
  "3546": "oes",
  "3547": " 60",
  "3548": " clean",
  "3549": " Serv",
  "3550": "olute",
  "3551": " II",
  "3552": "atever",
  "3553": "berg",
  "3554": "OT",
  "3555": " property",
  "3556": "27",
  "3557": " helped",
  "3558": " drive",
  "3559": " Apple",
  "3560": "just",
  "3561": " alleged",
  "3562": " Green",
  "3563": " twe",
  "3564": "new",
  "3565": " disapp",
  "3566": " tour",
  "3567": " meaning",
  "3568": " rock",
  "3569": " dog",
  "3570": "amb",
  "3571": " x",
  "3572": " cris",
  "3573": "itation",
  "3574": " Associ",
  "3575": " suspect",
  "3576": " date",
  "3577": " Rich",
  "3578": "aughter",
  "3579": " moving",
  "3580": " score",
  "3581": " Democrats",
  "3582": " organization",
  "3583": " sat",
  "3584": " conditions",
  "3585": " touch",
  "3586": " dark",
  "3587": " command",
  "3588": " Then",
  "3589": " ign",
  "3590": "?\"",
  "3591": " reasons",
  "3592": " budget",
  "3593": " park",
  "3594": "more",
  "3595": " nuclear",
  "3596": " myself",
  "3597": " nom",
  "3598": " deg",
  "3599": " happy",
  "3600": " device",
  "3601": " difference",
  "3602": "rief",
  "3603": " Sim",
  "3604": " maybe",
  "3605": " beginning",
  "3606": "AD",
  "3607": " copy",
  "3608": " nature",
  "3609": " failed",
  "3610": "wood",
  "3611": " fan",
  "3612": " characters",
  "3613": "yan",
  "3614": " computer",
  "3615": " encour",
  "3616": " aim",
  "3617": " Mart",
  "3618": " title",
  "3619": " wall",
  "3620": " compared",
  "3621": " league",
  "3622": "ocked",
  "3623": "ean",
  "3624": " Super",
  "3625": "ivity",
  "3626": " estim",
  "3627": " Val",
  "3628": " Star",
  "3629": " college",
  "3630": " eyes",
  "3631": " shown",
  "3632": " English",
  "3633": " century",
  "3634": " powerful",
  "3635": " Day",
  "3636": "lease",
  "3637": "ource",
  "3638": " bal",
  "3639": "aint",
  "3640": " limited",
  "3641": " yes",
  "3642": " band",
  "3643": " contribut",
  "3644": " positive",
  "3645": " forced",
  "3646": " necessary",
  "3647": " Che",
  "3648": " refer",
  "3649": " candidate",
  "3650": " stra",
  "3651": " disp",
  "3652": "35",
  "3653": "cient",
  "3654": " books",
  "3655": " trust",
  "3656": "AP",
  "3657": " French",
  "3658": " largest",
  "3659": "26",
  "3660": " arch",
  "3661": "enty",
  "3662": " sal",
  "3663": " Here",
  "3664": "aud",
  "3665": " conference",
  "3666": " Rober",
  "3667": " note",
  "3668": " analysis",
  "3669": "ufact",
  "3670": " spending",
  "3671": " presidential",
  "3672": "45",
  "3673": " Of",
  "3674": " citizens",
  "3675": "orks",
  "3676": " schools",
  "3677": "igration",
  "3678": " Syria",
  "3679": " throw",
  "3680": "venue",
  "3681": " Ben",
  "3682": " aware",
  "3683": " meant",
  "3684": " executive",
  "3685": " eventually",
  "3686": "My",
  "3687": " physical",
  "3688": " followed",
  "3689": " feature",
  "3690": "ares",
  "3691": " firm",
  "3692": " treatment",
  "3693": " crowd",
  "3694": " Tor",
  "3695": " Wind",
  "3696": " streng",
  "3697": " mix",
  "3698": " confir",
  "3699": " bott",
  "3700": "ero",
  "3701": " correct",
  "3702": "orney",
  "3703": " 29",
  "3704": " Dis",
  "3705": " grad",
  "3706": " religious",
  "3707": " easily",
  "3708": " autom",
  "3709": " esc",
  "3710": " pus",
  "3711": "band",
  "3712": "board",
  "3713": "Is",
  "3714": " cool",
  "3715": "etro",
  "3716": " 196",
  "3717": " families",
  "3718": " illeg",
  "3719": "ressed",
  "3720": "craft",
  "3721": "cul",
  "3722": "rated",
  "3723": " actions",
  "3724": " overall",
  "3725": " Air",
  "3726": " Mex",
  "3727": " allows",
  "3728": " gives",
  "3729": " feed",
  "3730": " £",
  "3731": "):",
  "3732": " susp",
  "3733": "ube",
  "3734": " yourself",
  "3735": "By",
  "3736": " draft",
  "3737": "bum",
  "3738": "ken",
  "3739": " smart",
  "3740": " appeared",
  "3741": " detail",
  "3742": " income",
  "3743": "iring",
  "3744": " analy",
  "3745": " Bel",
  "3746": " signed",
  "3747": "New",
  "3748": "encies",
  "3749": " central",
  "3750": " ideas",
  "3751": " ang",
  "3752": " Govern",
  "3753": " senior",
  "3754": "Advertisement",
  "3755": " frequ",
  "3756": " weapons",
  "3757": "ID",
  "3758": "inn",
  "3759": " display",
  "3760": " har",
  "3761": " promot",
  "3762": " nice",
  "3763": " credit",
  "3764": " decades",
  "3765": " psych",
  "3766": " politics",
  "3767": "Don",
  "3768": " Bre",
  "3769": " crime",
  "3770": "OM",
  "3771": "EC",
  "3772": "chan",
  "3773": " uses",
  "3774": " door",
  "3775": " dise",
  "3776": "uty",
  "3777": " International",
  "3778": " unique",
  "3779": "28",
  "3780": " altern",
  "3781": " lif",
  "3782": "According",
  "3783": " drop",
  "3784": " sales",
  "3785": "mar",
  "3786": " developed",
  "3787": "Ar",
  "3788": "resh",
  "3789": " customers",
  "3790": "ET",
  "3791": " benefits",
  "3792": " conflic",
  "3793": "urance",
  "3794": " related",
  "3795": " crisis",
  "3796": " School",
  "3797": " mist",
  "3798": "erry",
  "3799": "iable",
  "3800": " predict",
  "3801": " noted",
  "3802": " Cap",
  "3803": "29",
  "3804": " Australia",
  "3805": " EU",
  "3806": " truth",
  "3807": "box",
  "3808": "part",
  "3809": " goals",
  "3810": "iny",
  "3811": " individuals",
  "3812": " charge",
  "3813": " Earth",
  "3814": " beaut",
  "3815": " continues",
  "3816": "onents",
  "3817": " Union",
  "3818": " Arab",
  "3819": " observ",
  "3820": " rap",
  "3821": " challenge",
  "3822": " sto",
  "3823": "nown",
  "3824": " apparent",
  "3825": " Angel",
  "3826": "itely",
  "3827": " Smith",
  "3828": "Be",
  "3829": " lic",
  "3830": " projects",
  "3831": " peace",
  "3832": " measure",
  "3833": " Police",
  "3834": "oti",
  "3835": " intelligence",
  "3836": " Christian",
  "3837": " previously",
  "3838": " Germany",
  "3839": " fully",
  "3840": " rule",
  "3841": " manager",
  "3842": " brother",
  "3843": " rates",
  "3844": " advant",
  "3845": "Un",
  "3846": "change",
  "3847": " expand",
  "3848": " clearly",
  "3849": " reform",
  "3850": " lines",
  "3851": "net",
  "3852": " successful",
  "3853": "riage",
  "3854": " highly",
  "3855": " larger",
  "3856": "ounds",
  "3857": " traff",
  "3858": " spread",
  "3859": "iance",
  "3860": " seemed",
  "3861": " Council",
  "3862": " straight",
  "3863": "Some",
  "3864": " criminal",
  "3865": " Comp",
  "3866": " minor",
  "3867": " emb",
  "3868": " George",
  "3869": " programs",
  "3870": "iced",
  "3871": "attle",
  "3872": "owers",
  "3873": " Franc",
  "3874": " incident",
  "3875": " resources",
  "3876": "21",
  "3877": " Tom",
  "3878": " greater",
  "3879": " primary",
  "3880": "IA",
  "3881": "inated",
  "3882": "antly",
  "3883": " knowledge",
  "3884": "Pro",
  "3885": " studies",
  "3886": "while",
  "3887": "dom",
  "3888": " save",
  "3889": "orter",
  "3890": " web",
  "3891": "ategy",
  "3892": " kept",
  "3893": " attract",
  "3894": " Flor",
  "3895": "ki",
  "3896": "olic",
  "3897": " spir",
  "3898": " emot",
  "3899": "que",
  "3900": " color",
  "3901": " feet",
  "3902": " Cr",
  "3903": "sey",
  "3904": " rare",
  "3905": " reached",
  "3906": " arm",
  "3907": " Ant",
  "3908": "secut",
  "3909": " High",
  "3910": "levision",
  "3911": " Internet",
  "3912": " Brown",
  "3913": "oday",
  "3914": "iders",
  "3915": "osh",
  "3916": " favorite",
  "3917": " places",
  "3918": "rs",
  "3919": " Rec",
  "3920": " regular",
  "3921": "wide",
  "3922": "ota",
  "3923": "vere",
  "3924": " Ham",
  "3925": " manufact",
  "3926": " laun",
  "3927": " Def",
  "3928": "100",
  "3929": " send",
  "3930": " prem",
  "3931": "term",
  "3932": "roll",
  "3933": "lick",
  "3934": "icit",
  "3935": " knows",
  "3936": " shooting",
  "3937": " activity",
  "3938": " pun",
  "3939": " sources",
  "3940": " normal",
  "3941": "icago",
  "3942": "bon",
  "3943": "ingly",
  "3944": "onent",
  "3945": "ser",
  "3946": " status",
  "3947": " fighting",
  "3948": "ville",
  "3949": " voice",
  "3950": " rise",
  "3951": "ocks",
  "3952": " fine",
  "3953": " owners",
  "3954": " caused",
  "3955": " claimed",
  "3956": " Mac",
  "3957": " enem",
  "3958": " liter",
  "3959": " Rob",
  "3960": " Up",
  "3961": " General",
  "3962": "aith",
  "3963": "EO",
  "3964": " options",
  "3965": " 2007",
  "3966": " integr",
  "3967": "ength",
  "3968": "usion",
  "3969": " spend",
  "3970": " Gold",
  "3971": "ado",
  "3972": " cities",
  "3973": "miss",
  "3974": " organiz",
  "3975": "ING",
  "3976": " ended",
  "3977": "iled",
  "3978": " researchers",
  "3979": " calling",
  "3980": " shut",
  "3981": " reflect",
  "3982": " La",
  "3983": "org",
  "3984": "mission",
  "3985": "mark",
  "3986": "”,",
  "3987": "oles",
  "3988": "70",
  "3989": "roid",
  "3990": " prices",
  "3991": " Every",
  "3992": " album",
  "3993": " From",
  "3994": "ifying",
  "3995": " employees",
  "3996": " female",
  "3997": " England",
  "3998": "www",
  "3999": "ya",
  "4000": " virt",
  "4001": " haven",
  "4002": " raised",
  "4003": "mittee",
  "4004": " ele",
  "4005": " jump",
  "4006": "uana",
  "4007": "33",
  "4008": " supposed",
  "4009": "itness",
  "4010": " happens",
  "4011": " adding",
  "4012": " policies",
  "4013": " names",
  "4014": " charges",
  "4015": " pros",
  "4016": " trou",
  "4017": "ica",
  "4018": "ribution",
  "4019": " basic",
  "4020": "inger",
  "4021": "iverse",
  "4022": "uman",
  "4023": "Not",
  "4024": " Mag",
  "4025": " concerns",
  "4026": " traditional",
  "4027": " wait",
  "4028": " plant",
  "4029": " absolute",
  "4030": " acqu",
  "4031": " hospital",
  "4032": " funding",
  "4033": "ram",
  "4034": " Bay",
  "4035": " print",
  "4036": " slight",
  "4037": " commer",
  "4038": "rol",
  "4039": " patients",
  "4040": " authorities",
  "4041": " minister",
  "4042": "Sc",
  "4043": " creating",
  "4044": " freedom",
  "4045": " AP",
  "4046": " mechan",
  "4047": " scen",
  "4048": " Mo",
  "4049": " style",
  "4050": " seeing",
  "4051": " grand",
  "4052": ".’",
  "4053": " beat",
  "4054": " lik",
  "4055": "ona",
  "4056": "rian",
  "4057": " station",
  "4058": " Scott",
  "4059": "see",
  "4060": " push",
  "4061": "ijuana",
  "4062": " behavior",
  "4063": " leaving",
  "4064": " cry",
  "4065": " impl",
  "4066": " birth",
  "4067": " ir",
  "4068": " actual",
  "4069": "EL",
  "4070": " ensure",
  "4071": " offered",
  "4072": "pen",
  "4073": " agreement",
  "4074": " Florida",
  "4075": " eth",
  "4076": "soft",
  "4077": " Hillary",
  "4078": " posted",
  "4079": " Reg",
  "4080": " gold",
  "4081": " Sun",
  "4082": " weekend",
  "4083": " green",
  "4084": " Most",
  "4085": " Ber",
  "4086": " adult",
  "4087": "alse",
  "4088": " weight",
  "4089": "OU",
  "4090": ".'",
  "4091": "acing",
  "4092": " determin",
  "4093": " vac",
  "4094": "Here",
  "4095": " revealed",
  "4096": " Well",
  "4097": " application",
  "4098": " mostly",
  "4099": " values",
  "4100": " propos",
  "4101": "itude",
  "4102": " Alex",
  "4103": "aby",
  "4104": " willing",
  "4105": "earch",
  "4106": " rank",
  "4107": " adop",
  "4108": " According",
  "4109": " establ",
  "4110": " eye",
  "4111": " records",
  "4112": "ection",
  "4113": "•",
  "4114": "500",
  "4115": " enforce",
  "4116": "http",
  "4117": " picture",
  "4118": " believed",
  "4119": "pri",
  "4120": " mer",
  "4121": "uild",
  "4122": " brief",
  "4123": " Let",
  "4124": " learned",
  "4125": " Law",
  "4126": " install",
  "4127": " strategy",
  "4128": " appl",
  "4129": "igned",
  "4130": " choose",
  "4131": "istry",
  "4132": "SA",
  "4133": " dire",
  "4134": " wonder",
  "4135": " qual",
  "4136": " massive",
  "4137": " devices",
  "4138": " benefit",
  "4139": " wild",
  "4140": " parties",
  "4141": " Chicago",
  "4142": " lawy",
  "4143": " People",
  "4144": " uns",
  "4145": "cher",
  "4146": " cars",
  "4147": " Trans",
  "4148": " Port",
  "4149": "cont",
  "4150": " Phil",
  "4151": " arrested",
  "4152": " mount",
  "4153": " whatever",
  "4154": " wat",
  "4155": " Oh",
  "4156": " France",
  "4157": " street",
  "4158": " ;",
  "4159": " provides",
  "4160": " whom",
  "4161": " assault",
  "4162": "90",
  "4163": "liament",
  "4164": " asking",
  "4165": " influence",
  "4166": "ties",
  "4167": " judge",
  "4168": " lose",
  "4169": " fat",
  "4170": " feeling",
  "4171": " operations",
  "4172": " produced",
  "4173": " temper",
  "4174": "ste",
  "4175": " critical",
  "4176": " Secret",
  "4177": " Lou",
  "4178": " negoti",
  "4179": "point",
  "4180": " mission",
  "4181": " enter",
  "4182": " Bush",
  "4183": "Ex",
  "4184": " images",
  "4185": "о",
  "4186": " Stud",
  "4187": " confirmed",
  "4188": " showing",
  "4189": "IL",
  "4190": " district",
  "4191": "ription",
  "4192": " runs",
  "4193": " pattern",
  "4194": " tend",
  "4195": " Mat",
  "4196": " border",
  "4197": " residents",
  "4198": "orial",
  "4199": "udd",
  "4200": "rav",
  "4201": " debt",
  "4202": "However",
  "4203": " �",
  "4204": "aked",
  "4205": "gen",
  "4206": " cru",
  "4207": " teac",
  "4208": " Committee",
  "4209": "mine",
  "4210": " opposition",
  "4211": "Cl",
  "4212": " celebr",
  "4213": " Wall",
  "4214": " Health",
  "4215": " section",
  "4216": " defend",
  "4217": " etc",
  "4218": "estic",
  "4219": " produce",
  "4220": "icial",
  "4221": " Commission",
  "4222": " drink",
  "4223": " independent",
  "4224": " Mod",
  "4225": "ront",
  "4226": "cell",
  "4227": " Why",
  "4228": " brand",
  "4229": "ented",
  "4230": "ags",
  "4231": "ugg",
  "4232": " core",
  "4233": " Press",
  "4234": " tick",
  "4235": " digital",
  "4236": " Bit",
  "4237": " hero",
  "4238": " advoc",
  "4239": "ae",
  "4240": " dollars",
  "4241": "ocr",
  "4242": "rial",
  "4243": " effective",
  "4244": " solution",
  "4245": " Mal",
  "4246": " vill",
  "4247": " interested",
  "4248": " Sam",
  "4249": " Korea",
  "4250": "BA",
  "4251": " highest",
  "4252": "irg",
  "4253": "ords",
  "4254": " memory",
  "4255": " opening",
  "4256": " worse",
  "4257": " learning",
  "4258": " responsible",
  "4259": " trial",
  "4260": " daily",
  "4261": " kick",
  "4262": " theory",
  "4263": " Other",
  "4264": " offers",
  "4265": " Palest",
  "4266": "me",
  "4267": " replace",
  "4268": " restrict",
  "4269": " Get",
  "4270": " mur",
  "4271": " Office",
  "4272": " agreed",
  "4273": " television",
  "4274": " Francis",
  "4275": "cience",
  "4276": " Micro",
  "4277": " Because",
  "4278": " occas",
  "4279": "ST",
  "4280": "illing",
  "4281": "CC",
  "4282": " train",
  "4283": " investment",
  "4284": " vs",
  "4285": " types",
  "4286": "iation",
  "4287": " Western",
  "4288": "aks",
  "4289": "icians",
  "4290": " chair",
  "4291": " miles",
  "4292": " millions",
  "4293": "no",
  "4294": "uries",
  "4295": " chem",
  "4296": " Justice",
  "4297": " Del",
  "4298": " generally",
  "4299": " basis",
  "4300": " proposed",
  "4301": " 80",
  "4302": " Mike",
  "4303": " Mil",
  "4304": " Cup",
  "4305": "These",
  "4306": "ipe",
  "4307": " heavy",
  "4308": " explained",
  "4309": " map",
  "4310": " Our",
  "4311": "AA",
  "4312": "rad",
  "4313": " der",
  "4314": " bur",
  "4315": "oly",
  "4316": " Add",
  "4317": " partners",
  "4318": "ander",
  "4319": " opinion",
  "4320": "win",
  "4321": " defe",
  "4322": " onto",
  "4323": " protest",
  "4324": "Con",
  "4325": "________",
  "4326": "Get",
  "4327": " associated",
  "4328": " load",
  "4329": "rig",
  "4330": "azing",
  "4331": " NFL",
  "4332": "rate",
  "4333": "oom",
  "4334": "44",
  "4335": " Found",
  "4336": " male",
  "4337": " becomes",
  "4338": " reject",
  "4339": "outhern",
  "4340": "====",
  "4341": " Security",
  "4342": "vest",
  "4343": " coal",
  "4344": " obtain",
  "4345": " destroy",
  "4346": " advantage",
  "4347": " assum",
  "4348": " Liber",
  "4349": " condition",
  "4350": " announce",
  "4351": " hundreds",
  "4352": " achieve",
  "4353": " opened",
  "4354": "eline",
  "4355": " understanding",
  "4356": "odes",
  "4357": " Johnson",
  "4358": "coming",
  "4359": "icip",
  "4360": " surround",
  "4361": "ading",
  "4362": "bert",
  "4363": "orthern",
  "4364": "well",
  "4365": "upp",
  "4366": " initial",
  "4367": " Att",
  "4368": " Big",
  "4369": " sleep",
  "4370": "36",
  "4371": " ship",
  "4372": " marriage",
  "4373": " management",
  "4374": " Windows",
  "4375": " thus",
  "4376": " limit",
  "4377": " born",
  "4378": " becoming",
  "4379": "known",
  "4380": " photo",
  "4381": " easier",
  "4382": "FC",
  "4383": " Great",
  "4384": " rat",
  "4385": " legislation",
  "4386": " controvers",
  "4387": " unlike",
  "4388": " electric",
  "4389": " Many",
  "4390": "32",
  "4391": " camera",
  "4392": "witch",
  "4393": " accused",
  "4394": " spl",
  "4395": " neighbor",
  "4396": " double",
  "4397": " ice",
  "4398": " species",
  "4399": " shared",
  "4400": "lant",
  "4401": " join",
  "4402": " illegal",
  "4403": " 31",
  "4404": " Lab",
  "4405": " 2006",
  "4406": "Mr",
  "4407": " harm",
  "4408": " machine",
  "4409": " served",
  "4410": " Jer",
  "4411": "GB",
  "4412": " extremely",
  "4413": "olf",
  "4414": " active",
  "4415": " 35",
  "4416": " serve",
  "4417": " documents",
  "4418": " Islamic",
  "4419": " frame",
  "4420": " strik",
  "4421": "level",
  "4422": "za",
  "4423": " Dist",
  "4424": " audience",
  "4425": "BS",
  "4426": " location",
  "4427": " AM",
  "4428": " scientists",
  "4429": " bottom",
  "4430": " victims",
  "4431": " Art",
  "4432": "orrow",
  "4433": " wealth",
  "4434": " professional",
  "4435": " resist",
  "4436": "ih",
  "4437": " reduce",
  "4438": " belief",
  "4439": " nine",
  "4440": " solid",
  "4441": " winning",
  "4442": " marijuana",
  "4443": "ears",
  "4444": " Uk",
  "4445": " negative",
  "4446": "75",
  "4447": "iful",
  "4448": " communities",
  "4449": " returned",
  "4450": "ortunately",
  "4451": " bed",
  "4452": " incred",
  "4453": " PM",
  "4454": " Institute",
  "4455": "met",
  "4456": "tered",
  "4457": " church",
  "4458": "PS",
  "4459": " department",
  "4460": " Sanders",
  "4461": " ran",
  "4462": "irgin",
  "4463": " victory",
  "4464": "rey",
  "4465": " purpose",
  "4466": " 90",
  "4467": " Commun",
  "4468": " amb",
  "4469": "lands",
  "4470": " vehicle",
  "4471": " internet",
  "4472": " leadership",
  "4473": "ios",
  "4474": " Hall",
  "4475": "istics",
  "4476": " bomb",
  "4477": " mobile",
  "4478": "ghan",
  "4479": " instance",
  "4480": "ipped",
  "4481": "38",
  "4482": " separate",
  "4483": " existing",
  "4484": " notice",
  "4485": " hearing",
  "4486": " die",
  "4487": " explain",
  "4488": " doubt",
  "4489": " faith",
  "4490": " teach",
  "4491": "house",
  "4492": " Your",
  "4493": "atically",
  "4494": " episode",
  "4495": " watching",
  "4496": " comfort",
  "4497": " Canadian",
  "4498": " Bank",
  "4499": " notes",
  "4500": " radio",
  "4501": " Ev",
  "4502": " fresh",
  "4503": " Fin",
  "4504": " unc",
  "4505": " views",
  "4506": " Inc",
  "4507": " putting",
  "4508": "asy",
  "4509": " Sl",
  "4510": " supporters",
  "4511": " conservative",
  "4512": " purs",
  "4513": " argument",
  "4514": "omas",
  "4515": " micro",
  "4516": "ario",
  "4517": "acity",
  "4518": " launched",
  "4519": "scrib",
  "4520": "works",
  "4521": "OL",
  "4522": " appeal",
  "4523": "iliar",
  "4524": " items",
  "4525": " committee",
  "4526": "resp",
  "4527": " Mad",
  "4528": "which",
  "4529": " definitely",
  "4530": " dangerous",
  "4531": "iller",
  "4532": "zen",
  "4533": "PA",
  "4534": " coverage",
  "4535": " direction",
  "4536": " Over",
  "4537": " charged",
  "4538": " floor",
  "4539": " sun",
  "4540": " max",
  "4541": "ography",
  "4542": "34",
  "4543": "EM",
  "4544": " Carol",
  "4545": " Church",
  "4546": " Fox",
  "4547": " issued",
  "4548": " drugs",
  "4549": "Image",
  "4550": "ipp",
  "4551": " task",
  "4552": " background",
  "4553": " competition",
  "4554": " trend",
  "4555": " stated",
  "4556": "vention",
  "4557": "andom",
  "4558": "ada",
  "4559": " traffic",
  "4560": " FBI",
  "4561": " commercial",
  "4562": " Direct",
  "4563": "itt",
  "4564": "urb",
  "4565": " spoke",
  "4566": " sett",
  "4567": "inct",
  "4568": " transfer",
  "4569": " suggested",
  "4570": " structure",
  "4571": " sites",
  "4572": " hus",
  "4573": " north",
  "4574": " Since",
  "4575": " Like",
  "4576": " restaur",
  "4577": "ampionship",
  "4578": " labor",
  "4579": " decade",
  "4580": " repeated",
  "4581": " Game",
  "4582": " react",
  "4583": "oman",
  "4584": " cards",
  "4585": " animals",
  "4586": "going",
  "4587": " novel",
  "4588": "ctors",
  "4589": "but",
  "4590": "NA",
  "4591": "ribute",
  "4592": " daughter",
  "4593": "anted",
  "4594": " driving",
  "4595": " closed",
  "4596": " worst",
  "4597": " contain",
  "4598": " entirely",
  "4599": " ded",
  "4600": " Britain",
  "4601": "Bl",
  "4602": "ady",
  "4603": "gency",
  "4604": " driver",
  "4605": " Wil",
  "4606": " disease",
  "4607": " telling",
  "4608": "iling",
  "4609": " smaller",
  "4610": " discovered",
  "4611": " nor",
  "4612": "akistan",
  "4613": " refere",
  "4614": " Pri",
  "4615": "Americ",
  "4616": " Los",
  "4617": "ius",
  "4618": " hack",
  "4619": "equ",
  "4620": "!”",
  "4621": "ference",
  "4622": " Que",
  "4623": "spe",
  "4624": " false",
  "4625": " cash",
  "4626": " concerned",
  "4627": "ulf",
  "4628": " plays",
  "4629": " surface",
  "4630": "semb",
  "4631": " supported",
  "4632": "annel",
  "4633": "ulated",
  "4634": " tools",
  "4635": "oyal",
  "4636": " compar",
  "4637": " transport",
  "4638": " Chris",
  "4639": " experiment",
  "4640": " finding",
  "4641": "night",
  "4642": " categ",
  "4643": "�",
  "4644": "ait",
  "4645": " aspect",
  "4646": "##",
  "4647": " businesses",
  "4648": " 70",
  "4649": " UN",
  "4650": " farm",
  "4651": " please",
  "4652": " older",
  "4653": "azon",
  "4654": "how",
  "4655": " activities",
  "4656": " requires",
  "4657": "phone",
  "4658": "CH",
  "4659": " gay",
  "4660": " Jones",
  "4661": "ibrary",
  "4662": " strength",
  "4663": "48",
  "4664": " wel",
  "4665": "andon",
  "4666": " insurance",
  "4667": " consequ",
  "4668": "37",
  "4669": " largely",
  "4670": " murder",
  "4671": "NN",
  "4672": "ici",
  "4673": "do",
  "4674": "55",
  "4675": " exerc",
  "4676": " caught",
  "4677": " candidates",
  "4678": "kins",
  "4679": " Israeli",
  "4680": " allowing",
  "4681": "icy",
  "4682": " blue",
  "4683": " Are",
  "4684": " annual",
  "4685": " Ken",
  "4686": " testing",
  "4687": "ossible",
  "4688": " strateg",
  "4689": " Sup",
  "4690": " raise",
  "4691": " stock",
  "4692": "arant",
  "4693": "overy",
  "4694": " Robert",
  "4695": "izes",
  "4696": " decisions",
  "4697": " accur",
  "4698": "rick",
  "4699": " context",
  "4700": " fuel",
  "4701": " Ac",
  "4702": "SP",
  "4703": "osure",
  "4704": "lor",
  "4705": " Ukrain",
  "4706": " concern",
  "4707": " afford",
  "4708": " believes",
  "4709": " construction",
  "4710": " truly",
  "4711": "****",
  "4712": " Ty",
  "4713": " Miss",
  "4714": " ge",
  "4715": " justice",
  "4716": "igrants",
  "4717": " generation",
  "4718": " highlight",
  "4719": " Tre",
  "4720": " unit",
  "4721": "rim",
  "4722": "ey",
  "4723": " presence",
  "4724": " Jewish",
  "4725": "anging",
  "4726": "!!",
  "4727": " Sil",
  "4728": "а",
  "4729": "tery",
  "4730": "е",
  "4731": "ception",
  "4732": " Africa",
  "4733": " guess",
  "4734": "ancy",
  "4735": " witness",
  "4736": "itable",
  "4737": " holding",
  "4738": " Gree",
  "4739": " establish",
  "4740": " length",
  "4741": " planning",
  "4742": "bre",
  "4743": "ava",
  "4744": " African",
  "4745": " sequ",
  "4746": "cknow",
  "4747": " refuge",
  "4748": " placed",
  "4749": " catch",
  "4750": " Afghan",
  "4751": " san",
  "4752": "inter",
  "4753": " Association",
  "4754": " tells",
  "4755": "‘",
  "4756": " scale",
  "4757": " spokesman",
  "4758": " tim",
  "4759": "nel",
  "4760": " rough",
  "4761": " attend",
  "4762": "olly",
  "4763": " Ver",
  "4764": " cells",
  "4765": " joined",
  "4766": " mentioned",
  "4767": " interests",
  "4768": " abuse",
  "4769": "pective",
  "4770": " Jim",
  "4771": " Pre",
  "4772": "More",
  "4773": " hasn",
  "4774": " PC",
  "4775": "Le",
  "4776": " initi",
  "4777": " enforcement",
  "4778": " kid",
  "4779": " GOP",
  "4780": " introduced",
  "4781": " deliver",
  "4782": " conflict",
  "4783": " Mer",
  "4784": " Microsoft",
  "4785": " phil",
  "4786": "——",
  "4787": " update",
  "4788": " missing",
  "4789": "ros",
  "4790": " providing",
  "4791": " waiting",
  "4792": " cancer",
  "4793": "la",
  "4794": "39",
  "4795": " recommend",
  "4796": "ocracy",
  "4797": " established",
  "4798": "isation",
  "4799": " eat",
  "4800": "bour",
  "4801": " Yes",
  "4802": " occup",
  "4803": " Frank",
  "4804": " Jeff",
  "4805": " Angeles",
  "4806": " removed",
  "4807": " 2005",
  "4808": "ula",
  "4809": " offensive",
  "4810": " Fore",
  "4811": " Instead",
  "4812": "icon",
  "4813": " injury",
  "4814": " sports",
  "4815": "47",
  "4816": " fant",
  "4817": " discussion",
  "4818": "vant",
  "4819": " operation",
  "4820": " download",
  "4821": " useful",
  "4822": " newsp",
  "4823": " conversation",
  "4824": " homes",
  "4825": "ronic",
  "4826": " south",
  "4827": " cook",
  "4828": " CEO",
  "4829": " assess",
  "4830": "itz",
  "4831": " Group",
  "4832": "formation",
  "4833": "lig",
  "4834": " banks",
  "4835": "onto",
  "4836": " stopped",
  "4837": " Step",
  "4838": " Const",
  "4839": " obvious",
  "4840": "ications",
  "4841": " measures",
  "4842": " models",
  "4843": " Kh",
  "4844": " fourth",
  "4845": " MP",
  "4846": "Our",
  "4847": "season",
  "4848": "what",
  "4849": " bul",
  "4850": "DA",
  "4851": "anda",
  "4852": " 2018",
  "4853": " files",
  "4854": " girls",
  "4855": " Louis",
  "4856": " stick",
  "4857": "cks",
  "4858": "azine",
  "4859": "mail",
  "4860": "umn",
  "4861": " managed",
  "4862": "iter",
  "4863": "apped",
  "4864": "rd",
  "4865": " Palestin",
  "4866": "oted",
  "4867": " figures",
  "4868": "oms",
  "4869": " Tim",
  "4870": " Leg",
  "4871": " identified",
  "4872": " graph",
  "4873": " Jud",
  "4874": " Sal",
  "4875": " finished",
  "4876": " funds",
  "4877": "Pl",
  "4878": " Pakistan",
  "4879": "real",
  "4880": " setting",
  "4881": " conclud",
  "4882": " prefer",
  "4883": " hair",
  "4884": " committed",
  "4885": " Mexico",
  "4886": "49",
  "4887": " skills",
  "4888": "kin",
  "4889": " appropri",
  "4890": " spirit",
  "4891": " Rock",
  "4892": " veter",
  "4893": " focused",
  "4894": " arrived",
  "4895": " THE",
  "4896": " housing",
  "4897": " keeping",
  "4898": " Virgin",
  "4899": " therefore",
  "4900": " acknow",
  "4901": " detect",
  "4902": "ulate",
  "4903": "Des",
  "4904": " partner",
  "4905": " exclus",
  "4906": "igan",
  "4907": " Android",
  "4908": "enses",
  "4909": "ups",
  "4910": " earth",
  "4911": " transl",
  "4912": "outs",
  "4913": "place",
  "4914": " tough",
  "4915": " Japanese",
  "4916": " 2000",
  "4917": " relatively",
  "4918": "á",
  "4919": " Supreme",
  "4920": "owl",
  "4921": "wing",
  "4922": " identity",
  "4923": " feels",
  "4924": " Met",
  "4925": " otherwise",
  "4926": " survey",
  "4927": " Ryan",
  "4928": "ocal",
  "4929": "RA",
  "4930": "ication",
  "4931": "itutional",
  "4932": " protection",
  "4933": "agn",
  "4934": " exchange",
  "4935": " owner",
  "4936": "isf",
  "4937": "Trump",
  "4938": " steps",
  "4939": " trip",
  "4940": "imb",
  "4941": " husband",
  "4942": " Inter",
  "4943": " Mont",
  "4944": " tweet",
  "4945": " connection",
  "4946": " Army",
  "4947": " slightly",
  "4948": " Prof",
  "4949": "eah",
  "4950": " weak",
  "4951": " Government",
  "4952": "verse",
  "4953": "\":",
  "4954": " circum",
  "4955": " elements",
  "4956": " click",
  "4957": " Richard",
  "4958": " strike",
  "4959": " photos",
  "4960": " mere",
  "4961": " defensive",
  "4962": "dden",
  "4963": " gain",
  "4964": " fle",
  "4965": " depend",
  "4966": "ucky",
  "4967": " collection",
  "4968": "onym",
  "4969": "hens",
  "4970": "gar",
  "4971": " killing",
  "4972": " roll",
  "4973": "ighter",
  "4974": "Go",
  "4975": " corner",
  "4976": " Martin",
  "4977": "ancing",
  "4978": "odies",
  "4979": " suggests",
  "4980": "uct",
  "4981": " aggress",
  "4982": "with",
  "4983": "prof",
  "4984": "ka",
  "4985": " guard",
  "4986": "Photo",
  "4987": " gender",
  "4988": "makers",
  "4989": " College",
  "4990": " commission",
  "4991": " Although",
  "4992": "range",
  "4993": " dat",
  "4994": " Sur",
  "4995": "46",
  "4996": " Ir",
  "4997": " Dec",
  "4998": " mental",
  "4999": "icide",
  "5000": "rees",
  "5001": " amazing",
  "5002": " Sub",
  "5003": " planet",
  "5004": "hi",
  "5005": " Team",
  "5006": "rency",
  "5007": " Out",
  "5008": " bigger",
  "5009": "ym",
  "5010": " failure",
  "5011": " Jose",
  "5012": " supply",
  "5013": "Why",
  "5014": "ania",
  "5015": " Nor",
  "5016": " starts",
  "5017": " sides",
  "5018": "gers",
  "5019": "hedul",
  "5020": "iser",
  "5021": " familiar",
  "5022": " remind",
  "5023": " sust",
  "5024": " spect",
  "5025": "ils",
  "5026": "uate",
  "5027": " speaking",
  "5028": "ano",
  "5029": " talks",
  "5030": " happening",
  "5031": "gypt",
  "5032": " organizations",
  "5033": " hate",
  "5034": " window",
  "5035": " army",
  "5036": " Good",
  "5037": " Joe",
  "5038": " none",
  "5039": "uke",
  "5040": " taxes",
  "5041": " planned",
  "5042": " Pet",
  "5043": " thanks",
  "5044": " Mary",
  "5045": " struct",
  "5046": " pit",
  "5047": " decide",
  "5048": " sudden",
  "5049": " wish",
  "5050": " crew",
  "5051": " carried",
  "5052": " appoint",
  "5053": "oston",
  "5054": " pet",
  "5055": "mas",
  "5056": "awn",
  "5057": "eless",
  "5058": "agues",
  "5059": "ynam",
  "5060": " regist",
  "5061": "TC",
  "5062": " multi",
  "5063": "idering",
  "5064": " helping",
  "5065": "Last",
  "5066": " award",
  "5067": " standards",
  "5068": " 32",
  "5069": " Fire",
  "5070": " revolution",
  "5071": " environmental",
  "5072": "].",
  "5073": " Web",
  "5074": "arsh",
  "5075": " Thomas",
  "5076": "olit",
  "5077": " script",
  "5078": "pm",
  "5079": "ola",
  "5080": " seconds",
  "5081": "run",
  "5082": " Research",
  "5083": "gn",
  "5084": " scientific",
  "5085": " Bern",
  "5086": " immigration",
  "5087": " standing",
  "5088": " Their",
  "5089": " 45",
  "5090": "stream",
  "5091": "ocol",
  "5092": " que",
  "5093": " beer",
  "5094": " domestic",
  "5095": "imal",
  "5096": "adium",
  "5097": " pair",
  "5098": "uters",
  "5099": " Also",
  "5100": " Secretary",
  "5101": " Us",
  "5102": " academ",
  "5103": " cold",
  "5104": " variety",
  "5105": " markets",
  "5106": "aven",
  "5107": " sch",
  "5108": "HL",
  "5109": "lo",
  "5110": " territ",
  "5111": " dropped",
  "5112": "fe",
  "5113": " accounts",
  "5114": "!\"",
  "5115": " Atlant",
  "5116": " filed",
  "5117": "erous",
  "5118": "acks",
  "5119": "illa",
  "5120": " balance",
  "5121": " impossible",
  "5122": " Ter",
  "5123": " interact",
  "5124": " neighborhood",
  "5125": " degree",
  "5126": "Read",
  "5127": " turns",
  "5128": "ores",
  "5129": "itect",
  "5130": " possibly",
  "5131": " appre",
  "5132": " operating",
  "5133": " princ",
  "5134": " alternative",
  "5135": " union",
  "5136": " votes",
  "5137": " vul",
  "5138": "ader",
  "5139": " professor",
  "5140": " tack",
  "5141": " Service",
  "5142": " increasingly",
  "5143": "ayer",
  "5144": "ruit",
  "5145": " apply",
  "5146": " fellow",
  "5147": " cuts",
  "5148": "stein",
  "5149": " honest",
  "5150": " Prime",
  "5151": " univers",
  "5152": " server",
  "5153": "vis",
  "5154": " developers",
  "5155": "arks",
  "5156": " Syrian",
  "5157": " apparently",
  "5158": "abb",
  "5159": "aren",
  "5160": " lived",
  "5161": " changing",
  "5162": " worry",
  "5163": "rastructure",
  "5164": " Carolina",
  "5165": " tests",
  "5166": " units",
  "5167": " rich",
  "5168": " Two",
  "5169": "cious",
  "5170": "icted",
  "5171": "From",
  "5172": "aded",
  "5173": " humans",
  "5174": "IM",
  "5175": " Foundation",
  "5176": " Mos",
  "5177": " agencies",
  "5178": " sounds",
  "5179": "ashed",
  "5180": " twice",
  "5181": " ultimately",
  "5182": "obby",
  "5183": " losing",
  "5184": " philos",
  "5185": " authority",
  "5186": " soldiers",
  "5187": "�",
  "5188": " animal",
  "5189": " Images",
  "5190": " settle",
  "5191": " ath",
  "5192": " schedul",
  "5193": " mut",
  "5194": " colle",
  "5195": " corporate",
  "5196": " absolutely",
  "5197": " healthy",
  "5198": " paying",
  "5199": "och",
  "5200": " equip",
  "5201": "iams",
  "5202": " developing",
  "5203": " sea",
  "5204": " Time",
  "5205": " closer",
  "5206": " Den",
  "5207": " innov",
  "5208": "roud",
  "5209": "related",
  "5210": " seeking",
  "5211": " regarding",
  "5212": "coh",
  "5213": " skin",
  "5214": " expensive",
  "5215": "ansion",
  "5216": " possibility",
  "5217": " beautiful",
  "5218": " religion",
  "5219": " apart",
  "5220": " Central",
  "5221": "gu",
  "5222": " fundament",
  "5223": " experts",
  "5224": " solar",
  "5225": "65",
  "5226": " yards",
  "5227": " vast",
  "5228": " writer",
  "5229": " flight",
  "5230": " District",
  "5231": " Last",
  "5232": " deploy",
  "5233": " adjust",
  "5234": "Of",
  "5235": " internal",
  "5236": " tast",
  "5237": " Under",
  "5238": " Lat",
  "5239": " Peter",
  "5240": "apers",
  "5241": " imagine",
  "5242": " Jon",
  "5243": "IV",
  "5244": " applications",
  "5245": "iot",
  "5246": "ologies",
  "5247": "31",
  "5248": " vision",
  "5249": "look",
  "5250": "state",
  "5251": "osen",
  "5252": " Francisco",
  "5253": " Toronto",
  "5254": " sitting",
  "5255": " Plan",
  "5256": " trail",
  "5257": " unless",
  "5258": "den",
  "5259": " USA",
  "5260": " Jes",
  "5261": "isted",
  "5262": " heat",
  "5263": " 2004",
  "5264": "Even",
  "5265": " responsibility",
  "5266": " capacity",
  "5267": "IP",
  "5268": "atures",
  "5269": " Middle",
  "5270": " error",
  "5271": "aine",
  "5272": "ias",
  "5273": " symb",
  "5274": " fol",
  "5275": "pire",
  "5276": " arms",
  "5277": " pil",
  "5278": " gar",
  "5279": " covered",
  "5280": "idden",
  "5281": " famous",
  "5282": " Camp",
  "5283": " forms",
  "5284": " Bur",
  "5285": "uzz",
  "5286": "ND",
  "5287": " university",
  "5288": " guarant",
  "5289": " tight",
  "5290": " presented",
  "5291": "ortion",
  "5292": "oving",
  "5293": "enced",
  "5294": " ST",
  "5295": " Egypt",
  "5296": " earn",
  "5297": " Put",
  "5298": " convention",
  "5299": "under",
  "5300": "Just",
  "5301": " Public",
  "5302": " surprise",
  "5303": " attorney",
  "5304": " elections",
  "5305": " estimated",
  "5306": " fif",
  "5307": " Ari",
  "5308": " teen",
  "5309": " instit",
  "5310": " vehicles",
  "5311": "rible",
  "5312": " Amazon",
  "5313": "road",
  "5314": " intended",
  "5315": "ini",
  "5316": " rid",
  "5317": " odd",
  "5318": " helps",
  "5319": " occurred",
  "5320": "person",
  "5321": " streets",
  "5322": "uster",
  "5323": "hand",
  "5324": " Boston",
  "5325": " Sol",
  "5326": " =>",
  "5327": "=\"",
  "5328": " Mur",
  "5329": " sport",
  "5330": "sen",
  "5331": " determine",
  "5332": "ressive",
  "5333": " Bitcoin",
  "5334": " expert",
  "5335": " schem",
  "5336": "alls",
  "5337": " consult",
  "5338": "uration",
  "5339": " broken",
  "5340": "Let",
  "5341": "lets",
  "5342": " fired",
  "5343": " ton",
  "5344": " flow",
  "5345": " domin",
  "5346": " Gal",
  "5347": "porary",
  "5348": "eder",
  "5349": "LE",
  "5350": " shall",
  "5351": " reserv",
  "5352": "Up",
  "5353": " troops",
  "5354": "ION",
  "5355": " Those",
  "5356": " hyp",
  "5357": " nar",
  "5358": "terday",
  "5359": " pieces",
  "5360": " Chief",
  "5361": " prepared",
  "5362": " Mass",
  "5363": " Cath",
  "5364": " rapid",
  "5365": "orage",
  "5366": " Jo",
  "5367": " located",
  "5368": " Social",
  "5369": " baby",
  "5370": "gl",
  "5371": "----------------",
  "5372": " conclus",
  "5373": " bringing",
  "5374": "anche",
  "5375": " Prot",
  "5376": " prove",
  "5377": " specifically",
  "5378": " Any",
  "5379": " potentially",
  "5380": " sector",
  "5381": " random",
  "5382": " jail",
  "5383": "OW",
  "5384": " selling",
  "5385": " governments",
  "5386": " Once",
  "5387": " scr",
  "5388": "Ab",
  "5389": " equal",
  "5390": "class",
  "5391": "war",
  "5392": " faster",
  "5393": " heav",
  "5394": " Spr",
  "5395": " boost",
  "5396": "useum",
  "5397": "vey",
  "5398": " clin",
  "5399": " proposal",
  "5400": "oty",
  "5401": " factors",
  "5402": " plenty",
  "5403": "TH",
  "5404": " equipment",
  "5405": " council",
  "5406": " era",
  "5407": " infrastructure",
  "5408": "Do",
  "5409": " stress",
  "5410": "phas",
  "5411": " stars",
  "5412": " Journal",
  "5413": " Rub",
  "5414": "endment",
  "5415": " Virginia",
  "5416": " breat",
  "5417": " prosecut",
  "5418": " voted",
  "5419": " offering",
  "5420": " carbon",
  "5421": "inent",
  "5422": " expressed",
  "5423": " vulner",
  "5424": " combat",
  "5425": " Paris",
  "5426": " broke",
  "5427": "()",
  "5428": "ureau",
  "5429": " clot",
  "5430": "ours",
  "5431": " ruling",
  "5432": " Federal",
  "5433": " retail",
  "5434": " Guard",
  "5435": " refused",
  "5436": " dram",
  "5437": " Dan",
  "5438": " elected",
  "5439": " Open",
  "5440": " River",
  "5441": "Every",
  "5442": " secure",
  "5443": "cean",
  "5444": " seasons",
  "5445": " conducted",
  "5446": ",'",
  "5447": "ht",
  "5448": " challenges",
  "5449": " remove",
  "5450": "isher",
  "5451": "rog",
  "5452": " Sant",
  "5453": " methods",
  "5454": " weapon",
  "5455": "noon",
  "5456": " pointed",
  "5457": " Island",
  "5458": " master",
  "5459": " remained",
  "5460": " Australian",
  "5461": " prime",
  "5462": "ENT",
  "5463": " trig",
  "5464": " positions",
  "5465": " Cru",
  "5466": " din",
  "5467": " Mel",
  "5468": " criticism",
  "5469": "ipping",
  "5470": "First",
  "5471": "ocking",
  "5472": " Medic",
  "5473": " Please",
  "5474": "onom",
  "5475": "IG",
  "5476": " sale",
  "5477": "olved",
  "5478": " Fe",
  "5479": " cultural",
  "5480": "that",
  "5481": " weren",
  "5482": " significantly",
  "5483": " brow",
  "5484": "etic",
  "5485": " originally",
  "5486": "rie",
  "5487": " During",
  "5488": " affected",
  "5489": " appearance",
  "5490": " cas",
  "5491": " tourn",
  "5492": " facing",
  "5493": " greatest",
  "5494": " finish",
  "5495": " Lee",
  "5496": " stret",
  "5497": "yr",
  "5498": " youth",
  "5499": " tele",
  "5500": " Who",
  "5501": " Cur",
  "5502": " percentage",
  "5503": " Photo",
  "5504": "col",
  "5505": " determined",
  "5506": " signs",
  "5507": " involve",
  "5508": "95",
  "5509": "cel",
  "5510": "и",
  "5511": " thank",
  "5512": " bought",
  "5513": " 500",
  "5514": "lyn",
  "5515": " Sing",
  "5516": "standing",
  "5517": " chemical",
  "5518": "ashion",
  "5519": "64",
  "5520": " shape",
  "5521": " regime",
  "5522": " grew",
  "5523": "pired",
  "5524": " remaining",
  "5525": " Steve",
  "5526": "lymp",
  "5527": " minimum",
  "5528": " Saud",
  "5529": "reens",
  "5530": " indeed",
  "5531": " dream",
  "5532": "rier",
  "5533": "Since",
  "5534": " marg",
  "5535": "Sp",
  "5536": " Both",
  "5537": ">>",
  "5538": " mode",
  "5539": " herself",
  "5540": " voting",
  "5541": " Color",
  "5542": " obviously",
  "5543": " Force",
  "5544": " Ro",
  "5545": " reduced",
  "5546": "ordin",
  "5547": " Nov",
  "5548": " wood",
  "5549": " Rem",
  "5550": " recorded",
  "5551": " argued",
  "5552": " 1990",
  "5553": " revenue",
  "5554": " tact",
  "5555": " wearing",
  "5556": "aling",
  "5557": "ighters",
  "5558": " leads",
  "5559": "edia",
  "5560": " hun",
  "5561": " politicians",
  "5562": " plus",
  "5563": " contrast",
  "5564": " switch",
  "5565": " handle",
  "5566": " purchase",
  "5567": " thr",
  "5568": " subs",
  "5569": " concent",
  "5570": " proced",
  "5571": "т",
  "5572": " agent",
  "5573": "arp",
  "5574": "mm",
  "5575": " Williams",
  "5576": " appreci",
  "5577": " experienced",
  "5578": " hurt",
  "5579": "top",
  "5580": " excited",
  "5581": " videos",
  "5582": "odd",
  "5583": " https",
  "5584": "cohol",
  "5585": " supporting",
  "5586": "DP",
  "5587": " Haw",
  "5588": "ownt",
  "5589": " vir",
  "5590": " Free",
  "5591": " surprising",
  "5592": " minute",
  "5593": " explos",
  "5594": " belong",
  "5595": " consumers",
  "5596": " identify",
  "5597": " considering",
  "5598": " Pac",
  "5599": " Conserv",
  "5600": "ller",
  "5601": "apter",
  "5602": " aircraft",
  "5603": " rent",
  "5604": " aid",
  "5605": "CL",
  "5606": " pulled",
  "5607": "gment",
  "5608": " basically",
  "5609": " differences",
  "5610": "ogue",
  "5611": " Book",
  "5612": " glass",
  "5613": " afternoon",
  "5614": " shift",
  "5615": " diss",
  "5616": " Rad",
  "5617": " depart",
  "5618": " ends",
  "5619": "essions",
  "5620": " turning",
  "5621": " bound",
  "5622": " films",
  "5623": " spring",
  "5624": " prospect",
  "5625": "ruption",
  "5626": "ket",
  "5627": " Charl",
  "5628": "hab",
  "5629": " mort",
  "5630": "life",
  "5631": " treated",
  "5632": " accident",
  "5633": ",[",
  "5634": " motiv",
  "5635": " listen",
  "5636": " seat",
  "5637": " Power",
  "5638": "uts",
  "5639": " combined",
  "5640": " construct",
  "5641": "Ind",
  "5642": " seriously",
  "5643": " privacy",
  "5644": "apping",
  "5645": " evening",
  "5646": "hered",
  "5647": "hy",
  "5648": " opportunities",
  "5649": "asp",
  "5650": " struggle",
  "5651": " 195",
  "5652": " panel",
  "5653": " enemy",
  "5654": " lots",
  "5655": " completed",
  "5656": " Daily",
  "5657": " visual",
  "5658": "His",
  "5659": "Phone",
  "5660": "pet",
  "5661": " talked",
  "5662": " cart",
  "5663": " hopes",
  "5664": "oral",
  "5665": " passing",
  "5666": " id",
  "5667": " apps",
  "5668": "osite",
  "5669": "05",
  "5670": "PD",
  "5671": " calcul",
  "5672": "Another",
  "5673": " widely",
  "5674": "ensions",
  "5675": " emergency",
  "5676": " Hol",
  "5677": "amm",
  "5678": " Show",
  "5679": " suit",
  "5680": " element",
  "5681": " ast",
  "5682": "anged",
  "5683": "SS",
  "5684": "ucks",
  "5685": "aled",
  "5686": " powers",
  "5687": "ato",
  "5688": " Rel",
  "5689": " BBC",
  "5690": " Olymp",
  "5691": " burn",
  "5692": "TV",
  "5693": " discl",
  "5694": "Pe",
  "5695": " plants",
  "5696": " flat",
  "5697": " Space",
  "5698": " liberal",
  "5699": "raud",
  "5700": "obe",
  "5701": " opposed",
  "5702": "Well",
  "5703": " proceed",
  "5704": "ompl",
  "5705": " copyright",
  "5706": "oking",
  "5707": " Project",
  "5708": " advance",
  "5709": " factor",
  "5710": " distance",
  "5711": " 2003",
  "5712": "ivered",
  "5713": " dismiss",
  "5714": "plom",
  "5715": " attempts",
  "5716": " tun",
  "5717": " Matt",
  "5718": " Road",
  "5719": "Am",
  "5720": "abilities",
  "5721": "ributed",
  "5722": " IN",
  "5723": " trouble",
  "5724": "unction",
  "5725": " hol",
  "5726": " collabor",
  "5727": " default",
  "5728": "idel",
  "5729": " Bet",
  "5730": " zone",
  "5731": " Jackson",
  "5732": " upgr",
  "5733": "ita",
  "5734": "rawn",
  "5735": "Cont",
  "5736": " reaction",
  "5737": " storm",
  "5738": " reporters",
  "5739": " Mem",
  "5740": " frust",
  "5741": "PR",
  "5742": "nell",
  "5743": "adow",
  "5744": " writes",
  "5745": "mosp",
  "5746": "mond",
  "5747": "aints",
  "5748": " typically",
  "5749": " Today",
  "5750": "lines",
  "5751": "respond",
  "5752": "UT",
  "5753": " pages",
  "5754": " instruct",
  "5755": "sts",
  "5756": "edd",
  "5757": "ternal",
  "5758": "eds",
  "5759": " reference",
  "5760": " package",
  "5761": " bodies",
  "5762": "zer",
  "5763": " matters",
  "5764": "free",
  "5765": "01",
  "5766": " denied",
  "5767": "care",
  "5768": "App",
  "5769": " quant",
  "5770": " disappoint",
  "5771": " sem",
  "5772": " explo",
  "5773": " NAS",
  "5774": " optim",
  "5775": "ache",
  "5776": " quiet",
  "5777": " entertain",
  "5778": " mal",
  "5779": " responded",
  "5780": " approved",
  "5781": " Turkey",
  "5782": " satisf",
  "5783": "aped",
  "5784": " broadcast",
  "5785": "esters",
  "5786": " institutions",
  "5787": " advert",
  "5788": "42",
  "5789": " stands",
  "5790": " Director",
  "5791": " sets",
  "5792": "estival",
  "5793": " elimin",
  "5794": "isters",
  "5795": "razy",
  "5796": "ä",
  "5797": "Rep",
  "5798": " Penn",
  "5799": " valid",
  "5800": "host",
  "5801": " renew",
  "5802": " Ohio",
  "5803": "elly",
  "5804": "0000",
  "5805": " split",
  "5806": " severe",
  "5807": " William",
  "5808": " sac",
  "5809": " capable",
  "5810": " 2001",
  "5811": " //",
  "5812": " pitch",
  "5813": "abin",
  "5814": "aniel",
  "5815": " caption",
  "5816": " cloud",
  "5817": " loved",
  "5818": " technical",
  "5819": " giant",
  "5820": "pass",
  "5821": " cann",
  "5822": " tradition",
  "5823": "rant",
  "5824": " prompt",
  "5825": " bull",
  "5826": " confident",
  "5827": "uous",
  "5828": " confidence",
  "5829": " numerous",
  "5830": " reportedly",
  "5831": " Ma",
  "5832": " faces",
  "5833": "],",
  "5834": "writ",
  "5835": " weather",
  "5836": " fly",
  "5837": " transition",
  "5838": "rid",
  "5839": " 36",
  "5840": " System",
  "5841": " Afghanistan",
  "5842": " Squ",
  "5843": " creation",
  "5844": "De",
  "5845": " perspective",
  "5846": " unable",
  "5847": " forget",
  "5848": " Labour",
  "5849": " Yet",
  "5850": "astern",
  "5851": "employ",
  "5852": "oken",
  "5853": " Media",
  "5854": "angers",
  "5855": "II",
  "5856": "unte",
  "5857": " craft",
  "5858": " substant",
  "5859": " cooper",
  "5860": " violent",
  "5861": " suffered",
  "5862": "ilit",
  "5863": " coast",
  "5864": " mand",
  "5865": "ampion",
  "5866": "43",
  "5867": " pictures",
  "5868": " experiences",
  "5869": " approx",
  "5870": "abled",
  "5871": " route",
  "5872": "88",
  "5873": "sex",
  "5874": " flag",
  "5875": " advice",
  "5876": " Andrew",
  "5877": "usiness",
  "5878": " declared",
  "5879": " Wal",
  "5880": " ordered",
  "5881": " Human",
  "5882": "razil",
  "5883": " crimes",
  "5884": " coff",
  "5885": "Se",
  "5886": " proud",
  "5887": "ishes",
  "5888": " reporting",
  "5889": " messages",
  "5890": " circumst",
  "5891": " findings",
  "5892": " Lin",
  "5893": "Res",
  "5894": " eval",
  "5895": "ulations",
  "5896": " excell",
  "5897": "Over",
  "5898": " declined",
  "5899": " explains",
  "5900": " delay",
  "5901": " \\",
  "5902": " Follow",
  "5903": " newspaper",
  "5904": "ounded",
  "5905": " connected",
  "5906": "ilty",
  "5907": " shouldn",
  "5908": "evin",
  "5909": "oves",
  "5910": " ongoing",
  "5911": "can",
  "5912": " van",
  "5913": "dule",
  "5914": " movies",
  "5915": " picked",
  "5916": "ionally",
  "5917": "resents",
  "5918": "77",
  "5919": " admitted",
  "5920": " gra",
  "5921": " delivered",
  "5922": "During",
  "5923": " guns",
  "5924": " ML",
  "5925": "ga",
  "5926": " Scot",
  "5927": " walking",
  "5928": " agents",
  "5929": "called",
  "5930": " prin",
  "5931": "tion",
  "5932": " editor",
  "5933": " thoughts",
  "5934": " married",
  "5935": " Tra",
  "5936": " auth",
  "5937": " emails",
  "5938": " appropriate",
  "5939": " emphas",
  "5940": "uations",
  "5941": " edge",
  "5942": " architect",
  "5943": " Grand",
  "5944": " leaves",
  "5945": " updates",
  "5946": " accompl",
  "5947": "OD",
  "5948": " gather",
  "5949": " forg",
  "5950": " Muslims",
  "5951": "ansas",
  "5952": " Wood",
  "5953": " quarterback",
  "5954": " session",
  "5955": "ooth",
  "5956": " Techn",
  "5957": " pool",
  "5958": " Science",
  "5959": "cos",
  "5960": " injured",
  "5961": "arn",
  "5962": " publicly",
  "5963": "ellow",
  "5964": " Sov",
  "5965": " statements",
  "5966": " perman",
  "5967": " legit",
  "5968": " confirm",
  "5969": "arl",
  "5970": "nergy",
  "5971": " Lake",
  "5972": " ourselves",
  "5973": "Other",
  "5974": " realize",
  "5975": " rot",
  "5976": " drivers",
  "5977": "MA",
  "5978": " Av",
  "5979": " Dou",
  "5980": "mates",
  "5981": ",’",
  "5982": " armed",
  "5983": "essor",
  "5984": " dial",
  "5985": "cons",
  "5986": "TA",
  "5987": " lawyer",
  "5988": "ourney",
  "5989": " rail",
  "5990": " readers",
  "5991": "reland",
  "5992": " sad",
  "5993": " contains",
  "5994": " argue",
  "5995": " Rev",
  "5996": " talent",
  "5997": " filled",
  "5998": " Sum",
  "5999": " allegations",
  "6000": " activists",
  "6001": " Christmas",
  "6002": " dynam",
  "6003": " 1980",
  "6004": " Michigan",
  "6005": "date",
  "6006": " Back",
  "6007": " Ron",
  "6008": " crack",
  "6009": " transform",
  "6010": "Tube",
  "6011": " Ill",
  "6012": " buildings",
  "6013": " Read",
  "6014": "long",
  "6015": " wear",
  "6016": "Many",
  "6017": " terrorist",
  "6018": " sam",
  "6019": " tree",
  "6020": " exercise",
  "6021": "enda",
  "6022": " label",
  "6023": " effectively",
  "6024": "Oh",
  "6025": " practices",
  "6026": "ala",
  "6027": " subsequ",
  "6028": " Jul",
  "6029": " Sher",
  "6030": "uls",
  "6031": " flo",
  "6032": " fish",
  "6033": "TS",
  "6034": "ette",
  "6035": "enture",
  "6036": " shop",
  "6037": " examples",
  "6038": "41",
  "6039": " Hy",
  "6040": " patient",
  "6041": " Gen",
  "6042": " Seattle",
  "6043": " objects",
  "6044": " tech",
  "6045": " See",
  "6046": " secretary",
  "6047": "asure",
  "6048": " rain",
  "6049": " missed",
  "6050": " causes",
  "6051": "illy",
  "6052": "rum",
  "6053": " debut",
  "6054": " Rod",
  "6055": "gia",
  "6056": " essentially",
  "6057": "66",
  "6058": "amin",
  "6059": " moral",
  "6060": "orders",
  "6061": "ador",
  "6062": "word",
  "6063": "acter",
  "6064": " Work",
  "6065": "def",
  "6066": "arters",
  "6067": " Ukraine",
  "6068": " centre",
  "6069": "hedule",
  "6070": "Follow",
  "6071": " Vict",
  "6072": "bur",
  "6073": " Stan",
  "6074": " ID",
  "6075": "icing",
  "6076": " injuries",
  "6077": " Phot",
  "6078": " motor",
  "6079": " iPhone",
  "6080": " artist",
  "6081": " client",
  "6082": " bond",
  "6083": " thinks",
  "6084": "iat",
  "6085": "orse",
  "6086": "ouston",
  "6087": " pure",
  "6088": " hell",
  "6089": "Although",
  "6090": " Saudi",
  "6091": " facts",
  "6092": "��",
  "6093": " desire",
  "6094": "agers",
  "6095": "aza",
  "6096": " ske",
  "6097": "orry",
  "6098": " linked",
  "6099": "í",
  "6100": " governor",
  "6101": " materials",
  "6102": " performed",
  "6103": "Spe",
  "6104": " franch",
  "6105": "esome",
  "6106": " suc",
  "6107": " philosoph",
  "6108": " initially",
  "6109": "iest",
  "6110": " Sign",
  "6111": " necessarily",
  "6112": " Bat",
  "6113": " Fer",
  "6114": " expansion",
  "6115": " scheduled",
  "6116": "water",
  "6117": "ERS",
  "6118": " warned",
  "6119": " diplom",
  "6120": " advanced",
  "6121": " ing",
  "6122": " explan",
  "6123": " vari",
  "6124": " everybody",
  "6125": " joint",
  "6126": " decre",
  "6127": " resolution",
  "6128": " increases",
  "6129": "enger",
  "6130": "Yes",
  "6131": " accepted",
  "6132": " incor",
  "6133": " myster",
  "6134": " faced",
  "6135": " bare",
  "6136": "illance",
  "6137": " Mount",
  "6138": " announcement",
  "6139": " follows",
  "6140": " nations",
  "6141": " playoff",
  "6142": " Life",
  "6143": " abandon",
  "6144": " Second",
  "6145": " Id",
  "6146": " radical",
  "6147": " athlet",
  "6148": " neither",
  "6149": " yesterday",
  "6150": " datab",
  "6151": " nearby",
  "6152": "gent",
  "6153": " distribution",
  "6154": "otic",
  "6155": " applied",
  "6156": "irty",
  "6157": " magazine",
  "6158": "Most",
  "6159": "athan",
  "6160": "rich",
  "6161": " mir",
  "6162": " consequences",
  "6163": "uy",
  "6164": " doctor",
  "6165": " listed",
  "6166": " fort",
  "6167": " Columb",
  "6168": " atmosp",
  "6169": "American",
  "6170": " surprised",
  "6171": " offense",
  "6172": "Qu",
  "6173": "itors",
  "6174": " CNN",
  "6175": " RE",
  "6176": " spons",
  "6177": " begins",
  "6178": " Week",
  "6179": " threats",
  "6180": "sembly",
  "6181": " represents",
  "6182": " Jews",
  "6183": " GM",
  "6184": " Aff",
  "6185": " enh",
  "6186": " moves",
  "6187": " remark",
  "6188": " TO",
  "6189": " songs",
  "6190": " pra",
  "6191": "kay",
  "6192": " chart",
  "6193": " behavi",
  "6194": "omin",
  "6195": " ride",
  "6196": " adds",
  "6197": " withd",
  "6198": "Can",
  "6199": "Â",
  "6200": " improved",
  "6201": " phen",
  "6202": " Blue",
  "6203": " bot",
  "6204": " warm",
  "6205": " af",
  "6206": " alcohol",
  "6207": "rip",
  "6208": " AT",
  "6209": " output",
  "6210": "law",
  "6211": " flood",
  "6212": " Develop",
  "6213": " Hen",
  "6214": "whel",
  "6215": "edy",
  "6216": " shots",
  "6217": " fill",
  "6218": " Vol",
  "6219": " alt",
  "6220": " stood",
  "6221": " brings",
  "6222": " pushed",
  "6223": " guilty",
  "6224": " Romney",
  "6225": " Kim",
  "6226": " subscrib",
  "6227": "85",
  "6228": " entry",
  "6229": "ocratic",
  "6230": " Brazil",
  "6231": " democracy",
  "6232": " boys",
  "6233": " 33",
  "6234": " row",
  "6235": " Swed",
  "6236": " config",
  "6237": " restaurant",
  "6238": " NBA",
  "6239": " lawsuit",
  "6240": " Dev",
  "6241": " Ireland",
  "6242": "acle",
  "6243": " manufacture",
  "6244": " receiving",
  "6245": " rein",
  "6246": " Barack",
  "6247": "Then",
  "6248": " trib",
  "6249": " totally",
  "6250": " Only",
  "6251": " discussed",
  "6252": " sought",
  "6253": " rising",
  "6254": " entered",
  "6255": " ISIS",
  "6256": " Board",
  "6257": " consistent",
  "6258": " historical",
  "6259": "twitter",
  "6260": "ideo",
  "6261": " storage",
  "6262": " correspond",
  "6263": " plane",
  "6264": " combination",
  "6265": " scored",
  "6266": " input",
  "6267": " 300",
  "6268": " symbol",
  "6269": " bright",
  "6270": " button",
  "6271": "irds",
  "6272": " succeed",
  "6273": "stood",
  "6274": " creative",
  "6275": " investors",
  "6276": " square",
  "6277": " articles",
  "6278": " 2002",
  "6279": " island",
  "6280": " deaths",
  "6281": " functions",
  "6282": " networks",
  "6283": " classes",
  "6284": " unlikely",
  "6285": "alty",
  "6286": " Prem",
  "6287": " heads",
  "6288": " boss",
  "6289": "ician",
  "6290": " native",
  "6291": "icious",
  "6292": " lie",
  "6293": " sav",
  "6294": " Lib",
  "6295": " roughly",
  "6296": " consumer",
  "6297": " Str",
  "6298": " Whe",
  "6299": " Walk",
  "6300": "fortunately",
  "6301": " Ms",
  "6302": " string",
  "6303": " Maybe",
  "6304": " heavily",
  "6305": " Another",
  "6306": " fairly",
  "6307": " temperature",
  "6308": "arden",
  "6309": " kit",
  "6310": " existence",
  "6311": " Its",
  "6312": " Asia",
  "6313": " contest",
  "6314": "Add",
  "6315": " plot",
  "6316": "issions",
  "6317": " Cub",
  "6318": "dis",
  "6319": " resident",
  "6320": "usal",
  "6321": " targets",
  "6322": " Bob",
  "6323": " resc",
  "6324": " Korean",
  "6325": "ican",
  "6326": "duc",
  "6327": " lock",
  "6328": " younger",
  "6329": "Man",
  "6330": " colleagues",
  "6331": "',",
  "6332": "PU",
  "6333": " library",
  "6334": "ö",
  "6335": " rally",
  "6336": " parliament",
  "6337": " protests",
  "6338": " anywhere",
  "6339": "oked",
  "6340": " Sports",
  "6341": " Sky",
  "6342": " bike",
  "6343": "zona",
  "6344": " breaking",
  "6345": "ii",
  "6346": " sym",
  "6347": " grab",
  "6348": " stores",
  "6349": " expression",
  "6350": " waste",
  "6351": " chain",
  "6352": " blow",
  "6353": " warning",
  "6354": " importance",
  "6355": " defined",
  "6356": " buying",
  "6357": " manage",
  "6358": " prohib",
  "6359": " classic",
  "6360": " cere",
  "6361": " snow",
  "6362": " adults",
  "6363": " illust",
  "6364": " Each",
  "6365": "See",
  "6366": " marketing",
  "6367": "Ob",
  "6368": " links",
  "6369": "ó",
  "6370": "iques",
  "6371": " shif",
  "6372": "born",
  "6373": "andal",
  "6374": " Club",
  "6375": " tow",
  "6376": " Hist",
  "6377": " fraud",
  "6378": "OC",
  "6379": " facility",
  "6380": "ollywood",
  "6381": "erences",
  "6382": " hardware",
  "6383": " schol",
  "6384": " allegedly",
  "6385": " 37",
  "6386": " regulations",
  "6387": "pret",
  "6388": " doctors",
  "6389": " bon",
  "6390": " Colorado",
  "6391": " currency",
  "6392": " household",
  "6393": " replaced",
  "6394": "agan",
  "6395": " essential",
  "6396": " Ram",
  "6397": " empt",
  "6398": "opy",
  "6399": "onna",
  "6400": " somewhat",
  "6401": " Div",
  "6402": "press",
  "6403": "86",
  "6404": " nav",
  "6405": "power",
  "6406": " favour",
  "6407": " promise",
  "6408": " DC",
  "6409": " Boy",
  "6410": " laugh",
  "6411": "ena",
  "6412": "Pol",
  "6413": " Rights",
  "6414": " holds",
  "6415": " opposite",
  "6416": "ocket",
  "6417": " tom",
  "6418": "с",
  "6419": " moments",
  "6420": "west",
  "6421": " hat",
  "6422": "tering",
  "6423": " opponent",
  "6424": " bug",
  "6425": " Far",
  "6426": "cho",
  "6427": " campus",
  "6428": " acts",
  "6429": " rum",
  "6430": "etroit",
  "6431": " versions",
  "6432": " motion",
  "6433": " metal",
  "6434": "hips",
  "6435": " evolution",
  "6436": "ometimes",
  "6437": " vice",
  "6438": "anish",
  "6439": " relevant",
  "6440": " sees",
  "6441": " Image",
  "6442": " bag",
  "6443": " industrial",
  "6444": " zero",
  "6445": "IR",
  "6446": " sick",
  "6447": " downt",
  "6448": "oma",
  "6449": " closely",
  "6450": " Ann",
  "6451": "hetic",
  "6452": " emotional",
  "6453": "chen",
  "6454": "IF",
  "6455": "game",
  "6456": " YouTube",
  "6457": " Year",
  "6458": " fewer",
  "6459": " division",
  "6460": "olve",
  "6461": " adm",
  "6462": "va",
  "6463": " harder",
  "6464": " customer",
  "6465": " hoping",
  "6466": "ologist",
  "6467": " Brook",
  "6468": "Donald",
  "6469": "En",
  "6470": " Valley",
  "6471": " hur",
  "6472": " mechanism",
  "6473": "ittle",
  "6474": " Gra",
  "6475": " Houston",
  "6476": "ml",
  "6477": " Elect",
  "6478": "inem",
  "6479": " returns",
  "6480": "NC",
  "6481": "atell",
  "6482": " volunte",
  "6483": " participants",
  "6484": " extent",
  "6485": " intention",
  "6486": "esc",
  "6487": "alian",
  "6488": "ellect",
  "6489": " excellent",
  "6490": " Soviet",
  "6491": " acknowled",
  "6492": " syn",
  "6493": "ulous",
  "6494": "oming",
  "6495": " Mot",
  "6496": " batt",
  "6497": " Games",
  "6498": " squad",
  "6499": " circumstances",
  "6500": "pan",
  "6501": " fashion",
  "6502": " isol",
  "6503": "ü",
  "6504": "otal",
  "6505": "greg",
  "6506": " immediate",
  "6507": " Eric",
  "6508": " suffering",
  "6509": " Watch",
  "6510": "str",
  "6511": " lies",
  "6512": " tiny",
  "6513": " authors",
  "6514": " 38",
  "6515": " grown",
  "6516": "iger",
  "6517": " Gar",
  "6518": "po",
  "6519": "efully",
  "6520": " immigrants",
  "6521": "Ã",
  "6522": "print",
  "6523": "ora",
  "6524": " kinds",
  "6525": "utch",
  "6526": " 49",
  "6527": " Die",
  "6528": " cheap",
  "6529": " mine",
  "6530": " detailed",
  "6531": "ordan",
  "6532": " Hel",
  "6533": "name",
  "6534": " featured",
  "6535": " Wik",
  "6536": "ayers",
  "6537": " meat",
  "6538": " Sar",
  "6539": " unus",
  "6540": " Aut",
  "6541": " competitive",
  "6542": " describe",
  "6543": " formed",
  "6544": " Home",
  "6545": " IP",
  "6546": "friend",
  "6547": "nic",
  "6548": "certain",
  "6549": " carrying",
  "6550": " tournament",
  "6551": " termin",
  "6552": " trick",
  "6553": " relationships",
  "6554": " fundamental",
  "6555": "kel",
  "6556": " wave",
  "6557": " cycle",
  "6558": "obb",
  "6559": " crazy",
  "6560": " Cy",
  "6561": " signing",
  "6562": " Way",
  "6563": " guide",
  "6564": " wins",
  "6565": " Catholic",
  "6566": " earned",
  "6567": " decline",
  "6568": " regional",
  "6569": "nam",
  "6570": "ensus",
  "6571": "style",
  "6572": " embr",
  "6573": " strange",
  "6574": " Palestinian",
  "6575": " Jesus",
  "6576": " Long",
  "6577": " ancient",
  "6578": " frequently",
  "6579": " acting",
  "6580": " Putin",
  "6581": " manner",
  "6582": " efficient",
  "6583": "rome",
  "6584": " pushing",
  "6585": " CIA",
  "6586": " comfortable",
  "6587": " Card",
  "6588": " pip",
  "6589": "ORE",
  "6590": "Per",
  "6591": " sharing",
  "6592": " wire",
  "6593": " skill",
  "6594": " Econom",
  "6595": "ockey",
  "6596": "chers",
  "6597": " instru",
  "6598": " Ell",
  "6599": " Er",
  "6600": " owned",
  "6601": "bar",
  "6602": " commitment",
  "6603": " alongside",
  "6604": " OF",
  "6605": "uated",
  "6606": "anes",
  "6607": " Lord",
  "6608": " Davis",
  "6609": "rison",
  "6610": " controversial",
  "6611": " artists",
  "6612": " referred",
  "6613": "weight",
  "6614": " egg",
  "6615": " mouth",
  "6616": " repeatedly",
  "6617": "06",
  "6618": " 48",
  "6619": " Top",
  "6620": "�",
  "6621": " 34",
  "6622": "FP",
  "6623": "awa",
  "6624": " attempted",
  "6625": " femin",
  "6626": "umber",
  "6627": " updated",
  "6628": "foot",
  "6629": " cert",
  "6630": "ua",
  "6631": " pregn",
  "6632": " Old",
  "6633": " schedule",
  "6634": "vin",
  "6635": "xy",
  "6636": " PS",
  "6637": "amily",
  "6638": "adel",
  "6639": " dedicated",
  "6640": "н",
  "6641": " AL",
  "6642": " sentence",
  "6643": " upcoming",
  "6644": " Right",
  "6645": " NY",
  "6646": " Down",
  "6647": " Di",
  "6648": " column",
  "6649": "hus",
  "6650": " depth",
  "6651": "09",
  "6652": " pled",
  "6653": " virtual",
  "6654": "uable",
  "6655": " journey",
  "6656": " struck",
  "6657": "р",
  "6658": " desk",
  "6659": " studio",
  "6660": " realized",
  "6661": " Energy",
  "6662": "Despite",
  "6663": "ceived",
  "6664": "%)",
  "6665": "ographic",
  "6666": "ugh",
  "6667": " medic",
  "6668": "DS",
  "6669": " serving",
  "6670": "iami",
  "6671": " walked",
  "6672": "rive",
  "6673": "iveness",
  "6674": " king",
  "6675": " ring",
  "6676": " reput",
  "6677": "you",
  "6678": " urban",
  "6679": "ko",
  "6680": "phy",
  "6681": " Cle",
  "6682": " Charles",
  "6683": " Wild",
  "6684": " targeted",
  "6685": " channel",
  "6686": " assets",
  "6687": "luding",
  "6688": " tort",
  "6689": " inspired",
  "6690": " hotel",
  "6691": " Arizona",
  "6692": "08",
  "6693": " posts",
  "6694": " newslet",
  "6695": "Like",
  "6696": "Two",
  "6697": " Supp",
  "6698": " universe",
  "6699": "07",
  "6700": " agenda",
  "6701": " causing",
  "6702": " watched",
  "6703": " suicide",
  "6704": " stream",
  "6705": " overwhel",
  "6706": " Py",
  "6707": " usual",
  "6708": " surveillance",
  "6709": " Men",
  "6710": " intent",
  "6711": "sole",
  "6712": "People",
  "6713": " liqu",
  "6714": " sister",
  "6715": " opponents",
  "6716": " chairman",
  "6717": " du",
  "6718": " Wars",
  "6719": " Cruz",
  "6720": "bel",
  "6721": " mainstream",
  "6722": " latter",
  "6723": " hall",
  "6724": " surrounding",
  "6725": " folks",
  "6726": " knowing",
  "6727": " orders",
  "6728": " Inf",
  "6729": "igg",
  "6730": " remote",
  "6731": " 75",
  "6732": " sand",
  "6733": " literally",
  "6734": " Java",
  "6735": " observed",
  "6736": " Again",
  "6737": " subsid",
  "6738": "Fr",
  "6739": "gor",
  "6740": " Defense",
  "6741": " infl",
  "6742": " approval",
  "6743": "acc",
  "6744": " Van",
  "6745": "iments",
  "6746": " basket",
  "6747": "rence",
  "6748": "burg",
  "6749": " teachers",
  "6750": "azi",
  "6751": "avor",
  "6752": "izz",
  "6753": " winter",
  "6754": "iciency",
  "6755": "alle",
  "6756": " exciting",
  "6757": "aze",
  "6758": "aylor",
  "6759": " Tal",
  "6760": " format",
  "6761": "boy",
  "6762": " congress",
  "6763": " protected",
  "6764": "ati",
  "6765": " noticed",
  "6766": " simpl",
  "6767": " dealing",
  "6768": " Young",
  "6769": "rations",
  "6770": " Child",
  "6771": " precise",
  "6772": "iro",
  "6773": "67",
  "6774": "xual",
  "6775": " deeply",
  "6776": "ipl",
  "6777": " communication",
  "6778": " gang",
  "6779": " sending",
  "6780": " forth",
  "6781": " Jr",
  "6782": " fasc",
  "6783": " battery",
  "6784": " wal",
  "6785": "mun",
  "6786": " sky",
  "6787": " narr",
  "6788": " fixed",
  "6789": "post",
  "6790": "abis",
  "6791": " aside",
  "6792": " requirements",
  "6793": "Int",
  "6794": " properties",
  "6795": "rors",
  "6796": " alive",
  "6797": " narrow",
  "6798": " wake",
  "6799": "allas",
  "6800": " passion",
  "6801": " Arch",
  "6802": "onymous",
  "6803": " eating",
  "6804": "ensity",
  "6805": "Or",
  "6806": " mistake",
  "6807": "woman",
  "6808": " explore",
  "6809": " coffee",
  "6810": " Pan",
  "6811": " 1970",
  "6812": " rape",
  "6813": " volume",
  "6814": " promised",
  "6815": " diet",
  "6816": "acking",
  "6817": " risks",
  "6818": " exhib",
  "6819": " Polit",
  "6820": " Fort",
  "6821": " sweet",
  "6822": "May",
  "6823": "’.",
  "6824": " Enter",
  "6825": " Wat",
  "6826": " neut",
  "6827": " involving",
  "6828": " wage",
  "6829": " selection",
  "6830": " Max",
  "6831": " tested",
  "6832": "ether",
  "6833": " flu",
  "6834": "ulture",
  "6835": " defeat",
  "6836": " northern",
  "6837": " reward",
  "6838": " welcome",
  "6839": " Cast",
  "6840": " extended",
  "6841": " puts",
  "6842": " territory",
  "6843": " phenomen",
  "6844": " unemploy",
  "6845": " refugees",
  "6846": " sample",
  "6847": " height",
  "6848": " approximately",
  "6849": " Kevin",
  "6850": " blame",
  "6851": " Brad",
  "6852": " anyway",
  "6853": "59",
  "6854": "ums",
  "6855": " Detroit",
  "6856": " destroyed",
  "6857": "obile",
  "6858": " sho",
  "6859": " impressive",
  "6860": " Stephen",
  "6861": "asks",
  "6862": " god",
  "6863": " proof",
  "6864": " gap",
  "6865": " dry",
  "6866": "�",
  "6867": " crash",
  "6868": " unknown",
  "6869": " locations",
  "6870": " selected",
  "6871": "apse",
  "6872": " west",
  "6873": "anges",
  "6874": "gery",
  "6875": "stone",
  "6876": " Fil",
  "6877": " attacked",
  "6878": "aire",
  "6879": " maximum",
  "6880": " Miller",
  "6881": " Wilson",
  "6882": " Tit",
  "6883": " promote",
  "6884": " shel",
  "6885": "aser",
  "6886": " merely",
  "6887": " franchise",
  "6888": "arry",
  "6889": "04",
  "6890": "lv",
  "6891": " requests",
  "6892": " retire",
  "6893": " suddenly",
  "6894": " slowly",
  "6895": " protesters",
  "6896": " disag",
  "6897": " teacher",
  "6898": "ixt",
  "6899": " typical",
  "6900": "ogan",
  "6901": " Women",
  "6902": " Ins",
  "6903": "dro",
  "6904": "ingu",
  "6905": " conver",
  "6906": "list",
  "6907": "ao",
  "6908": " chose",
  "6909": " Camer",
  "6910": " Class",
  "6911": " Lu",
  "6912": " matches",
  "6913": " prote",
  "6914": " license",
  "6915": " properly",
  "6916": " assume",
  "6917": "oration",
  "6918": " discover",
  "6919": " wid",
  "6920": " PR",
  "6921": " Mic",
  "6922": "Rel",
  "6923": " worried",
  "6924": " moder",
  "6925": "fire",
  "6926": " abortion",
  "6927": "owered",
  "6928": " allies",
  "6929": " oblig",
  "6930": " terrorism",
  "6931": " supports",
  "6932": " �",
  "6933": "uilding",
  "6934": "ÃÂ",
  "6935": "inson",
  "6936": "verty",
  "6937": " arguments",
  "6938": " adapt",
  "6939": " theme",
  "6940": " confront",
  "6941": " facilities",
  "6942": " sustain",
  "6943": "gender",
  "6944": " east",
  "6945": " pal",
  "6946": " recognize",
  "6947": "igure",
  "6948": " fuck",
  "6949": "ÃÂÃÂ",
  "6950": "lies",
  "6951": " equival",
  "6952": " obtained",
  "6953": " poverty",
  "6954": " rub",
  "6955": " Italy",
  "6956": " nomine",
  "6957": "03",
  "6958": " deals",
  "6959": " fees",
  "6960": "alo",
  "6961": "itarian",
  "6962": "osis",
  "6963": " Hollywood",
  "6964": " understood",
  "6965": " controlled",
  "6966": "VER",
  "6967": " Best",
  "6968": " topic",
  "6969": " Dam",
  "6970": " critics",
  "6971": " Society",
  "6972": " Agency",
  "6973": "axy",
  "6974": " Ford",
  "6975": " sole",
  "6976": " Jersey",
  "6977": "arity",
  "6978": " village",
  "6979": " diagn",
  "6980": " Administ",
  "6981": "raid",
  "6982": " likes",
  "6983": "celer",
  "6984": "han",
  "6985": " Four",
  "6986": "sters",
  "6987": "68",
  "6988": " evil",
  "6989": "Te",
  "6990": " punish",
  "6991": " dress",
  "6992": "cript",
  "6993": " ped",
  "6994": " Georgia",
  "6995": " bunch",
  "6996": " Company",
  "6997": " journalists",
  "6998": "John",
  "6999": " exposed",
  "7000": " regions",
  "7001": "redit",
  "7002": "ocation",
  "7003": " communications",
  "7004": " scheme",
  "7005": " transp",
  "7006": " stim",
  "7007": " limits",
  "7008": " somehow",
  "7009": " strongly",
  "7010": " honor",
  "7011": " drag",
  "7012": "aug",
  "7013": " resistance",
  "7014": "lls",
  "7015": " champion",
  "7016": " Labor",
  "7017": " constant",
  "7018": " phase",
  "7019": " NASA",
  "7020": "asts",
  "7021": " Carl",
  "7022": "pool",
  "7023": " profit",
  "7024": " truck",
  "7025": " condem",
  "7026": " escape",
  "7027": " personally",
  "7028": " Night",
  "7029": " Dun",
  "7030": "rimination",
  "7031": " Land",
  "7032": " bid",
  "7033": " NHL",
  "7034": " Stand",
  "7035": " vacc",
  "7036": " deck",
  "7037": "nesota",
  "7038": "iform",
  "7039": " falling",
  "7040": "mo",
  "7041": "GBT",
  "7042": " Network",
  "7043": " somewhere",
  "7044": "ems",
  "7045": "cers",
  "7046": " employee",
  "7047": " harass",
  "7048": "ads",
  "7049": "CA",
  "7050": " bear",
  "7051": "iner",
  "7052": " CD",
  "7053": " comparison",
  "7054": "orted",
  "7055": "ciples",
  "7056": " polls",
  "7057": "owa",
  "7058": " inqu",
  "7059": " Love",
  "7060": "pected",
  "7061": " southern",
  "7062": "oric",
  "7063": " decent",
  "7064": "cow",
  "7065": " Spanish",
  "7066": " encourage",
  "7067": " emissions",
  "7068": " Kn",
  "7069": " 39",
  "7070": " View",
  "7071": "enders",
  "7072": " empty",
  "7073": " Miami",
  "7074": " hits",
  "7075": "oster",
  "7076": " Cam",
  "7077": " definition",
  "7078": " pic",
  "7079": "wan",
  "7080": " directed",
  "7081": "pes",
  "7082": " flex",
  "7083": "zens",
  "7084": " Ok",
  "7085": "57",
  "7086": " meetings",
  "7087": " End",
  "7088": " Bell",
  "7089": "о�",
  "7090": " comprom",
  "7091": " winner",
  "7092": "intend",
  "7093": "aun",
  "7094": "icken",
  "7095": " gotten",
  "7096": " Daniel",
  "7097": " Turk",
  "7098": " electricity",
  "7099": " chosen",
  "7100": " officially",
  "7101": " bench",
  "7102": " stretch",
  "7103": " database",
  "7104": " Despite",
  "7105": " intellect",
  "7106": " spin",
  "7107": "igation",
  "7108": " stronger",
  "7109": " deleg",
  "7110": " purposes",
  "7111": " DNA",
  "7112": "Com",
  "7113": " cutting",
  "7114": " Turn",
  "7115": " fold",
  "7116": "rary",
  "7117": " extensive",
  "7118": " amounts",
  "7119": " desper",
  "7120": " trees",
  "7121": " anx",
  "7122": " ideal",
  "7123": " Asian",
  "7124": " thread",
  "7125": " fifth",
  "7126": "��",
  "7127": "UR",
  "7128": " goods",
  "7129": " colon",
  "7130": " developer",
  "7131": " claiming",
  "7132": "unning",
  "7133": "Any",
  "7134": " retain",
  "7135": " soul",
  "7136": " captured",
  "7137": " Though",
  "7138": " finds",
  "7139": " driven",
  "7140": " payments",
  "7141": "asters",
  "7142": " Jordan",
  "7143": "ras",
  "7144": "CS",
  "7145": " ties",
  "7146": " reasonable",
  "7147": "olt",
  "7148": " dogs",
  "7149": "�",
  "7150": " somebody",
  "7151": " ending",
  "7152": "02",
  "7153": " Nations",
  "7154": " choices",
  "7155": " ble",
  "7156": " seats",
  "7157": " Services",
  "7158": " Thank",
  "7159": " pod",
  "7160": " engage",
  "7161": " drawn",
  "7162": " sight",
  "7163": " param",
  "7164": " Dar",
  "7165": "CE",
  "7166": " threatened",
  "7167": " ruled",
  "7168": "ura",
  "7169": "eping",
  "7170": " Attorney",
  "7171": " Irish",
  "7172": " Sea",
  "7173": " trading",
  "7174": "owed",
  "7175": " primarily",
  "7176": " aspects",
  "7177": " fighters",
  "7178": "ML",
  "7179": " answers",
  "7180": " perfectly",
  "7181": "irms",
  "7182": " Academ",
  "7183": " incl",
  "7184": " rival",
  "7185": " parking",
  "7186": " rejected",
  "7187": " Gall",
  "7188": " constantly",
  "7189": "fast",
  "7190": " Hun",
  "7191": " payment",
  "7192": " Cat",
  "7193": " distinct",
  "7194": "ez",
  "7195": " flying",
  "7196": " Ut",
  "7197": " rig",
  "7198": " technologies",
  "7199": " Real",
  "7200": "</",
  "7201": " components",
  "7202": "Police",
  "7203": " admit",
  "7204": "sm",
  "7205": " Scotland",
  "7206": " elsewhere",
  "7207": " Dark",
  "7208": " constit",
  "7209": " tur",
  "7210": " anymore",
  "7211": "lder",
  "7212": " icon",
  "7213": " fields",
  "7214": " estimates",
  "7215": "EW",
  "7216": "sea",
  "7217": " solutions",
  "7218": " resulting",
  "7219": "78",
  "7220": " Bru",
  "7221": " awesome",
  "7222": " encoun",
  "7223": " province",
  "7224": " worldwide",
  "7225": " actor",
  "7226": " regularly",
  "7227": " Moore",
  "7228": " courts",
  "7229": " narrative",
  "7230": "Once",
  "7231": " boot",
  "7232": " enemies",
  "7233": " mixed",
  "7234": "regon",
  "7235": " OS",
  "7236": "mod",
  "7237": " Disney",
  "7238": "icer",
  "7239": " houses",
  "7240": " nobody",
  "7241": " Sk",
  "7242": "inations",
  "7243": " controls",
  "7244": " Water",
  "7245": " letters",
  "7246": "apes",
  "7247": "agram",
  "7248": "iana",
  "7249": "imp",
  "7250": " 42",
  "7251": " murd",
  "7252": " mayor",
  "7253": " loan",
  "7254": " outcome",
  "7255": " MS",
  "7256": " contem",
  "7257": "sell",
  "7258": "Sec",
  "7259": "vy",
  "7260": "ship",
  "7261": " Light",
  "7262": "onic",
  "7263": "isan",
  "7264": " apartment",
  "7265": " Steven",
  "7266": " coalition",
  "7267": " contributed",
  "7268": " Bas",
  "7269": " tank",
  "7270": " concluded",
  "7271": " Adam",
  "7272": " exists",
  "7273": " Tw",
  "7274": " founder",
  "7275": " Brian",
  "7276": "earing",
  "7277": " Lew",
  "7278": " atmosphere",
  "7279": " profile",
  "7280": " brew",
  "7281": " situations",
  "7282": " Championship",
  "7283": " Author",
  "7284": "rates",
  "7285": " incredible",
  "7286": " Constitution",
  "7287": " signal",
  "7288": "otes",
  "7289": " Rog",
  "7290": " accurate",
  "7291": "300",
  "7292": " Victor",
  "7293": "otten",
  "7294": " unp",
  "7295": " Where",
  "7296": "ker",
  "7297": " Southern",
  "7298": ".\"[",
  "7299": " employment",
  "7300": " clients",
  "7301": "Dr",
  "7302": " keeps",
  "7303": "inity",
  "7304": " informed",
  "7305": " continuing",
  "7306": " baseball",
  "7307": " generate",
  "7308": " ticket",
  "7309": " conven",
  "7310": "Also",
  "7311": " Conf",
  "7312": " weird",
  "7313": " tied",
  "7314": "lock",
  "7315": "adelph",
  "7316": " category",
  "7317": " infect",
  "7318": "ilarly",
  "7319": "acked",
  "7320": " angry",
  "7321": " Organ",
  "7322": " routine",
  "7323": "aron",
  "7324": " kil",
  "7325": " raising",
  "7326": "ifer",
  "7327": " machines",
  "7328": " registered",
  "7329": " proved",
  "7330": "there",
  "7331": " demands",
  "7332": " gaming",
  "7333": " Italian",
  "7334": " incredibly",
  "7335": " crucial",
  "7336": " stuck",
  "7337": " Civil",
  "7338": " Dallas",
  "7339": "cr",
  "7340": " terrible",
  "7341": "MP",
  "7342": " feedback",
  "7343": " upper",
  "7344": " plastic",
  "7345": " imper",
  "7346": " newly",
  "7347": " Joseph",
  "7348": " consumption",
  "7349": " dozen",
  "7350": " enthus",
  "7351": " estate",
  "7352": "ali",
  "7353": "rage",
  "7354": "56",
  "7355": " innoc",
  "7356": " manip",
  "7357": " Tem",
  "7358": " conscious",
  "7359": " bills",
  "7360": " Cross",
  "7361": " Spain",
  "7362": "ifications",
  "7363": "Today",
  "7364": " writers",
  "7365": " excess",
  "7366": "inding",
  "7367": " aggressive",
  "7368": " reporter",
  "7369": " compens",
  "7370": " returning",
  "7371": " stead",
  "7372": " programming",
  "7373": " Thanks",
  "7374": " represented",
  "7375": " conclusion",
  "7376": "98",
  "7377": " rus",
  "7378": " Bowl",
  "7379": " AR",
  "7380": "MS",
  "7381": " origin",
  "7382": " assistant",
  "7383": "adelphia",
  "7384": " roster",
  "7385": " Minnesota",
  "7386": " organized",
  "7387": "ria",
  "7388": " penalty",
  "7389": " drinking",
  "7390": "lers",
  "7391": " paint",
  "7392": " satell",
  "7393": " gro",
  "7394": " Program",
  "7395": " capture",
  "7396": " conspir",
  "7397": " interpret",
  "7398": " explanation",
  "7399": "iscal",
  "7400": " county",
  "7401": "iscons",
  "7402": "essed",
  "7403": "mont",
  "7404": "ima",
  "7405": " %",
  "7406": "anny",
  "7407": "gorith",
  "7408": "emen",
  "7409": "isconsin",
  "7410": " assistance",
  "7411": " Roman",
  "7412": "58",
  "7413": " complaint",
  "7414": " ru",
  "7415": " nut",
  "7416": " magic",
  "7417": " tall",
  "7418": " Oper",
  "7419": "Ed",
  "7420": " granted",
  "7421": "Because",
  "7422": " Contin",
  "7423": "star",
  "7424": "LA",
  "7425": "Off",
  "7426": " Parliament",
  "7427": " complicated",
  "7428": " audio",
  "7429": " chances",
  "7430": " extract",
  "7431": "rypt",
  "7432": " Gi",
  "7433": " 1999",
  "7434": " hel",
  "7435": " Educ",
  "7436": "era",
  "7437": " shares",
  "7438": " successfully",
  "7439": "esy",
  "7440": "........",
  "7441": " IT",
  "7442": " pilot",
  "7443": "zy",
  "7444": " Ep",
  "7445": " Hot",
  "7446": " myth",
  "7447": " recovery",
  "7448": " Test",
  "7449": " techniques",
  "7450": " iron",
  "7451": " Care",
  "7452": " Zeal",
  "7453": " SC",
  "7454": " scenes",
  "7455": " Win",
  "7456": " veteran",
  "7457": " Fre",
  "7458": " ($",
  "7459": " degrees",
  "7460": "actions",
  "7461": "ked",
  "7462": " sympt",
  "7463": "thew",
  "7464": " lawmakers",
  "7465": " western",
  "7466": " operate",
  "7467": " ads",
  "7468": "rating",
  "7469": " habit",
  "7470": " aimed",
  "7471": "Inst",
  "7472": "anchester",
  "7473": " phr",
  "7474": "rep",
  "7475": "rete",
  "7476": " taste",
  "7477": "idency",
  "7478": " engaged",
  "7479": " privile",
  "7480": " 55",
  "7481": "========",
  "7482": " rating",
  "7483": " teaching",
  "7484": " Os",
  "7485": " academic",
  "7486": "itar",
  "7487": " therap",
  "7488": " passes",
  "7489": " dollar",
  "7490": "hent",
  "7491": " automatically",
  "7492": " Pacific",
  "7493": " monit",
  "7494": " blocks",
  "7495": "abama",
  "7496": " attended",
  "7497": " permanent",
  "7498": "uan",
  "7499": " survive",
  "7500": " anticip",
  "7501": " extrem",
  "7502": " enable",
  "7503": " Look",
  "7504": " Foreign",
  "7505": "chain",
  "7506": "%.",
  "7507": " marked",
  "7508": "itals",
  "7509": " hidden",
  "7510": " accomp",
  "7511": " titles",
  "7512": " Senator",
  "7513": " NBC",
  "7514": "aed",
  "7515": " taught",
  "7516": " Linux",
  "7517": " bom",
  "7518": " index",
  "7519": "everal",
  "7520": " elite",
  "7521": "ibilities",
  "7522": " lawyers",
  "7523": "from",
  "7524": " depending",
  "7525": " valuable",
  "7526": " installed",
  "7527": " championship",
  "7528": " root",
  "7529": " compre",
  "7530": " Bull",
  "7531": " downtown",
  "7532": "mal",
  "7533": " equivalent",
  "7534": " solve",
  "7535": "rific",
  "7536": " duty",
  "7537": " Special",
  "7538": " Business",
  "7539": " 64",
  "7540": " pace",
  "7541": "HS",
  "7542": " reputation",
  "7543": " uncertain",
  "7544": " phones",
  "7545": "uine",
  "7546": " overse",
  "7547": "bal",
  "7548": " Taylor",
  "7549": " personnel",
  "7550": " pin",
  "7551": "reams",
  "7552": "aturally",
  "7553": " sufficient",
  "7554": " visited",
  "7555": " warming",
  "7556": " Sn",
  "7557": " principles",
  "7558": " vulnerable",
  "7559": " enjoyed",
  "7560": " fake",
  "7561": " Nick",
  "7562": " advis",
  "7563": " negotiations",
  "7564": "inder",
  "7565": " generated",
  "7566": " exposure",
  "7567": " recording",
  "7568": " collected",
  "7569": " regardless",
  "7570": " dict",
  "7571": "EA",
  "7572": " bitcoin",
  "7573": " elev",
  "7574": "�",
  "7575": "active",
  "7576": " Kelly",
  "7577": " Anth",
  "7578": " cup",
  "7579": " patterns",
  "7580": "Getty",
  "7581": " Take",
  "7582": "))",
  "7583": " Avenue",
  "7584": " Josh",
  "7585": " disaster",
  "7586": " cable",
  "7587": "bro",
  "7588": " 65",
  "7589": " chat",
  "7590": " worker",
  "7591": " mainly",
  "7592": " racial",
  "7593": "quarters",
  "7594": " Coast",
  "7595": " Viet",
  "7596": "month",
  "7597": " pounds",
  "7598": " 150",
  "7599": " Call",
  "7600": " portion",
  "7601": " afraid",
  "7602": " inspir",
  "7603": " Ah",
  "7604": " bes",
  "7605": " defence",
  "7606": " Eastern",
  "7607": "mann",
  "7608": " Tony",
  "7609": " tracks",
  "7610": " busy",
  "7611": " grant",
  "7612": " shit",
  "7613": " intense",
  "7614": " Series",
  "7615": " LGBT",
  "7616": "orne",
  "7617": " Still",
  "7618": "athy",
  "7619": " funny",
  "7620": " apolog",
  "7621": " surgery",
  "7622": " Moscow",
  "7623": " Coll",
  "7624": " possession",
  "7625": " prominent",
  "7626": " Mars",
  "7627": " comic",
  "7628": " Ger",
  "7629": "ashes",
  "7630": "97",
  "7631": "ules",
  "7632": " Ray",
  "7633": " thin",
  "7634": " engineering",
  "7635": " troub",
  "7636": " Kurd",
  "7637": "this",
  "7638": " processes",
  "7639": " Nation",
  "7640": "fall",
  "7641": " Kent",
  "7642": " Come",
  "7643": " entit",
  "7644": " ’",
  "7645": " unusual",
  "7646": "raph",
  "7647": "etary",
  "7648": " describes",
  "7649": "world",
  "7650": "96",
  "7651": " resulted",
  "7652": " emerged",
  "7653": " taxp",
  "7654": " gall",
  "7655": "iler",
  "7656": " dim",
  "7657": " propag",
  "7658": " Iowa",
  "7659": " Oregon",
  "7660": " coordin",
  "7661": " corruption",
  "7662": " stations",
  "7663": " Invest",
  "7664": " fought",
  "7665": " AD",
  "7666": " brut",
  "7667": " extension",
  "7668": "ref",
  "7669": " blind",
  "7670": " adopted",
  "7671": "prise",
  "7672": " compete",
  "7673": " recru",
  "7674": " Zealand",
  "7675": " hadn",
  "7676": "Pr",
  "7677": " 400",
  "7678": " mail",
  "7679": "ye",
  "7680": " everywhere",
  "7681": " Balt",
  "7682": " crypt",
  "7683": "Rec",
  "7684": "Col",
  "7685": "Mean",
  "7686": "herent",
  "7687": "icate",
  "7688": " Ali",
  "7689": " contracts",
  "7690": "front",
  "7691": " Lo",
  "7692": " neuro",
  "7693": " Dead",
  "7694": " Rick",
  "7695": " feelings",
  "7696": " firms",
  "7697": "idelines",
  "7698": "’,",
  "7699": " minority",
  "7700": " spr",
  "7701": "cles",
  "7702": "HA",
  "7703": " advertising",
  "7704": " rarely",
  "7705": "da",
  "7706": " discipl",
  "7707": "making",
  "7708": " Northern",
  "7709": " sanctions",
  "7710": " Veg",
  "7711": "scape",
  "7712": " Philadelphia",
  "7713": "upid",
  "7714": " cameras",
  "7715": " explicit",
  "7716": " strict",
  "7717": "viously",
  "7718": "log",
  "7719": " enorm",
  "7720": " finance",
  "7721": " cited",
  "7722": "ifies",
  "7723": " Before",
  "7724": " shortly",
  "7725": "tes",
  "7726": "gun",
  "7727": "UL",
  "7728": " Policy",
  "7729": " expectations",
  "7730": " implementation",
  "7731": "ogen",
  "7732": " recip",
  "7733": "cling",
  "7734": " Greek",
  "7735": " thick",
  "7736": " thousand",
  "7737": "antic",
  "7738": " Mu",
  "7739": " loud",
  "7740": "istent",
  "7741": " affili",
  "7742": "urrent",
  "7743": "orough",
  "7744": " Navy",
  "7745": " inev",
  "7746": "rell",
  "7747": "cus",
  "7748": " photograph",
  "7749": " medium",
  "7750": "azz",
  "7751": " Wisconsin",
  "7752": " scenario",
  "7753": " Food",
  "7754": " Live",
  "7755": " Hom",
  "7756": " sup",
  "7757": "ilton",
  "7758": " plug",
  "7759": " veget",
  "7760": " ho",
  "7761": " visible",
  "7762": "LC",
  "7763": " lights",
  "7764": "een",
  "7765": " creates",
  "7766": " priority",
  "7767": " ven",
  "7768": " bridge",
  "7769": "eland",
  "7770": "inking",
  "7771": " obst",
  "7772": " agric",
  "7773": "ATE",
  "7774": " permission",
  "7775": " Foot",
  "7776": " algorith",
  "7777": "izon",
  "7778": "Co",
  "7779": "elect",
  "7780": " participate",
  "7781": "aska",
  "7782": " wing",
  "7783": "who",
  "7784": "asion",
  "7785": " browser",
  "7786": " Global",
  "7787": " tag",
  "7788": " Ol",
  "7789": " Has",
  "7790": " mel",
  "7791": " acceler",
  "7792": " dozens",
  "7793": " Kingdom",
  "7794": " historic",
  "7795": " computers",
  "7796": " laid",
  "7797": " basketball",
  "7798": " losses",
  "7799": "text",
  "7800": " Saf",
  "7801": " Ash",
  "7802": "ogether",
  "7803": " unw",
  "7804": "::",
  "7805": " tor",
  "7806": "aus",
  "7807": " Amendment",
  "7808": "Mar",
  "7809": " strikes",
  "7810": " principle",
  "7811": " Development",
  "7812": " formal",
  "7813": "EP",
  "7814": "igen",
  "7815": " scoring",
  "7816": "76",
  "7817": "obs",
  "7818": "athered",
  "7819": " 44",
  "7820": " counsel",
  "7821": "found",
  "7822": "++",
  "7823": " shock",
  "7824": " wonderful",
  "7825": " SP",
  "7826": " behalf",
  "7827": "abs",
  "7828": " uncom",
  "7829": "profit",
  "7830": "enth",
  "7831": " interface",
  "7832": " establishment",
  "7833": " toler",
  "7834": " Henry",
  "7835": " Greg",
  "7836": "amber",
  "7837": "car",
  "7838": " Major",
  "7839": " Thus",
  "7840": "Us",
  "7841": "jo",
  "7842": " gained",
  "7843": " fee",
  "7844": "lete",
  "7845": " founded",
  "7846": "etime",
  "7847": " foundation",
  "7848": "she",
  "7849": " ESP",
  "7850": "ilipp",
  "7851": " clubs",
  "7852": " cannabis",
  "7853": " ju",
  "7854": "54",
  "7855": "52",
  "7856": " airport",
  "7857": " Key",
  "7858": "ystem",
  "7859": " borrow",
  "7860": "olis",
  "7861": "weet",
  "7862": "BO",
  "7863": " manufacturing",
  "7864": " rely",
  "7865": " Hit",
  "7866": " Pay",
  "7867": "uer",
  "7868": " Alabama",
  "7869": " genuine",
  "7870": " Royal",
  "7871": "rators",
  "7872": "Before",
  "7873": " component",
  "7874": " ridic",
  "7875": "osexual",
  "7876": " wheel",
  "7877": "rative",
  "7878": " Oak",
  "7879": " journalist",
  "7880": " relief",
  "7881": " saved",
  "7882": "51",
  "7883": " hole",
  "7884": " yield",
  "7885": " headed",
  "7886": " cyber",
  "7887": " Moh",
  "7888": "ependent",
  "7889": " gift",
  "7890": "bell",
  "7891": " fault",
  "7892": " withdraw",
  "7893": "Ne",
  "7894": " indicate",
  "7895": " drawing",
  "7896": " uniform",
  "7897": "umer",
  "7898": " magn",
  "7899": " Rand",
  "7900": " Vis",
  "7901": "arlier",
  "7902": " stable",
  "7903": " ships",
  "7904": " ->",
  "7905": " banned",
  "7906": " Mid",
  "7907": " footage",
  "7908": "Meanwhile",
  "7909": "rous",
  "7910": " doors",
  "7911": "lan",
  "7912": " recognized",
  "7913": " 1960",
  "7914": " containing",
  "7915": "pread",
  "7916": " FC",
  "7917": " river",
  "7918": "mes",
  "7919": "ami",
  "7920": " struggling",
  "7921": "Sub",
  "7922": " spark",
  "7923": " Academy",
  "7924": " walls",
  "7925": " achieved",
  "7926": "opher",
  "7927": "ounced",
  "7928": " neighb",
  "7929": " plate",
  "7930": " edition",
  "7931": " HT",
  "7932": "portion",
  "7933": "mate",
  "7934": " movements",
  "7935": " deliber",
  "7936": "uce",
  "7937": "teen",
  "7938": "Post",
  "7939": " sharp",
  "7940": " AS",
  "7941": " Snow",
  "7942": "ulating",
  "7943": " Three",
  "7944": " episodes",
  "7945": " neutral",
  "7946": " Premier",
  "7947": " Ret",
  "7948": " Fund",
  "7949": " exception",
  "7950": "etts",
  "7951": " producer",
  "7952": "________________",
  "7953": " Fred",
  "7954": " destruction",
  "7955": " 1998",
  "7956": "oured",
  "7957": " beliefs",
  "7958": " 47",
  "7959": " Review",
  "7960": " legend",
  "7961": " pump",
  "7962": " McG",
  "7963": " backed",
  "7964": "umin",
  "7965": " liked",
  "7966": " hired",
  "7967": "idespread",
  "7968": "cription",
  "7969": "iel",
  "7970": " roles",
  "7971": " languages",
  "7972": " profession",
  "7973": " entering",
  "7974": "osa",
  "7975": " VR",
  "7976": " interviews",
  "7977": " hang",
  "7978": "isp",
  "7979": " tox",
  "7980": "eman",
  "7981": " philosophy",
  "7982": " Administration",
  "7983": " arrange",
  "7984": " Kir",
  "7985": "oen",
  "7986": "interest",
  "7987": " flaw",
  "7988": "Those",
  "7989": " Nob",
  "7990": "sylv",
  "7991": "imore",
  "7992": " stadium",
  "7993": " Atlanta",
  "7994": " Jac",
  "7995": " reduction",
  "7996": " dinner",
  "7997": " bath",
  "7998": " Report",
  "7999": "uper",
  "8000": " Turkish",
  "8001": "400",
  "8002": " aver",
  "8003": " finger",
  "8004": " Note",
  "8005": " Conference",
  "8006": " tackle",
  "8007": " cha",
  "8008": "burgh",
  "8009": " gonna",
  "8010": " Diego",
  "8011": " Point",
  "8012": " crop",
  "8013": " Centre",
  "8014": " farmers",
  "8015": " Manchester",
  "8016": " nominee",
  "8017": " 41",
  "8018": "aching",
  "8019": " Jason",
  "8020": " barely",
  "8021": "ATO",
  "8022": " structures",
  "8023": " contained",
  "8024": " synt",
  "8025": " Ott",
  "8026": " delivery",
  "8027": " convin",
  "8028": " Arm",
  "8029": "ta",
  "8030": "%,",
  "8031": " processing",
  "8032": " discrimination",
  "8033": " incent",
  "8034": "riers",
  "8035": "53",
  "8036": " Fair",
  "8037": "erved",
  "8038": "RS",
  "8039": " Data",
  "8040": "then",
  "8041": "ca",
  "8042": "abinet",
  "8043": "ja",
  "8044": " intellectual",
  "8045": "iy",
  "8046": "ba",
  "8047": " Radio",
  "8048": "amsung",
  "8049": " 46",
  "8050": " Bry",
  "8051": " OK",
  "8052": " Field",
  "8053": " Did",
  "8054": " upset",
  "8055": " Perhaps",
  "8056": "Me",
  "8057": " Education",
  "8058": "sylvania",
  "8059": "away",
  "8060": " Mir",
  "8061": "President",
  "8062": " challenging",
  "8063": " proven",
  "8064": " restrictions",
  "8065": "rik",
  "8066": " forever",
  "8067": "https",
  "8068": "olen",
  "8069": " electronic",
  "8070": " hitting",
  "8071": " Hay",
  "8072": " euro",
  "8073": "ho",
  "8074": " unex",
  "8075": " reviews",
  "8076": " Christians",
  "8077": " 43",
  "8078": " NC",
  "8079": " convicted",
  "8080": "Star",
  "8081": " illness",
  "8082": " smooth",
  "8083": "page",
  "8084": "Dav",
  "8085": " Hor",
  "8086": " retired",
  "8087": " indicated",
  "8088": "usive",
  "8089": " producing",
  "8090": " Fed",
  "8091": " About",
  "8092": " Harry",
  "8093": " rapidly",
  "8094": " rose",
  "8095": " hide",
  "8096": " corporations",
  "8097": "fr",
  "8098": " ocean",
  "8099": " Rus",
  "8100": "aying",
  "8101": "owing",
  "8102": " listening",
  "8103": " Reuters",
  "8104": " UFC",
  "8105": " Sat",
  "8106": " technique",
  "8107": " mo",
  "8108": "yard",
  "8109": "sels",
  "8110": " loyal",
  "8111": " Nic",
  "8112": " Mean",
  "8113": "lessly",
  "8114": " robot",
  "8115": " climb",
  "8116": " notion",
  "8117": " begun",
  "8118": " util",
  "8119": " ren",
  "8120": " recognition",
  "8121": "ouver",
  "8122": "engers",
  "8123": "inf",
  "8124": " perpet",
  "8125": " association",
  "8126": " milk",
  "8127": " asks",
  "8128": "87",
  "8129": " websites",
  "8130": " description",
  "8131": " Pack",
  "8132": " tickets",
  "8133": " Pen",
  "8134": "achus",
  "8135": " flash",
  "8136": " suggesting",
  "8137": "enny",
  "8138": " Judge",
  "8139": " exclusive",
  "8140": " reaching",
  "8141": " bra",
  "8142": "iti",
  "8143": " prepare",
  "8144": " Kansas",
  "8145": "Who",
  "8146": "ione",
  "8147": " bail",
  "8148": " frag",
  "8149": " progressive",
  "8150": " burd",
  "8151": "imm",
  "8152": " exceed",
  "8153": " equally",
  "8154": " Hard",
  "8155": " hardly",
  "8156": " widespread",
  "8157": " ABC",
  "8158": " campaigns",
  "8159": " Mayor",
  "8160": " contribute",
  "8161": "udes",
  "8162": "ologists",
  "8163": " branch",
  "8164": "Look",
  "8165": " Rose",
  "8166": " grass",
  "8167": " initiative",
  "8168": " Market",
  "8169": " ethnic",
  "8170": " external",
  "8171": "ikes",
  "8172": " Circ",
  "8173": "uma",
  "8174": "rient",
  "8175": " sensitive",
  "8176": " practical",
  "8177": "usted",
  "8178": "elf",
  "8179": " unclear",
  "8180": " normally",
  "8181": "Ref",
  "8182": " representative",
  "8183": "pat",
  "8184": "ls",
  "8185": "thon",
  "8186": " welf",
  "8187": " Full",
  "8188": " reducing",
  "8189": "appy",
  "8190": " friendly",
  "8191": "bec",
  "8192": " carefully",
  "8193": " Arabia",
  "8194": "lad",
  "8195": " Ref",
  "8196": " Ly",
  "8197": "89",
  "8198": "PM",
  "8199": " Luc",
  "8200": " racist",
  "8201": " invent",
  "8202": "rical",
  "8203": "ouch",
  "8204": "PG",
  "8205": " CO",
  "8206": " Next",
  "8207": " respectively",
  "8208": "senal",
  "8209": "rator",
  "8210": " tail",
  "8211": " McCain",
  "8212": " Bernie",
  "8213": "ancouver",
  "8214": " overwhelming",
  "8215": " viewers",
  "8216": " Beach",
  "8217": "stract",
  "8218": " welfare",
  "8219": "arrass",
  "8220": " Further",
  "8221": " convinced",
  "8222": "UN",
  "8223": " smoke",
  "8224": "umes",
  "8225": " collapse",
  "8226": " involvement",
  "8227": " Lind",
  "8228": " thrown",
  "8229": "pload",
  "8230": " connections",
  "8231": "heast",
  "8232": " terrorists",
  "8233": " Battle",
  "8234": " strategic",
  "8235": " hook",
  "8236": " 00",
  "8237": " Latin",
  "8238": " recover",
  "8239": "omething",
  "8240": "igrant",
  "8241": " Ont",
  "8242": " wine",
  "8243": "Mc",
  "8244": "inois",
  "8245": " Music",
  "8246": "rolled",
  "8247": " minds",
  "8248": " vital",
  "8249": " settlement",
  "8250": " statistics",
  "8251": " lists",
  "8252": " vary",
  "8253": " featuring",
  "8254": " ESPN",
  "8255": "ecut",
  "8256": "achusetts",
  "8257": " Sir",
  "8258": " behaviour",
  "8259": " independence",
  "8260": " Dig",
  "8261": "worth",
  "8262": " fantasy",
  "8263": " devast",
  "8264": "ester",
  "8265": "nedy",
  "8266": "core",
  "8267": "uties",
  "8268": " invited",
  "8269": " complaints",
  "8270": " joining",
  "8271": " scores",
  "8272": "dem",
  "8273": " fiscal",
  "8274": " deeper",
  "8275": "abil",
  "8276": " Pennsylvania",
  "8277": "ifest",
  "8278": " steal",
  "8279": " anger",
  "8280": " deputy",
  "8281": " elig",
  "8282": " wars",
  "8283": " Square",
  "8284": " Tenn",
  "8285": " investigate",
  "8286": " Town",
  "8287": " sugar",
  "8288": " constitutional",
  "8289": " III",
  "8290": " scholars",
  "8291": " Pit",
  "8292": " iOS",
  "8293": " anybody",
  "8294": " subjects",
  "8295": " AND",
  "8296": " array",
  "8297": " alien",
  "8298": "FA",
  "8299": " Ult",
  "8300": "bn",
  "8301": " Gov",
  "8302": " lobby",
  "8303": " ownership",
  "8304": " framework",
  "8305": " unemployment",
  "8306": " Division",
  "8307": " transgender",
  "8308": " improvements",
  "8309": " SS",
  "8310": " menu",
  "8311": " peak",
  "8312": "Back",
  "8313": " screens",
  "8314": "ihad",
  "8315": " inject",
  "8316": " luck",
  "8317": "iversary",
  "8318": " define",
  "8319": " tasks",
  "8320": " Xbox",
  "8321": " democratic",
  "8322": " scandal",
  "8323": "icking",
  "8324": " jury",
  "8325": "acon",
  "8326": " Anton",
  "8327": " Ministry",
  "8328": "Che",
  "8329": " cos",
  "8330": " comprehens",
  "8331": "osit",
  "8332": " Es",
  "8333": " Kat",
  "8334": " remem",
  "8335": " discovery",
  "8336": "unior",
  "8337": " register",
  "8338": "agg",
  "8339": " casual",
  "8340": " citizen",
  "8341": "RI",
  "8342": " fab",
  "8343": "Sm",
  "8344": "Under",
  "8345": " roads",
  "8346": " disagree",
  "8347": " failing",
  "8348": " Never",
  "8349": " Little",
  "8350": " Jay",
  "8351": " dynamic",
  "8352": " serves",
  "8353": " Cameron",
  "8354": " Brother",
  "8355": " Mah",
  "8356": " testim",
  "8357": " gathered",
  "8358": " Stone",
  "8359": " Information",
  "8360": " soph",
  "8361": "oding",
  "8362": " implemented",
  "8363": " controversy",
  "8364": " collective",
  "8365": " trained",
  "8366": "anna",
  "8367": " NSA",
  "8368": " neighbour",
  "8369": " fears",
  "8370": "leveland",
  "8371": " samples",
  "8372": " fiction",
  "8373": " prosec",
  "8374": " estimate",
  "8375": " Community",
  "8376": " Ice",
  "8377": " Medical",
  "8378": " 1997",
  "8379": " Philipp",
  "8380": " referring",
  "8381": " tip",
  "8382": " captain",
  "8383": "Will",
  "8384": " 1996",
  "8385": " spaces",
  "8386": "69",
  "8387": "cific",
  "8388": " trem",
  "8389": " Walker",
  "8390": " versus",
  "8391": " legs",
  "8392": " Santa",
  "8393": " temporary",
  "8394": "PC",
  "8395": " noise",
  "8396": "'.",
  "8397": " HD",
  "8398": " overt",
  "8399": " incorpor",
  "8400": " tone",
  "8401": " visitors",
  "8402": " reven",
  "8403": " civilians",
  "8404": " wages",
  "8405": " hypot",
  "8406": " sin",
  "8407": " remarks",
  "8408": " awareness",
  "8409": " ON",
  "8410": " Spring",
  "8411": " recommended",
  "8412": " stupid",
  "8413": " Allen",
  "8414": " heading",
  "8415": " handful",
  "8416": " regulation",
  "8417": "icket",
  "8418": " Action",
  "8419": " Core",
  "8420": " platforms",
  "8421": " accus",
  "8422": " Anthony",
  "8423": " affairs",
  "8424": " touchdown",
  "8425": " rural",
  "8426": " attacking",
  "8427": "gener",
  "8428": " extend",
  "8429": " ultimate",
  "8430": " attached",
  "8431": " Vegas",
  "8432": " discussions",
  "8433": " Ren",
  "8434": " horse",
  "8435": " Brew",
  "8436": "mad",
  "8437": " reprodu",
  "8438": " genetic",
  "8439": " expanded",
  "8440": " attempting",
  "8441": "phones",
  "8442": " Matthew",
  "8443": " races",
  "8444": "including",
  "8445": "iry",
  "8446": " Queen",
  "8447": " raw",
  "8448": " ignore",
  "8449": " Columbia",
  "8450": "serv",
  "8451": " Pent",
  "8452": " Guardian",
  "8453": "hour",
  "8454": " Cook",
  "8455": " iP",
  "8456": "itionally",
  "8457": " gear",
  "8458": " symptoms",
  "8459": " Patrick",
  "8460": " suffer",
  "8461": " settings",
  "8462": " Make",
  "8463": "————",
  "8464": "alling",
  "8465": " salary",
  "8466": "case",
  "8467": " licens",
  "8468": " Budd",
  "8469": "mary",
  "8470": "GO",
  "8471": " tweeted",
  "8472": "angel",
  "8473": " publication",
  "8474": " brill",
  "8475": " factory",
  "8476": " suspected",
  "8477": " purchased",
  "8478": "aret",
  "8479": " intervention",
  "8480": " eastern",
  "8481": " holiday",
  "8482": "type",
  "8483": "2014",
  "8484": " theat",
  "8485": "About",
  "8486": " displ",
  "8487": "esh",
  "8488": " ranked",
  "8489": " neck",
  "8490": " Austin",
  "8491": " Conservative",
  "8492": " Museum",
  "8493": "ective",
  "8494": " Roy",
  "8495": "\")",
  "8496": " cro",
  "8497": " enormous",
  "8498": "Sen",
  "8499": "####",
  "8500": "intendo",
  "8501": " cogn",
  "8502": " logic",
  "8503": "ultural",
  "8504": "ictions",
  "8505": " improvement",
  "8506": " API",
  "8507": " viewed",
  "8508": " ingred",
  "8509": " entertainment",
  "8510": "Ass",
  "8511": " legitimate",
  "8512": " Professor",
  "8513": "ommod",
  "8514": " presum",
  "8515": " Albert",
  "8516": " Massachusetts",
  "8517": " Ball",
  "8518": " 2019",
  "8519": " www",
  "8520": "News",
  "8521": " actors",
  "8522": " substantial",
  "8523": " humanity",
  "8524": " involves",
  "8525": " resource",
  "8526": "arms",
  "8527": " brothers",
  "8528": " liquid",
  "8529": " rational",
  "8530": " seemingly",
  "8531": " sorry",
  "8532": " layer",
  "8533": " loans",
  "8534": " rook",
  "8535": " investigating",
  "8536": " absence",
  "8537": " providers",
  "8538": " tomorrow",
  "8539": " fallen",
  "8540": " bureau",
  "8541": " grounds",
  "8542": " coaches",
  "8543": " stake",
  "8544": " resign",
  "8545": " outs",
  "8546": "rec",
  "8547": " advocates",
  "8548": " Ho",
  "8549": " €",
  "8550": "RC",
  "8551": " investigators",
  "8552": " conspiracy",
  "8553": "Where",
  "8554": " medicine",
  "8555": " dramatic",
  "8556": " fulf",
  "8557": " monitor",
  "8558": " Chair",
  "8559": "EST",
  "8560": "repre",
  "8561": " overs",
  "8562": " chapter",
  "8563": " Season",
  "8564": " coc",
  "8565": "oval",
  "8566": "GE",
  "8567": "lah",
  "8568": ".-",
  "8569": " activist",
  "8570": "plete",
  "8571": "ped",
  "8572": " boat",
  "8573": " Check",
  "8574": "aka",
  "8575": " Control",
  "8576": " jur",
  "8577": " suspended",
  "8578": " papers",
  "8579": "Script",
  "8580": " Greece",
  "8581": " opinions",
  "8582": " Such",
  "8583": " Ross",
  "8584": " missile",
  "8585": " Golden",
  "8586": " celeb",
  "8587": " Revolution",
  "8588": "2016",
  "8589": " stayed",
  "8590": " covers",
  "8591": " Ra",
  "8592": " Head",
  "8593": "iverpool",
  "8594": " diversity",
  "8595": "otype",
  "8596": " bars",
  "8597": "Part",
  "8598": " gam",
  "8599": "Russ",
  "8600": " embarrass",
  "8601": "xit",
  "8602": " offices",
  "8603": " Acc",
  "8604": "rets",
  "8605": "ourse",
  "8606": "claim",
  "8607": " Pot",
  "8608": " Iranian",
  "8609": "ammed",
  "8610": " disrupt",
  "8611": "cover",
  "8612": " WW",
  "8613": " preced",
  "8614": " poly",
  "8615": " forest",
  "8616": "wered",
  "8617": " careful",
  "8618": "reprene",
  "8619": "vard",
  "8620": " amid",
  "8621": " History",
  "8622": "hot",
  "8623": " Hospital",
  "8624": "isting",
  "8625": " Ale",
  "8626": " authent",
  "8627": "quest",
  "8628": " Illinois",
  "8629": " CBS",
  "8630": " Sony",
  "8631": "uction",
  "8632": " ham",
  "8633": "79",
  "8634": "geon",
  "8635": "Related",
  "8636": "dit",
  "8637": " Ap",
  "8638": "rine",
  "8639": " transportation",
  "8640": " Vancouver",
  "8641": " Gaza",
  "8642": " handed",
  "8643": " protocol",
  "8644": " consistently",
  "8645": " mountain",
  "8646": " 52",
  "8647": " reads",
  "8648": " Stat",
  "8649": " pref",
  "8650": " clothes",
  "8651": " attitude",
  "8652": "iability",
  "8653": " Share",
  "8654": " Kennedy",
  "8655": " porn",
  "8656": " princip",
  "8657": " Freedom",
  "8658": " depends",
  "8659": " mining",
  "8660": "des",
  "8661": " petition",
  "8662": " noting",
  "8663": " warrant",
  "8664": " conce",
  "8665": " colors",
  "8666": " lowest",
  "8667": " Anderson",
  "8668": " Tri",
  "8669": " addressed",
  "8670": " Family",
  "8671": "72",
  "8672": "unes",
  "8673": "74",
  "8674": " entr",
  "8675": "Ste",
  "8676": " Stadium",
  "8677": "xx",
  "8678": " throwing",
  "8679": " je",
  "8680": " fruit",
  "8681": " virtually",
  "8682": "!)",
  "8683": " stone",
  "8684": " foss",
  "8685": "inch",
  "8686": " guarantee",
  "8687": " referend",
  "8688": "Both",
  "8689": "??",
  "8690": " speaks",
  "8691": " Baltimore",
  "8692": " steel",
  "8693": " closing",
  "8694": "itting",
  "8695": " reader",
  "8696": "dri",
  "8697": "FF",
  "8698": " buff",
  "8699": " personality",
  "8700": "bi",
  "8701": " appreciate",
  "8702": " Cre",
  "8703": " Iraqi",
  "8704": " surf",
  "8705": " Environment",
  "8706": " nerv",
  "8707": "iences",
  "8708": " km",
  "8709": "maker",
  "8710": "keep",
  "8711": " handling",
  "8712": " profits",
  "8713": "ordon",
  "8714": " grav",
  "8715": " marks",
  "8716": "low",
  "8717": " tries",
  "8718": " Broad",
  "8719": " contributions",
  "8720": " Engine",
  "8721": "ropri",
  "8722": "zed",
  "8723": " spiritual",
  "8724": " conversations",
  "8725": " fantastic",
  "8726": " Tro",
  "8727": " lands",
  "8728": " console",
  "8729": " horror",
  "8730": "ila",
  "8731": "ppers",
  "8732": "\".[",
  "8733": "icity",
  "8734": " gains",
  "8735": " covering",
  "8736": " tea",
  "8737": "ivals",
  "8738": " Harris",
  "8739": "Her",
  "8740": " hint",
  "8741": " astron",
  "8742": "aval",
  "8743": " shoulder",
  "8744": "scale",
  "8745": " wrest",
  "8746": " guest",
  "8747": " Ext",
  "8748": " accommod",
  "8749": "uted",
  "8750": "uits",
  "8751": " depression",
  "8752": " CA",
  "8753": " _",
  "8754": " Lewis",
  "8755": " lucky",
  "8756": " Bang",
  "8757": " encouraged",
  "8758": "flix",
  "8759": "amac",
  "8760": " judges",
  "8761": " incidents",
  "8762": " Cleveland",
  "8763": " drew",
  "8764": " subsequent",
  "8765": " spoken",
  "8766": "ira",
  "8767": " Howard",
  "8768": "annels",
  "8769": " Bad",
  "8770": " brown",
  "8771": " bacter",
  "8772": "Please",
  "8773": "ixed",
  "8774": " rhet",
  "8775": " ranks",
  "8776": " Getty",
  "8777": " photograp",
  "8778": " inflation",
  "8779": " inner",
  "8780": " Intelligence",
  "8781": " Po",
  "8782": "mat",
  "8783": " Ba",
  "8784": " maps",
  "8785": "abeth",
  "8786": " Patri",
  "8787": "ported",
  "8788": "ijing",
  "8789": "plate",
  "8790": " divided",
  "8791": " 1995",
  "8792": " NATO",
  "8793": "********",
  "8794": " paralle",
  "8795": " drama",
  "8796": " Mexican",
  "8797": " distributed",
  "8798": " gal",
  "8799": " innovation",
  "8800": " swing",
  "8801": "unicip",
  "8802": " cust",
  "8803": " Unfortunately",
  "8804": " premium",
  "8805": " voter",
  "8806": " permit",
  "8807": " revel",
  "8808": " Kong",
  "8809": " dance",
  "8810": " clim",
  "8811": "pled",
  "8812": " Las",
  "8813": " efficiency",
  "8814": " promises",
  "8815": " Indeed",
  "8816": "Note",
  "8817": " CH",
  "8818": " Which",
  "8819": " ballot",
  "8820": " 51",
  "8821": "eding",
  "8822": "pie",
  "8823": " Adv",
  "8824": " temperatures",
  "8825": " Samsung",
  "8826": " portray",
  "8827": " spokesperson",
  "8828": " locked",
  "8829": " lying",
  "8830": " improving",
  "8831": " threw",
  "8832": " joy",
  "8833": " dump",
  "8834": "Art",
  "8835": " musical",
  "8836": "PP",
  "8837": " mistakes",
  "8838": "dated",
  "8839": " shout",
  "8840": " Start",
  "8841": " homeless",
  "8842": "conf",
  "8843": " replacement",
  "8844": "eries",
  "8845": " comedy",
  "8846": " checks",
  "8847": " Without",
  "8848": " Moon",
  "8849": " instrument",
  "8850": "ounce",
  "8851": " Connect",
  "8852": " acknowledged",
  "8853": " barrel",
  "8854": " responses",
  "8855": " protecting",
  "8856": "backs",
  "8857": " Det",
  "8858": "",
  "8859": " silver",
  "8860": " copies",
  "8861": "heim",
  "8862": " les",
  "8863": " AC",
  "8864": " dad",
  "8865": " breaks",
  "8866": " Plus",
  "8867": " Buff",
  "8868": " commonly",
  "8869": " lets",
  "8870": " legacy",
  "8871": "itage",
  "8872": " mathem",
  "8873": " protein",
  "8874": " joke",
  "8875": "amacare",
  "8876": "erted",
  "8877": "arre",
  "8878": " passengers",
  "8879": "2015",
  "8880": " yellow",
  "8881": " Marvel",
  "8882": "hop",
  "8883": " naturally",
  "8884": "Your",
  "8885": " Scient",
  "8886": " nomination",
  "8887": "Source",
  "8888": " measured",
  "8889": "aping",
  "8890": "oded",
  "8891": "alia",
  "8892": " Use",
  "8893": " abandoned",
  "8894": " mad",
  "8895": " Prince",
  "8896": " studied",
  "8897": "800",
  "8898": " Football",
  "8899": "helsea",
  "8900": " diverse",
  "8901": "argo",
  "8902": " acquired",
  "8903": "ieties",
  "8904": " Lyn",
  "8905": "Cons",
  "8906": "esty",
  "8907": " soil",
  "8908": " Marsh",
  "8909": " demonstrated",
  "8910": " blast",
  "8911": " rear",
  "8912": " funded",
  "8913": " headquarters",
  "8914": "hesis",
  "8915": " stolen",
  "8916": " scan",
  "8917": " counts",
  "8918": " tape",
  "8919": " partnership",
  "8920": " midfield",
  "8921": " NOT",
  "8922": " (“",
  "8923": " upgrade",
  "8924": " Cost",
  "8925": "yo",
  "8926": " Atlantic",
  "8927": " march",
  "8928": " ordinary",
  "8929": " Aud",
  "8930": " Nev",
  "8931": " rom",
  "8932": "aware",
  "8933": " literature",
  "8934": " plain",
  "8935": " stages",
  "8936": " •",
  "8937": " assert",
  "8938": " 1994",
  "8939": "high",
  "8940": " AI",
  "8941": " helpful",
  "8942": " arrive",
  "8943": " exit",
  "8944": " scope",
  "8945": " falls",
  "8946": "dog",
  "8947": "yer",
  "8948": " ignored",
  "8949": "BM",
  "8950": " twenty",
  "8951": "eters",
  "8952": " Master",
  "8953": " clock",
  "8954": " compe",
  "8955": "inction",
  "8956": " virus",
  "8957": " Trib",
  "8958": " referendum",
  "8959": "erg",
  "8960": " inequ",
  "8961": " unions",
  "8962": " Does",
  "8963": "assador",
  "8964": " Gun",
  "8965": " conservatives",
  "8966": " rif",
  "8967": " grid",
  "8968": " symp",
  "8969": " festival",
  "8970": " shopping",
  "8971": " fro",
  "8972": " waters",
  "8973": " Pop",
  "8974": " capabilities",
  "8975": " Bron",
  "8976": " ax",
  "8977": "zing",
  "8978": "iate",
  "8979": "lahoma",
  "8980": " usage",
  "8981": " Hind",
  "8982": "ington",
  "8983": " Empire",
  "8984": "aeda",
  "8985": " Abb",
  "8986": " Indiana",
  "8987": "iley",
  "8988": " transactions",
  "8989": " hoped",
  "8990": " distract",
  "8991": " Ast",
  "8992": " guitar",
  "8993": "VE",
  "8994": " Eag",
  "8995": " sty",
  "8996": " ramp",
  "8997": " assessment",
  "8998": "ctic",
  "8999": " universities",
  "9000": " Dave",
  "9001": " moon",
  "9002": " monitoring",
  "9003": "ormal",
  "9004": "acket",
  "9005": "bridge",
  "9006": " representing",
  "9007": "Facebook",
  "9008": " ratio",
  "9009": " Death",
  "9010": "encing",
  "9011": "ught",
  "9012": " Prov",
  "9013": " conventional",
  "9014": "comes",
  "9015": "UST",
  "9016": "orge",
  "9017": " trave",
  "9018": " Set",
  "9019": " tracking",
  "9020": "door",
  "9021": "ntil",
  "9022": " Sometimes",
  "9023": "only",
  "9024": "shire",
  "9025": " hung",
  "9026": " Sus",
  "9027": " reliable",
  "9028": " tie",
  "9029": " proposals",
  "9030": " skept",
  "9031": " Hell",
  "9032": " replied",
  "9033": " Ros",
  "9034": "fund",
  "9035": "uh",
  "9036": " criticized",
  "9037": " appearances",
  "9038": "rimin",
  "9039": "62",
  "9040": "ecutive",
  "9041": "ela",
  "9042": " Ha",
  "9043": " racism",
  "9044": " insisted",
  "9045": "organ",
  "9046": " introduction",
  "9047": " 2020",
  "9048": " appointed",
  "9049": "dney",
  "9050": " Bureau",
  "9051": "olph",
  "9052": "agic",
  "9053": " Pass",
  "9054": "cut",
  "9055": "Ke",
  "9056": " Line",
  "9057": " beauty",
  "9058": " concrete",
  "9059": " receiver",
  "9060": " supplies",
  "9061": " performing",
  "9062": "made",
  "9063": " bub",
  "9064": " exch",
  "9065": "rite",
  "9066": "63",
  "9067": " visiting",
  "9068": " Technology",
  "9069": " Denver",
  "9070": "ocument",
  "9071": "EE",
  "9072": "omes",
  "9073": " Capt",
  "9074": "theless",
  "9075": "RL",
  "9076": " letting",
  "9077": "AND",
  "9078": " deficit",
  "9079": " classified",
  "9080": " Galaxy",
  "9081": " auto",
  "9082": " render",
  "9083": " absor",
  "9084": " Orig",
  "9085": " swim",
  "9086": " accomplish",
  "9087": " programme",
  "9088": " presidency",
  "9089": "HT",
  "9090": "crib",
  "9091": "61",
  "9092": " blocked",
  "9093": " Sweden",
  "9094": "archy",
  "9095": " dust",
  "9096": " Utah",
  "9097": " drove",
  "9098": " landscape",
  "9099": " cance",
  "9100": " Portland",
  "9101": "plus",
  "9102": " dismissed",
  "9103": " LA",
  "9104": " hyper",
  "9105": " abroad",
  "9106": " bonus",
  "9107": " Jam",
  "9108": " Tour",
  "9109": "har",
  "9110": " sequence",
  "9111": " predicted",
  "9112": " senator",
  "9113": "°",
  "9114": " Age",
  "9115": " domain",
  "9116": " Code",
  "9117": " ec",
  "9118": " museum",
  "9119": " warn",
  "9120": " Associated",
  "9121": "acco",
  "9122": " persons",
  "9123": "NS",
  "9124": " dub",
  "9125": "iano",
  "9126": "ji",
  "9127": "aga",
  "9128": " requested",
  "9129": " trigger",
  "9130": " Ontario",
  "9131": " hockey",
  "9132": " Corpor",
  "9133": " artific",
  "9134": " dates",
  "9135": " testimony",
  "9136": " centers",
  "9137": "л",
  "9138": " rocket",
  "9139": "irts",
  "9140": " ves",
  "9141": " transit",
  "9142": " congressional",
  "9143": " entitled",
  "9144": "ultane",
  "9145": " spokeswoman",
  "9146": " Front",
  "9147": " Nintendo",
  "9148": " Alexander",
  "9149": " rescue",
  "9150": " Cooper",
  "9151": "mony",
  "9152": "ais",
  "9153": " assign",
  "9154": " Bon",
  "9155": " equality",
  "9156": " patch",
  "9157": " urged",
  "9158": " bread",
  "9159": " Olympic",
  "9160": " documentary",
  "9161": " veterans",
  "9162": " clar",
  "9163": "fol",
  "9164": "king",
  "9165": " ”",
  "9166": "pton",
  "9167": " recall",
  "9168": " populations",
  "9169": " Low",
  "9170": " breath",
  "9171": "Still",
  "9172": "rooms",
  "9173": "93",
  "9174": " whenever",
  "9175": " violation",
  "9176": " tactics",
  "9177": " wider",
  "9178": "ounding",
  "9179": " targeting",
  "9180": "94",
  "9181": "Yet",
  "9182": "through",
  "9183": " pursue",
  "9184": "92",
  "9185": " salt",
  "9186": "\">",
  "9187": " lean",
  "9188": "Are",
  "9189": "izabeth",
  "9190": " firing",
  "9191": " Kar",
  "9192": " Mill",
  "9193": " acid",
  "9194": "inating",
  "9195": " mole",
  "9196": " restaurants",
  "9197": " compare",
  "9198": "fare",
  "9199": "Comp",
  "9200": "orous",
  "9201": "ennis",
  "9202": " wedd",
  "9203": " employed",
  "9204": " Roberts",
  "9205": " contrad",
  "9206": " Bible",
  "9207": " politically",
  "9208": "aver",
  "9209": " phrase",
  "9210": " satellite",
  "9211": " Cro",
  "9212": " survival",
  "9213": " retirement",
  "9214": " banking",
  "9215": "73",
  "9216": " Form",
  "9217": " brilliant",
  "9218": "isons",
  "9219": " Girl",
  "9220": "atar",
  "9221": " channels",
  "9222": "71",
  "9223": " servers",
  "9224": " Beijing",
  "9225": " soccer",
  "9226": "trans",
  "9227": " Mach",
  "9228": "they",
  "9229": " introduce",
  "9230": " Justin",
  "9231": " experiments",
  "9232": "enez",
  "9233": " prisoners",
  "9234": "rapped",
  "9235": " cig",
  "9236": " WH",
  "9237": "afe",
  "9238": "jud",
  "9239": " fighter",
  "9240": "600",
  "9241": " scientist",
  "9242": "OK",
  "9243": " YOU",
  "9244": "usalem",
  "9245": " List",
  "9246": " submit",
  "9247": " approached",
  "9248": " Award",
  "9249": " monthly",
  "9250": " Liverpool",
  "9251": " designs",
  "9252": " representatives",
  "9253": " titled",
  "9254": "ordinary",
  "9255": " quote",
  "9256": " popularity",
  "9257": "olves",
  "9258": " abilities",
  "9259": "oenix",
  "9260": " cul",
  "9261": " PD",
  "9262": " membership",
  "9263": " investigations",
  "9264": " focusing",
  "9265": "mans",
  "9266": " bab",
  "9267": " hosp",
  "9268": " Bridge",
  "9269": "Though",
  "9270": " Maryland",
  "9271": " saving",
  "9272": " rush",
  "9273": " Governor",
  "9274": "bow",
  "9275": " shadow",
  "9276": "ouri",
  "9277": " Hur",
  "9278": " Base",
  "9279": " objective",
  "9280": "berry",
  "9281": "emed",
  "9282": " Ted",
  "9283": "erts",
  "9284": "ederation",
  "9285": " mit",
  "9286": " prepar",
  "9287": " tips",
  "9288": " Was",
  "9289": " pipeline",
  "9290": "David",
  "9291": " childhood",
  "9292": "ika",
  "9293": " ratings",
  "9294": " thorough",
  "9295": " entreprene",
  "9296": "enter",
  "9297": " Vill",
  "9298": " Dutch",
  "9299": "was",
  "9300": "break",
  "9301": " actively",
  "9302": " Harvard",
  "9303": " pig",
  "9304": " demanding",
  "9305": " loose",
  "9306": "asty",
  "9307": " unexpected",
  "9308": " smoking",
  "9309": " smell",
  "9310": " deny",
  "9311": "CO",
  "9312": " universal",
  "9313": " forecast",
  "9314": " argues",
  "9315": "don",
  "9316": " phenomenon",
  "9317": " overseas",
  "9318": "olds",
  "9319": " settled",
  "9320": "walk",
  "9321": " Beck",
  "9322": " generations",
  "9323": " weekly",
  "9324": " chicken",
  "9325": " preparing",
  "9326": " 95",
  "9327": " smartphone",
  "9328": " producers",
  "9329": " butt",
  "9330": " PA",
  "9331": " legislative",
  "9332": " anxiety",
  "9333": " disturb",
  "9334": " Have",
  "9335": " innocent",
  "9336": "minute",
  "9337": " Click",
  "9338": " mortg",
  "9339": " celebrate",
  "9340": "Dem",
  "9341": "iki",
  "9342": " Ur",
  "9343": " provision",
  "9344": " DO",
  "9345": " keys",
  "9346": "ded",
  "9347": " shame",
  "9348": " arguing",
  "9349": " Design",
  "9350": "held",
  "9351": " questioned",
  "9352": " forcing",
  "9353": " Cow",
  "9354": " Hop",
  "9355": "ompson",
  "9356": "agh",
  "9357": "�",
  "9358": " broader",
  "9359": " encounter",
  "9360": "mers",
  "9361": "SL",
  "9362": " flags",
  "9363": " fool",
  "9364": " mac",
  "9365": " 53",
  "9366": " deadly",
  "9367": " fur",
  "9368": " reverse",
  "9369": "oz",
  "9370": " weigh",
  "9371": " Edward",
  "9372": " Among",
  "9373": " tens",
  "9374": " ~",
  "9375": " mos",
  "9376": " wealthy",
  "9377": " Obamacare",
  "9378": " unpre",
  "9379": "eals",
  "9380": " maintained",
  "9381": " surely",
  "9382": " shield",
  "9383": " Prop",
  "9384": "ocolate",
  "9385": "oret",
  "9386": " secondary",
  "9387": "aved",
  "9388": "isa",
  "9389": "Sim",
  "9390": " savings",
  "9391": "irlf",
  "9392": " roof",
  "9393": " stability",
  "9394": " civilian",
  "9395": " tab",
  "9396": "ă",
  "9397": "elson",
  "9398": " Carter",
  "9399": " reveals",
  "9400": "mind",
  "9401": " alarm",
  "9402": " mini",
  "9403": "ois",
  "9404": " anniversary",
  "9405": " sorts",
  "9406": " Bra",
  "9407": " Ak",
  "9408": "aa",
  "9409": "vernment",
  "9410": "El",
  "9411": " tonight",
  "9412": "84",
  "9413": " releases",
  "9414": " Hon",
  "9415": " rooms",
  "9416": "irlfriend",
  "9417": "isk",
  "9418": " Gulf",
  "9419": " outrage",
  "9420": " prosecutors",
  "9421": " Left",
  "9422": "inals",
  "9423": " disorder",
  "9424": " exha",
  "9425": "orious",
  "9426": " shr",
  "9427": " relax",
  "9428": " windows",
  "9429": " threatening",
  "9430": " differently",
  "9431": " harassment",
  "9432": " quoted",
  "9433": " healthcare",
  "9434": " submitted",
  "9435": " arbit",
  "9436": " lunch",
  "9437": "step",
  "9438": " Run",
  "9439": " reforms",
  "9440": " torture",
  "9441": "rection",
  "9442": " fate",
  "9443": " stored",
  "9444": " Belg",
  "9445": " okay",
  "9446": " propaganda",
  "9447": " spots",
  "9448": " instructions",
  "9449": " Vietnam",
  "9450": " sevent",
  "9451": " rounds",
  "9452": " odds",
  "9453": "itter",
  "9454": " 1992",
  "9455": " aer",
  "9456": "html",
  "9457": "tenance",
  "9458": " errors",
  "9459": "ested",
  "9460": " Oklahoma",
  "9461": " hydro",
  "9462": "icism",
  "9463": "GA",
  "9464": " delic",
  "9465": "ailed",
  "9466": " Liberal",
  "9467": " silence",
  "9468": " Graham",
  "9469": "acts",
  "9470": " Warren",
  "9471": " graduate",
  "9472": " Sab",
  "9473": "pa",
  "9474": " affordable",
  "9475": " circle",
  "9476": "sect",
  "9477": " Bloom",
  "9478": " cooperation",
  "9479": " picks",
  "9480": " sear",
  "9481": "itary",
  "9482": " Sarah",
  "9483": " Fall",
  "9484": "orship",
  "9485": " Expl",
  "9486": " striking",
  "9487": " puzz",
  "9488": " persu",
  "9489": " streaming",
  "9490": " comprehensive",
  "9491": "race",
  "9492": "omed",
  "9493": " importantly",
  "9494": " cow",
  "9495": " possess",
  "9496": "Watch",
  "9497": " fing",
  "9498": " execution",
  "9499": " Ruby",
  "9500": "lined",
  "9501": "rows",
  "9502": " intim",
  "9503": " struggled",
  "9504": " Person",
  "9505": " assass",
  "9506": " Silver",
  "9507": " Leader",
  "9508": "uten",
  "9509": "ahu",
  "9510": " gent",
  "9511": " Price",
  "9512": "Reuters",
  "9513": "Ty",
  "9514": "ishop",
  "9515": " deserve",
  "9516": " Jerusalem",
  "9517": " landing",
  "9518": " calm",
  "9519": " alter",
  "9520": " ceremony",
  "9521": " assumed",
  "9522": " demonstrate",
  "9523": " difficulty",
  "9524": " ages",
  "9525": " pron",
  "9526": " dying",
  "9527": " hal",
  "9528": " distingu",
  "9529": "asury",
  "9530": " stepped",
  "9531": " borders",
  "9532": " chest",
  "9533": "ethe",
  "9534": " Wolf",
  "9535": " Lt",
  "9536": " adventure",
  "9537": " pointing",
  "9538": "ova",
  "9539": " waves",
  "9540": "atern",
  "9541": " kilomet",
  "9542": "essee",
  "9543": "ierce",
  "9544": " Netflix",
  "9545": " autonom",
  "9546": " precisely",
  "9547": " architecture",
  "9548": " greatly",
  "9549": " promising",
  "9550": " consent",
  "9551": "bury",
  "9552": " consideration",
  "9553": " Ten",
  "9554": " Deb",
  "9555": " drives",
  "9556": " dialogue",
  "9557": " Main",
  "9558": " tremend",
  "9559": "asant",
  "9560": " newsletter",
  "9561": " rookie",
  "9562": "83",
  "9563": " awarded",
  "9564": " Meanwhile",
  "9565": "after",
  "9566": " repeat",
  "9567": " Story",
  "9568": " contribution",
  "9569": " Tele",
  "9570": "iac",
  "9571": " burning",
  "9572": "iev",
  "9573": "party",
  "9574": " simultane",
  "9575": " Scottish",
  "9576": " Vice",
  "9577": " donations",
  "9578": " Indust",
  "9579": "akh",
  "9580": " interf",
  "9581": "itol",
  "9582": " Magic",
  "9583": " voices",
  "9584": " analyst",
  "9585": " Bruce",
  "9586": " Tech",
  "9587": "ceptions",
  "9588": " gif",
  "9589": " frequency",
  "9590": " Common",
  "9591": " procedure",
  "9592": " wanting",
  "9593": " Pres",
  "9594": "omy",
  "9595": " executives",
  "9596": " playoffs",
  "9597": " Bud",
  "9598": "lee",
  "9599": "oice",
  "9600": " staying",
  "9601": "apolis",
  "9602": " birds",
  "9603": " bias",
  "9604": "VD",
  "9605": " Hong",
  "9606": " Az",
  "9607": "izer",
  "9608": " inches",
  "9609": " trillion",
  "9610": "holders",
  "9611": " highlights",
  "9612": " semi",
  "9613": " remarkable",
  "9614": " whereas",
  "9615": "EX",
  "9616": "ributes",
  "9617": " Palestinians",
  "9618": " knee",
  "9619": "open",
  "9620": " Jonathan",
  "9621": " ans",
  "9622": "raig",
  "9623": " implications",
  "9624": "scribe",
  "9625": " formation",
  "9626": " superior",
  "9627": " strategies",
  "9628": "itual",
  "9629": " Berlin",
  "9630": "Step",
  "9631": " Link",
  "9632": "stal",
  "9633": "div",
  "9634": " Sydney",
  "9635": " MORE",
  "9636": " categories",
  "9637": " Ark",
  "9638": " fet",
  "9639": " followers",
  "9640": " cream",
  "9641": "Story",
  "9642": "portation",
  "9643": "FO",
  "9644": " contacted",
  "9645": "Ms",
  "9646": " judgment",
  "9647": "annon",
  "9648": " smile",
  "9649": " info",
  "9650": " emerging",
  "9651": "igious",
  "9652": "rif",
  "9653": "js",
  "9654": "onder",
  "9655": "bered",
  "9656": "yes",
  "9657": "vision",
  "9658": " Eff",
  "9659": "vertisements",
  "9660": "iffs",
  "9661": "hatt",
  "9662": " accessible",
  "9663": " crimin",
  "9664": "TP",
  "9665": " physically",
  "9666": " assigned",
  "9667": " 54",
  "9668": " Andre",
  "9669": " guidelines",
  "9670": " defeated",
  "9671": " wounded",
  "9672": " trials",
  "9673": " stem",
  "9674": " managing",
  "9675": " spell",
  "9676": " ministry",
  "9677": " grade",
  "9678": " coinc",
  "9679": " riding",
  "9680": " indicates",
  "9681": " centuries",
  "9682": " Som",
  "9683": "Christ",
  "9684": "cest",
  "9685": " Affairs",
  "9686": " opens",
  "9687": "aki",
  "9688": " pharm",
  "9689": "lla",
  "9690": "->",
  "9691": " meaningful",
  "9692": " tiss",
  "9693": "erent",
  "9694": " Mrs",
  "9695": " ease",
  "9696": "child",
  "9697": " margin",
  "9698": " Store",
  "9699": " clothing",
  "9700": " Tes",
  "9701": " −",
  "9702": " Six",
  "9703": " Capital",
  "9704": " participation",
  "9705": "cedented",
  "9706": "Mus",
  "9707": " revers",
  "9708": "aria",
  "9709": " poison",
  "9710": " Brexit",
  "9711": " 120",
  "9712": " Yemen",
  "9713": " lapt",
  "9714": " competing",
  "9715": " memories",
  "9716": " CS",
  "9717": " theories",
  "9718": " recipe",
  "9719": " gross",
  "9720": "umble",
  "9721": "author",
  "9722": "hard",
  "9723": " passage",
  "9724": "sl",
  "9725": " aged",
  "9726": " Credit",
  "9727": " bin",
  "9728": " drone",
  "9729": " blank",
  "9730": " dispute",
  "9731": " damaged",
  "9732": " 1993",
  "9733": "van",
  "9734": " Hamilton",
  "9735": " Lam",
  "9736": "base",
  "9737": " substance",
  "9738": " hosted",
  "9739": "TER",
  "9740": "Google",
  "9741": " Chelsea",
  "9742": " promoting",
  "9743": " facilit",
  "9744": " openly",
  "9745": " Instagram",
  "9746": " 1950",
  "9747": " Vik",
  "9748": "View",
  "9749": " Children",
  "9750": " Crime",
  "9751": " clinical",
  "9752": "Out",
  "9753": " nic",
  "9754": "eremy",
  "9755": " Hold",
  "9756": "even",
  "9757": "bits",
  "9758": " investments",
  "9759": " consensus",
  "9760": "igate",
  "9761": " Leon",
  "9762": " Fal",
  "9763": " 99",
  "9764": " educational",
  "9765": "ito",
  "9766": "ses",
  "9767": "const",
  "9768": " dish",
  "9769": " manifest",
  "9770": " custody",
  "9771": "week",
  "9772": " eligible",
  "9773": " Hawai",
  "9774": " legally",
  "9775": " missions",
  "9776": " endorse",
  "9777": " gate",
  "9778": "eria",
  "9779": " memo",
  "9780": " GT",
  "9781": " tables",
  "9782": " Pict",
  "9783": " nin",
  "9784": " studying",
  "9785": "Hz",
  "9786": " ?",
  "9787": " charity",
  "9788": "aration",
  "9789": " addresses",
  "9790": "adi",
  "9791": " inspect",
  "9792": " discount",
  "9793": "rix",
  "9794": "left",
  "9795": " battles",
  "9796": "ALL",
  "9797": " Der",
  "9798": " 250",
  "9799": " Assembly",
  "9800": " athletes",
  "9801": "Pre",
  "9802": " Trade",
  "9803": " fossil",
  "9804": " enthusi",
  "9805": " Management",
  "9806": " suspects",
  "9807": " tired",
  "9808": " helic",
  "9809": "Act",
  "9810": " counterpart",
  "9811": " na",
  "9812": "82",
  "9813": "achel",
  "9814": " dating",
  "9815": " Eth",
  "9816": " spectrum",
  "9817": " Metro",
  "9818": "ateral",
  "9819": " Station",
  "9820": " Bal",
  "9821": " presentation",
  "9822": " lux",
  "9823": "gered",
  "9824": "arts",
  "9825": " bottle",
  "9826": " tap",
  "9827": "riors",
  "9828": " vig",
  "9829": " fundra",
  "9830": " enhance",
  "9831": "assy",
  "9832": " Sean",
  "9833": " therapy",
  "9834": " Wales",
  "9835": " Exper",
  "9836": " perceived",
  "9837": "market",
  "9838": " Tok",
  "9839": " dominant",
  "9840": "Def",
  "9841": "math",
  "9842": " backing",
  "9843": " Festival",
  "9844": " underlying",
  "9845": " defending",
  "9846": " Through",
  "9847": " racing",
  "9848": " discussing",
  "9849": " burden",
  "9850": " expanding",
  "9851": " muscle",
  "9852": " stops",
  "9853": "uz",
  "9854": " beings",
  "9855": " Marx",
  "9856": " Equ",
  "9857": " transaction",
  "9858": " Uber",
  "9859": "Cal",
  "9860": " recruit",
  "9861": "itudes",
  "9862": "acher",
  "9863": " Gary",
  "9864": " mood",
  "9865": " picking",
  "9866": "lando",
  "9867": "ylum",
  "9868": "player",
  "9869": " managers",
  "9870": "orable",
  "9871": " gathering",
  "9872": " hopefully",
  "9873": "angle",
  "9874": " Son",
  "9875": "alysis",
  "9876": " Video",
  "9877": "section",
  "9878": " crus",
  "9879": " Libya",
  "9880": " impression",
  "9881": " hip",
  "9882": "olar",
  "9883": "â",
  "9884": " scrut",
  "9885": " roy",
  "9886": " Tai",
  "9887": "igenous",
  "9888": " institution",
  "9889": " Batman",
  "9890": "}}",
  "9891": " stere",
  "9892": " procedures",
  "9893": "ñ",
  "9894": " pocket",
  "9895": " creatures",
  "9896": " compat",
  "9897": " arrival",
  "9898": "ptions",
  "9899": "oln",
  "9900": "watch",
  "9901": " Boe",
  "9902": " eager",
  "9903": " pollution",
  "9904": "iture",
  "9905": " foods",
  "9906": " kitchen",
  "9907": "ocial",
  "9908": " recre",
  "9909": " surviv",
  "9910": "roph",
  "9911": " organic",
  "9912": " Pentagon",
  "9913": " Morgan",
  "9914": " shipping",
  "9915": " capitalism",
  "9916": " insult",
  "9917": " timing",
  "9918": "sub",
  "9919": "odox",
  "9920": " requirement",
  "9921": " unfair",
  "9922": "aders",
  "9923": " 56",
  "9924": " mice",
  "9925": " Assad",
  "9926": "Rem",
  "9927": " Represent",
  "9928": " Mess",
  "9929": " MLS",
  "9930": "bing",
  "9931": "atively",
  "9932": " Elizabeth",
  "9933": " Op",
  "9934": " diseases",
  "9935": " industries",
  "9936": " Oakland",
  "9937": "dy",
  "9938": " bowl",
  "9939": " Murray",
  "9940": " Creat",
  "9941": "Mod",
  "9942": " sed",
  "9943": " helicop",
  "9944": " divor",
  "9945": "agger",
  "9946": " beach",
  "9947": " punishment",
  "9948": "abet",
  "9949": " shell",
  "9950": "***",
  "9951": " fled",
  "9952": " hospitals",
  "9953": "missions",
  "9954": " tons",
  "9955": " Kick",
  "9956": " seed",
  "9957": "ogy",
  "9958": "AF",
  "9959": "81",
  "9960": " Comey",
  "9961": "opyright",
  "9962": " statist",
  "9963": " engineers",
  "9964": " obsc",
  "9965": " hire",
  "9966": " module",
  "9967": "Reg",
  "9968": "AY",
  "9969": "amous",
  "9970": " coaching",
  "9971": "oca",
  "9972": " answered",
  "9973": "rac",
  "9974": "SC",
  "9975": "TR",
  "9976": " graphics",
  "9977": " regulatory",
  "9978": " sovere",
  "9979": " stance",
  "9980": "alties",
  "9981": " bow",
  "9982": " Keep",
  "9983": "Click",
  "9984": " explaining",
  "9985": " rhetoric",
  "9986": " beating",
  "9987": " Friend",
  "9988": " tut",
  "9989": " Email",
  "9990": "rior",
  "9991": " Yeah",
  "9992": " Mit",
  "9993": "emic",
  "9994": " acknowledge",
  "9995": " Michel",
  "9996": " principal",
  "9997": " pulling",
  "9998": "erves",
  "9999": " signature",
  "10000": "brid",
  "10001": "olving",
  "10002": " convince",
  "10003": " Roll",
  "10004": " variable",
  "10005": "cosystem",
  "10006": " pill",
  "10007": " searching",
  "10008": " Ox",
  "10009": " dies",
  "10010": " overcome",
  "10011": " preferred",
  "10012": "duction",
  "10013": " sixth",
  "10014": " adviser",
  "10015": " Tennessee",
  "10016": " trends",
  "10017": " !",
  "10018": " Russell",
  "10019": " (\"",
  "10020": " Thompson",
  "10021": "Ge",
  "10022": " merch",
  "10023": " rebels",
  "10024": " interaction",
  "10025": " periods",
  "10026": " Yan",
  "10027": " psychological",
  "10028": "ds",
  "10029": "Mich",
  "10030": " Sure",
  "10031": " Using",
  "10032": " economics",
  "10033": " Charlie",
  "10034": " Bi",
  "10035": " outlets",
  "10036": " Gil",
  "10037": " Intel",
  "10038": " signals",
  "10039": "pg",
  "10040": " echo",
  "10041": " Executive",
  "10042": " Kentucky",
  "10043": " tempor",
  "10044": " billions",
  "10045": " lineup",
  "10046": " math",
  "10047": "2013",
  "10048": " 1991",
  "10049": " setup",
  "10050": " rend",
  "10051": "Finally",
  "10052": "netic",
  "10053": " eggs",
  "10054": "ui",
  "10055": "Comm",
  "10056": " segment",
  "10057": " arr",
  "10058": "mic",
  "10059": " badly",
  "10060": "kee",
  "10061": " Li",
  "10062": " sentenced",
  "10063": " everyday",
  "10064": " Dragon",
  "10065": " commander",
  "10066": " Holl",
  "10067": " AN",
  "10068": " loves",
  "10069": "unicipal",
  "10070": " genes",
  "10071": "NBC",
  "10072": " bold",
  "10073": " requiring",
  "10074": " bullet",
  "10075": " invasion",
  "10076": "will",
  "10077": " partly",
  "10078": " escal",
  "10079": "91",
  "10080": " instant",
  "10081": " gig",
  "10082": " Jean",
  "10083": "check",
  "10084": " arts",
  "10085": " gene",
  "10086": " removal",
  "10087": " undert",
  "10088": " upload",
  "10089": "liest",
  "10090": " Hart",
  "10091": " topics",
  "10092": " Iron",
  "10093": "enezuel",
  "10094": " inquiry",
  "10095": " amendment",
  "10096": " weakness",
  "10097": " Rather",
  "10098": "news",
  "10099": " concepts",
  "10100": " Ze",
  "10101": " McK",
  "10102": "PL",
  "10103": " shoes",
  "10104": "arted",
  "10105": " Sound",
  "10106": " fabric",
  "10107": "izza",
  "10108": " Delhi",
  "10109": "Earlier",
  "10110": "tsburgh",
  "10111": " frequent",
  "10112": " sections",
  "10113": " occurs",
  "10114": "oli",
  "10115": " migrants",
  "10116": " compensation",
  "10117": " engineer",
  "10118": "eness",
  "10119": " lad",
  "10120": "has",
  "10121": " Finally",
  "10122": " fo",
  "10123": " attractive",
  "10124": " Box",
  "10125": " unve",
  "10126": "instein",
  "10127": " ).",
  "10128": " citing",
  "10129": " tweets",
  "10130": " utility",
  "10131": "arency",
  "10132": "grade",
  "10133": "cor",
  "10134": " posting",
  "10135": " ridiculous",
  "10136": " blockchain",
  "10137": " cler",
  "10138": " Clark",
  "10139": " speaker",
  "10140": "─",
  "10141": " diam",
  "10142": "ا",
  "10143": " corrupt",
  "10144": " talented",
  "10145": " lect",
  "10146": " collaps",
  "10147": " mask",
  "10148": "‐",
  "10149": "necess",
  "10150": "screen",
  "10151": " notable",
  "10152": " Therefore",
  "10153": " elder",
  "10154": " genre",
  "10155": " deadline",
  "10156": " rolling",
  "10157": " carries",
  "10158": " BM",
  "10159": "Top",
  "10160": " Final",
  "10161": "via",
  "10162": " ET",
  "10163": "ental",
  "10164": " approaches",
  "10165": " eliminate",
  "10166": " Priv",
  "10167": "ele",
  "10168": " analysts",
  "10169": " sits",
  "10170": " cens",
  "10171": "State",
  "10172": " instances",
  "10173": " Simon",
  "10174": " publishing",
  "10175": " unprecedented",
  "10176": " colour",
  "10177": " roots",
  "10178": " Phoenix",
  "10179": "VP",
  "10180": " cock",
  "10181": " bene",
  "10182": " Psych",
  "10183": " toxic",
  "10184": " collaboration",
  "10185": " arc",
  "10186": " inequality",
  "10187": "gus",
  "10188": " neighbors",
  "10189": " insight",
  "10190": " dramatically",
  "10191": " Harper",
  "10192": " homosexual",
  "10193": " towns",
  "10194": " prize",
  "10195": " extraordinary",
  "10196": " perception",
  "10197": " Gordon",
  "10198": " Whether",
  "10199": " Phill",
  "10200": " parad",
  "10201": "arget",
  "10202": " gest",
  "10203": " maintenance",
  "10204": "owski",
  "10205": "rowing",
  "10206": " GO",
  "10207": " Gro",
  "10208": " cheaper",
  "10209": "isdom",
  "10210": " associate",
  "10211": " coup",
  "10212": "Mark",
  "10213": " Event",
  "10214": " sheet",
  "10215": " Bow",
  "10216": " Below",
  "10217": " Sav",
  "10218": " Captain",
  "10219": "pack",
  "10220": " cognitive",
  "10221": " encouraging",
  "10222": " dreams",
  "10223": " Pers",
  "10224": " seized",
  "10225": " interviewed",
  "10226": " deployed",
  "10227": " violations",
  "10228": " camps",
  "10229": " comics",
  "10230": " constitu",
  "10231": " Reagan",
  "10232": " reserved",
  "10233": " buck",
  "10234": " employers",
  "10235": " aims",
  "10236": "atus",
  "10237": " functional",
  "10238": " mystery",
  "10239": " displayed",
  "10240": "iban",
  "10241": "Paul",
  "10242": " span",
  "10243": " loop",
  "10244": " delight",
  "10245": "apore",
  "10246": "cre",
  "10247": " traged",
  "10248": " Sa",
  "10249": " Economic",
  "10250": "ixture",
  "10251": " 57",
  "10252": "ricane",
  "10253": " glad",
  "10254": " occasionally",
  "10255": " vend",
  "10256": " export",
  "10257": "TON",
  "10258": " birthday",
  "10259": " heroes",
  "10260": " fatal",
[...]
